FFFF
0000
FFFF
0003
FFFF
0002
FFFD
0000
FFFE
FFFD
0003
FFFC
FFFE
0001
FFFE
0000
0003
0000
FFFF
FFFD
0002
0003
FFFE
0000
FFFC
FFFD
0002
FFFE
0004
FFFF
0000
FFFE
0003
0000
FFFF
0000
0002
0004
0002
0000
0000
0001
FFFF
0002
FFFF
0001
FFFE
0001
0000
FFFF
0000
0000
0000
FFFE
FFFE
0001
0003
0000
0000
FFFD
0003
0000
FFFE
FFFD
0002
0000
FFFE
0001
0003
0000
0002
FFFD
0003
0001
0003
0000
0000
0000
0002
FFFF
0000
0000
FFFC
FFFF
FFFF
FFFD
FFFF
FFFC
FFFD
FFFF
0003
0000
0002
0003
FFFF
0002
0002
0002
0000
0000
0000
0000
FFFE
0001
0000
FFFE
FFFC
FFFE
0001
FFFD
0004
FFFF
0003
0003
FFFE
0001
0003
FFFE
FFFD
FFFE
FFFD
0004
0004
0002
0001
0002
FFFF
0000
0000
0000
FFFC
0003
0000
0000
FFFC
0002
0003
0000
FFFF
0002
FFFD
FFFE
FFFC
FFFE
FFFE
FFFC
0001
0002
0000
FFFE
0001
FFFE
FFFE
FFFD
FFFD
0002
0002
FFFC
FFFF
0003
FFFF
0003
0001
0000
0001
FFFD
0000
0000
0003
0000
0004
0002
0001
FFFD
0000
0001
0000
0001
FFFE
0003
0002
0000
FFFE
0000
FFFE
0001
0000
0000
0002
FFFE
0000
0003
FFFE
FFFD
0000
FFFE
0001
FFFD
0000
0000
0000
0000
0000
0000
0000
0000
0000
0000
0000
0001
0001
FFFF
0003
0003
0003
0003
FFFD
0004
FFFB
0001
FFFD
0003
FFFD
0000
FFFE
0000
FFFC
0000
0001
0001
0002
FFFD
0001
0002
FFFE
FFFF
FFFF
0000
0005
0002
0000
0000
0000
0000
0001
0000
0000
FFFD
0002
0000
0001
FFFC
0004
FFFF
0000
FFFD
0000
0000
0001
FFFC
0001
FFFE
0002
FFFF
0003
0000
0000
0004
0003
0000
0000
FFFE
FFFD
FFFD
0004
FFFF
0001
0000
0000
0002
FFFD
0001
FFFF
FFFC
0000
0000
0000
FFFE
FFFE
0000
FFFD
0004
0000
0003
0000
FFFF
0003
0002
0001
0000
0000
0002
0000
FFFE
0002
0003
FFFC
FFFD
0000
FFFF
FFFD
0000
0000
FFFC
FFFE
0003
FFFE
0000
0000
0002
FFFE
0003
0002
0003
0004
0003
FFFE
0002
FFFD
0000
FFFF
FFFD
0001
FFFF
0000
0003
0004
FFFE
0000
0003
0003
0000
0000
0003
FFFD
FFFD
0000
0003
FFFD
FFFC
0002
FFFD
0002
FFFC
0002
0000
0002
FFFC
FFFB
0000
0002
0000
FFFD
FFFD
0000
0003
0001
0003
FFFD
FFFF
0003
FFFD
FFFE
FFFC
FFFC
0001
FFFD
FFFF
0003
0001
0003
0002
FFFE
FFFF
0001
FFFC
0004
0003
FFFF
0003
0002
0003
0003
FFFE
0001
FFFE
FFFF
0000
FFFF
0003
0000
FFFF
FFFD
0001
FFFB
FFFE
0000
0000
0000
0000
0000
0000
0000
0000
0000
0000
0000
0001
FFFC
FFFF
FFFD
FFFF
FFFE
0000
0001
0002
FFFC
0000
FFFF
FFFF
FFFD
FFFE
0000
0000
FFFC
0004
FFFF
0000
0004
FFFE
0001
FFFF
0002
FFFD
FFFF
0000
0000
FFFF
0000
FFFF
FFFF
FFFC
FFFD
0000
0004
FFFF
0003
0002
0003
FFFF
FFFE
0004
0001
FFFD
FFFB
0000
FFFD
FFFF
0000
0000
FFFC
0000
0001
FFFF
0000
FFFE
0003
0004
FFFF
0002
0002
0001
0001
FFFD
0000
FFFF
0000
0000
FFFC
0003
0000
FFFD
0004
0003
0000
FFFE
FFFC
0000
FFFE
0000
FFFF
0003
FFFD
FFFF
FFFF
0001
0006
FFFD
0002
0004
0004
0000
0000
0004
FFFF
FFFE
0003
FFFD
0005
0002
FFFF
FFFC
0000
0002
FFFD
FFFD
0000
0003
FFFF
FFFE
0001
0000
0001
0002
0003
FFFC
0000
0001
0001
0000
0002
0003
FFFE
0000
0002
FFFF
0001
FFFE
0000
0000
0001
0002
FFFE
0000
0001
0000
FFFF
0002
FFFE
0000
0000
0000
0000
0003
0001
0000
0000
0003
FFFC
FFFD
0004
0000
0001
0002
0001
0002
FFFF
FFFE
0002
0003
0000
FFFF
FFFC
FFFE
0003
FFFF
FFFD
FFFE
0003
FFFF
0001
FFFD
0000
FFFF
0000
FFFE
0000
0000
0004
FFFC
FFFE
FFFF
FFFE
0004
FFFF
0002
FFFD
0003
FFFF
FFFE
0000
0002
0000
0003
0001
0002
0000
0000
0000
0000
0000
0000
0000
0000
0000
0001
FFFD
FFFE
FFFD
0000
0002
0001
0000
0003
0001
0003
FFFF
FFFF
0001
FFFE
0000
0002
FFFF
FFFF
0000
0003
FFFF
FFFE
0004
0000
0004
0001
0000
0000
0001
FFFD
0000
0004
FFFC
0002
FFFF
FFFF
0001
0000
FFFF
0001
0001
FFFD
0003
0002
FFFC
0002
0004
0002
FFFD
0001
0002
FFFF
FFFE
0001
0002
0001
FFFD
FFFE
0003
0000
0003
FFFF
0001
FFFE
0000
FFFD
FFFF
0000
0000
0002
FFFE
0001
FFFE
FFFE
FFFC
0000
0000
FFFF
0004
0002
0005
FFFF
0000
0000
0002
FFFE
0000
0001
FFFD
FFFF
0001
0002
0001
0001
0002
0004
FFFF
0001
FFFD
FFFF
FFFF
FFFE
0002
FFFF
FFFF
FFFB
0000
FFFF
0000
0002
0001
0000
0004
0003
FFFF
0000
0000
0000
0002
0002
FFFE
0002
0000
0003
0001
0000
0001
FFFE
0001
FFFE
0003
FFFE
FFFB
FFFE
0003
0001
FFFF
FFFF
0004
0002
0004
0000
FFFE
0003
0000
FFFF
0002
0004
FFFE
0004
FFFE
0000
0004
0003
0000
FFFE
FFFB
FFFD
FFFF
0002
0001
FFFD
0005
0002
0000
0002
FFFD
FFFE
0000
FFFF
FFFF
0003
FFFF
0000
0000
0004
0006
0003
0000
0001
0001
FFFE
FFFD
FFFE
0003
0000
0000
0002
FFFF
0001
FFFE
0000
0003
FFFD
FFFC
0000
0001
0004
0000
0000
0000
0000
0000
0000
0000
0000
FFFC
0003
FFFD
0000
FFFE
0000
FFFC
FFFE
0004
0001
FFFF
0003
0000
0000
0003
FFFE
FFFD
0002
0002
0000
0000
0002
FFFC
0002
0003
0002
0000
0000
0000
0001
FFFE
0000
FFFF
0000
0000
0001
FFFF
FFFF
FFFF
FFFE
0002
0004
0000
0000
FFFE
0003
0000
0001
0002
0000
FFFC
0004
0002
0000
FFFD
0002
0000
0003
FFFF
FFFD
0001
0000
FFFE
0000
FFFD
0001
FFFE
FFFF
0002
0001
0002
0000
FFFF
FFFF
0003
0001
FFFF
0000
0000
FFFC
FFFF
0000
0001
0000
0000
FFFD
0003
0000
FFFE
0003
0004
FFFF
FFFF
0002
0001
FFFD
0004
FFFE
0001
0000
0002
0000
0005
0002
FFFE
0001
0002
FFFD
FFFF
0002
0000
0000
FFFD
FFFE
0000
0000
FFFE
0000
FFFE
FFFE
FFFF
0001
0004
0000
0002
0001
0000
FFFF
FFFE
0004
0004
0001
0001
0004
0000
0001
FFFF
FFFF
FFFF
FFFD
FFFE
0004
FFFC
0002
0001
0005
FFFF
0000
0002
0000
FFFC
FFFF
0001
0001
FFFF
0000
FFFF
0003
0003
FFFC
FFFF
0003
0002
0003
0004
0000
0000
FFFD
FFFC
FFFC
FFFE
FFFE
0001
FFFF
FFFC
0001
0002
0000
0000
0000
0000
0003
0001
0000
FFFF
0004
0003
FFFD
0003
0002
FFFE
0001
0000
FFFE
0000
FFFC
0000
0000
FFFC
FFFD
0000
0000
0000
0000
0000
0000
0000
0000
FFFF
FFFF
FFFD
FFFF
0000
0003
0000
0003
0000
FFFC
0003
FFFD
0000
0001
0003
FFFF
0000
FFFF
0003
0002
0000
0000
0000
FFFC
FFFE
FFFC
0000
FFFF
0003
0003
0000
0000
0002
FFFF
FFFC
0001
0002
FFFE
0001
FFFC
0002
0003
FFFE
0002
0000
FFFE
0003
0000
0000
FFFC
0001
FFFC
0002
FFFF
0000
FFFD
FFFE
0004
0003
0002
0000
0001
0001
0004
FFFF
FFFE
0001
0000
FFFF
0002
FFFD
FFFC
0002
0003
0000
0000
0001
FFFC
0002
0000
FFFF
0000
0002
0002
FFFF
0000
0000
FFFF
0002
0002
0001
0002
0003
FFFF
FFFD
0001
0000
0003
FFFD
0004
FFFF
FFFF
FFFD
FFFE
FFFD
0002
0002
0002
0000
FFFF
FFFE
FFFF
0001
0002
0004
0000
FFFF
0000
0001
FFFE
FFFE
FFFF
0000
0003
0004
0001
FFFC
0003
0000
0002
FFFF
FFFD
FFFF
0003
FFFD
0000
FFFD
FFFF
FFFD
0003
0000
FFFF
FFFD
0001
FFFF
0000
FFFD
0000
0000
0000
0000
FFFE
0000
FFFF
FFFD
0000
0000
FFFF
0000
0005
0004
0000
0003
0000
0001
FFFC
0003
FFFF
0000
0000
0001
FFFC
0004
0003
0002
FFFE
FFFC
0000
0004
0001
0002
0000
0000
0002
0001
FFFC
0001
FFFE
0002
FFFE
0001
FFFD
0004
FFFC
0000
0001
0000
0003
0003
0002
0000
0000
0000
0000
0000
0000
0000
0000
0000
0000
FFFE
0000
0001
0004
0002
0001
0001
0002
0006
0000
0003
FFFE
FFFE
FFFC
0001
0000
FFFE
0000
0002
0003
0000
0004
FFFE
0001
0002
0000
0000
0001
0000
0002
0003
0001
0001
0000
FFFC
0005
FFFF
0001
FFFF
FFFF
FFFE
FFFF
0003
0004
FFFE
0000
0002
FFFC
0000
0003
0004
FFFF
0000
0001
FFFF
0001
FFFE
0003
FFFC
0000
FFFE
0004
FFFE
0004
FFFD
0000
0003
FFFF
0002
FFFF
FFFF
0004
0004
0003
FFFF
FFFE
FFFF
FFFF
0002
0000
FFFE
FFFF
0000
FFFF
0000
0001
0001
0003
FFFE
FFFF
0000
FFFF
FFFE
FFFE
0001
FFFD
FFFE
0001
FFFF
FFFE
0004
FFFF
0000
FFFE
FFFE
0001
0004
0001
0004
0003
0000
0003
0000
0004
FFFE
FFFD
0003
FFFD
0000
0000
0004
FFFD
FFFD
0004
0000
0001
FFFF
0001
0001
FFFF
0000
FFFC
0000
FFFE
0002
0000
0000
0001
FFFF
FFFC
0002
FFFF
0000
0000
FFFB
FFFF
FFFE
0003
0004
0000
0003
0000
FFFD
0002
FFFD
0000
0002
0000
FFFE
FFFF
0000
0001
0002
0000
FFFE
0001
FFFE
0002
0002
FFFD
0000
FFFD
0001
FFFD
FFFD
0002
FFFD
0002
FFFC
FFFE
0000
FFFC
0000
FFFE
0002
0005
FFFC
0004
0003
FFFD
0001
FFFE
FFFE
FFFF
FFFE
0000
FFFC
FFFE
0000
0000
0000
0000
0000
0000
0000
0000
0000
FFFE
FFFE
0001
FFFC
0003
0005
FFFF
0002
0000
FFFD
FFFC
0004
0000
FFFD
FFFE
0000
0001
0002
FFFF
0004
FFFD
0002
0003
0003
0000
FFFF
FFFE
FFFD
0000
0002
0000
0000
FFFF
0002
0000
0003
0003
0004
0001
0002
0000
FFFE
FFFF
0001
0001
FFFC
0000
0000
FFFF
0002
0000
0001
0000
0000
0000
0000
0000
0004
FFFD
0000
0003
0003
0000
FFFE
0001
FFFC
0000
0001
0000
FFFF
FFFC
0000
FFFF
0000
FFFD
0001
FFFF
FFFE
0000
FFFF
0002
0001
0004
0002
0000
0003
0004
0001
0000
FFFD
FFFE
FFFF
0004
0000
0002
0000
0001
FFFE
FFFF
0004
0000
FFFE
FFFC
0001
FFFF
0002
0003
FFFC
FFFE
FFFF
0004
0003
0000
FFFE
0004
0003
FFFE
FFFC
0001
FFFC
0003
0001
0002
0000
0003
0004
0001
0004
0000
0005
FFFD
0003
FFFE
FFFD
FFFF
0002
0001
0000
0001
0003
0003
0002
FFFB
0000
0004
FFFC
0001
0001
FFFC
FFFD
FFFF
FFFD
0002
FFFD
FFFF
0000
0001
0001
0004
0000
0004
FFFE
0003
FFFD
0003
FFFE
0000
FFFE
0001
FFFC
FFFC
FFFE
0003
0002
0000
FFFE
0002
0004
0000
0003
0001
FFFE
FFFD
FFFE
0000
0000
FFFF
0004
0001
0000
0001
0003
0003
FFFF
0001
FFFF
0002
FFFE
FFFE
0000
0000
0000
0000
0000
0000
0000
0000
FFFE
FFFF
0000
0000
FFFD
0002
0002
0001
0003
FFFC
FFFE
0002
0001
0001
0003
FFFF
FFFE
0000
0004
0001
0000
0001
0004
FFFD
0003
0000
0002
0000
0000
0000
0002
FFFF
FFFE
0004
FFFF
0001
0000
FFFE
0000
FFFF
0001
FFFF
0000
0001
FFFF
0000
FFFF
0000
0002
0002
0002
0001
0000
FFFF
FFFC
0003
0002
FFFD
0004
0001
FFFD
0001
0003
0003
0000
FFFF
0000
0004
FFFD
FFFD
0000
0001
FFFD
FFFA
0005
FFFD
0003
0002
0003
0000
0002
0000
0000
FFFE
0004
0001
FFFD
FFFD
0000
FFFD
0002
FFFD
FFFC
FFFE
FFFE
0001
0000
0000
FFFC
0002
0002
0002
0002
FFFD
FFFD
0002
0000
FFFD
0003
0001
FFFC
0003
0003
0002
FFFF
FFFD
0002
0000
0002
0000
0000
0000
FFFE
0002
0000
FFFF
0000
0002
FFFD
FFFE
0004
0000
FFFF
0003
0000
0001
FFFD
0000
0000
FFFE
FFFB
0000
0003
0000
0002
0004
0003
0003
FFFC
0000
FFFB
FFFF
FFFF
0001
0000
0003
0002
0002
0000
0000
0004
0002
0000
0002
FFFD
0000
FFFF
FFFD
FFFF
0000
FFFF
0000
0001
FFFD
0001
FFFB
0002
0001
FFFF
0000
0001
0000
FFFF
0000
FFFF
FFFF
FFFC
FFFF
0000
0003
FFFD
0003
FFFF
FFFD
FFFE
FFFF
FFFE
FFFC
0000
0000
0000
0000
0000
0000
0000
0000
0000
0000
0002
0000
FFFF
0002
0002
0002
FFFC
FFFD
0000
FFFC
FFFD
0001
0001
0000
0001
FFFF
0003
0004
0003
FFFD
0002
0001
FFFD
0001
FFFF
0003
0002
0000
0003
0003
FFFE
FFFE
FFFE
0004
0003
0002
FFFC
0002
0002
0002
0000
0001
0001
0004
FFFF
0000
0003
FFFD
FFFE
0003
FFFF
FFFF
0003
0000
0001
0004
FFFD
FFFC
0000
FFFE
FFFD
0000
FFFD
0001
0000
0004
0000
FFFF
0004
0002
0002
0000
0004
0001
0003
0001
0000
FFFE
FFFF
0000
0000
FFFE
0003
FFFF
0003
FFFF
0000
0001
0000
0001
0004
FFFD
0003
FFFB
0000
0001
FFFE
0003
0000
FFFD
0002
0002
0000
FFFE
FFFD
0003
0000
FFFF
FFFF
0003
FFFC
0000
FFFC
0000
0000
FFFD
0000
FFFE
FFFF
0000
FFFD
0003
FFFC
FFFE
0000
FFFF
0005
0000
0000
0001
FFFF
FFFE
FFFE
FFFF
FFFD
0000
FFFC
0000
0001
0002
0002
0004
0000
0000
FFFE
0003
FFFF
0000
0003
0000
FFFB
FFFF
0004
FFFF
0004
FFFF
FFFF
0001
0002
0003
0000
FFFF
FFFE
0001
0003
FFFD
FFFF
0000
FFFE
0002
0000
0004
0000
0003
0001
FFFB
0001
FFFE
0000
0003
0003
0003
0005
0003
0003
0004
FFFF
0002
0001
0003
0002
0000
FFFE
0001
FFFF
0003
0001
0000
FFFF
FFFD
0000
0000
0000
0000
0000
0000
0000
0000
0000
0000
0000
0000
FFFD
0003
0003
0000
FFFE
0000
0003
0002
0000
0001
FFFE
FFFF
FFFE
FFFF
0001
0004
0000
FFFE
0002
0000
0000
FFFD
0003
0002
FFFE
FFFE
0001
FFFC
0003
0001
0000
0002
0000
FFFD
FFFE
FFFE
0000
0003
FFFD
0001
FFFE
0002
FFFF
FFFF
FFFD
0000
0001
0004
0003
FFFE
FFFF
FFFD
FFFE
FFFD
0000
0003
0002
0002
0003
0003
0000
0004
0003
FFFD
0004
FFFE
0003
0002
FFFE
0001
FFFB
FFFD
0002
FFFC
0004
0000
0004
0000
FFFE
0000
0000
0003
FFFF
FFFD
FFFE
0000
FFFF
0001
FFFF
0000
0002
FFFD
0000
0002
0004
0002
FFFF
FFFD
0003
FFFF
FFFD
0004
0000
0000
0000
0003
0003
0002
0000
FFFF
0000
0000
FFFE
FFFD
FFFC
FFFF
0002
0003
FFFF
0004
FFFE
0003
FFFE
FFFC
FFFE
0000
0000
FFFD
0004
0000
0003
0002
0003
0000
0000
FFFD
0005
0000
0001
0006
FFFD
0003
FFFD
FFFD
0000
0002
0002
0004
0001
0001
0002
0000
FFFF
FFFE
FFFF
0003
0003
0002
0000
FFFE
0000
FFFD
0000
0000
0002
FFFE
0004
FFFE
0003
0000
0003
0004
0003
0002
FFFD
0000
0000
0003
0002
0000
0004
0003
FFFF
0003
0000
0003
0002
0002
0002
0000
0001
FFFF
FFFF
FFFF
0001
0000
0000
0000
0000
0000
0000
0000
0000
0000
0001
0003
0003
0000
0003
FFFF
FFFE
0002
0000
0002
0000
FFFF
FFFD
FFFE
0003
0001
0003
0000
0002
0003
FFFF
0000
FFFB
0001
FFFF
0002
0002
0000
0001
0000
FFFC
FFFE
FFFF
0000
FFFF
0000
0000
0000
0002
0000
FFFE
FFFF
FFFE
FFFC
FFFE
0001
0002
FFFE
0000
0000
0001
0002
FFFF
0001
FFFB
FFFC
FFFE
FFFE
FFFF
0004
0000
0002
FFFD
FFFE
FFFE
0000
FFFD
0000
FFFE
FFFE
0000
FFFE
0003
0001
FFFD
0004
0002
FFFE
FFFE
0002
FFFF
FFFE
FFFD
FFFF
0001
FFFD
0000
0002
FFFE
FFFE
0002
FFFD
0002
FFFE
0003
FFFE
0000
0000
FFFC
0001
0001
0000
FFFE
0000
FFFD
FFFF
0000
0002
0003
0003
FFFC
0004
0002
0000
FFFD
0000
0003
0003
0002
0002
FFFD
FFFE
0000
0000
0004
0003
0002
0002
FFFF
FFFC
FFFE
FFFD
0000
0004
FFFF
0000
0000
0000
0003
FFFC
0000
0003
0000
0002
0003
0003
0001
FFFF
0000
FFFD
0000
FFFF
0000
0000
0000
0000
0000
0000
0000
FFFE
0000
FFFD
0000
FFFC
FFFF
0001
0001
0002
0000
FFFE
0003
FFFD
FFFD
FFFF
0004
0002
FFFD
0001
FFFC
FFFB
FFFD
0000
FFFF
FFFE
FFFF
0000
FFFE
FFFF
FFFD
0000
FFFC
0000
0000
0000
0002
FFFE
0000
0000
0002
FFFE
0000
0000
0000
0000
0000
0000
0000
0000
0004
FFFF
0000
FFFC
FFFD
FFFC
FFFD
FFFE
0000
0002
0001
0003
0004
FFFF
FFFD
0003
0002
0002
0000
0000
0002
FFFE
0000
0000
0003
0003
FFFE
FFFC
0000
FFFC
FFFF
0000
FFFE
0003
FFFF
0000
0000
0000
FFFE
0001
0003
0001
FFFF
FFFD
FFFF
0004
FFFD
0001
FFFD
0000
0003
FFFF
0002
0001
FFFD
FFFA
0000
FFFE
0000
0002
FFFD
0002
0001
0000
0001
0000
FFFB
0001
FFFE
0001
0001
FFFF
0003
0002
0005
0002
0001
0000
0000
FFFE
0000
0003
FFFF
0000
0000
FFFD
0001
0000
0003
FFFD
0001
FFFF
0000
0000
0000
FFFD
FFFF
0001
0002
FFFE
FFFD
0000
FFFC
FFFE
0002
0002
0000
FFFB
0001
0003
0001
0002
FFFE
0000
0001
0002
0000
0000
0004
FFFF
FFFD
FFFE
FFFD
0003
FFFC
0000
0000
FFFF
0004
0002
FFFD
0000
FFFF
0005
FFFA
FFFC
FFFE
0004
0000
FFFB
0002
0003
0000
0000
0000
0003
0000
0002
0000
0001
0001
FFFB
0002
FFFD
0000
0002
0000
0003
0003
0002
FFFF
FFFC
FFFD
0002
0002
0002
FFFD
FFFC
0002
FFFE
FFFE
0002
0002
0004
FFFE
0001
FFFD
FFFE
0005
0002
FFFC
0003
FFFD
0001
FFFE
0000
FFFD
FFFE
0002
FFFC
FFFE
FFFD
0000
FFFD
FFFC
FFFD
0002
0001
FFFD
FFFC
0000
0000
0000
0000
0000
0000
0000
0000
FFFC
0002
FFFF
FFFE
FFFE
0004
FFFB
FFFE
0001
0003
0000
0003
0000
0001
0000
0000
0003
0002
0000
0001
FFFD
0004
FFFF
0000
0004
FFFF
FFFD
0001
0000
FFFD
0001
0002
FFFD
0000
0002
FFFD
0000
FFFC
FFFF
0001
0003
0003
0004
0003
FFFD
0004
0000
FFFE
FFFD
0001
0001
0001
0003
FFFE
FFFE
FFFE
0002
0002
FFFC
FFFD
FFFF
FFFD
0001
0004
0003
FFFF
0002
FFFF
FFFD
FFFC
0002
0002
FFFE
0000
FFFF
FFFF
0004
FFFE
0003
FFFF
0000
0000
FFFE
0003
0000
0000
FFFD
0000
FFFF
0001
0001
0004
0000
0001
0000
0004
0000
FFFF
0005
0001
0003
FFFD
FFFF
0000
0003
0000
0001
FFFF
FFFD
0001
FFFF
FFFE
0003
FFFD
0000
FFFC
FFFD
0004
0001
FFFD
0000
FFFF
0003
FFFE
FFFF
FFFB
0003
0000
0005
0000
0000
0002
0000
0002
0001
FFFC
FFFE
FFFE
0001
0002
0001
0000
0001
0002
FFFF
0002
0000
FFFA
0000
FFFF
FFFE
0002
0000
0003
FFFF
FFFF
0002
FFFE
0000
FFFC
FFFD
FFFD
FFFF
FFFF
0002
FFFD
0004
0000
0000
0000
FFFE
0003
FFFC
0001
0000
FFFF
0000
0002
0000
FFFF
FFFC
0000
FFFF
FFFE
FFFF
0002
0000
FFFD
0004
0002
FFFC
FFFE
0004
0000
0000
FFFC
FFFC
0003
FFFC
FFFC
0000
0000
0000
0000
0000
0000
0000
0000
FFFF
0000
FFFF
0004
FFFD
0002
FFFD
0000
FFFD
FFFD
0001
FFFE
0000
0000
FFFE
0000
0001
0000
0000
0001
0000
FFFF
FFFD
0001
FFFF
0000
0002
0001
0000
0002
0000
FFFE
0003
FFFF
0003
0004
FFFE
0000
0001
0001
0003
0004
0003
FFFD
FFFF
FFFF
0002
0001
FFFF
FFFE
0004
FFFF
0000
FFFD
FFFE
0001
0001
0002
0000
FFFD
0000
0001
FFFE
FFFE
FFFF
0003
0001
FFFE
FFFE
FFFE
0000
FFFE
0000
0000
0003
FFFE
0000
0003
FFFB
FFFE
0005
0000
0003
FFFE
0005
0002
0001
0004
FFFC
FFFE
0003
0000
0001
0000
0001
FFFD
0000
FFFE
0000
0003
0003
FFFE
0004
0000
FFFC
FFFD
0001
FFFE
0001
0000
0002
FFFD
0004
0000
0004
0000
FFFD
FFFC
0001
0002
0002
0004
FFFF
0003
FFFF
0003
FFFC
FFFC
0002
FFFF
0002
0002
0004
0000
FFFF
0001
0000
FFFD
0000
0001
0003
0002
0000
0002
0002
0004
0002
0000
0001
0000
0001
0002
0004
0001
FFFE
0000
0001
FFFF
FFFF
0000
0000
0002
FFFC
0004
0000
0003
0005
0000
0003
0000
FFFF
0001
FFFD
FFFE
0001
FFFD
0000
FFFC
0001
0002
FFFF
FFFF
FFFC
0003
0001
FFFD
0000
0000
FFFE
FFFE
0001
0000
0001
0000
FFFF
FFFC
FFFD
0000
0000
FFFE
0000
0000
0000
0000
0000
0000
0000
0000
0000
FFFE
FFFF
0000
0003
0003
0000
0000
FFFD
0001
FFFC
FFFC
0003
0001
FFFD
0000
FFFF
0002
FFFD
FFFE
0002
0000
0000
0002
0002
0000
FFFD
0000
0002
0000
0000
FFFE
0000
0003
0000
0000
FFFF
0001
FFFB
0000
0004
0002
FFFB
FFFB
0002
0000
FFFE
FFFD
0000
0003
0003
FFFD
0003
0000
FFFF
0000
FFFE
FFFF
FFFE
0003
0000
FFFF
FFFE
FFFF
0003
0001
0000
FFFF
0003
0001
0000
FFFF
0001
FFFE
0000
FFFD
0000
0000
0000
FFFF
0000
FFFE
FFFC
0002
FFFD
0000
0000
0000
0001
FFFC
0000
0002
0002
FFFD
0002
0000
FFFD
0001
0003
FFFD
FFFE
FFFD
0003
0000
0000
FFFF
FFFD
FFFE
0002
0001
0000
0000
FFFF
FFFF
0002
0000
0003
FFFE
FFFD
0001
FFFD
0002
0001
FFFC
0004
0004
0003
FFFE
0000
0000
0000
0000
FFFF
FFFF
0003
0002
FFFD
0002
0002
0003
0000
0002
0002
0003
0000
0002
0001
0001
FFFD
0003
0002
0003
FFFE
0000
0000
FFFF
FFFD
FFFD
0001
FFFD
0004
0003
FFFC
0001
0004
0002
0000
FFFE
0001
FFFF
0000
0000
FFFD
0000
0002
FFFD
0002
0001
FFFC
0001
0000
0000
FFFF
FFFE
0001
0001
0001
0000
0003
FFFE
0001
0000
FFFF
0002
0000
0001
0000
0003
0002
FFFE
0000
0000
0000
0000
0000
0000
0000
0000
0002
0003
0000
0000
0002
0000
FFFF
0004
FFFE
0001
0003
0001
FFFC
0003
0002
0003
FFFF
FFFC
FFFE
FFFE
FFFF
FFFE
0000
0001
0000
FFFE
0002
FFFE
FFFE
0003
FFFE
FFFD
FFFE
0000
0000
0000
0001
FFFD
FFFE
FFFF
0002
FFFF
0003
FFFF
FFFF
0000
0002
0001
0001
FFFE
0003
0000
FFFF
FFFD
0000
FFFE
0004
0000
0003
0002
0000
FFFF
0004
0000
0001
FFFE
0002
0003
0001
FFFD
0000
0000
0003
0001
0003
0004
FFFD
FFFF
FFFF
0003
FFFF
0002
FFFD
0001
0000
FFFC
0004
0000
0000
0002
0000
0002
0000
0002
0005
FFFE
FFFE
0003
FFFF
FFFC
0002
0002
0000
FFFF
0001
0001
0000
0003
0001
0002
FFFE
FFFC
0000
0000
FFFC
FFFE
FFFD
0000
FFFC
0000
0002
FFFE
FFFC
FFFC
0002
0002
FFFE
0000
0000
FFFD
0000
FFFE
0004
0003
0002
0005
0000
0000
0000
0001
FFFF
0004
0000
FFFE
0002
0003
FFFF
0001
FFFD
0003
0001
0001
FFFE
0003
0003
0001
0003
0002
FFFF
FFFF
FFFF
0000
0000
FFFC
0004
FFFD
0004
0000
0002
0000
0000
0000
0001
0001
FFFD
0002
0000
FFFC
0000
FFFD
FFFE
0004
FFFE
0004
FFFB
FFFD
FFFB
FFFB
0002
FFFE
0000
FFFE
FFFE
FFFE
0002
FFFF
FFFE
0003
0004
0004
0000
0000
0000
0000
0000
0000
0000
0000
0000
FFFF
FFFF
0001
FFFD
0000
0000
0001
FFFF
0003
0002
0002
0003
FFFD
0000
0004
0001
0000
0000
0000
0000
0004
0000
FFFF
0000
0002
0001
FFFF
0002
0003
0000
FFFB
0002
FFFE
0003
0000
0001
FFFE
0002
0000
0000
0001
0004
FFFD
0000
0000
0002
0000
FFFF
FFFD
0004
FFFF
FFFE
0001
0005
FFFA
0000
FFFF
FFFE
0000
0000
FFFD
FFFE
0003
0003
0001
0004
0001
FFFD
0002
0000
0001
FFFE
FFFE
0000
0003
0002
FFFE
FFFE
0003
FFFF
FFFB
0000
0000
0003
0003
0000
0000
0001
0003
0001
0004
FFFE
FFFD
0001
0000
FFFD
FFFD
0001
0000
0004
0003
FFFE
0000
FFFD
0000
0001
FFFF
FFFE
0001
FFFF
FFFE
0003
FFFF
0004
0001
FFFE
0001
0001
0000
0004
0003
0003
0000
0000
FFFE
0004
0003
0003
0003
0001
0001
0000
FFFE
FFFE
0002
FFFE
0001
FFFF
0000
0002
FFFD
0003
0001
0001
0001
FFFF
FFFD
FFFF
0000
FFFC
0004
0001
0002
FFFD
0004
FFFF
0001
0003
0003
0004
0002
0000
FFFF
0004
FFFE
0000
FFFF
0001
0004
FFFF
FFFE
0002
0001
0000
FFFE
FFFF
0000
0001
0002
FFFF
0002
0001
0004
FFFD
FFFF
FFFE
FFFD
0001
FFFD
0000
0003
FFFC
0000
0001
0000
FFFF
0000
0001
FFFD
0000
0000
0000
0000
0000
0000
0000
0000
0001
FFFF
0005
0000
FFFE
0000
0001
FFFF
0000
0000
0001
FFFF
0001
FFFD
FFFF
FFFF
FFFF
0000
0003
FFFE
0001
FFFE
FFFE
FFFF
0000
0002
0000
FFFF
0002
FFFE
0003
0006
0003
0003
0000
0000
0004
FFFF
0000
0001
FFFF
FFFF
FFFD
FFFE
0002
0000
0000
0000
FFFF
FFFB
FFFC
0000
FFFC
0000
0000
0004
FFFD
FFFF
FFFC
0000
FFFD
0000
0002
0001
FFFD
0001
FFFD
0003
0001
FFFC
FFFC
FFFE
FFFD
0004
0001
FFFF
FFFE
0003
0003
FFFE
0000
FFFD
0000
0000
0000
0000
0003
0000
FFFE
0001
FFFF
0004
0000
0003
FFFD
0003
0000
0000
FFFE
0001
0000
FFFF
0002
0000
FFFD
0000
FFFE
FFFE
FFFF
0004
FFFD
0001
FFFE
0003
0003
FFFE
FFFE
FFFF
FFFF
FFFE
0002
FFFE
0001
0001
FFFF
FFFE
FFFF
FFFD
FFFC
FFFD
FFFF
0000
0003
FFFD
0000
FFFE
FFFE
0000
FFFF
0001
0004
FFFC
0002
0001
0003
FFFD
0004
0000
FFFF
0000
FFFD
0002
0000
0001
0000
FFFD
0001
0003
FFFF
0001
0000
0000
0004
FFFE
0000
0001
FFFF
0004
0002
FFFD
FFFD
0001
FFFE
FFFD
0003
0002
FFFC
0002
0004
0000
FFFF
FFFC
FFFD
0001
0000
FFFF
FFFF
0003
0002
FFFF
0002
FFFE
0001
0003
0000
0002
FFFD
FFFD
FFFF
0000
0000
0000
0000
0000
0000
0000
0000
0000
FFFE
FFFF
0001
0000
FFFF
0001
FFFC
0000
0002
FFFD
FFFE
0003
0001
0003
0002
0000
0001
0000
0002
FFFE
FFFE
0001
0002
FFFF
0001
FFFD
FFFE
0002
0000
0000
FFFE
0003
0003
0001
0003
0003
0003
FFFD
0002
0000
FFFF
0002
0001
0000
0001
0002
0002
0001
0003
FFFF
FFFE
FFFC
FFFF
FFFE
0000
0004
FFFD
0000
FFFF
0002
0000
0000
0000
0000
0001
0000
0000
FFFC
FFFF
0000
FFFF
0001
0003
0000
0000
0000
FFFF
FFFE
0003
0002
FFFF
0001
0003
0001
0001
FFFE
FFFF
FFFC
0002
0000
0001
FFFE
FFFF
0004
0002
0000
0002
FFFF
0000
0002
0001
0000
0002
FFFC
0001
FFFF
FFFE
FFFF
0001
FFFF
0000
0003
0002
0004
FFFC
0000
0003
0002
0002
0000
0003
0000
FFFD
0002
0001
FFFF
0003
FFFE
FFFE
0000
0002
FFFD
0001
FFFF
0000
0000
FFFF
0000
FFFE
0000
0003
FFFE
0000
FFFE
0000
0002
0002
0000
0000
0002
0000
FFFD
FFFE
FFFC
FFFE
FFFC
FFFE
FFFF
FFFC
FFFC
0002
0000
FFFE
FFFF
0002
0001
0005
0005
0000
0001
0001
0000
FFFD
0003
0000
0002
FFFE
0002
0000
0001
0001
0001
0001
FFFF
FFFF
FFFE
0005
0003
0002
0000
FFFF
FFFE
FFFD
0002
FFFF
FFFF
FFFE
FFFD
0000
FFFF
0000
0000
0000
0000
0000
0000
0000
0000
0000
0000
0001
0002
0002
0000
FFFE
0002
FFFF
0002
FFFD
FFFB
0004
FFFE
0002
0003
FFFE
FFFF
0000
0001
FFFE
0003
FFFF
FFFF
0000
0000
0003
0001
FFFF
0000
0004
0003
0002
FFFF
FFFE
FFFE
FFFE
FFFE
0002
0004
FFFE
FFFC
0002
FFFB
0003
0000
0004
0000
FFFF
FFFF
FFFF
0001
FFFD
0001
0003
0000
FFFD
FFFB
0000
0000
0004
FFFE
FFFF
0004
0001
0002
FFFB
0000
0000
FFFF
FFFE
0000
0000
FFFE
0003
FFFF
FFFF
0001
0004
0004
0003
0000
0000
FFFE
0001
0002
0001
0002
0003
0001
0004
0001
FFFD
0003
FFFE
0002
0004
0000
0004
0000
FFFC
0000
0004
FFFF
0000
FFFF
0000
0000
0003
0002
FFFC
FFFF
0004
0002
0003
0000
0004
0000
0001
0001
0000
FFFC
FFFD
FFFD
0002
0002
FFFF
0000
0000
0003
0004
0000
FFFD
0000
FFFC
0000
FFFC
0004
0000
0000
0000
FFFE
FFFC
FFFF
0001
FFFC
0000
FFFD
0004
0000
FFFD
0000
FFFF
0003
0000
0002
0002
0001
0002
0003
FFFF
FFFF
FFFD
0000
0003
FFFF
FFFF
FFFF
FFFE
FFFD
0003
0000
0002
0002
0003
FFFD
FFFF
0000
0003
0005
0000
FFFD
FFFD
0002
0004
FFFF
FFFC
0001
0003
0001
FFFE
FFFF
0000
0002
0000
FFFF
0002
FFFD
0003
0002
0000
0000
0000
0000
0000
0000
0000
0000
FFFF
0002
0004
0003
0000
FFFF
FFFF
0002
0001
0002
0003
FFFF
FFFF
0003
0004
FFFF
FFFF
0002
0001
0002
FFFD
FFFE
FFFE
0000
FFFC
0001
FFFD
0001
0000
0004
0004
FFFD
0002
0001
FFFB
FFFD
FFFF
FFFF
0000
0000
0003
0001
0000
0004
0000
FFFF
FFFF
0002
FFFC
0002
0001
FFFF
FFFF
FFFC
0004
0004
0000
0001
FFFD
FFFC
0000
0003
FFFE
FFFF
0001
0000
FFFD
FFFE
FFFD
FFFD
0001
FFFE
FFFF
FFFD
FFFF
0001
0001
0002
0000
FFFF
FFFD
FFFD
0000
0000
0001
0003
0004
FFFD
0000
0000
0000
0002
0000
FFFC
0000
0000
FFFF
0000
FFFF
FFFF
0002
0003
0000
0000
0000
FFFF
FFFE
0000
FFFF
0000
0001
FFFC
0001
FFFF
0000
FFFD
0002
0002
0002
0001
0000
FFFF
0001
FFFF
FFFD
0000
0001
FFFE
0002
0003
0000
0000
0002
FFFC
0000
0002
FFFD
FFFC
0000
0000
0001
0000
FFFC
0000
0002
0002
0001
0001
FFFD
0000
0002
0004
0000
FFFD
0000
FFFF
0000
0000
FFFF
0000
FFFF
FFFD
FFFC
0003
0003
0002
FFFD
0000
FFFF
0000
FFFE
FFFD
FFFE
0002
0003
0004
FFFD
0000
0000
FFFF
0000
0001
FFFE
0004
0000
FFFF
FFFE
0001
0000
0003
0001
0001
0000
0002
0001
FFFB
0001
FFFD
0004
0000
0000
0000
0000
0000
0000
0000
0000
0000
FFFF
0002
0001
0000
FFFD
FFFD
0000
0001
0003
0000
FFFE
FFFE
0000
0004
0004
FFFF
0002
0001
FFFF
FFFE
0000
FFFC
FFFC
FFFD
0002
FFFD
0001
FFFE
FFFC
0000
0002
0002
0004
FFFF
FFFF
0000
0000
0003
FFFE
0001
0000
0000
FFFF
FFFD
0003
FFFF
0002
0000
FFFD
0001
FFFE
FFFD
FFFD
0002
0001
0003
0002
0001
FFFB
0000
0000
0004
FFFF
FFFC
FFFE
0000
0002
0003
0003
0000
FFFE
FFFE
FFFC
FFFF
FFFC
FFFD
0004
0000
FFFE
0002
0000
0000
0000
0000
0003
0003
0000
0001
0002
0002
FFFB
FFFC
0004
FFFF
0003
FFFB
0003
FFFC
0003
0001
FFFE
0002
FFFF
FFFF
FFFD
FFFE
FFFC
0000
0004
FFFF
0003
0004
0003
0002
0002
0004
0002
FFFF
0002
0002
0003
FFFC
FFFF
0000
0000
FFFE
0004
0000
0003
FFFF
FFFC
0000
0002
0000
0002
0002
FFFF
0002
0004
0000
FFFE
0000
FFFE
FFFF
0000
FFFD
0004
FFFF
0003
FFFF
0001
0005
0002
0003
FFFD
0001
0000
0000
0001
0001
FFFF
0001
0000
0000
0000
FFFD
0000
0000
FFFD
0001
0005
FFFF
0001
FFFF
FFFD
FFFE
0002
0000
0000
0000
FFFD
0000
FFFE
0001
FFFE
0002
0002
FFFE
0001
FFFE
FFFF
0004
0000
FFFE
FFFE
0000
0001
0004
0001
FFFD
0000
0000
0000
0000
0000
0000
0000
0000
0001
FFFC
0000
FFFF
0002
0000
0003
0000
FFFE
0003
FFFD
FFFD
FFFD
0000
0000
FFFC
FFFD
FFFE
0001
FFFF
FFFF
FFFE
0000
0000
0003
FFFC
FFFD
FFFF
FFFE
0003
FFFD
0001
FFFD
0001
0000
0001
FFFF
0000
FFFF
0002
0000
FFFE
0004
FFFD
FFFE
0003
FFFE
0004
0000
0002
0000
0000
FFFD
0002
0000
0005
FFFD
0004
0000
FFFE
FFFC
0002
FFFE
0000
FFFF
FFFD
0000
FFFD
0003
0000
0000
FFFC
0000
0000
FFFD
FFFC
FFFE
0002
0003
0002
FFFF
0003
0004
0000
0002
FFFD
0000
0000
0000
FFFE
FFFD
FFFF
FFFD
FFFF
0000
0001
FFFD
0000
FFFF
FFFF
FFFC
FFFF
0000
0000
0000
0000
FFFE
FFFF
0003
FFFE
0004
0003
0000
FFFF
0005
0002
0000
FFFD
FFFF
0000
0000
FFFF
0003
0000
FFFF
0001
0001
FFFD
FFFD
FFFE
FFFF
0000
0001
FFFC
FFFC
0003
0003
0002
FFFD
0000
FFFF
0000
0002
0000
0000
0000
0002
0000
0000
0002
0001
0000
0000
0002
0000
0002
FFFE
FFFE
FFFE
0000
0004
0003
0001
0001
0004
FFFE
0000
0000
0001
0002
0003
FFFE
0001
0002
0000
FFFD
0002
FFFE
FFFF
0000
0002
0001
FFFD
0001
0000
FFFC
0004
0002
0000
0003
FFFF
FFFE
FFFE
0002
FFFE
0003
FFFD
0003
FFFF
0000
0000
0000
0000
0000
0000
0000
0000
0000
0002
0000
0000
0005
0002
0002
0002
0003
0001
0002
0000
FFFD
0003
0004
FFFF
FFFE
FFFD
0001
0000
0002
FFFE
0000
FFFF
FFFF
FFFD
0003
FFFF
0000
0002
FFFD
0000
0002
FFFE
FFFF
FFFE
0003
0002
0002
FFFE
0003
FFFE
0003
0001
FFFC
0002
FFFC
0002
FFFF
0001
0001
0002
0003
FFFE
0000
0001
0005
FFFF
FFFE
0000
0003
0000
FFFD
0002
0001
0000
0003
0005
0000
0002
0000
0002
0000
FFFD
FFFE
FFFE
FFFE
FFFE
FFFF
0001
0001
FFFF
FFFE
0000
0002
0000
0000
0001
0003
FFFE
0002
FFFE
0002
0000
0003
0000
0001
FFFD
FFFF
0000
0001
FFFF
0000
FFFF
FFFE
0001
0001
0000
FFFD
FFFF
FFFE
0000
0001
FFFB
0000
0000
0000
FFFF
FFFE
0002
0004
FFFF
0003
FFFF
0003
0000
FFFE
FFFC
0000
0002
0000
0002
0000
0003
FFFC
0004
0004
0003
FFFD
FFFC
0001
0000
FFFD
FFFD
0003
FFFC
FFFD
0006
0001
FFFF
FFFF
0002
FFFE
FFFE
FFFE
FFFE
0000
FFFF
0000
FFFD
0001
FFFD
0000
0000
0000
FFFC
0000
0004
0003
FFFF
0004
0002
0002
0000
0003
0002
0003
0000
0002
FFFE
0000
0000
0000
0000
FFFE
0002
0000
FFFF
0002
0003
0002
0003
FFFF
0001
FFFE
0002
0001
0000
0000
0002
0000
0000
0000
0000
0000
0000
0000
0000
0000
0004
FFFF
FFFE
0000
0002
0003
0003
0000
0000
FFFE
0003
FFFF
0003
0003
FFFF
0004
FFFE
FFFC
0000
0002
FFFE
0001
0003
FFFF
FFFC
FFFD
0000
0001
FFFD
FFFE
0000
0004
0000
FFFF
0000
0002
0000
FFFE
0003
FFFC
0003
FFFD
FFFF
0000
FFFF
0000
0000
0003
FFFF
0004
0000
0000
0004
FFFE
FFFE
FFFE
FFFE
0002
FFFE
0003
FFFE
0001
0003
0003
FFFE
0004
FFFE
0002
0002
0000
0003
0003
0001
0002
0000
FFFD
FFFF
FFFE
0003
FFFE
0000
0000
FFFD
FFFF
FFFC
FFFF
FFFD
0003
0002
FFFE
FFFF
0001
0000
0001
0000
0001
0002
0001
0004
0002
0000
FFFF
FFFD
FFFD
0001
0000
FFFD
0000
0000
FFFE
0002
0003
FFFD
0000
FFFC
FFFE
FFFF
0000
0000
FFFE
0001
FFFD
0001
0003
0000
FFFF
0003
FFFE
FFFC
0001
FFFE
FFFF
0000
0005
FFFD
FFFD
0001
FFFE
FFFE
0000
0000
FFFF
0003
0004
0003
FFFE
0004
FFFF
0003
FFFE
0000
0003
FFFF
FFFF
0001
0002
0000
0004
0001
0000
FFFF
FFFE
0003
0002
0000
FFFD
0000
0002
FFFF
0000
FFFD
FFFF
0000
FFFF
0003
0003
FFFD
0004
0001
0000
FFFE
0000
0003
0002
0002
0000
0000
0001
0000
0000
FFFF
0004
FFFE
0002
FFFF
0000
0001
0000
0000
FFFD
0000
0000
0000
0000
0000
0000
0000
0000
0003
0003
0002
FFFD
0004
FFFD
0001
FFFC
FFFE
FFFE
0000
0000
0002
FFFF
FFFD
0002
0000
FFFC
0003
0001
FFFE
FFFF
0000
0000
0003
0002
0003
0000
FFFF
FFFF
FFFE
FFFF
0002
FFFC
0001
0000
0001
0003
FFFF
0002
FFFD
FFFE
0001
FFFF
0000
0004
0003
FFFD
0001
0000
FFFE
FFFE
0002
FFFD
FFFF
0004
0001
FFFC
0003
FFFA
0000
0002
FFFD
FFFF
0005
FFFF
FFFC
FFFF
FFFD
FFFE
FFFD
0001
0004
FFFF
FFFD
0003
0002
FFFD
FFFC
0003
0000
0003
FFFE
FFFF
FFFE
FFFE
FFFF
FFFD
0002
FFFC
FFFD
0001
0001
0002
FFFF
FFFF
0000
0002
FFFF
0002
0003
0000
FFFE
0000
0003
FFFD
FFFF
0004
0002
FFFE
FFFD
0000
0003
0000
FFFF
0001
0000
0002
0000
0000
FFFF
0004
0000
0002
0002
0002
0000
0000
0000
FFFE
FFFF
0000
0000
0000
0002
0004
FFFE
FFFE
FFFC
FFFD
FFFE
0003
0001
FFFD
FFFD
0000
0002
0001
0004
0000
0002
0005
0002
0001
FFFE
0000
0002
FFFF
0000
0003
FFFE
0002
0003
0000
0004
0000
0001
0002
0003
0003
0001
0000
0000
0003
FFFD
0002
0000
FFFC
FFFE
FFFD
0003
0000
FFFF
FFFD
0002
FFFE
0000
FFFE
0004
FFFC
0000
0003
FFFF
0000
FFFE
FFFE
0003
0000
FFFD
0001
0000
0000
0000
0000
0000
0000
0000
0000
FFFE
FFFD
0004
FFFC
FFFC
FFFD
0002
0001
FFFE
FFFD
FFFE
0000
0000
0002
0002
FFFE
FFFC
0002
0000
FFFF
FFFE
0000
0001
FFFF
0002
0001
0001
0000
0003
FFFE
0005
FFFF
0000
FFFF
0000
0004
FFFC
FFFD
FFFE
0002
0004
0000
FFFF
0000
0004
FFFC
0002
0001
0004
0001
0000
0000
0004
0000
0004
FFFE
FFFB
FFFE
0000
0001
0004
0001
FFFE
0002
0004
FFFF
0003
0004
0004
FFFF
0000
0001
FFFE
FFFC
0000
0003
FFFE
0000
FFFD
FFFC
0002
0004
FFFF
FFFE
0002
0001
0000
0001
FFFD
FFFD
FFFE
0000
0002
0002
0003
FFFF
0000
FFFD
0001
0001
FFFD
FFFF
FFFD
FFFF
FFFE
0001
0001
0000
FFFE
0001
FFFE
0002
FFFE
0000
FFFE
0000
0000
FFFF
0004
0002
FFFC
0000
0000
0000
0002
FFFF
FFFC
0000
FFFD
0000
FFFC
FFFB
FFFE
FFFD
FFFE
FFFF
FFFF
FFFE
0001
FFFA
0000
0001
0002
FFFC
0001
0000
0001
0001
FFFE
0003
0000
0005
FFFF
0000
FFFF
FFFC
FFFF
FFFF
0002
FFFD
FFFD
0002
0000
0000
FFFE
0005
0004
0000
0002
0000
0003
0003
0004
FFFD
0000
FFFD
0001
FFFE
FFFF
0002
FFFE
0000
0000
FFFD
0002
FFFE
FFFD
FFFD
FFFD
FFFF
FFFB
FFFC
FFFC
0004
FFFE
0002
0002
0000
0001
0001
0000
0000
0000
0000
0000
0000
0000
0000
FFFE
0000
0000
FFFF
0002
0001
0002
FFFE
0000
FFFC
FFFC
FFFD
0002
0000
FFFD
0003
0002
0001
FFFD
0003
FFFC
0000
FFFF
FFFF
0003
0000
0003
FFFE
0000
0003
0001
FFFD
0000
FFFF
0002
0000
FFFC
FFFF
0001
0004
FFFF
0000
FFFE
0003
FFFE
0002
FFFF
0004
0005
0001
0001
0003
FFFF
0006
0002
FFFE
FFFD
0002
0001
0003
0004
FFFF
FFFF
0002
FFFF
FFFE
FFFE
0000
0000
FFFF
0000
0000
0001
0000
FFFF
0003
FFFE
FFFD
FFFE
0004
0000
FFFE
FFFF
FFFB
FFFF
0000
FFFD
0001
0002
0000
0000
FFFE
FFFE
FFFE
FFFE
0000
FFFE
FFFE
FFFF
FFFD
0000
0000
0000
FFFD
0005
0000
0001
0002
FFFF
0006
FFFF
0001
FFFE
FFFD
FFFD
0000
FFFE
0000
0000
0000
0003
0002
0000
0004
FFFD
FFFE
0000
0001
FFFF
FFFF
0000
FFFC
FFFE
0000
FFFE
FFFD
0003
0000
FFFC
0002
0002
0002
FFFC
0002
0004
FFFE
0000
0002
0004
FFFD
0003
FFFD
FFFE
FFFD
0003
0000
FFFF
FFFD
0000
FFFD
FFFE
0001
0002
0002
0000
0002
0002
0001
0000
0000
0000
FFFF
FFFD
0001
0004
0001
0001
FFFF
0000
0002
FFFE
FFFF
FFFC
0003
FFFD
FFFF
0003
0001
0002
FFFF
0003
FFFE
FFFD
0000
0003
0000
0000
0000
0000
0002
0000
0000
0000
0000
0000
0000
0000
0000
0001
0000
0004
0000
FFFE
0003
0000
FFFC
0002
FFFF
FFFD
0000
0004
0002
0002
0001
0000
FFFE
0002
FFFF
0002
0000
0000
0000
0004
FFFE
FFFD
0003
FFFE
FFFF
FFFE
FFFF
0002
0003
FFFE
0002
0000
0000
0001
FFFF
0004
FFFF
0001
0002
FFFE
FFFD
0000
0002
FFFE
FFFC
FFFF
0001
0000
0000
0001
FFFF
0001
0000
0002
FFFF
0001
0000
0000
0002
0000
0002
0004
FFFD
FFFF
0003
0000
FFFE
FFFE
0000
0002
FFFF
0001
0003
FFFF
FFFF
FFFF
0002
FFFD
0000
0003
0000
FFFF
FFFD
0002
FFFD
FFFE
FFFC
0002
0003
0000
0000
0002
FFFE
0000
FFFE
0000
0000
0001
0000
FFFE
FFFD
FFFF
FFFF
0002
0002
FFFD
0001
0001
0002
FFFC
FFFF
0000
FFFF
0000
FFFE
FFFC
FFFD
FFFE
FFFF
FFFC
FFFF
0000
FFFF
0002
0003
0002
FFFF
0003
0001
FFFF
FFFD
FFFF
FFFF
0001
FFFD
0002
FFFA
0000
0000
0004
0000
0002
FFFE
0004
0000
FFFD
0000
0000
FFFE
0001
0003
0003
0003
FFFF
0003
0001
0001
0000
FFFF
0001
FFFD
0002
FFFC
FFFD
0004
FFFF
0003
FFFD
0003
0001
FFFE
0001
FFFE
0004
0002
FFFC
FFFF
FFFC
FFFD
0000
FFFE
0003
0003
0000
FFFC
FFFD
FFFC
0000
0001
FFFD
FFFD
0004
0000
0000
0000
0000
0000
0000
0000
0000
0000
0000
0000
FFFD
0004
FFFD
FFFF
0002
FFFF
FFFF
0002
0002
0001
FFFF
FFFF
FFFF
FFFC
0000
0000
FFFF
0000
0000
0000
FFFF
FFFD
FFFC
FFFC
0000
0000
0003
FFFF
0004
0003
0000
0002
0004
0002
0003
0001
0000
FFFF
FFFD
0003
0000
FFFE
0001
0002
0002
0002
FFFD
FFFC
FFFC
FFFD
0000
0000
0001
FFFF
0000
0005
FFFF
0003
FFFF
0000
FFFE
0001
0001
0000
0001
FFFD
0002
0000
0000
FFFF
0002
0002
FFFC
FFFE
0003
0003
0000
0004
0000
0002
0003
0004
FFFD
FFFE
0001
FFFF
0001
0003
FFFC
0001
0003
0000
0001
0000
0000
FFFF
0003
0004
0003
0001
FFFC
0002
0000
0003
0001
0004
0003
0000
0002
0003
0003
FFFF
0002
0001
0002
0000
0000
FFFC
FFFE
FFFE
FFFD
0000
FFFC
0000
0002
FFFE
0003
0003
0004
0000
0004
0003
FFFF
0005
0004
FFFD
0001
0004
0001
0000
FFFE
0000
0004
0001
0005
FFFF
0003
0003
0000
0003
FFFD
FFFC
FFFE
FFFE
0002
0001
0000
FFFF
0000
FFFE
0003
FFFD
FFFF
0002
0000
0002
0003
FFFF
0002
0002
0000
FFFD
FFFD
FFFC
0000
FFFD
0003
0000
FFFE
FFFD
0000
FFFE
FFFB
0001
0000
0001
0005
FFFF
FFFF
FFFF
0000
FFFF
0001
FFFE
FFFE
FFFD
0004
FFFF
0000
FFFD
0000
0000
0000
0000
0000
0000
0000
0000
0003
0000
FFFE
0000
FFFD
FFFD
FFFE
0002
0002
FFFE
FFFD
FFF9
0001
0000
FFFE
FFFD
0002
FFFE
FFFF
0001
0001
FFFF
FFFF
0001
FFFE
FFFF
FFFE
0001
FFFF
0000
0000
0003
0001
FFFD
FFFD
FFFF
FFFC
FFFC
0003
0000
FFFF
FFFE
FFFD
FFFD
0000
0003
0004
FFFE
0000
FFFF
0000
0001
0003
FFFD
0000
0004
0003
0003
0001
FFFC
0001
0003
0000
FFFF
0002
FFFC
FFFB
0000
0000
FFFD
0002
FFFF
FFFE
0000
FFFD
0002
FFFE
FFFF
0001
0000
0003
0004
FFFD
0000
0000
FFFD
0001
FFFC
0003
FFFF
FFFF
0000
FFFF
FFFE
FFFC
0000
0002
0001
0002
0002
0004
FFFD
0000
FFFD
0003
0002
FFFE
FFFC
0003
FFFA
0001
0000
FFFF
FFFC
FFFD
0002
0000
0003
FFFE
0000
0000
0002
FFFD
0004
0002
0001
0003
FFFE
0001
0002
0004
0001
0003
FFFF
0002
0000
FFFE
FFFE
0001
FFFF
0000
0001
0003
0000
0000
0004
0001
0002
0005
0003
0000
0000
0000
0002
0000
0001
0003
0002
0000
0000
0002
FFFD
0001
0002
FFFE
0000
FFFE
FFFC
0003
FFFE
0002
0003
FFFE
FFFC
0000
0002
0000
0002
0005
FFFE
FFFD
FFFD
0004
FFFE
0002
FFFC
0001
FFFF
0002
FFFC
FFFF
0001
FFFF
FFFF
FFFE
0002
0001
0001
0003
0000
0000
0000
0000
0000
0000
0000
0000
0000
0001
FFFF
FFFD
0000
FFFF
0001
FFFF
FFFF
FFFE
FFFE
FFFF
0000
0001
FFFE
FFFE
0003
0002
FFFC
0003
FFFD
FFFF
FFFD
FFFD
0000
0002
FFFC
FFFC
FFFF
FFFE
0004
FFFF
FFFF
0001
FFFD
FFFF
0002
0000
FFFC
0000
0000
0000
FFFE
0001
FFFC
0005
0002
FFFD
FFFC
FFFF
0000
0000
FFFE
0001
0000
FFFD
0000
FFFD
0003
FFFC
0002
0002
0000
0002
FFFE
FFFD
FFFE
0000
0002
0000
0002
0000
0001
0001
0000
0000
0000
FFFE
FFFD
0000
0002
0003
0004
0004
0004
FFFE
0000
0000
0002
FFFF
FFFF
0000
FFFF
FFFD
FFFF
0002
0002
0003
0000
0000
0004
0000
FFFE
0002
0001
FFFD
0000
FFFD
FFFE
0001
FFFF
0000
FFFD
0002
FFFD
0000
FFFE
0000
0001
0004
0000
0001
FFFD
0001
0000
0001
0000
FFFD
0000
FFFE
0000
FFFE
FFFB
0005
0000
0003
FFFE
FFFE
FFFD
0000
0000
0004
FFFD
FFFF
0005
0000
0000
0004
0001
0001
FFFF
0005
FFFF
FFFD
0004
FFFF
FFFB
0004
FFFD
0002
FFFE
FFFF
FFFC
0000
0001
FFFD
0003
0002
FFFF
0000
0000
0000
FFFF
0000
0003
0003
FFFE
0002
FFFE
FFFE
FFFD
0003
0000
FFFF
FFFC
0005
0001
0001
FFFC
FFFE
0003
FFFD
0004
0001
FFFD
FFFF
0003
0000
0000
FFFF
0004
0000
0000
0000
0000
0000
0000
0000
0000
0000
0001
0001
0002
0000
0002
0004
FFFF
FFFD
0000
0000
0005
0004
0000
0000
0003
FFFC
0003
0002
FFFD
FFFF
FFFF
0000
0002
0002
FFFC
FFFD
0002
FFFE
FFFE
0000
0002
0000
FFFB
0001
0001
0003
0000
0000
0000
0000
0000
FFFD
FFFD
0004
FFFF
0000
0000
0000
0003
0001
0000
0000
FFFE
FFFD
FFFF
FFFE
0003
0001
FFFD
0001
0000
FFFE
FFFD
0003
0000
FFFF
FFFC
FFFF
FFFD
0000
0000
FFFC
0000
FFFE
FFFE
FFFF
0004
0000
0003
0003
0002
0004
FFFC
0003
0002
FFFF
0003
0000
0001
FFFE
FFFD
0001
0002
FFFE
0005
0002
0000
0000
FFFC
0000
0001
0000
0000
0002
0004
FFFE
FFFE
FFFD
0001
0003
0003
0001
FFFD
0003
FFFE
FFFF
0001
0000
0000
FFFB
0003
0001
0003
0003
FFFB
FFFF
0000
FFFD
0000
0001
FFFF
0000
0004
0003
0002
0002
0000
FFFD
FFFE
0001
FFFD
0001
0000
0001
0002
0003
FFFE
FFFE
FFFE
0003
0005
0001
0000
FFFE
0001
FFFD
FFFE
FFFD
FFFE
FFFF
FFFF
0000
0001
FFFE
FFFD
0004
0003
FFFE
0005
0003
0000
0000
0001
0002
0000
FFFE
FFFC
0002
FFFD
FFFF
0004
0000
FFFF
FFFE
0000
0002
0001
FFFE
0000
FFFE
FFFD
0001
0000
0000
FFFD
FFFF
0001
0000
0001
0000
0000
0000
0000
0000
0000
0000
0000
0003
0001
FFFC
FFFF
0000
0000
0004
FFFF
0000
FFFE
0001
0000
0000
0001
FFFF
FFFF
FFFF
FFFB
FFFD
0004
0003
FFFF
0002
FFFD
0004
0001
0001
FFFF
0001
FFFD
0003
FFFF
0000
0000
FFFD
0003
0002
0001
0001
0000
0003
FFFC
FFFE
FFFC
FFFD
FFFB
FFFD
0001
0002
FFFE
0002
0003
0002
0001
FFFD
0000
FFFD
0000
0003
FFFF
0000
0002
0002
0004
0000
FFFF
0000
0000
0000
0003
FFFC
FFFF
0003
FFFF
0000
FFFC
FFFD
0004
0001
0002
0001
0001
FFFC
0002
FFFF
0000
FFFF
0002
FFFF
0003
0000
0003
0004
0001
0001
0003
0004
FFFE
FFFF
0000
FFFD
0000
FFFD
0000
0005
FFFF
FFFD
0000
0000
0000
0000
0000
0000
0000
0003
0002
FFFE
0001
FFFF
0001
FFFC
0003
FFFE
0001
0000
FFFF
0001
FFFE
FFFF
0001
0002
0001
0000
0002
0000
0004
FFFF
FFFF
0003
0001
0000
FFFD
FFFD
0002
0000
FFFE
0004
0000
FFFE
FFFB
FFFD
0003
0002
0000
0000
FFFF
FFFE
0000
0000
FFFF
0000
0004
0001
0001
0001
0001
FFFE
FFFE
FFFC
FFFD
FFFF
0000
FFFE
FFFF
0000
FFFF
0005
0002
FFFD
FFFD
FFFE
FFFF
0000
0001
FFFD
0000
FFFE
0000
FFFE
FFFE
0002
0000
FFFE
0000
FFFC
FFFC
0000
0000
0002
0005
0000
0000
0000
0000
0000
0000
0000
0000
FFFD
0000
0001
FFFE
0000
0001
0000
FFFD
FFFE
FFFE
0001
0000
0004
0004
0000
FFFE
FFFE
0003
0000
FFFE
0000
FFFE
FFFE
0002
0001
FFFE
FFFF
0000
0003
FFFF
FFFB
0003
FFFF
0001
0002
0001
0000
0002
FFFF
0001
0005
FFFE
0000
0000
0003
FFFE
0000
0000
FFFE
0001
0001
FFFC
0003
0000
0000
0000
0001
0001
FFFF
0002
0000
0004
0002
0002
FFFF
FFFE
0000
0001
FFFE
FFFE
0000
FFFC
FFFE
0000
0003
0001
0000
0002
0000
FFFE
0005
FFFC
0000
FFFD
FFFF
FFFE
FFFD
0000
FFFC
0001
FFFF
FFFD
0000
0005
0000
0004
FFFE
0000
0001
0001
0001
0000
FFFE
0000
0003
0003
0003
FFFB
FFFE
FFFD
FFFE
0000
0001
FFFB
FFFC
FFFF
FFFF
0003
0004
0003
0000
FFFF
0001
0001
FFFE
0000
FFFD
0000
FFFF
FFFC
FFFE
0000
0002
FFFC
0000
0002
0002
0001
0001
0003
0005
FFFD
0001
FFFD
0005
0004
0002
0001
0003
FFFC
0000
FFFD
0004
FFFD
0003
FFFF
0000
FFFF
0000
0001
0000
0004
0001
0004
0003
0000
0002
FFFD
0000
0001
FFFD
0000
0000
0004
FFFF
0002
0001
0001
0004
0004
FFFE
0004
FFFD
FFFF
0003
0001
0000
FFFF
0002
FFFF
FFFE
0000
0001
FFFD
0000
0003
0004
0000
0000
FFFC
0000
0000
0000
0000
0000
0000
0000
0000
0002
FFFE
0001
0000
0001
0000
FFFD
0000
FFFC
FFFF
FFFE
0001
0000
0003
FFFF
FFFD
FFFF
0004
0002
FFFF
0003
FFFE
0001
0000
FFFF
0001
0000
0003
0000
0000
FFFB
0003
FFFC
0004
FFFF
0001
0003
0000
0002
0001
FFFD
0004
FFFD
0004
0002
0000
0001
0003
FFFE
FFFE
0000
FFFB
0000
FFFF
0003
0001
FFFF
FFFA
FFFC
0001
0000
FFFF
0005
0001
FFFF
0001
0000
FFFE
FFFE
0000
0000
0003
0004
FFFE
FFFC
FFFE
0000
0000
0000
FFFC
FFFF
FFFE
0000
0003
0000
0002
FFFE
FFFC
0003
0000
FFFD
0002
FFFF
0002
FFFC
0004
FFFD
0000
0001
0002
0001
FFFD
FFFB
0001
0000
0000
FFFE
0001
FFFE
FFFC
0000
FFFC
0004
0001
FFFE
0000
FFFF
FFFE
0000
0004
0000
FFFB
0000
FFFF
0002
0000
0001
0004
0003
0002
0002
0005
0003
0002
FFFF
FFFE
FFFF
FFFE
0000
FFFD
0000
0001
0001
FFFC
FFFE
FFFE
0002
FFFD
FFFE
0000
0000
FFFF
FFFF
0003
0000
0002
0000
0000
0001
FFFE
0000
0003
FFFD
0003
0004
0002
FFFF
0002
0000
FFFD
FFFC
0002
FFFF
0004
FFFE
0001
0001
0000
0001
FFFE
FFFC
0000
0003
0000
0003
FFFF
FFFD
0003
0004
0001
0003
0000
0001
FFFC
0000
0001
0001
0000
FFFC
FFFF
0000
0000
0000
0000
0000
0000
0000
0000
0001
0003
0000
FFFD
0002
0001
0004
0002
0000
0000
0000
0000
0001
0002
0002
0000
0001
0000
FFFE
0001
0002
0004
FFFF
FFFF
0000
FFFF
FFFE
0001
0001
0002
0001
0003
FFFD
FFFF
FFFC
FFFF
FFFF
FFFB
FFFC
FFFF
FFFE
0001
0001
0000
0000
0003
0005
0000
0000
0005
0000
FFFE
0000
0004
0006
0001
0001
FFFE
FFFD
FFFE
0002
0002
FFFC
0003
0000
0000
0000
0002
0000
0001
FFFD
FFFD
0003
0002
0000
0000
0000
0000
0001
FFFC
0002
FFFD
FFFF
0002
0002
0004
FFFF
0003
0000
FFFD
FFFE
FFFF
0003
FFFF
FFFD
FFFD
0001
0000
0003
0003
0001
FFFC
0000
FFFE
FFFC
0000
0001
0002
0000
0001
0000
FFFC
0002
0000
0001
0004
0000
0000
0002
0003
0000
0000
0002
0004
0001
0003
0000
0000
0002
0003
0003
0000
0002
FFFC
FFFF
FFFF
0001
0003
0001
0005
0003
FFFE
0004
0003
0000
FFFF
FFFC
0003
FFFF
0000
0002
0006
0000
0000
FFFE
0000
FFFE
0001
FFFE
0002
FFFE
0000
FFFD
0001
0001
0002
FFFF
FFFF
FFFD
FFFF
0004
FFFD
FFFF
0005
0004
0002
FFFF
0003
0002
0000
0002
0000
0002
0000
FFFD
FFFE
0002
0000
0002
FFFF
0000
0003
0000
0000
0001
0003
0002
0001
0001
0002
0000
0000
0000
0000
0000
0000
0000
0000
0002
FFFC
FFFD
0004
0004
0003
0002
0002
0000
0001
0000
0000
FFFF
FFFC
FFFE
0003
FFFD
0000
FFFF
0001
0003
0000
0004
0003
FFFD
0003
0003
0000
FFFD
FFFE
0002
FFFF
0003
0000
FFFE
0001
FFFE
0003
FFFE
0005
0003
0000
FFFE
0002
0000
FFFC
0002
0000
FFFD
0002
0003
0000
FFFF
0003
0003
FFFF
0000
0001
0001
0000
0003
FFFD
FFFC
FFFE
FFFC
0002
0003
0005
FFFF
FFFE
FFFE
FFFE
FFFF
FFFE
0000
0002
0001
0004
0000
0000
0001
0000
0000
FFFC
FFFE
0001
0002
FFFE
0000
FFFF
0002
0002
0000
0000
FFFC
FFFF
FFFD
0001
FFFC
FFFD
0002
FFFE
0001
0002
0003
0003
0002
FFFC
0003
0000
0004
0002
0002
0001
FFFD
0000
0001
FFFE
FFFE
0000
0001
FFFC
FFFE
0000
FFFE
FFFD
FFFE
0001
FFFD
0001
0001
FFFB
FFFD
FFFF
FFFE
0005
0001
0001
0000
FFFE
FFFA
FFFC
FFFF
0004
FFFE
FFFD
FFFD
0003
0002
0001
0000
0003
0003
0000
FFFD
0001
0000
0000
0000
FFFC
0003
FFFC
0001
FFFE
0001
0002
0003
0002
0000
0005
0005
0000
0003
0000
FFFC
0002
0003
0000
0000
FFFE
0001
0001
FFFF
0004
0002
0002
0002
0004
FFFE
0002
FFFD
0000
0001
0003
0001
0001
FFFD
0001
FFFF
0001
0000
0000
0000
0000
0000
0000
0000
0000
FFFD
0001
FFFB
FFFD
0001
0003
0000
0000
FFFC
0002
FFFF
FFFE
0001
0002
0001
0004
FFFD
FFFD
0002
0000
FFFF
0000
0002
FFFE
FFFC
0002
0003
FFFD
0000
FFFE
FFFD
0000
0003
0000
0001
0001
0000
0000
FFFF
FFFF
0002
0002
FFFE
FFFF
0004
FFFF
0003
0000
FFFE
0000
0001
0000
0000
FFFD
0003
FFFC
0001
0001
0000
0003
0000
0002
FFFF
FFFC
0004
FFFD
0000
0001
0000
FFFE
0001
0000
FFFF
0001
0003
FFFD
0001
FFFE
FFFC
0000
FFFD
0000
FFFD
FFFB
0000
0003
0000
0000
0002
FFFF
0002
FFFE
FFFC
FFFE
FFFF
FFFE
0000
FFFF
0002
0001
FFFF
0003
0003
FFFF
0003
FFFE
FFFC
0002
0000
FFFB
0004
FFFC
FFFF
0003
0000
FFFE
0003
0000
FFFE
0002
0004
FFFF
FFFF
FFFB
FFFE
FFFC
0003
0000
0002
0005
0000
0000
0004
0001
FFFE
0004
0003
FFFD
FFFF
0004
FFFE
FFFE
0002
0000
FFFE
FFFE
0001
FFFD
0003
0001
0000
FFFE
0004
FFFF
0000
0002
0005
FFFF
FFFF
FFFC
0002
0000
FFFD
0000
FFFE
0003
FFFD
0002
0001
FFFC
0001
0003
FFFF
0000
0000
0001
0002
0003
FFFF
0001
0003
0002
FFFD
FFFC
0003
FFFD
0000
FFFC
FFFF
0002
FFFC
FFFF
FFFC
0001
FFFE
0002
0000
FFFF
FFFD
0001
0000
0000
0000
0000
0000
0000
0000
0000
FFFF
0003
FFFF
0000
FFFD
0000
0000
0002
0001
0000
FFFF
0003
0000
0002
0000
0000
FFFE
0001
FFFD
0001
FFFD
FFFF
0001
FFFB
0001
FFFC
0001
FFFE
0002
0004
0001
0003
0000
0003
0002
FFFF
FFFF
FFFE
0001
FFFF
0000
FFFF
0001
0000
FFFD
0000
0000
0002
0003
0001
0000
0000
FFFC
0003
0000
FFFE
0000
FFFD
0000
0003
0004
0000
0002
FFFF
0000
FFFF
0000
FFFC
0001
FFFD
FFFB
0002
FFFE
FFFD
FFFE
0000
0002
FFFC
FFFE
0001
0001
FFFE
0002
FFFF
0002
0000
0004
0000
FFFE
0004
FFFD
FFFD
FFFE
FFFD
0000
FFFF
0000
0000
0004
FFFD
0001
0001
FFFF
0000
FFFF
0002
FFFD
0002
0001
0001
FFFD
FFFC
FFFD
0003
FFFF
FFFF
FFFE
FFFD
0000
0003
0003
0002
0000
FFFE
FFFF
FFFC
FFFE
0002
0002
FFFC
0000
FFFC
FFFD
FFFD
0001
0001
0000
FFFE
0000
FFFD
0000
0002
FFFE
FFFE
FFFD
FFFE
FFFF
0003
0004
0002
FFFE
0003
0000
0001
0002
0000
0002
0005
0003
FFFD
0000
FFFE
0000
0002
0003
0000
0001
FFFF
FFFE
FFFF
FFFD
FFFD
0004
0000
FFFD
0000
0000
0002
FFFE
0003
0000
FFFF
0002
0000
0000
FFFE
0002
0003
FFFD
0000
FFFE
0001
0000
0001
FFFD
0000
FFFC
0002
0001
FFFD
0000
0000
0000
0000
0000
0000
0000
0000
0000
FFFC
0001
0000
0000
0003
FFFD
0000
0001
0000
0000
FFFD
0000
0001
FFFE
0001
0000
FFFE
0000
FFFE
0000
0002
FFFF
FFFF
FFFE
0002
0003
0000
FFFF
0002
0001
0000
FFFE
0000
FFFF
FFFF
0002
0000
0000
FFFE
FFFE
FFFF
FFFF
0003
0000
0005
0000
0001
FFFE
FFFE
0003
0001
FFFD
FFFE
0004
0000
0003
FFFD
FFFF
FFFF
0002
FFFB
FFFB
0000
0002
FFFC
FFFF
0001
0001
FFFD
FFFC
0000
0000
0002
FFFE
FFFD
0003
0000
FFFF
FFFF
0003
0000
0000
0000
0000
0001
FFFD
0002
FFFF
0001
0000
0003
FFFD
0000
FFFE
0002
FFFC
FFFF
FFFC
FFFC
0000
0001
FFFE
FFFD
0000
FFFD
FFFC
0002
0003
0003
0006
0005
FFFE
0000
0000
0002
FFFF
0003
0003
0004
0000
0000
0004
0005
0002
FFFE
FFFD
FFFD
0000
FFFB
0000
0000
FFFE
0000
FFFD
FFFC
FFFE
FFFD
0002
0000
0003
FFFF
FFFE
0003
FFFD
0002
0004
FFFC
0003
0000
FFFE
0003
0000
0003
FFFE
FFFE
FFFC
0000
0001
0001
0003
FFFF
0002
0003
0001
0000
FFFE
FFFF
FFFD
0001
0003
FFFE
0002
FFFD
0000
FFFE
0003
FFFF
0002
0003
FFFE
FFFF
0001
0000
0000
0000
0004
0006
0002
0003
0001
0000
0003
FFFC
FFFF
FFFD
0005
FFFA
FFFA
FFFA
0000
0000
0000
0000
0000
0000
0000
0000
FFFF
0002
0000
0002
FFFE
FFFF
0000
0000
0000
0002
FFFD
FFFE
FFFE
FFFF
FFFF
FFFE
0000
0002
FFFF
0003
0003
FFFF
FFFD
FFFD
FFFC
0002
0003
0004
FFFF
0004
0004
FFFF
FFFD
FFFC
0000
FFFE
0000
0000
FFFC
0000
0000
0002
FFFF
0004
FFFE
0000
0004
0001
0000
0004
0000
0001
0003
0000
0000
FFFE
0000
FFFF
FFFE
0006
0001
0001
FFFE
FFFD
FFFE
FFFF
FFFF
0003
0002
FFFF
FFFE
0000
FFFF
0000
0000
FFFB
0000
FFFF
0000
0002
0000
0003
0000
0003
0001
FFFF
0002
0003
FFFE
FFFD
0000
0000
0000
0004
FFFF
0002
FFFE
0003
0002
FFFD
0001
0002
0004
0001
FFFE
0001
0001
FFFE
FFFC
0000
0000
0001
0000
0001
0000
0000
0000
0003
0000
0000
0001
FFFE
0003
FFFD
FFFC
0000
FFFE
FFFC
0000
0005
0005
0000
0003
0001
0000
FFFD
0003
FFFF
0000
0002
0004
FFFE
0001
FFFA
0001
FFFE
0000
0003
0000
0000
FFFE
0000
0000
0001
0000
0000
0003
0001
0000
0001
0003
0000
0003
FFFF
FFFD
0000
0000
0001
0000
0000
0002
FFFF
FFFE
0000
FFFF
0003
0000
0001
FFFF
0002
0002
0000
FFFF
0000
0001
0000
0002
0004
0004
0003
0001
0000
0000
0001
0005
0003
FFFE
0000
FFFD
FFFF
0000
0000
0000
0000
0000
0000
0000
0000
FFFD
0005
0000
FFFF
0000
FFFF
FFFE
0001
0000
0000
0003
FFFC
FFFF
0001
0001
0003
0003
0000
FFFD
0000
0003
0004
0001
0000
FFFD
FFFF
0000
FFFE
0003
0000
FFFF
0001
FFFD
FFFD
0002
FFFB
FFFF
FFFD
0000
0000
0004
0001
FFFF
0001
FFFD
0001
0003
0000
0000
0000
FFFE
0004
0004
0001
0003
FFFD
FFFF
FFFF
0001
0002
0001
0002
0001
0000
0002
FFFD
FFFD
0000
FFFE
0000
FFFE
0002
FFFE
0000
0000
0000
0002
0003
0004
0004
FFFE
FFFF
FFFF
0002
FFFE
0000
FFFF
0003
0000
FFFC
0002
FFFB
0001
0000
FFFE
0001
0001
FFFD
0000
0000
FFFF
0000
0003
0001
0003
0000
0001
0002
0003
0002
0002
0000
0001
FFFD
FFFE
FFFD
0003
0002
FFFE
0000
0000
FFFD
FFFB
FFFF
FFFE
FFFF
0000
FFFF
0002
0004
0000
0000
FFFD
FFFE
0000
FFFF
FFFB
0000
FFFF
0000
FFFD
0002
0000
0003
0003
0004
FFFE
0002
0002
0001
0000
FFFD
0000
FFFE
0001
0000
0001
FFFD
0003
0003
0001
FFFE
0000
0000
0001
0002
FFFE
0001
FFFD
0000
0000
FFFE
FFFD
0004
0003
FFFF
0000
FFFF
0000
0001
FFFE
0000
0004
FFFF
0000
0001
0000
FFFE
FFFD
FFFF
FFFE
FFFE
FFFD
FFFE
0001
FFFF
FFFC
0000
FFFE
0000
0000
0000
0000
0000
0000
0000
0000
0000
FFFB
0000
0004
0003
0004
0002
0000
FFFF
0003
0003
0003
FFFF
0000
0001
FFFF
0001
0000
0001
FFFF
FFFE
FFFE
FFFD
FFFF
FFFF
0000
0000
0002
FFFD
FFFF
FFFD
0003
0002
0000
FFFE
0001
FFFB
FFFC
FFFF
0000
0001
FFFC
0001
0002
FFFE
0000
0003
0001
0002
0000
FFFF
0002
0000
0002
0000
0000
0000
0001
FFFD
0002
FFFC
FFFE
FFFF
FFFE
0001
FFFF
FFFD
FFFC
FFFF
0001
0001
FFFE
0001
0001
FFFE
0002
FFFF
0005
0003
0002
0000
FFFE
0002
FFFF
FFFD
0003
FFFE
FFFD
0001
0002
FFFD
0002
0000
0001
0000
FFFE
0002
0002
0003
0003
FFFC
FFFF
0003
FFFE
FFFE
0000
0002
0000
FFFA
0002
FFFB
FFFC
0002
FFFE
0000
FFFF
0000
FFFE
0000
0001
0000
0000
FFFF
0002
0001
FFFF
0003
0000
FFFD
FFFE
0003
0004
0004
FFFE
0003
0001
FFFF
FFFD
0002
0003
FFFD
0001
FFFD
FFFE
0001
FFFD
FFFF
0003
FFFB
0001
FFFC
FFFD
0002
0000
FFFD
FFFD
0002
FFFE
FFFE
FFFD
0000
FFFF
0001
0000
0000
FFFF
0003
0003
FFFC
0001
0002
0002
FFFE
FFFC
FFFE
FFFE
0002
FFFD
FFFD
FFFB
FFFD
0003
0000
0002
0000
FFFD
FFFF
FFFE
FFFD
0000
FFFD
0000
FFFE
0000
FFFD
FFFC
0002
0000
0000
0000
0000
0000
0000
0000
0000
0000
0000
0000
0000
FFFF
0003
FFFC
FFFD
FFFE
0002
0002
0000
0000
FFFE
0001
0001
0000
0001
0001
FFFC
FFFD
FFFD
FFFD
0001
0000
FFFC
0000
0000
0002
0002
0000
0000
FFFF
0002
FFFD
FFFA
0000
0004
0000
FFFF
0000
FFFE
FFFF
0001
0002
FFFE
0005
0001
FFFC
FFFD
FFFF
FFFC
0000
0000
0000
FFFF
0001
0000
0000
0000
0001
0002
0002
0004
0002
FFFF
0000
FFFE
0001
0004
0000
0001
0003
FFFD
0000
0001
FFFD
0003
0001
FFFC
0000
0002
FFFF
FFFC
0002
0001
0004
0006
FFFF
FFFF
FFFE
0001
0003
FFFC
FFFF
FFFE
0001
0000
0000
FFFD
FFFC
0004
0001
0001
0000
0001
0003
FFFF
FFFD
0002
0004
0003
FFFD
0002
FFFF
0000
FFFE
FFFE
0000
0001
0003
FFFD
0000
0002
0000
FFFF
0001
0003
0001
0001
0003
FFFE
0000
0001
0002
FFFB
0000
FFFE
FFFD
0002
FFFF
0000
0003
0003
0003
0004
0002
0004
0000
FFFD
FFFE
FFFF
FFFE
0004
0002
0001
0001
FFFF
0000
0001
0002
0000
0000
FFFD
FFFF
0001
0002
FFFE
0002
0001
0000
0002
0000
0000
0000
FFFC
FFFE
0002
0001
FFFF
0003
FFFB
0003
0000
0001
0002
FFFE
FFFE
FFFF
FFFE
0000
0000
0004
0000
0003
0003
FFFF
0004
FFFE
FFFE
0001
0003
FFFF
FFFF
0000
0000
0000
0000
0000
0000
0000
0000
0001
0000
0004
0002
0000
FFFC
FFFF
FFFF
FFFF
0000
FFFC
FFFF
FFFE
FFFE
0002
0001
FFFF
FFFF
0000
0002
0000
FFFF
FFFE
0001
0000
FFFD
0003
0001
0003
FFFC
0003
0001
0003
0000
0004
0001
FFFB
0003
FFFC
FFFE
FFFD
FFFC
FFFE
0001
0002
FFFD
FFFE
FFFC
FFFD
0000
FFFC
0002
FFFC
FFFF
FFFE
0000
0002
0000
FFFC
0003
0000
FFFD
FFFF
FFFD
FFFD
FFFC
FFFD
0002
FFFF
0000
0001
FFFD
FFFD
0002
0000
FFFE
0004
0004
FFFE
FFFE
FFFF
0000
FFFE
0001
FFFD
0003
FFFC
0001
0003
FFFF
FFFE
0000
0002
0000
0000
0000
0002
FFFD
0004
FFFF
FFFF
0002
0002
FFFF
FFFF
0004
0000
0002
FFFD
0005
FFFD
0004
0004
FFFD
0000
0000
FFFF
0000
FFFF
0004
FFFF
FFFE
0002
0001
0004
0000
0004
0001
0000
FFFF
0000
0004
0001
FFFE
FFFE
0000
0002
FFFF
0005
FFFD
FFFF
0006
0003
FFFF
0004
0000
0001
FFFF
0004
0001
0001
FFFC
0002
0000
0000
0001
0001
0003
FFFE
FFFD
0002
FFFF
FFFC
0000
FFFF
0004
FFFE
FFFD
0000
FFFF
0000
FFFD
0004
FFFE
0004
0003
0000
FFFE
FFFD
0004
0001
FFFD
0001
FFFF
FFFC
0000
0002
FFFE
FFFD
0002
FFFE
FFFC
0002
FFFE
FFFE
0001
0000
FFFD
0000
FFFE
0000
0000
0000
0000
0000
0000
0000
0000
0002
FFFF
0001
0000
FFFD
FFFD
FFFF
FFFB
0001
FFFE
0003
0000
0004
0000
FFFE
FFFD
0002
0002
0005
0000
0003
0000
FFFD
FFFE
0000
0000
FFFE
0002
FFFC
FFFD
0003
FFFE
FFFF
0000
FFFC
0000
FFFE
FFFC
FFFC
0002
FFFF
0003
FFFE
0003
0000
0003
0002
0000
0000
0002
0000
0002
0000
FFFF
0003
FFFA
0003
0000
FFFE
0001
0003
0000
FFFF
0001
0000
0003
FFFE
FFFE
0004
0001
0000
0000
0000
0005
0001
0000
FFFD
0000
0000
FFFC
0003
FFFD
FFFD
0000
0004
0003
0002
FFFF
0004
0001
FFFF
0001
0002
0003
FFFD
FFFF
0002
0004
0004
0001
0004
0001
0001
0000
0004
0001
FFFF
0002
FFFF
FFFF
0003
FFFE
0002
FFFF
FFFE
0000
FFFE
0000
FFFC
0004
FFFF
FFFE
FFFF
FFFF
0000
0003
0000
FFFF
0002
0001
0002
FFFF
0001
0003
0000
0001
0001
0002
0000
FFFF
0002
0003
0004
FFFC
0001
0000
FFFC
FFFF
0000
FFFF
FFFD
0000
0002
FFFB
FFFF
0001
FFFF
0001
0006
FFFD
0000
0000
0001
FFFD
FFFD
FFFD
0000
FFFE
FFFE
FFFE
FFFD
0002
0002
0000
0001
FFFF
0000
0004
FFFF
0002
FFFD
0004
FFFE
FFFE
0004
0002
FFFF
FFFD
FFFD
FFFE
0000
FFFB
0001
FFFF
0000
0000
FFFD
0003
FFFD
FFFF
0000
0000
0000
0000
0000
0000
0000
0000
0000
0003
0000
FFFD
FFFF
FFFE
FFFE
FFFB
FFFE
0000
FFFD
0003
0003
0000
0003
FFFD
FFFC
0001
0003
0002
FFFF
0003
0002
FFFF
0004
0002
0004
FFFD
0004
FFFC
0002
0000
FFFD
0000
0003
0000
0002
FFFE
0001
0001
FFFC
0001
FFFD
0000
0001
0001
FFFC
0000
FFFC
0001
FFFF
0004
FFFF
FFFF
FFFC
0000
FFFF
0000
FFFC
FFFE
FFFD
FFFF
FFFE
0006
FFFD
FFFD
FFFF
0000
FFFE
0001
0004
0000
FFFE
0003
0002
0000
0000
0000
0003
0001
0000
0000
FFFD
FFFE
FFFF
0000
0000
0000
FFFF
FFFF
0002
0004
FFFD
0000
FFFB
FFFF
FFFE
FFFE
FFFD
0000
FFFE
0000
0000
0000
0003
0000
FFFE
0000
FFFF
0003
0002
0002
0001
0004
FFFC
0000
FFFE
FFFD
FFFF
FFFD
0000
0000
0001
FFFE
FFFE
0001
0002
0000
0000
0000
FFFC
0002
0000
FFFD
0003
FFFF
0000
0000
0002
FFFF
0004
FFFD
0003
FFFC
0000
0002
0000
FFFC
0004
0000
FFFD
0001
0003
0003
FFFE
0004
0000
FFFF
FFFF
FFFE
0000
FFFE
FFFE
0000
FFFE
0001
0002
0000
0000
0002
FFFD
0000
0002
0000
FFFE
FFFB
FFFE
0000
0003
0000
0000
0005
FFFD
FFFE
0000
FFFF
0002
FFFC
0001
FFFD
0003
0001
FFFF
0003
FFFC
0002
FFFF
0003
0003
FFFF
0000
0000
0000
0000
0000
0000
0000
0000
0000
0004
0000
FFFC
FFFE
FFFD
FFFC
FFFC
0002
FFFF
FFFF
0002
0002
FFFF
0003
0001
FFFE
FFFE
0000
0000
0000
FFFE
0000
0001
FFFE
0001
0004
0000
0003
0002
0000
FFFE
FFFC
FFFE
FFFF
FFFB
FFFD
FFFD
0000
0004
0003
0001
0001
0001
0003
0004
FFFD
FFFC
FFFE
0000
0000
0000
0001
FFFF
FFFB
0000
FFFD
0001
0003
0003
0001
FFFF
FFFD
FFFC
FFFF
FFFF
0000
FFFC
0001
0003
0002
0002
0000
FFFD
0000
0000
FFFE
0002
FFFF
0003
0002
0000
0000
FFFD
FFFF
0000
0002
0003
0004
FFFF
0001
0001
FFFF
FFFD
0003
0001
FFFC
FFFF
FFFE
FFFD
0000
0000
0003
0005
FFFE
0001
FFFE
FFFE
FFFC
0003
FFFF
0000
0000
0000
0003
FFFE
FFFD
0001
0000
FFFE
FFFC
0003
0004
0003
FFFD
FFFD
0001
0000
FFFE
0000
0001
0001
FFFF
0002
0000
0000
0002
0002
FFFC
0001
FFFE
0004
0003
FFFA
FFFD
FFFD
FFFE
0001
0003
0003
FFFE
0001
0001
0002
0000
0001
FFFE
0001
FFFE
0001
0000
FFFE
FFFF
0001
FFFE
FFFE
FFFD
FFFD
0000
0002
FFFC
FFFC
0000
0002
0001
0002
0000
FFFD
0000
FFFF
0000
0003
FFFC
0000
0002
FFFE
0001
FFFC
FFFF
FFFD
FFFD
FFFC
0002
0003
FFFD
0004
0000
FFFE
FFFC
0000
0000
0000
0000
0000
0000
0000
0000
0000
0000
0003
0000
0003
0004
FFFE
0003
FFFE
FFFE
FFFC
FFFD
FFFF
0000
FFFF
FFFF
0001
FFFF
0000
0004
0004
0003
FFFD
0003
0002
0000
0000
0001
0003
0002
0000
FFFF
0000
0000
FFFD
0001
0003
0001
FFFF
0002
FFFD
FFFC
FFFD
FFFF
FFFE
0001
FFFF
0000
0000
FFFE
FFFF
0003
0003
0003
0001
0000
0004
FFFD
0002
0000
0003
0000
FFFC
FFFF
0000
0003
FFFE
0003
0000
0000
0000
0000
FFFD
0001
0000
FFFE
FFFF
0002
0000
0001
0001
FFFD
FFFD
FFFE
0003
0001
0001
0003
FFFD
0000
0000
FFFD
FFFE
FFFF
0003
0001
FFFD
0001
FFFC
FFFF
0000
0000
0002
0000
0002
FFFF
FFFF
0000
0004
0000
0002
FFFF
0003
FFFE
FFFD
0003
0003
0002
FFFF
0000
FFFD
0003
0000
FFFF
0003
0003
FFFF
FFFF
0000
0000
0000
FFFF
0000
0000
FFFF
0004
0003
0002
0000
0000
FFFE
0000
0000
0001
FFFE
0000
0000
FFFF
0003
0000
0003
FFFE
0000
FFFE
0004
0000
FFFF
0004
0003
0004
FFFF
FFFC
0000
FFFE
0001
0004
0000
FFFD
FFFE
FFFE
0003
0002
FFFE
0000
FFFC
0000
FFFD
0001
0004
0000
FFFF
0000
0000
0003
FFFF
0003
0004
0001
0000
0002
FFFC
0002
0000
0001
0002
0003
FFFD
0000
0002
FFFF
FFFD
0000
0000
0000
0000
0000
0000
0000
0000
FFFF
0000
FFFF
0000
0003
FFFF
0002
0002
0003
FFFC
0002
FFFE
0000
FFFF
FFFF
FFFF
FFFF
FFFD
0004
0001
FFFD
0003
0000
0001
0003
0000
0001
FFFC
0001
FFFD
FFFF
FFFD
0000
0000
0002
0000
FFFF
FFFC
FFFE
FFFF
0003
0003
0001
0000
FFFC
0000
0002
0000
0001
0002
FFFF
FFFE
FFFE
FFFE
0003
0000
FFFF
0003
0001
0003
FFFF
0000
0000
0002
0001
0002
FFFC
0002
0005
0000
0000
0004
FFFE
0001
0000
0003
0000
FFFE
FFFF
0002
FFFE
0005
0001
0000
FFFD
FFFF
0001
FFFF
0001
0000
0000
0004
FFFF
0000
FFFF
0004
0004
0001
FFFF
0001
0000
0000
0001
0002
0002
FFFF
FFFF
0003
0001
0000
FFFE
FFFF
0001
0001
0000
FFFF
0000
0003
FFFC
0004
0000
FFFD
0001
0000
0002
0000
0003
FFFD
FFFD
0003
0000
0001
0002
FFFE
0003
FFFD
FFFF
FFFD
FFFC
0000
0000
FFFE
0006
FFFC
FFFE
0000
0003
FFFD
0000
0001
0004
FFFF
0000
0000
FFFF
FFFE
0000
0000
0003
0001
0002
0002
0003
0001
FFFF
0001
0005
FFFD
0000
0001
FFFE
0000
FFFF
0001
FFFF
FFFE
0001
0000
0000
0000
0002
0000
FFFD
0000
0000
0003
0003
0000
FFFF
0001
0001
0000
0000
0004
FFFD
0000
0002
FFFF
0001
FFFE
0000
0000
0000
0000
0000
0000
0000
0000
FFFC
FFFE
FFFD
FFFD
0004
0002
FFFE
FFFF
FFFD
0001
0002
FFFE
0003
0000
FFFE
0003
0004
0002
0000
FFFF
FFFC
FFFD
0002
0000
FFFB
FFFE
FFFE
FFFF
0000
0002
0000
0003
FFFD
FFFF
0003
FFFF
FFFD
FFFE
0000
0003
0003
0000
0000
0000
FFFD
0004
FFFD
0003
0000
FFFE
FFFF
0000
0001
0002
0000
FFFF
0003
FFFF
0002
FFFC
0000
FFFD
0002
0000
0004
FFFD
0001
0001
FFFC
FFFD
FFFD
0002
0001
0000
0000
0002
0000
FFFF
0000
0002
0000
0004
FFFE
0000
FFFB
FFFE
0000
0000
0002
0001
FFFC
0003
0001
0001
FFFE
FFFF
FFFD
0000
FFFD
FFFC
0002
FFFC
FFFD
FFFB
0001
0000
0004
0002
0001
0000
0001
FFFC
0000
0001
FFFF
0003
0002
0000
0000
0000
FFFF
0002
0000
0004
0000
0000
FFFD
FFFF
FFFC
FFFD
FFFD
FFFF
0001
0003
0001
0002
0003
0000
0002
0000
FFFE
0000
FFFD
FFFE
0000
FFFF
0001
0002
0000
0001
FFFE
0001
FFFD
0004
0002
FFFF
0002
0001
0003
0000
FFFE
FFFD
FFFC
0004
0000
0004
FFFF
0000
0000
0000
0002
FFFE
0003
0002
0002
0003
0003
0000
0001
0003
FFFC
0002
FFFD
FFFD
0003
FFFE
FFFC
0000
0000
FFFE
0000
0002
0003
0003
FFFD
0000
FFFE
FFFF
0003
0002
0000
0000
0000
0000
0000
0000
0000
0000
0003
FFFF
FFFB
0001
0003
0001
0004
FFFF
FFFC
FFFC
FFFE
0000
0000
FFFE
0000
FFFD
0004
0001
FFFE
FFFC
FFFF
0001
0004
FFFD
0002
FFFF
0000
0001
0000
0002
0000
FFFC
FFFF
0002
0004
0001
FFFD
0000
0004
0000
FFFC
0000
0003
0000
FFFD
FFFF
0003
0000
FFFF
FFFE
0000
0001
0003
FFFE
FFFF
0000
FFFD
FFFE
FFFF
0000
FFFE
0000
0001
FFFD
0000
0000
0000
FFFD
FFFC
FFFF
0000
FFFE
FFFC
FFFC
FFFB
0004
0000
0001
0000
FFFD
0004
0000
FFFD
0002
FFFF
0000
0000
0002
0003
0003
0000
0003
0000
FFFE
FFFF
FFFF
FFFE
0000
0002
0001
0002
0000
0001
0001
0000
0000
0000
0000
0005
0001
0002
FFFE
0000
0002
0004
0001
0000
0001
0000
0004
FFFD
0002
0004
0000
FFFE
FFFF
FFFF
0000
FFFE
0003
0003
0000
FFFF
0001
FFFE
0003
0000
0000
0000
0002
0003
FFFC
FFFE
0002
0001
0000
0002
0000
0000
FFFD
0001
FFFD
FFFD
FFFE
FFFE
0005
0001
0003
0003
FFFC
0000
0001
0000
FFFF
0003
0002
0000
0004
FFFE
FFFD
FFFF
0002
0000
FFFF
0002
0000
FFFC
0000
FFFC
0003
0002
FFFF
FFFD
0000
FFFD
0000
FFFF
0000
FFFF
0000
0000
0001
0001
0000
FFFE
0003
0003
0002
0000
0000
0000
0000
0000
0000
0000
0000
0000
0000
FFFF
0001
0000
0002
0004
0000
FFFD
0002
0000
FFFF
FFFC
0001
0000
FFFD
FFFD
FFFE
0000
0000
FFFE
0003
0003
0000
0001
FFFE
FFFF
FFFD
0000
FFFF
FFFE
0001
FFFE
FFFE
FFFE
FFFC
0000
0000
FFFD
0002
0000
0000
0003
0002
0000
0000
0000
0002
FFFF
0000
0000
FFFE
FFFD
FFFC
0001
FFFF
0001
FFFF
0001
0001
0000
0003
FFFD
FFFD
0000
0002
0000
0000
0001
FFFF
FFFE
0000
0000
FFFD
0001
0004
FFFC
0003
FFFD
0000
0002
FFFD
0000
0000
FFFF
FFFF
0000
FFFD
FFFD
FFFF
FFFC
0000
0002
0002
0003
FFFD
0001
FFFF
0004
FFFD
0001
0003
0001
0000
0000
0004
0002
FFFC
0003
FFFE
0002
0003
0001
FFFB
0001
0000
FFFF
0000
0002
FFFF
FFFF
FFFE
0000
FFFE
FFFD
0001
0004
FFFC
0001
FFFE
FFFF
FFFE
FFFB
0003
FFFD
FFFF
0001
0003
0001
0000
FFFD
FFFD
0005
0000
0001
FFFE
FFFF
0002
0003
0000
0000
0000
0002
0002
0000
0004
0002
FFFD
0001
0000
0000
FFFE
FFFF
0002
FFFD
0000
0000
0000
0003
FFFF
FFFE
0000
0000
0000
FFFD
0000
0004
0001
FFFF
0002
0002
0001
0005
0000
0001
0000
0001
0001
FFFF
FFFE
FFFD
FFFF
0002
0000
FFFF
FFFE
FFFE
0002
0001
0000
0001
0000
0000
0000
0000
0000
0000
0000
0000
0000
FFFF
FFFF
0002
FFFE
0003
FFFC
0001
FFFD
FFFD
0001
0000
FFFD
FFFF
0000
FFFC
0003
0000
0000
0000
FFFC
0003
FFFE
FFFF
0001
0003
FFFF
FFFE
FFFC
0003
FFFD
0004
0003
FFFD
0003
0002
0002
0003
0001
0002
FFFE
FFFD
0004
0000
0001
FFFF
0002
0001
FFFF
0004
FFFD
FFFD
0005
0001
FFFD
0003
FFFD
FFFD
FFFE
0000
FFFE
0000
0004
FFFF
FFFD
FFFE
FFFE
0001
FFFE
0002
0000
FFFE
0002
0000
FFFB
FFFF
0000
0001
FFFD
0001
0001
0002
0005
FFFE
0000
0003
FFFF
FFFF
0004
FFFE
0001
0003
0003
0002
0003
FFFC
0001
0000
0003
FFFF
0000
FFFE
FFFD
0000
0000
0002
FFFE
0002
0000
0000
FFFD
0000
0003
0000
FFFC
FFFE
0002
0000
FFFE
0003
FFFD
0000
FFFE
FFFD
FFFC
FFFF
0000
0002
0000
0000
FFFE
FFFD
0001
FFFF
0000
0003
0003
0003
FFFD
0004
FFFD
0000
0003
FFFE
0003
0004
FFFE
0005
FFFD
FFFC
0001
FFFD
FFFE
0001
FFFD
0000
FFFF
0004
0003
0000
0002
FFFE
0002
0000
FFFE
0002
0002
FFFF
FFFD
0002
0001
FFFE
FFFF
0003
FFFE
FFFD
0003
FFFC
FFFD
0002
0000
0002
FFFB
0001
FFFE
FFFD
0004
0001
FFFD
0002
FFFE
0004
FFFE
0004
0001
FFFD
FFFE
FFFE
0004
FFFC
FFFD
0000
0000
0000
0000
0000
0000
0000
0000
0002
0005
0002
0001
0003
0001
0000
FFFF
FFFF
0000
0002
0003
0002
0002
0001
0000
FFFF
FFFE
FFFF
FFFD
FFFE
0001
FFFD
0001
0000
0002
FFFE
FFFE
FFFD
0001
FFFE
0000
0001
FFFE
FFFE
0003
0000
FFFF
0003
0003
0004
0001
FFFD
0001
0000
FFFF
FFFE
0003
FFFE
0004
0003
0000
0003
0002
0001
0002
0004
FFFF
FFFC
0003
FFFE
0003
0001
0000
0000
0003
0001
FFFE
0000
0000
FFFF
0002
0003
0003
FFFE
0000
FFFD
0003
0000
0003
FFFB
0004
0001
0001
0001
0001
FFFF
0000
0000
0001
0002
FFFD
0003
FFFE
FFFD
FFFF
FFFF
0004
FFFF
0003
0003
0001
0000
0003
0002
0000
0003
FFFF
0003
0000
0000
0000
0002
0002
0002
0001
0002
0004
0003
0000
0003
FFFD
FFFF
FFFD
0002
0000
FFFE
FFFD
FFFF
0000
0000
0005
FFFB
FFFF
FFFB
0002
FFFC
0000
FFFE
0002
0000
0004
FFFF
0000
0005
FFFE
0000
0001
FFFF
0003
0000
FFFD
0000
FFFE
0003
FFFF
0004
0000
FFFF
0000
0002
FFFD
FFFE
0004
0001
FFFE
0000
0001
0001
0002
0004
FFFE
FFFE
FFFD
0000
FFFD
0003
0000
FFFF
0001
0005
FFFA
0003
0000
FFFE
0000
0004
0001
0000
0001
0004
0000
FFFF
FFFE
0000
FFFC
0003
FFFC
0000
FFFE
0000
0000
0000
0000
0000
0000
0000
0000
FFFF
FFFF
0000
0000
0004
0000
0000
0003
FFFD
FFFF
FFFB
0000
FFFF
FFFF
0001
0000
0002
FFFF
0000
FFFE
0002
0000
0000
0000
FFFC
FFFE
FFFB
0000
0001
FFFF
0001
0003
FFFD
0001
0001
0003
FFFE
0001
FFFD
0001
0002
0000
FFFE
FFFD
FFFE
0000
0002
0001
FFFC
0000
FFFD
0001
0002
0003
0002
FFFF
FFFF
0002
0000
0001
0001
0000
FFFC
0002
0002
0003
FFFE
FFFB
FFFC
FFFD
FFFC
FFFC
0001
0002
FFFD
0002
FFFC
0003
FFFE
FFFC
FFFE
FFFD
0000
FFFF
0000
FFFD
0001
FFFE
0004
0003
0000
0001
0003
0001
0000
FFFF
0001
0000
0003
0000
0001
FFFE
0000
FFFE
0004
0003
0002
FFFE
FFFF
0000
FFFF
0002
0000
0000
0001
0000
FFFC
FFFE
0002
0000
FFFF
FFFE
FFFF
FFFE
0001
0000
0002
FFFE
0000
FFFF
0000
0004
FFFD
0005
0001
FFFE
0000
0000
0001
FFFE
FFFF
0003
FFFF
0004
FFFF
0002
0000
0000
FFFE
0003
0000
FFFD
FFFE
0004
0000
FFFD
FFFC
FFFD
0002
FFFC
FFFE
0000
0001
FFFE
FFFE
0001
FFFE
FFFF
FFFD
0003
0000
0000
FFFF
FFFE
0000
FFFF
0002
0001
FFFE
0001
0003
0003
FFFE
0003
0000
0001
FFFD
FFFC
0001
FFFC
0000
FFFF
FFFD
0000
FFFC
0003
0003
0000
FFFE
FFFE
0000
0000
0000
0000
0000
0000
0000
0000
0002
0004
FFFC
FFFE
0002
0003
FFFE
FFFD
FFFC
FFFD
FFFF
FFFF
FFFC
0003
FFFF
FFFE
FFFE
0004
0001
FFFD
0001
FFFF
FFFD
FFFF
FFFE
0001
0004
0000
0001
0001
0002
FFFE
0002
0003
FFFD
0002
0000
0001
FFFD
FFFC
0000
0000
FFFC
0000
0002
0000
0000
0000
FFFC
FFFD
0001
FFFD
FFFD
0002
0001
0002
0000
0000
FFFF
FFFF
0000
FFFE
FFFF
0004
FFFE
0000
0004
0000
0001
0002
0001
FFFB
0000
FFFF
FFFE
FFFE
0000
0001
0000
0002
FFFD
FFFD
FFFC
FFFE
0003
0001
0000
FFFF
FFFE
FFFF
0001
FFFC
FFFE
FFFE
0002
FFFF
FFFF
FFFD
0000
FFFF
FFFF
0001
FFFE
0001
FFFE
0003
0002
0000
0000
0000
FFFD
0000
0004
0002
0000
FFFD
FFFD
0004
FFFF
0004
0001
0002
0000
0003
FFFE
0000
FFFE
0002
FFFF
0001
0001
FFFE
0003
0004
FFFB
0004
FFFE
0001
0000
FFFF
0002
0000
0000
0005
FFFE
0000
0002
0000
FFFF
0001
FFFB
0003
0001
0003
FFFC
0003
FFFC
0000
0001
FFFD
0001
0001
FFFF
FFFF
0002
0001
0003
FFFD
0000
0004
0004
0003
FFFD
0000
FFFE
0000
0000
FFFC
0003
FFFE
FFFE
FFFF
0000
FFFC
0002
0000
FFFF
FFFD
FFFE
0000
0003
0000
FFFE
FFFF
FFFD
FFFD
FFFF
0000
0001
0000
0000
0000
0000
0000
0000
0000
0000
0000
0000
0001
FFFF
0004
FFFD
0000
0000
0001
0003
0004
0000
0000
0000
0003
FFFD
FFFF
FFFD
0002
0000
0002
FFFD
0003
0000
FFFF
0000
FFFD
0001
0001
FFFF
FFFF
0003
0003
0000
0000
0000
FFFD
0002
FFFF
FFFD
0003
0004
0000
0000
0000
FFFE
FFFE
FFFF
FFFC
0004
0002
0004
0001
FFFF
0000
0002
0001
0003
0001
FFFF
0003
0004
0000
0001
0004
FFFE
0000
0003
0001
FFFF
FFFE
FFFE
0003
FFFC
FFFF
FFFE
0000
0000
0003
FFFD
FFFF
0000
0003
0000
FFFF
FFFE
0003
0002
0000
0001
FFFF
0000
0000
0002
0000
0000
0000
FFFF
0001
0002
FFFF
0000
0000
FFFF
FFFF
FFFE
0001
FFFF
0000
FFFE
0004
0001
FFFC
0004
0001
0000
FFFC
0000
FFFD
0000
FFFF
0002
FFFD
0000
0002
0002
0000
FFFD
0000
0000
FFFE
0000
0000
0000
0003
0001
0000
0001
FFFF
FFFE
FFFE
0002
FFFF
0002
0004
FFFF
0004
0002
0000
FFFF
0003
0002
0004
FFFE
0000
0003
0001
FFFE
0002
FFFE
FFFF
0004
0002
0000
0003
FFFD
FFFC
0002
FFFE
FFFE
0001
0002
0000
FFFE
FFFD
FFFC
0001
0003
FFFD
FFFD
0001
0002
0000
FFFF
FFFE
0003
0003
0000
FFFF
FFFE
0002
0000
0000
FFFD
0000
FFFE
0000
0002
FFFD
FFFC
0000
0000
0000
0000
0000
0000
0000
0000
0000
0002
FFFF
FFFD
FFFD
0002
0001
FFFD
FFFF
FFFD
0002
0004
0004
0000
FFFF
0000
FFFF
0001
FFFD
FFFD
0004
0005
0001
0000
0000
FFFE
0004
0004
0000
FFFD
0000
0002
FFFE
FFFF
0002
FFFD
0002
0002
FFFE
FFFD
0000
FFFF
FFFE
FFFD
0000
0003
0002
FFFF
FFFD
0000
0003
FFFD
0004
FFFF
FFFB
0002
FFFE
0003
0000
0001
FFFD
FFFB
FFFD
FFFE
0003
FFFE
FFFE
0005
FFFE
0002
FFFC
FFFD
0002
0001
0000
0002
FFFE
FFFE
0000
FFFF
FFFD
0000
0002
0003
0000
FFFD
0000
0000
0000
FFFF
0002
0003
0002
0002
FFFF
0002
0002
0004
0000
0004
FFFD
FFFF
FFFE
FFFE
0000
0001
FFFF
0000
0000
0002
0000
FFFE
0005
FFFD
0001
FFFD
0004
FFFC
0003
0000
0003
0000
FFFC
0000
0000
FFFE
FFFF
0002
FFFE
FFFC
0003
0000
FFFD
0001
FFFF
0002
0003
FFFE
0000
FFFF
FFFE
FFFB
0000
0000
0006
0000
0001
FFFE
0000
FFFE
0001
FFFF
0005
FFFF
FFFF
0002
0001
0002
0001
0002
0002
FFFE
0000
0000
0001
FFFE
0004
0000
0000
0000
0000
0003
0004
0001
0000
0004
0001
0001
FFFF
FFFE
0001
FFFE
0001
FFFF
FFFF
FFFD
FFFE
0001
0000
0000
FFFD
0002
FFFF
0000
FFFE
0000
0000
FFFE
FFFF
0001
FFFE
0000
0000
0000
0000
0000
0000
0000
0000
0000
FFFD
0000
FFFD
0001
FFFD
0001
0003
FFFF
0003
FFFE
0002
FFFD
0000
FFFD
0002
0003
0004
FFFF
FFFE
FFFD
0000
0000
0004
0001
0001
FFFE
0001
0000
0000
0003
0000
0002
FFFD
FFFF
0001
0000
0002
FFFE
0001
0000
FFFD
0000
0003
0001
FFFF
0001
0000
FFFF
0000
0001
FFFE
0001
FFFB
0003
0003
0002
0002
0000
0001
0003
FFFF
0000
0003
0003
0000
0006
0002
0001
FFFD
0000
0000
0002
FFFF
FFFC
0003
0001
0002
0000
0002
0001
FFFE
0005
FFFD
0000
FFFE
0000
FFFF
0003
FFFB
0000
0003
0002
FFFD
0003
0001
0000
0003
FFFF
FFFD
0002
0003
0001
0001
FFFE
0001
FFFE
0004
0000
FFFC
FFFE
0001
0003
FFFF
FFFF
0002
FFFE
FFFE
0003
0000
0004
0002
0003
0000
0000
0003
FFFF
0001
FFFC
0004
0000
FFFD
FFFD
0003
FFFC
0004
FFFC
0001
0000
0000
FFFF
0001
0001
0004
0003
0000
FFFE
0000
0003
0000
0002
0000
0000
0000
0001
FFFF
0004
0000
0002
0001
0001
0002
0000
0001
0004
FFFE
0001
FFFF
FFFD
FFFC
FFFF
FFFF
FFFF
0003
0000
0000
0000
0000
0001
0001
0000
0003
0000
FFFF
0004
0001
0001
FFFC
FFFD
0000
FFFE
0002
FFFE
FFFF
0001
0000
0000
0003
FFFC
0003
0000
0000
0000
0000
0000
0000
0000
0000
0003
0002
FFFE
FFFF
0000
FFFF
FFFF
0002
0000
0003
0001
0003
0000
0002
0001
FFFF
FFFB
0003
FFFB
0002
0000
0001
FFFD
FFFF
0004
0003
FFFD
0002
0003
FFFC
0006
0000
0002
0003
FFFE
0005
FFFD
FFFE
FFFF
FFFD
FFFE
0004
FFFC
0001
0002
FFFD
0001
FFFD
0000
0004
FFFE
0003
FFFF
0001
FFFE
FFFE
0000
FFFF
0000
FFFF
0001
0003
0001
FFFC
FFFD
FFFE
0001
0000
0001
FFFF
0000
0000
0002
0000
FFFE
0000
0000
FFFF
0000
0003
0004
0004
FFFC
0002
0000
0000
0002
FFFF
FFFD
FFFE
0000
0001
0000
FFFC
0001
0001
FFFD
0002
0000
FFFC
0001
0001
FFFE
0000
0000
FFFD
0001
0001
0000
0000
FFFC
FFFF
0002
0000
0003
FFFE
0000
0001
FFFD
0000
FFFF
0000
FFFF
0000
FFFF
0000
0001
FFFC
0002
FFFE
0003
0003
FFFF
0000
0002
0000
0004
0000
0003
FFFD
0001
0000
FFFE
0000
FFFC
FFFD
0002
FFFE
0004
FFFB
0000
0000
0001
0002
FFFC
FFFF
FFFE
0000
FFFC
FFFF
0003
0002
FFFF
0004
FFFF
0000
FFFD
FFFE
FFFE
FFFE
FFFD
0000
0000
0000
0004
0003
0000
FFFF
FFFE
0004
0000
FFFE
0003
FFFC
0002
0001
0003
FFFF
FFFE
0000
FFFF
FFFE
0001
0002
FFFF
0000
0001
FFFF
FFFF
0000
0000
0000
0000
0000
0000
0000
0000
0000
0004
FFFF
0004
0002
0003
FFFD
FFFC
0002
0000
FFFF
0004
FFFE
0002
FFFF
0000
0002
FFFC
FFFD
0000
0000
0000
FFFE
0000
FFFF
0003
0002
FFFE
FFFD
0004
FFFC
FFFC
0000
0000
0002
FFFD
0004
0000
FFFC
0003
FFFE
FFFD
0000
FFFE
FFFE
FFFF
0001
FFFE
0003
0000
FFFC
0001
FFFE
FFFD
FFFF
0000
0002
0003
0000
0002
FFFE
0003
0000
0000
0003
0001
0001
FFFF
FFFE
FFFE
0000
FFFD
0002
0003
0003
0004
0000
FFFF
FFFC
0003
FFFE
0000
0004
0000
FFFF
0003
FFFF
0000
0000
FFFE
0002
0000
0000
0001
FFFD
0000
0004
FFFF
0000
0003
FFFD
0000
0003
FFFD
0000
0000
0002
0000
FFFF
FFFE
0001
FFFE
0000
FFFD
FFFD
0002
FFFF
0002
0000
0003
0000
0002
0001
FFFC
0004
0002
FFFD
FFFE
FFFD
FFFF
0003
0004
0000
0000
0000
0002
FFFD
0003
FFFF
0001
0003
0002
FFFF
0002
0001
0001
0000
0002
FFFC
0000
0002
0004
FFFF
FFFF
FFFE
FFFD
FFFE
0002
0003
0000
0004
FFFF
0000
0002
0000
0003
0002
FFFE
FFFE
FFFF
FFFD
FFFD
0002
0003
FFFE
0001
0000
0002
0003
0003
FFFD
FFFE
FFFE
0005
0001
FFFC
0000
FFFD
0004
0001
0004
0000
0001
FFFC
0003
FFFF
0000
FFFF
FFFB
FFFE
0000
0000
0000
0000
0000
0000
0000
0000
0000
0003
FFFE
0002
0000
0000
FFFC
0001
0002
FFFF
FFFF
0000
0002
0001
0000
FFFE
FFFF
0001
0003
0003
0003
FFFD
0001
0001
0003
0000
0000
0000
FFFC
0002
FFFF
0000
FFFD
0000
0003
FFFF
0003
FFFE
FFFC
FFFF
0003
0000
FFFF
0003
0000
0000
0000
0001
0003
0000
0000
FFFE
0000
0000
0000
FFFD
0003
FFFE
0002
0003
0001
0001
0000
FFFF
FFFE
0000
FFFC
FFFC
FFFE
0000
0000
0000
0002
0000
0002
FFFF
0001
0003
FFFF
0000
0002
0001
0001
FFFE
0000
0002
0002
0000
FFFE
0002
0002
0002
FFFF
0003
0001
0002
0000
0002
FFFF
FFFD
0003
FFFE
FFFF
0002
0002
FFFF
0000
FFFD
0000
FFFB
FFFF
FFFA
0004
0002
0001
FFFC
0000
0002
FFFF
0000
FFFF
0001
0000
FFFF
FFFD
FFFF
FFFE
0001
0002
0000
FFFB
0000
FFFB
0001
0001
0000
0003
FFFF
0000
0000
FFFE
0001
0001
FFFD
0000
0002
0000
FFFF
FFFE
0003
0004
0001
0000
0002
FFFF
0003
0000
0000
0001
0001
0005
FFFF
0001
0003
0002
0000
0001
0000
0004
0000
FFFF
FFFE
0002
0004
0001
FFFD
0000
0000
0000
0001
0000
0003
0000
0000
0000
FFFE
FFFD
0003
FFFE
FFFE
0000
0000
FFFF
0000
0000
0000
0001
0004
FFFF
FFFF
0000
0000
0000
0000
0000
0000
0000
0000
0000
0003
0001
FFFF
FFFC
0000
FFFF
FFFD
0001
0003
0000
0003
0002
FFFE
0000
0000
FFFE
FFFD
0000
0001
FFFE
FFFF
FFFF
FFFC
0004
0003
FFFE
0000
0000
0000
FFFD
FFFD
0000
0003
0002
0000
0002
FFFF
FFFE
FFFD
0001
FFFD
0000
0003
FFFE
0000
0002
FFFF
0000
0001
FFFF
0002
FFFE
0002
FFFC
0002
FFFD
0001
FFFE
0001
0002
0003
FFFD
0001
0000
FFFD
0001
0000
0004
FFFE
0000
0000
0004
0002
0002
FFFE
FFFD
FFFD
0004
0002
0000
0001
0000
0005
0003
0000
FFFF
FFFF
0001
0000
0002
0000
FFFD
FFFE
0000
FFFD
0002
0003
FFFF
0001
FFFD
FFFE
FFFE
0000
0003
0000
0000
0000
0000
FFFE
0003
0000
0002
0002
0002
FFFE
0001
0003
FFFF
0000
0001
FFFC
FFFE
0003
FFFC
0000
FFFE
FFFD
0005
FFFE
0002
0001
0000
FFFE
0000
0001
0003
FFFF
0001
FFFE
0003
0002
0003
0002
0000
FFFE
0002
0000
FFFD
0000
FFFD
FFFC
FFFE
0004
0002
0002
0000
0000
FFFF
0000
FFFE
0000
0003
0000
FFFD
FFFE
0001
0000
FFFC
0000
0002
0001
FFFE
0000
0001
0002
0000
FFFD
FFFD
0002
0001
FFFF
0000
0004
0002
0000
0001
0000
0004
0000
FFFF
FFFE
0000
0001
0002
0000
0002
0002
0004
0003
FFFE
0000
0000
0000
0000
0000
0000
0000
0000
0002
0000
0002
0000
0000
0000
0005
FFFE
FFFE
FFFD
0001
FFFD
FFFE
FFFF
0000
0000
0003
0002
FFFC
0000
FFFC
FFFF
0001
0003
0000
FFFF
0000
0003
0000
0001
0000
0002
FFFE
FFFC
0000
0002
FFFE
0001
0002
0003
0001
FFFD
0004
FFFF
0002
0000
FFFD
0001
0002
0002
FFFE
FFFC
0000
FFFD
FFFD
0000
FFFE
0002
FFFF
0000
0001
0003
0003
0000
FFFE
FFFF
0001
FFFF
0002
0003
0002
0001
0001
0003
0003
0000
0002
0000
0000
0001
0002
FFFB
0000
FFFE
0001
FFFF
0002
0002
0000
0000
FFFD
0003
0003
0002
FFFD
0000
FFFC
0003
0001
0003
0000
0002
0000
FFFD
0000
FFFF
0003
FFFF
FFFC
0000
0001
FFFB
0003
FFFD
FFFD
0001
0003
FFFC
0001
0000
FFFE
0002
0004
0004
FFFF
0003
FFFF
0002
0002
0001
0001
0002
0000
0003
0000
FFFF
FFFB
0000
0000
FFFF
FFFD
0005
FFFD
0000
0000
FFFF
FFFC
0003
0002
0000
0000
FFFC
0001
FFFC
0001
0002
0002
0002
FFFD
0000
0002
0002
0000
0002
FFFE
0002
0002
0000
FFFE
0002
0001
0000
FFFE
FFFE
0000
0003
FFFD
0000
0000
0001
0000
0003
0001
0001
0004
FFFD
0005
0000
0002
0000
0004
0002
0000
0000
0000
FFFE
0002
0000
0001
0002
0000
0000
0000
0000
0000
0000
0000
0000
0000
0002
0004
FFFD
FFFE
0000
0000
0002
FFFE
FFFE
FFFE
0000
0003
0003
FFFC
FFFF
0000
0000
0000
FFFC
FFFD
0000
0003
FFFD
FFFF
FFFB
0003
0000
0003
0000
0004
FFFE
0004
0003
FFFE
0004
0003
0003
0000
FFFE
0002
FFFF
0003
FFFB
0002
0000
0002
0000
0004
0000
0000
0001
0000
0000
FFFC
0000
0002
0000
FFFF
0001
0000
FFFD
0003
FFFD
0000
0000
0002
FFFF
0000
FFFE
FFFD
0002
0002
0001
0001
0002
FFFC
0004
FFFE
FFFF
FFFD
0003
FFFE
0004
0000
0000
0001
0001
0004
FFFB
FFFE
0000
0004
0002
0003
0000
0003
0000
0000
0001
0003
0000
FFFD
0003
0000
0000
0002
0000
0000
0000
FFFE
0000
FFFD
0000
FFFF
0000
FFFF
0004
FFFC
0001
FFFC
0005
FFFC
0003
FFFD
0002
0001
FFFD
0004
0001
FFFF
0003
0000
0002
0002
0000
0003
FFFD
FFFF
FFFC
FFFC
0000
0000
0001
0001
FFFF
FFFC
FFFE
0002
0003
0003
0004
FFFE
0000
0000
0001
0000
0001
FFFC
0000
0000
0000
0000
0002
0000
0000
0001
FFFE
FFFF
0001
FFFD
0002
FFFC
0000
0000
FFFD
0000
0000
0002
0001
0002
0001
0001
FFFC
FFFF
FFFB
FFFF
0004
FFFA
0000
FFFB
FFFC
0001
0003
0000
FFFE
0004
FFFF
0000
FFFF
0000
0000
0000
0000
0000
0000
0000
0000
0004
0003
0000
0000
0001
0000
0004
0003
0000
0002
FFFE
0002
0000
FFFD
FFFC
0000
0000
0000
0005
FFFF
0005
FFFE
FFFE
0000
0001
0002
0002
0002
FFFD
0005
0000
0004
FFFD
0000
0001
0000
FFFC
FFFD
0000
0000
0000
FFFF
0005
0000
FFFE
FFFD
0000
0000
0002
0000
0000
0000
FFFD
FFFD
FFFF
0000
0002
FFFF
0000
0001
0004
0001
FFFE
FFFE
FFFE
FFFF
FFFD
FFFF
FFFF
FFFD
FFFF
FFFD
0003
FFFF
FFFC
FFFE
FFFF
0000
FFFD
0003
0001
0000
0003
FFFE
0000
0001
0000
0000
FFFE
FFFD
0002
0000
FFFC
0002
FFFD
0004
FFFE
FFFC
0000
0000
FFFF
FFFD
FFFF
0000
0000
FFFF
0001
FFFE
FFFD
FFFE
FFFB
0003
FFFC
FFFD
FFFC
0002
FFFF
FFFD
0003
0000
0000
0004
FFFD
0002
FFFC
FFFF
0004
0002
0002
0000
FFFD
0002
FFFD
FFFE
FFFE
0004
FFFD
FFFE
0002
0002
0000
FFFF
0000
FFFD
FFFF
FFFF
0002
FFFE
0002
0002
0000
0000
FFFD
FFFF
0000
0001
FFFD
FFFE
0004
0000
0003
0001
FFFD
FFFF
0004
0001
0003
FFFC
FFFF
0000
0000
FFFD
0002
0000
0000
0000
FFFC
0001
FFFD
FFFF
0002
0000
0003
0000
0000
0000
0001
FFFE
FFFE
FFFE
FFFE
0002
FFFC
0001
FFFE
0000
0000
0003
FFFD
0004
0000
0000
0000
0000
0000
0000
0000
0000
FFFE
FFFF
0000
0002
0000
0001
FFFE
0002
0001
0000
0002
0002
0000
FFFC
0003
FFFE
FFFD
0000
FFFF
0002
0004
FFFF
0004
FFFC
FFFD
0000
FFFE
0004
0001
0002
0000
0000
FFFE
0000
0002
0000
0002
0001
0003
FFFE
0000
FFFC
0004
FFFD
0003
0000
FFFF
0002
0000
0000
0004
0000
FFFE
FFFF
0003
0001
0001
0000
0001
0001
0003
0000
0000
0002
FFFE
0004
0000
0002
0001
FFFF
0001
0000
FFFF
FFFD
0000
0002
FFFF
0000
FFFC
0003
0001
0000
FFFE
0004
0002
0002
FFFC
0000
0001
FFFE
0001
FFFE
FFFF
0000
0001
0001
0003
0000
0001
0000
0000
0000
0000
0001
0000
FFFD
FFFF
0002
FFFD
0004
FFFD
0005
0004
FFFD
0001
FFFC
FFFD
FFFD
FFFF
FFFF
0000
0000
0000
0002
0000
FFFE
FFFD
FFFE
FFFE
0000
0001
0001
0003
FFFF
FFFE
0001
FFFC
0002
0000
FFFE
0000
0001
0001
0003
0000
0000
FFFD
0001
0003
0002
0003
0002
0002
FFFD
0000
0000
FFFC
FFFE
0003
0002
0003
FFFE
0003
0000
0003
0000
FFFD
FFFE
FFFE
0004
FFFE
0003
FFFF
0003
0001
0003
0002
FFFF
0001
0000
0003
0001
FFFD
FFFE
0000
0004
0003
FFFF
0002
0000
0001
0000
FFFD
FFFF
0000
FFFD
0005
0000
0004
FFFC
0000
0000
0000
0000
0000
0000
0000
0000
FFFF
0002
0000
0002
0003
FFFE
0004
FFFE
0003
0003
FFFC
0000
FFFD
FFFE
FFFE
FFFD
0002
0000
0002
0002
FFFD
0003
FFFC
0002
FFFE
FFFF
FFFF
0004
FFFF
FFFD
FFFF
FFFF
0000
0000
0003
FFFD
0002
FFFF
0001
0000
FFFE
0002
0001
0002
0003
FFFD
FFFE
0001
0000
FFFF
FFFF
FFFD
FFFC
FFFF
0000
0004
FFFD
0001
0000
0002
FFFE
0000
FFFC
FFFD
0000
0003
0002
FFFC
0002
0002
0000
0000
0000
0002
FFFD
FFFF
FFFC
0001
FFFC
0003
0004
0002
FFFF
FFFE
FFFE
0002
0000
FFFE
0002
0001
FFFD
FFFD
FFFE
FFFF
FFFF
0003
FFFE
0000
FFFF
0000
0000
0002
FFFD
0000
FFFE
FFFC
FFFD
FFFE
FFFD
0000
0000
0000
0001
0002
0000
FFFD
0002
0000
0001
0002
FFFE
0000
FFFF
0000
0002
0001
0001
0000
FFFD
FFFD
FFFF
FFFF
0003
0002
FFFC
FFFE
FFFE
FFFF
0000
FFFE
0002
FFFE
FFFF
FFFC
FFFE
FFFD
FFFE
FFFF
FFFE
FFFF
0003
0004
0000
FFFE
0002
FFFE
FFFD
0002
0000
FFFF
0001
0000
FFFF
FFFC
FFFE
0000
0000
FFFF
FFFD
0000
0004
0001
FFFF
0001
FFFE
FFFD
FFFF
0002
0003
0004
FFFD
FFFF
FFFD
FFFD
0003
FFFD
FFFD
FFFD
FFFD
FFFD
0003
0000
0001
0004
0001
0000
0003
0003
0003
0003
0000
0000
0000
0000
0000
0000
0000
0000
0000
0000
0002
0000
0000
FFFF
FFFE
FFFC
0000
0003
FFFC
0002
FFFC
FFFE
0003
FFFE
0003
FFFF
0000
0002
0000
FFFF
FFFE
FFFD
FFFF
0001
FFFE
FFFD
FFFF
0002
0003
0002
0001
FFFF
0000
FFFE
0000
FFFF
0003
FFFF
0003
0000
0000
0000
FFFC
FFFF
0000
FFFE
FFFE
FFFF
0000
FFFF
FFFD
0001
FFFD
FFFF
0000
FFFD
0005
0000
FFFF
0003
0004
0000
FFFF
0000
FFFD
0000
FFFF
0002
0003
FFFE
0000
0000
0000
0001
FFFF
FFFF
0000
0004
0000
0000
0001
FFFF
0002
FFFD
0002
0000
0000
FFFC
0001
FFFF
0003
FFFF
0001
0002
FFFE
0002
0000
0000
FFFF
FFFF
FFFF
0000
FFFF
0002
FFFF
FFFE
0002
0001
0000
FFFE
FFFC
FFFD
0000
FFFF
0001
0001
0002
0000
0001
FFFF
0000
0004
FFFE
FFFF
0000
FFFF
0000
0000
0000
0000
FFFC
0003
FFFD
0001
0002
0001
0003
FFFE
FFFF
0001
FFFE
0000
FFFE
FFFD
FFFC
0000
0000
0004
0000
0002
0000
0000
FFFE
0000
0003
FFFE
0001
0001
FFFA
0002
FFFC
0003
FFFF
0001
0000
0003
FFFD
FFFD
FFFE
0001
0002
0003
FFFD
FFFF
0002
FFFC
0003
0002
FFFE
0002
0000
0001
0000
0002
0003
0000
0000
FFFE
FFFD
0000
0000
FFFF
FFFF
0003
FFFD
0000
FFFE
0002
0000
0000
0000
0000
0000
0000
0000
0000
0000
FFFC
FFFE
FFFB
FFFF
0001
FFFC
0003
FFFD
FFFD
0000
FFFD
FFFE
FFFD
0000
0002
FFFE
0000
0000
0002
0002
FFFC
0001
FFFF
FFFD
0001
0002
FFFE
0003
0003
0002
0003
0002
FFFE
0000
0001
0001
0002
FFFD
0002
FFFF
FFFE
FFFE
FFFF
FFFE
0000
0001
0003
0001
0003
FFFD
0000
FFFF
FFFE
0000
0000
0000
FFFD
0003
FFFF
0001
0000
0002
0000
FFFF
0002
0000
0000
0000
0002
0000
0003
0002
FFFE
FFFE
0001
FFFE
0000
FFFD
0002
0000
0001
FFFC
0005
0003
0000
0000
0002
0002
FFFB
FFFF
0000
FFFE
0001
0002
0001
0001
0002
FFFD
0004
FFFE
0000
FFFE
FFFE
FFFB
0000
FFFF
FFFE
0002
0002
FFFD
0003
0000
FFFF
0000
0003
0004
0000
0002
FFFD
FFFD
0001
FFFE
0000
0004
0004
FFFE
0002
FFFE
0002
0004
0000
FFFF
FFFF
FFFF
0002
0003
0000
FFFF
0002
0001
FFFE
FFFC
0000
0000
0000
0001
0003
0003
0000
FFFE
0003
0003
FFFF
0000
FFFE
FFFE
0004
0003
0002
0000
0000
FFFD
FFFD
0003
FFFE
0002
0000
0000
0003
FFFF
0001
0002
FFFE
0004
FFFE
0003
FFFF
FFFF
0000
0003
0003
0001
0001
0002
0003
0000
0000
0004
0000
0000
0000
0000
FFFC
FFFD
FFFF
0004
0000
FFFD
0000
0000
0000
0000
0000
0000
0000
0000
0000
FFFE
FFFF
0000
0001
FFFC
FFFD
FFFF
0000
FFFC
FFFD
FFFC
FFFF
0001
FFFC
FFFF
0003
0003
0000
FFFD
0002
0001
0001
0000
0002
FFFE
0003
FFFE
FFFF
0000
0000
FFFD
0004
FFFE
FFFF
0001
FFFF
0002
0000
0003
0002
FFFF
FFFD
FFFE
FFFE
FFFE
0000
0004
FFFD
0000
0000
0000
0000
0003
0003
FFFF
0000
0001
0000
0000
FFFF
0003
0001
0000
FFFD
FFFE
0000
0000
FFFD
0001
FFFD
0002
FFFC
0000
0000
0002
FFFE
FFFF
FFFE
0000
FFFE
FFFD
FFFE
0000
0000
0000
FFFE
FFFD
FFFE
0002
FFFF
0000
FFFD
0000
0004
0003
FFFC
FFFE
0000
0000
0003
0003
0000
0003
0001
0002
0003
FFFE
0001
0001
0003
FFFF
0002
0001
0000
0000
0003
0003
0001
0002
FFFF
0003
0001
0003
0000
0001
FFFF
0000
0002
FFFF
FFFC
0000
FFFE
FFFD
0000
0000
0000
0002
0000
FFFF
0000
0000
0001
FFFF
0000
0002
FFFF
0000
0003
FFFE
FFFE
0000
0002
FFFC
0003
FFFE
FFFE
0003
0002
0000
FFFE
FFFF
0000
0002
0000
FFFF
FFFD
FFFE
0002
0001
FFFD
0001
0000
0000
0000
FFFF
0004
0003
FFFD
0000
0001
0000
0002
FFFF
0001
FFFD
0001
0003
0000
FFFF
0000
FFFF
FFFF
FFFC
0001
FFFE
FFFD
0000
0004
FFFD
0000
0000
0000
0000
0000
0000
0000
0000
0000
FFFE
0001
0000
0000
FFFE
0002
FFFD
FFFD
FFFF
0000
FFFF
0003
FFFF
0000
FFFD
FFFE
0002
0002
0000
FFFF
0002
0001
0000
0000
0003
0000
0000
0001
0000
0004
FFFD
0001
0003
0003
0001
0000
0000
0000
0000
0003
0000
FFFD
0004
0000
0003
FFFD
FFFF
0000
FFFE
0002
FFFC
0001
FFFF
0003
0000
FFFF
0001
0001
0000
0002
0001
0000
0000
0003
FFFF
0004
FFFD
FFFF
FFFF
0000
0003
FFFE
FFFC
0003
0001
0001
0003
0000
FFFF
0003
0003
0000
0004
0001
0000
0002
0000
0001
0003
0002
FFFF
0002
FFFD
FFFE
FFFF
FFFF
0001
0003
0001
0002
0001
FFFC
0003
FFFD
FFFF
0004
0002
FFFE
0002
0000
0000
0000
0000
0000
0005
0001
FFFF
FFFD
FFFE
FFFF
0001
0001
FFFD
0000
0002
FFFF
0000
0000
FFFC
0002
0003
0003
0003
0003
FFFD
FFFF
FFFD
0003
0000
0001
FFFC
0000
0001
0003
0000
FFFD
0002
0000
0001
0000
FFFF
0003
0002
FFFD
0000
FFFF
0000
0000
FFFD
FFFF
0003
0000
FFFD
0000
0001
0001
0002
FFFF
0000
FFFD
0003
0000
0000
0000
0003
0001
0000
FFFF
0001
0000
0003
0000
0000
FFFC
FFFD
0004
FFFE
0003
0003
0000
0003
0004
FFFD
FFFC
0004
0003
FFFD
0000
FFFE
0000
0000
0000
0000
0000
0000
0000
0000
0000
0002
0002
FFFE
0000
FFFF
0003
0003
0000
0000
0004
0002
FFFF
0000
0003
FFFD
FFFC
0001
FFFD
0000
FFFE
0003
0004
0000
0000
0003
0000
0000
0000
0004
0004
FFFD
0000
FFFC
0004
FFFB
0000
FFFD
0000
0002
0004
0004
0002
0003
0000
FFFD
0000
0000
FFFC
0000
0000
0002
0001
FFFF
0001
FFFF
FFFF
0000
FFFD
FFFD
0000
0001
FFFE
0002
0004
FFFE
0000
FFFC
FFFF
0005
FFFC
0004
0003
0001
0000
FFFE
FFFF
0002
0002
0000
FFFF
0003
0000
FFFC
FFFD
FFFF
FFFD
FFFD
FFFC
0002
0000
0002
0000
0001
FFFE
FFFC
0000
FFFE
0003
FFFE
0002
0000
0000
FFFF
0002
FFFD
0003
FFFF
0003
0002
0003
0001
0001
0003
0001
FFFD
FFFF
0000
FFFE
FFFD
FFFD
0000
FFFE
0002
FFFF
FFFE
FFFF
0001
0000
0003
0000
0002
0002
0001
0000
0001
0000
0002
0000
0003
0003
0002
0001
FFFC
0002
FFFD
0001
FFFD
0002
FFFE
0000
FFFE
0002
FFFD
0002
FFFE
0000
0003
FFFD
0004
0000
0002
FFFD
0000
0002
FFFF
FFFD
FFFC
FFFF
0002
0001
FFFC
FFFC
0000
FFFF
0000
0003
0002
0002
FFFF
FFFF
0001
FFFE
0002
0000
0001
FFFE
0003
0001
0001
0000
0001
0003
FFFE
FFFE
FFFD
0001
FFFF
0003
FFFD
FFFF
0000
0000
0000
0000
0000
0000
0000
0000
FFFC
0002
0004
0000
FFFD
0000
0004
FFFD
0000
0005
0000
0004
FFFC
FFFE
0000
0002
FFFF
0004
FFFE
0002
FFFF
0003
0000
FFFC
FFFE
0003
FFFD
FFFE
0000
FFFE
0000
0000
FFFA
0003
0000
0000
0000
FFFD
FFFE
FFFD
0000
0000
FFFE
FFFC
0002
0002
0002
FFFE
0000
FFFF
0002
0003
0001
FFFE
0000
0001
FFFD
0002
0000
0000
FFFC
FFFD
FFFC
0000
0000
0001
0000
FFFD
0002
0004
0000
0003
0001
0002
FFFC
FFFE
0002
0002
FFFD
0001
0004
0000
0004
0001
0000
0001
0003
FFFF
0000
0001
FFFD
0003
0003
FFFD
FFFF
0000
0000
0005
0002
0001
0004
FFFF
FFFE
0004
0000
0000
FFFF
0003
FFFE
0002
0002
FFFB
FFFD
0003
FFFE
0000
0000
0000
0002
FFFF
0000
0000
0001
0002
0001
0003
0000
0000
FFFF
FFFC
FFFC
0002
0003
0000
0002
0000
0001
FFFE
0000
FFFD
0002
0004
0000
FFFE
0000
0001
FFFF
FFFD
0000
0004
0001
0000
FFFF
0004
FFFF
0000
0000
0003
0003
0002
0000
0002
FFFD
0003
0000
0000
FFFE
FFFD
FFFF
0000
FFFF
0000
FFFD
0001
FFFD
0000
0000
0003
FFFE
FFFF
0003
0002
FFFF
FFFE
0001
FFFF
0002
0000
FFFF
0002
FFFE
FFFE
FFFE
0003
0003
0001
0000
FFFE
FFFE
0002
0000
0000
0000
0000
0000
0000
0000
0000
FFFF
0003
0000
FFFD
0000
FFFE
0000
FFFF
0000
0003
0000
0003
0000
0002
0004
FFFF
0001
0002
FFFF
0004
0003
0002
0003
FFFD
0002
FFFD
FFFF
0003
0000
0003
0003
FFFB
FFFC
0001
0002
0000
0004
0003
0003
FFFF
0000
FFFE
FFFE
0003
FFFD
0001
FFFE
FFFF
FFFF
0000
0004
0000
0000
FFFD
0005
FFFD
FFFF
FFFB
FFFD
0002
0003
FFFD
0000
0000
0002
0000
FFFD
FFFB
0001
FFFD
FFFC
FFFF
FFFD
FFFF
FFFF
0000
FFFC
0000
0000
FFFF
0004
0003
0003
FFFB
0000
FFFF
FFFD
0003
0002
FFFD
FFFD
0000
FFFF
0002
FFFE
FFFC
FFFE
0000
FFFC
FFFE
0002
0002
FFFF
0001
FFFD
0000
0001
FFFE
0000
0001
0000
0001
0001
0003
0002
FFFE
FFFD
0001
0001
0001
FFFC
0003
0000
0000
FFFD
0000
0000
0002
FFFC
FFFD
0002
0000
0002
0000
FFFD
0000
FFFE
0003
0002
0000
0001
FFFD
0000
FFFF
FFFD
0000
0000
0001
FFFD
0004
0003
FFFC
0003
0002
0000
FFFE
0001
0000
0000
0000
FFFD
0003
FFFC
0003
0000
0000
0004
FFFF
FFFF
FFFF
0000
FFFE
FFFF
0001
FFFF
0002
FFFF
0000
0004
0000
0000
0003
0000
0001
0002
0004
0001
FFFE
FFFE
0003
FFFF
FFFE
0001
FFFC
FFFD
0002
FFFF
FFFE
0002
FFFC
0000
0000
0000
0000
0000
0000
0000
0000
0000
FFFD
FFFE
FFFF
FFFC
0001
FFFF
0003
FFFD
0000
0002
0002
FFFE
0001
0001
0003
0001
0001
FFFC
0000
0000
0003
0000
0000
FFFE
FFFF
FFFD
FFFE
FFFD
0006
FFFD
FFFC
0003
FFFC
FFFD
0004
0000
FFFE
0002
0001
FFFF
FFFB
FFFC
0004
0002
0001
0000
0002
FFFB
0001
FFFE
0000
0000
0003
0001
FFFC
FFFC
FFFD
0000
0003
FFFE
0001
0003
0000
FFFE
FFFE
0002
FFFD
0001
0000
0004
0001
FFFE
FFFC
FFFE
0004
0002
FFFD
0001
0001
0004
FFFF
0001
FFFE
0000
0002
0000
FFFF
0002
FFFC
FFFF
FFFF
0000
0002
0000
FFFD
0000
0003
FFFD
0001
0000
FFFE
0003
FFFC
FFFD
0001
0000
0004
FFFF
0004
0003
FFFB
0002
0000
FFFF
0001
FFFC
FFFF
FFFF
FFFE
0002
FFFD
0001
0002
0003
FFFF
0000
0001
0002
0000
0004
FFFD
0001
FFFE
0002
FFFE
FFFE
0001
0000
0000
FFFF
0003
FFFB
FFFF
FFFC
0002
0003
0005
FFFF
FFFF
0000
0004
0000
FFFD
0000
FFFE
0002
0000
0004
0004
FFFF
FFFC
0000
0000
FFFF
0001
FFFE
FFFF
0000
FFFE
0004
FFFE
0004
0000
0000
0000
0002
FFFD
0002
FFFF
0000
FFFF
FFFF
FFFF
0001
0000
FFFD
FFFD
0005
FFFE
0000
0000
FFFC
0001
0001
FFFE
0001
0001
FFFC
0003
0000
0000
0000
0000
0000
0000
0000
0000
0000
FFFD
FFFF
0000
0000
0000
0002
0000
0002
FFFE
0000
FFFD
FFFD
0004
FFFC
0001
FFFF
0000
0000
0001
0002
0001
FFFF
FFFF
FFFF
0002
0003
0003
FFFE
0000
0002
0000
0004
FFFF
0003
FFFE
0003
0003
0000
0002
FFFE
0000
0000
FFFE
0003
FFFE
0002
FFFD
FFFF
FFFD
0004
0002
0003
0003
0004
FFFF
FFFE
0003
FFFF
FFFD
FFFF
0002
FFFF
0005
FFFD
FFFE
FFFF
FFFE
FFFE
0002
FFFE
FFFE
FFFD
FFFC
FFFD
FFFF
0000
FFFC
FFFD
0004
0002
0000
0000
FFFE
0000
0002
FFFE
FFFF
0000
FFFE
0004
FFFE
0001
0001
FFFE
FFFD
0003
0004
0001
0000
0000
0001
FFFD
0001
0002
FFFF
FFFE
FFFF
0004
0001
0001
0001
0004
0000
0000
FFFF
FFFE
FFFD
0003
0000
0003
FFFE
0003
FFFC
0002
0000
FFFD
0001
FFFE
0002
0001
FFFD
FFFE
FFFF
0000
0006
FFFF
FFFE
0000
FFFD
0001
0003
0000
0005
FFFF
0000
0002
0005
0004
FFFB
FFFD
0002
FFFD
0000
0000
FFFC
FFFD
FFFF
0000
0003
0002
FFFE
0000
FFFE
0000
0003
0000
0005
FFFD
FFFE
FFFD
0002
FFFF
FFFD
0000
0002
0002
FFFD
FFFF
0000
0003
FFFE
FFFF
FFFE
FFFF
FFFF
0000
0002
0001
0000
FFFF
FFFE
0002
0003
0001
FFFF
0000
0003
0000
FFFF
0000
0000
0000
0000
0000
0000
0000
0000
0001
0004
0003
FFFD
0002
FFFD
FFFC
FFFE
0000
FFFF
0000
0001
FFFE
0002
0003
0000
0003
FFFE
FFFE
0001
0000
0000
0002
0000
0000
FFFF
FFFF
0000
0003
FFFE
FFFE
0002
FFFD
FFFF
0004
FFFD
0000
0001
0000
FFFE
0000
0000
0000
FFFD
0000
FFFF
0001
0002
0003
0000
FFFD
FFFE
0000
FFFC
FFFC
FFFF
0000
0001
FFFF
FFFE
0002
0000
FFFE
0000
FFFF
0000
FFFE
0004
0001
0000
0002
0000
0000
0001
0000
0002
0001
0003
0000
0003
0002
0000
FFFF
FFFC
0004
0001
FFFC
0004
0000
0002
FFFE
0005
FFFC
0001
0004
0001
0000
0001
0004
0000
FFFE
FFFF
0003
FFFF
0000
0001
0003
0000
FFFB
0000
FFFC
FFFE
FFFD
0004
FFFD
0004
FFFC
0000
0004
0003
0000
0001
0000
FFFB
FFFE
0002
FFFE
0001
0002
0000
0001
0000
FFFA
0002
FFFD
FFFD
0002
0000
FFFF
0000
0000
0000
0001
0000
FFFB
0002
0000
0000
0000
0005
FFFE
0001
FFFE
FFFD
FFFC
0000
0000
0000
FFFF
0002
0000
FFFE
0002
0000
FFFE
0002
0002
0000
FFFF
0002
0002
FFFE
0003
0001
0001
0000
0001
0000
FFFF
0000
0000
FFFD
FFFE
0004
FFFE
0002
0002
0000
0000
FFFB
FFFF
0002
0003
0000
0000
FFFF
FFFD
0000
0001
0000
0000
0000
0000
0000
0000
0000
0000
0000
FFFE
0002
0001
FFFE
0000
0002
0002
0003
0000
FFFF
FFFF
0002
0003
FFFE
FFFD
FFFF
FFFE
0001
0001
FFFC
0001
FFFF
0000
FFFD
0003
0002
0000
FFFD
FFFE
FFFF
0000
FFFE
0000
0000
FFFF
FFFC
0000
0001
0000
0000
0000
0002
0000
0002
0003
0001
FFFC
FFFF
0002
FFFC
0004
0000
FFFD
0004
FFFB
0000
0000
0003
FFFE
0000
0000
FFFE
FFFD
0002
0000
0001
FFFC
0000
0000
0003
0000
0002
0004
0000
0001
0003
0000
0003
FFFF
0000
0000
0003
0006
FFFC
FFFB
0003
0000
0003
FFFC
0000
FFFE
0000
0000
FFFC
FFFE
FFFF
FFFD
FFFE
0000
FFFC
0004
FFFE
FFFD
0000
0002
0003
0004
0002
FFFD
0002
0000
0003
FFFE
0003
FFFD
0000
FFFF
FFFD
FFFD
0000
0002
0000
0003
0000
FFFF
0005
FFFD
0000
FFFE
0000
0000
0000
FFFB
FFFF
0004
FFFD
0004
0001
0002
0002
0001
0005
0000
FFFB
FFFF
0005
FFFF
FFFF
FFFF
FFFD
FFFF
FFFB
0000
FFFE
0003
0001
0003
FFFF
0002
0000
0001
0002
FFFC
FFFF
FFFB
0000
0001
0000
FFFF
0003
0000
0002
0002
0004
0000
0000
FFFF
0005
FFFE
0000
0001
FFFF
0001
0000
FFFC
0000
FFFF
FFFE
FFFF
0003
FFFD
0004
0003
0000
0000
0002
0000
0004
0002
0001
0000
0000
0000
0000
0000
0000
0000
0000
0000
0002
0004
0000
FFFF
0004
FFFE
FFFC
0001
0002
FFFE
0003
0002
0002
FFFF
0003
0001
0002
0002
FFFE
FFFD
0001
FFFC
FFFD
FFFE
FFFB
0003
FFFF
FFFC
0005
0002
FFFC
FFFE
FFFF
0001
0000
0000
FFFF
0002
FFFF
0000
0000
0000
0000
0001
0003
0004
0004
0000
0003
0000
0000
FFFB
0007
0001
0000
FFFC
0000
FFFF
0000
0003
FFFD
FFFF
FFFC
FFFE
0004
FFFF
0000
FFFE
0000
FFFE
FFFE
0002
0000
0004
0001
0000
FFFE
0001
FFFD
FFFE
0002
0005
0001
FFFD
0000
FFFE
0000
0003
0005
FFFF
FFFE
0002
FFFB
FFFD
0000
0004
0002
0003
0002
FFFF
FFFD
0001
FFFD
0001
0005
0003
0003
0000
0000
0003
0002
0000
0002
0001
0000
FFFE
0002
FFFF
0001
0000
0002
FFFE
FFFF
0002
FFFF
FFFF
FFFE
0000
0003
FFFE
0002
FFFF
0000
FFFF
FFFD
FFFF
FFFE
FFFD
0004
0003
FFFB
FFFF
FFFD
0002
0004
0004
0000
0000
FFFF
FFFE
0002
0004
0001
FFFE
FFFE
0004
0000
0003
0000
FFFE
FFFD
FFFD
0001
0002
FFFF
FFFE
0000
0000
0001
FFFF
0002
FFFE
0000
FFFD
0000
0004
0005
0001
FFFC
FFFF
FFFD
0002
0000
FFFE
FFFE
FFFE
0001
0000
FFFE
FFFF
0000
FFFF
0002
0004
0000
0002
0005
0000
FFFC
0000
0000
0000
0000
0000
0000
0000
0000
FFFE
FFFC
0001
0000
0003
FFFE
0003
FFFF
0002
0002
FFFD
0003
FFFF
0004
0001
0000
0003
FFFC
FFFD
FFFF
FFFD
0003
0003
0003
FFFE
FFFE
FFFE
FFFF
FFFE
FFFD
0004
0001
FFFF
FFFE
0000
FFFE
FFFF
FFFF
0002
FFFC
0000
FFFC
0000
0001
0000
0002
FFFF
0000
0000
FFFF
0000
FFFD
0002
0000
0002
FFFF
0002
FFFD
0002
0001
FFFE
0003
0003
0000
0000
0003
0004
FFFC
0001
FFFF
0004
0000
0003
FFFD
FFFF
FFFE
0002
FFFE
FFFE
FFFE
0000
0000
0003
0002
FFFE
0000
0002
FFFB
0000
0003
FFFD
FFFD
FFFC
0001
0003
FFFE
FFFD
0004
0003
0002
FFFE
FFFD
0000
0002
0000
FFFE
FFFF
FFFF
0003
0000
0002
0000
0001
FFFE
0000
0000
FFFE
0003
FFFF
0001
0000
FFFE
0005
0000
0002
FFFE
FFFC
0004
0002
0004
0001
0000
FFFC
0000
0002
0002
FFFE
0004
FFFF
0001
FFFF
0002
FFFD
0001
FFFE
FFFD
0001
0000
FFFC
0000
FFFD
0003
0003
FFFC
0004
0000
FFFF
FFFC
0001
0000
FFFF
0004
FFFE
0004
FFFF
0001
0002
0005
FFFF
0005
FFFE
0001
0003
FFFE
0000
FFFF
FFFF
FFFC
FFFB
FFFD
FFFD
FFFD
0000
FFFD
FFFF
0001
0000
0002
0000
0000
0001
0002
FFFE
FFFD
0003
0000
0000
FFFC
0002
0000
0000
0000
0000
0000
0000
0000
0000
0000
FFFD
FFFA
0000
0002
0000
0002
0004
0000
FFFB
0000
FFFF
0000
0000
0000
0002
FFFD
0001
FFFF
FFFC
0000
0000
0004
0002
0002
0002
0000
0001
0004
0003
FFFD
FFFC
0000
FFFE
0000
FFFD
0000
FFFE
0001
0000
0000
0001
FFFF
0003
0002
0000
FFFD
0000
0000
0000
0002
FFFE
0004
0002
FFFD
FFFE
FFFF
0002
FFFD
0004
0003
FFFC
0001
0000
0004
0000
0000
FFFD
0001
0001
FFFD
0002
FFFD
FFFF
0003
0000
FFFC
0000
0002
0003
FFFC
0002
0000
FFFF
0003
FFFC
FFFF
FFFF
0003
0004
FFFD
FFFD
0000
FFFB
0000
FFFD
0000
FFFC
FFFE
0002
0003
0003
FFFE
0004
FFFE
FFFD
0000
0003
0004
0000
0000
0001
0004
FFFF
0003
0001
0000
0000
FFFC
0004
0002
0002
0004
FFFF
0004
0000
FFFC
FFFE
FFFF
FFFD
0002
0002
0000
0001
FFFF
FFFC
0005
FFFF
0003
FFFE
0000
FFFD
FFFD
FFFC
0005
0002
FFFC
0000
0005
0000
FFFE
FFFD
0004
0000
0003
FFFD
0000
FFFD
0001
FFFF
0004
0000
FFFE
FFFC
0000
FFFF
0003
FFFC
FFFF
0002
FFFE
0004
0000
0000
0000
0000
FFFF
FFFB
0000
0000
0000
0001
0001
0002
0001
0000
FFFE
0000
0002
0000
FFFC
0000
FFFE
0001
0003
0000
FFFD
FFFB
0001
FFFD
0003
0000
0000
0000
0000
0000
0000
0000
0000
0001
FFFF
FFFC
0000
0002
FFFE
FFFE
0000
0002
0001
0001
FFFE
0000
0003
FFFF
0000
0002
FFFE
0002
FFFE
0000
0002
FFFC
0002
0000
0000
0003
0003
0000
0000
FFFC
0000
0000
0002
0000
FFFE
FFFE
0000
FFFB
0000
FFFB
FFFF
FFFD
0000
FFFE
FFFE
0000
FFFE
0001
0000
FFFF
0003
FFFE
FFFB
FFFB
0005
FFFF
FFFD
0004
0002
0001
0004
0004
FFFF
FFFD
FFFD
0001
0004
0000
FFFF
0000
0000
FFFF
0003
FFFD
0000
0002
FFFC
FFFF
FFFC
FFFD
0002
0000
FFFC
0002
FFFF
FFFD
FFFF
0004
FFFE
0000
0003
0001
FFFE
FFFE
0001
FFFD
0003
0002
FFFF
0000
FFFE
0002
0002
FFFF
0000
0000
0002
0001
0002
0000
0000
0002
FFFD
0001
0001
FFFD
0001
0000
FFFE
FFFF
0003
FFFB
0000
0001
0004
0002
FFFE
0003
0001
0000
0003
FFFB
0001
0002
0002
FFFB
0000
0003
FFFC
FFFD
0004
0005
FFFA
0001
0003
FFFE
0001
FFFD
FFFC
0002
0001
FFFC
0000
FFFF
FFFE
0000
0002
FFFD
0000
FFFF
FFFC
0001
0003
FFFF
FFFE
0005
0001
FFFD
0001
FFFF
FFFD
0001
0003
0002
0002
FFFE
0001
0001
FFFE
0006
0000
0000
FFFD
0001
0000
0004
FFFD
FFFE
FFFF
0001
0001
0001
0000
0002
0001
0000
0000
0003
FFFF
0000
0000
0000
0000
0000
0000
0000
0000
0001
FFFC
FFFC
FFFD
FFFF
FFFF
0003
0003
FFFE
0001
FFFE
0004
FFFE
0000
FFFD
0000
FFFE
0000
FFFC
0001
FFFE
0000
FFFD
FFFE
0000
0000
0000
FFFD
FFFD
0000
0002
0001
0000
0003
FFFB
0003
0005
0003
0000
0005
0001
0004
0000
FFFE
FFFE
0003
FFFE
FFFB
FFFD
0001
0000
FFFD
FFFC
0002
0000
FFFE
0001
0000
FFFE
0004
FFFE
0004
FFFE
0002
0002
FFFB
0001
0000
FFFF
0003
FFFE
0003
0001
FFFF
0001
0000
FFFD
FFFE
0001
FFFF
0001
0005
0000
FFFF
0003
0000
0002
0000
FFFE
FFFC
0000
0005
FFFD
0000
0002
0001
FFFE
FFFD
0001
FFFE
0000
0000
FFFF
0001
0000
0000
0004
0002
0002
0004
FFFD
0002
0002
0000
0000
FFFE
0000
0001
0000
0002
0000
0004
FFFF
FFFE
FFFE
FFFE
FFFC
0000
FFFF
0000
0000
FFFD
FFFC
0000
0000
0000
0000
0000
FFFE
0000
FFFF
FFFD
0004
0000
0000
FFFC
0000
0003
0004
0002
FFFB
FFFF
0001
0000
FFFE
FFFD
0003
FFFD
FFFF
0000
0000
0000
0000
0000
0000
FFFC
FFFC
0002
FFFE
0003
FFFB
0002
0001
FFFE
0000
0003
0002
0000
FFFB
0003
FFFD
FFFE
FFFE
0004
FFFD
0002
0000
FFFD
0000
FFFD
0000
0004
0003
FFFC
0002
0004
0000
FFFF
0000
0002
0000
0000
0000
0000
0000
0000
0000
0000
FFFD
0004
0001
FFFF
0000
FFFD
FFFF
0005
0000
0000
0000
FFFF
0004
FFFC
FFFF
0000
FFFD
FFFD
FFFF
FFFF
0000
FFFF
0002
0000
FFFD
0003
0000
0003
FFFD
0000
FFFA
0000
0001
0000
FFFD
FFFF
FFFD
0003
FFFE
0002
0000
FFFB
0005
0000
0000
FFFD
FFFD
0001
0003
0003
FFFD
FFFC
FFFD
FFFF
FFFE
0000
0000
0001
FFFE
FFFF
FFFC
FFFF
FFFF
FFFF
FFFE
0003
0003
0000
0000
0001
0001
0003
FFFF
0001
0000
0000
0004
0000
0005
0000
0000
0003
FFFE
FFFF
FFFC
FFFE
FFFD
0003
0000
0000
0001
0001
0003
FFFF
0000
FFFC
0000
0000
0000
0004
FFFD
0000
FFFE
0005
0004
FFFF
FFFF
FFFF
0000
0000
0000
0000
FFFE
FFFE
FFFE
FFFB
0000
0000
0000
0003
0004
FFFD
FFFF
0002
FFFF
0000
FFFE
0000
FFFE
0003
FFFE
FFFF
0001
0003
FFFC
0000
0002
FFFB
0002
0000
0003
0000
0000
0001
0001
FFFF
0000
0002
FFFE
FFFC
0002
0004
0001
0000
0000
FFFF
FFFF
FFFF
0004
FFFF
0001
FFFE
FFFE
FFFF
0000
FFFC
0000
FFFE
FFFF
0002
FFFC
0005
0002
FFFD
FFFF
0003
FFFF
FFFE
0000
0000
FFFA
0002
FFFF
0000
FFFC
FFFD
FFFC
0000
FFFD
FFFF
0000
FFFF
FFFF
0001
FFFF
FFFF
FFFD
0001
0004
0001
0000
0000
0000
0000
0000
0000
0000
0000
0000
FFFE
FFFF
0000
FFFE
0002
0000
0000
FFFD
0004
0005
0001
0002
FFFF
0000
FFFF
FFFD
FFFD
FFFE
0000
FFFD
FFFE
FFFD
0004
FFFF
0003
0001
0000
FFFE
0003
FFFF
0000
0001
0001
0002
0001
0000
0004
FFFE
0002
0000
0002
0004
0002
0001
0001
FFFE
0002
0003
FFFF
FFFF
FFFE
0001
FFFE
0004
0002
FFFD
FFFD
0000
FFFF
0002
0001
0002
FFFF
0000
FFFC
0002
0000
0002
0004
0000
0000
0001
0005
0000
0003
0000
0001
0001
0003
FFFF
FFFE
FFFD
0000
FFFE
0002
0001
FFFD
0003
FFFE
FFFE
0003
FFFC
0000
FFFD
0003
0000
0000
0000
0001
0000
0005
0000
0000
FFFE
0002
0000
0003
0000
FFFC
FFFF
FFFF
FFFF
0002
0000
0000
FFFC
0005
0002
0000
0004
FFFF
FFFF
FFFF
0002
FFFE
FFFD
FFFE
FFFD
0004
0004
0000
0003
FFFF
0001
0000
0001
0001
0002
FFFF
0005
0000
FFFF
0002
FFFC
FFFC
FFFD
FFFE
0000
FFFF
0000
FFFD
FFFF
FFFF
0002
0003
FFFF
0001
0000
0000
0000
0002
0004
FFFE
0000
FFFE
0003
0001
0000
FFFD
0000
FFFD
FFFD
FFFF
0002
0001
0000
0000
0001
0000
0000
FFFE
0001
FFFC
FFFE
0002
0000
0000
0000
FFFB
FFFE
0004
0000
FFFF
0003
FFFD
0003
FFFD
FFFE
0002
0000
0000
0000
0000
0000
0000
0000
0000
FFFF
0001
FFFE
0002
0000
FFFF
FFFD
0000
0002
0004
0003
FFFD
FFFE
FFFC
0000
0003
FFFE
0001
0002
FFFE
FFFD
FFFD
0000
0003
FFFC
0003
0000
0004
0002
0002
0002
0001
FFFE
0001
FFFE
0000
0003
0004
0000
FFFE
0002
FFFF
0000
0002
0001
0000
FFFC
0002
0001
0001
FFFC
0001
0003
FFFD
0001
0001
FFFF
FFFE
0001
FFFE
FFFD
0000
0000
FFFE
FFFF
FFFC
0002
0000
0003
0003
0000
FFFF
0003
FFFF
FFFE
0001
0000
0003
0004
0001
0000
FFFE
FFFC
0004
0000
FFFE
0001
FFFE
FFFE
FFFE
0000
0000
0001
FFFD
0003
0000
0000
FFFD
0001
FFFC
0000
0001
0002
FFFD
FFFD
0003
0004
0000
0000
0000
FFFD
0000
FFFD
FFFE
FFFC
0003
FFFD
0004
0002
0001
0002
0000
0003
0000
FFFC
0000
FFFE
0004
0001
0004
0000
0000
0003
0003
FFFD
0000
FFFD
0000
FFFE
0005
0000
FFFE
FFFE
FFFF
0000
FFFF
FFFE
0000
0003
0001
0002
0000
0000
0001
0000
FFFF
FFFC
0001
FFFE
FFFE
0002
0001
0001
FFFF
0003
0000
0003
FFFF
FFFE
FFFB
FFFD
0003
FFFE
FFFE
0002
0000
FFFB
0000
0004
FFFD
0000
0003
FFFD
FFFE
FFFE
0003
FFFD
0000
FFFD
FFFF
FFFD
0003
0000
0003
FFFE
FFFE
0004
FFFC
0001
FFFF
0000
0000
0000
0000
0000
0000
0000
0000
0000
0001
0000
FFFF
0005
0001
0004
FFFC
0002
0000
FFFB
FFFF
0002
0004
FFFC
0001
0000
FFFE
0001
0003
0004
0000
0002
FFFD
0001
FFFF
0000
0004
0002
0000
0003
0000
FFFF
0001
0000
0000
FFFF
0000
0003
FFFE
FFFC
0002
FFFD
FFFE
FFFD
0000
0000
0003
0002
0000
0001
FFFE
FFFE
FFFE
FFFD
FFFF
FFFF
FFFF
FFFF
FFFE
0003
FFFF
0002
FFFE
0000
FFFD
0004
0004
0002
FFFD
0003
0002
0000
FFFE
FFFE
0001
0002
FFFE
FFFF
0003
FFFA
FFFD
FFFC
0000
0002
0000
FFFD
0004
0001
FFFD
0005
FFFD
0004
0000
0004
FFFC
0000
0004
FFFF
0004
0002
0004
0002
0000
0001
FFFE
0004
FFFC
FFFB
FFFC
FFFC
FFFF
FFFD
0004
FFFE
FFFF
FFFE
0000
0001
FFFF
FFFF
0000
FFFD
0003
0000
0003
FFFF
0004
FFFF
FFFF
0001
0003
FFFD
FFFD
FFFF
0003
0000
FFFE
FFFF
FFFF
FFFB
0000
FFFF
0000
0002
FFFC
FFFD
0003
FFFF
0000
FFFD
0004
FFFB
0003
FFFF
0002
0000
FFFD
0001
0002
FFFE
0000
FFFE
FFFE
FFFD
0000
0001
0004
0000
FFFF
FFFD
FFFE
FFFF
FFFD
0002
0001
0000
FFFF
0002
FFFE
0002
FFFD
0000
0003
0002
FFFE
0000
0003
FFFC
FFFE
0000
0002
0003
FFFF
FFFC
0000
0002
0000
0002
0003
0000
0000
0000
0000
0000
0000
0000
0000
FFFC
FFFD
FFFE
FFFE
0000
0001
0000
0001
FFFC
0004
0000
0000
0003
0000
0000
FFFF
FFFF
FFFD
0000
FFFE
0000
FFFD
0002
0002
FFFD
FFFF
FFFE
0002
FFFE
FFFF
FFFC
0001
FFFE
FFFB
0002
0002
FFFE
0000
FFFD
0000
FFFE
0005
FFFF
0001
FFFF
0004
0002
FFFB
0004
FFFD
0000
0002
0000
0000
FFFE
FFFC
FFFF
0005
0001
0003
0000
0001
FFFE
0003
0003
0000
0001
0006
0003
FFFE
0001
0002
0000
0000
0003
0000
0002
0001
FFFD
0003
FFFE
0003
FFF9
0002
0000
0000
FFFF
FFFE
0000
0001
0004
0004
FFFF
FFFF
0004
FFFE
FFFE
0000
0000
FFFD
0002
0000
0000
FFFE
0000
0000
0000
0001
FFFD
FFFE
FFFC
0003
0004
FFFE
0002
0001
FFFE
0000
0000
0003
FFFF
FFFF
FFFB
FFFE
0001
0002
0004
0001
0002
0001
0003
0003
0001
0000
FFFF
0000
FFFF
FFFF
0002
0002
0002
0003
0003
0003
0000
0002
FFFF
FFFF
FFFF
0002
FFFF
FFFE
FFFD
0000
0000
0000
FFFE
0001
FFFD
FFFD
FFFF
0001
0000
FFFC
0001
0002
FFFE
FFFF
0001
FFFD
0002
0000
FFFD
0002
0000
0000
FFFC
0002
FFFE
0000
0004
0002
0005
FFFE
FFFE
0000
FFFD
FFFD
0000
0003
FFFF
0000
0001
FFFD
0003
0005
0000
0003
0004
FFFF
0000
0000
0000
0000
0000
0000
0000
0000
0000
0002
0001
0005
FFFC
0003
0002
FFFC
FFFE
0000
0001
0002
FFFC
FFFE
FFFD
0003
0002
FFFE
FFFF
0004
0000
FFFE
FFFC
0000
FFFF
FFFE
FFFE
FFFD
FFFD
0003
FFFB
0000
0003
FFFE
0001
0000
0000
0000
0000
FFFE
FFFF
FFFD
0000
FFFE
0004
0002
FFFF
0000
FFFE
FFFF
0000
FFFC
0003
FFFD
0003
FFFD
0002
FFFF
FFFB
FFFF
FFFE
0000
FFFD
FFFF
FFFE
FFFF
0000
FFFF
0000
FFFE
0001
0003
FFFE
0002
FFFE
FFFF
0002
0000
FFFE
0000
0002
FFFA
0000
0002
FFFD
0001
FFFB
FFFC
0002
FFFF
FFFB
FFFF
0001
FFFF
0000
FFFE
FFFF
FFFD
0000
0002
0000
0002
FFFD
FFFE
0000
0000
0000
FFFF
FFFF
FFFD
FFFD
0000
FFFC
FFFF
0002
0000
0003
0003
0001
FFFB
FFFF
FFF9
0004
0004
0003
0000
0000
0002
FFFE
0000
0000
FFFF
0002
0005
0001
FFFC
0002
0003
0001
FFFE
0004
0000
0004
FFFB
FFFF
0001
0000
FFFF
FFFF
0001
0000
0003
FFFC
FFFF
0000
0000
0003
FFFF
FFFD
0000
FFFC
0000
0001
0000
0003
FFFF
0001
FFFC
FFFE
FFFE
FFFD
0000
0000
FFFD
FFFD
0002
FFFF
FFFF
0000
FFFC
FFFD
0000
0002
FFFD
FFFF
FFFC
FFFF
0002
FFFC
FFFF
0004
FFFF
0000
0000
FFFE
FFFD
0001
0003
FFFD
FFFD
0000
0000
0000
0000
0000
0000
0000
0000
0000
0000
FFFC
FFFE
FFFE
0002
0004
FFFE
0001
0005
0003
FFFD
0003
0003
0000
FFFF
FFFD
0006
FFFC
0000
FFFE
0000
0002
FFFF
0002
FFFD
0003
0000
0001
0000
0001
0000
0000
0000
0004
0001
FFFB
0001
FFFE
FFFF
0000
0000
0000
FFFF
0000
0001
0000
0002
FFFD
0001
FFFC
0000
FFFF
0000
FFFF
FFFC
FFFC
0002
FFFF
0004
0002
0002
0000
FFFE
FFFD
FFFB
0001
0001
0001
FFFE
FFFC
FFFF
FFFE
FFFF
FFFE
FFFD
FFFE
FFFF
0003
FFFF
0002
0000
0002
0001
0000
0003
FFFD
FFFF
0003
0000
0003
0003
0004
FFFE
0000
FFFD
FFFE
FFFF
0001
FFFE
FFFD
0005
FFFB
0001
0001
0003
0001
FFFF
0003
0000
0000
0000
FFFF
0000
FFFE
0002
0000
FFFE
FFFC
FFFB
0001
FFF9
0004
0002
FFFD
FFFE
FFFE
FFFE
0000
0003
0000
FFFE
0001
FFFF
0004
FFFF
FFFD
FFFF
0000
FFFD
0004
FFFE
FFFE
0000
0003
0004
FFFF
FFFE
FFFE
FFFE
0002
0000
FFFF
0005
0000
0002
FFFD
0001
0002
0000
FFFD
0000
0003
FFFD
FFFE
0000
0001
FFFD
FFFF
0001
0000
FFFD
FFFC
0000
0003
FFFD
0001
0004
FFFF
FFFC
FFFF
0000
0002
FFFF
0000
0000
0003
FFFC
FFFD
0004
0003
0004
FFFE
FFFC
FFFD
FFFD
0000
FFFC
0004
FFFC
0000
0000
0000
0000
0000
0000
0000
0000
0001
FFFE
0000
FFFE
FFFE
0000
0002
FFFD
0004
0001
0001
FFFF
0001
0003
0005
FFFF
0000
0001
0002
FFFC
0000
0000
FFFC
FFFE
FFFD
FFFD
0003
0000
0000
0004
0004
0000
FFFE
0000
0004
0000
FFFD
FFFC
FFFD
0003
FFFD
0005
0000
FFFE
0001
0000
FFFF
0002
FFFE
0002
0000
FFFF
FFFD
FFFE
0000
FFFC
0000
FFFE
0000
0000
0003
0001
0002
0002
FFFF
FFFD
0001
0003
0002
FFFF
FFFD
FFFC
0002
FFFC
0003
0005
0000
0003
0002
0002
FFFE
FFFF
0003
FFFE
FFFF
0003
0001
FFFF
0002
0000
0002
FFFE
FFFD
FFFE
FFFF
FFFF
0000
0000
0001
0002
0001
0002
0000
0002
0001
0000
FFFF
0003
0001
FFFD
FFFF
0004
FFFF
0001
FFFD
0000
FFFD
0005
0000
FFFD
0000
FFFC
0001
0004
FFFF
FFFF
0002
FFFD
0000
FFFC
0003
0004
0004
0002
0001
0000
0002
0000
0000
0000
FFFD
0000
FFFF
0001
0001
0002
0000
0001
0001
0000
FFFD
FFFF
FFFE
0000
FFFF
0003
0000
0000
FFFD
0001
0001
0001
0000
0002
0003
FFFF
0000
FFFC
0000
0000
FFFF
0004
0002
0005
FFFF
0003
0000
FFFE
0001
0003
0000
0000
0004
0000
0002
0001
0004
FFFE
0000
FFFE
FFFF
0000
FFFD
FFFF
0004
0002
0004
FFFE
FFFF
FFFC
0000
0000
0000
0000
0000
0000
0000
0000
0000
FFFF
FFFF
0002
FFFE
FFFF
0005
FFFF
0003
0002
FFFE
0004
FFFF
0004
0000
FFFD
FFFC
0003
0002
FFFE
0002
0003
0005
FFFE
0000
0000
FFFE
0003
FFFE
0003
FFFF
0000
0000
FFFD
0000
FFFE
0003
FFFD
0003
0000
FFFD
FFFE
FFFD
FFFE
FFFD
FFFE
0003
0000
0000
FFFE
FFFC
0000
0003
FFFC
0000
0000
FFFF
0004
0000
FFFB
FFFF
0001
0002
FFFE
FFFE
0000
0003
0004
0000
FFFF
0002
FFFF
FFFE
0000
0001
0000
0003
0000
0003
0000
FFFE
0003
FFF9
0005
0000
FFFD
0004
FFFF
0001
0002
0002
0003
0002
0002
0003
0003
FFFE
0004
FFFC
0003
0003
0000
0003
FFFE
0003
FFFF
FFFE
FFFF
FFFF
FFFF
0000
0005
FFFC
FFFC
0000
0004
0001
FFFD
FFFD
FFFF
FFFC
FFFF
FFFE
0001
FFFD
0004
FFFE
FFFD
0003
FFFF
FFFF
FFFE
0001
0003
0000
0001
FFFF
0004
0000
0000
0000
0000
FFFE
FFFD
FFFE
0000
FFFD
0002
0000
0000
0001
0002
0000
0004
0001
0000
0000
0003
0004
FFFE
FFFC
0002
0003
0001
FFFD
0002
FFFD
FFFF
0001
0001
FFFF
0001
0003
0001
0000
0001
FFFF
0002
0001
0000
FFFF
0003
FFFF
0000
FFFF
0002
0002
FFFD
FFFD
FFFF
0003
FFFC
FFFE
0002
FFFD
FFFF
FFFF
0000
0000
FFFC
0000
0000
0000
0000
0000
0000
0000
0000
0000
0002
FFFE
0001
0000
0003
0003
0000
0000
0000
FFFE
FFFD
FFFC
0000
0000
FFFD
0000
0002
FFFF
0004
FFFD
0001
0000
0000
FFFC
0004
FFFC
0000
0000
0000
FFFE
FFFE
