0001
0002
FFFE
0002
FFF8
0002
FFFF
FFFB
0005
0008
0005
FFF5
0004
0004
0010
FFF5
FFF7
0005
FFFE
0005
0006
FFFA
0003
000D
0002
FFF6
0005
000E
FFF5
FFFB
FFF2
000C
0002
FFF9
0001
FFF5
0003
FFFE
000B
0006
0001
0002
0000
FFFC
FFFB
FFFA
0005
0000
000C
FFF6
FFFF
FFF2
0003
000B
000E
FFF5
000D
0000
000C
0003
FFF7
FFFB
FFF4
FFFA
FFFE
0000
FFFC
0009
0009
0004
0007
FFF3
FFFD
FFF8
0007
0000
0003
FFFD
000A
000A
FFF5
0006
000B
0008
0000
0008
FFF8
0001
0008
0003
0001
0002
FFFA
0002
0003
FFEE
FFFF
FFF4
0002
0009
000A
FFFE
0008
FFF6
0000
0004
FFF6
0001
000B
FFF7
000E
0000
FFFD
FFFD
000F
FFF3
0012
FFFD
000C
0003
0008
FFF3
FFFE
0004
FFF7
FFFB
0008
FFFF
0008
FFF4
0006
0002
FFF9
FFEF
FFFC
0000
0001
0001
0000
FFEF
FFFD
0012
0006
FFF8
000B
FFFC
0000
FFF5
FFF5
000A
0004
0008
FFF4
FFFD
000A
0003
0009
0008
0005
FFFE
0001
FFFB
0000
0012
000A
FFFB
0002
0006
FFFF
0004
FFFD
FFFE
0008
0009
0000
FFF3
0001
FFF2
000C
000E
FFFD
0009
FFFD
000B
000D
0001
FFF6
FFFD
0003
0006
0008
FFF6
0001
0003
FFF9
0000
0008
FFFF
FFFE
0000
FFF9
0004
000A
000A
FFFA
000A
0001
FFFE
FFF4
FFFF
FFF9
0010
0005
FFFF
0007
FFF7
FFFE
0003
FFFB
FFF9
FFF7
0000
FFF6
FFF8
0004
FFFE
FFFA
FFFC
FFFA
0002
FFFC
FFF9
FFFE
FFFC
FFF7
0000
0002
0005
FFF1
FFFE
FFF7
000A
0005
FFFB
0003
000F
FFFA
FFFE
0003
0007
0005
FFF7
FFFD
000A
FFFE
0003
0009
0009
FFFC
FFFE
0009
FFFB
FFF9
FFF9
0000
FFFE
FFFC
FFFC
FFFA
0000
FFFE
FFF8
0009
FFFA
0015
0004
FFFA
FFF6
FFF7
FFF9
0012
0007
FFFE
FFF0
FFF8
0002
FFF5
FFFE
0004
FFF3
FFFD
0003
0009
FFF3
0005
0003
FFFC
FFFE
FFFB
000D
FFFE
FFFF
0009
0000
FFF3
0000
0008
0010
0002
FFFC
0006
FFF7
FFF8
FFF7
0004
FFF5
0005
0000
000E
0009
FFFF
0000
FFF3
0004
FFFE
0000
FFFB
FFFB
0000
000F
FFF6
0001
FFF1
FFFB
FFFB
0000
0000
FFFD
FFFB
FFF8
FFF2
FFFF
0006
000C
0007
0000
0004
FFFB
000B
FFFB
0001
0001
FFF8
0003
FFEF
0008
FFF9
0013
FFFD
0002
000C
FFF3
0003
000C
0000
0007
0013
FFFA
FFF9
FFFF
0002
FFFE
FFFF
FFF7
0009
0002
0003
0007
FFF4
FFFD
FFF5
0003
0009
FFF7
0003
FFF1
0004
0004
0000
FFFF
0009
FFF7
0002
0003
0001
0003
0001
FFF6
FFE8
0005
0016
FFF2
FFF7
FFF3
0003
0005
FFF5
FFFA
FFF7
FFF3
0003
0010
000B
FFF8
0000
FFF5
0007
FFF3
FFFD
FFFC
0009
FFF9
0006
0000
0004
0006
000E
FFF1
0004
FFFA
0007
0000
FFF6
FFFE
0000
000D
FFFA
FFFB
0005
0003
FFF4
FFFC
0005
FFFD
0004
FFFC
0008
0003
000A
0003
0003
FFFD
0007
0003
FFFC
0006
FFFF
FFFD
000D
0003
FFF9
0006
0009
0000
FFFF
FFFE
0010
0005
FFFC
FFFF
0002
FFFF
0000
FFF4
FFF9
FFFC
000F
0000
0008
0003
0006
FFFC
0017
000B
0002
0004
0005
FFF9
0004
FFFE
FFED
0004
0002
000A
FFFA
FFF4
FFFD
0000
FFFD
FFFD
0001
0005
0005
FFFD
FFF9
FFFC
FFF9
FFF1
FFFE
0009
0007
0004
000A
0006
FFED
FFFB
FFF4
FFF6
FFFA
FFF9
FFFD
FFFA
0011
0001
FFFF
0006
FFFD
FFF7
000A
FFFE
FFFB
FFF8
0004
FFF5
0000
FFFF
0000
FFFC
FFF7
FFFA
0006
0006
FFFF
FFFE
FFFF
0000
FFFF
0008
FFFC
0007
FFF5
0004
FFFE
FFF8
FFF5
FFF6
FFF7
FFEE
0004
000C
FFFA
FFF9
FFF4
FFFE
0003
0001
000A
0000
000D
FFFE
0001
FFFD
0003
FFFB
FFF1
FFF8
000E
FFEF
FFFF
0004
FFFC
000D
0007
000C
0002
0007
0004
000A
000B
FFF8
0006
FFEF
0000
0002
FFF8
0003
FFF9
FFFB
FFF9
000B
FFFF
0002
FFF7
FFFF
FFF8
FFF9
FFF8
FFFC
FFF6
000E
000E
0001
FFF9
0002
FFF7
FFF2
000B
0004
0001
FFFA
FFF8
0004
0000
FFFE
0002
FFFB
0011
FFEF
0001
0009
FFF8
000E
0000
0018
0007
FFF2
0005
FFFA
0001
000B
FFFA
0005
FFEC
0009
FFFF
0000
0001
FFF9
0006
FFF4
0004
FFFB
FFFB
FFF8
FFFE
0001
0009
000A
0009
FFF0
0003
FFFF
FFFF
0006
FFFF
FFFF
0008
FFF7
0003
FFF7
0005
0000
FFFD
FFF8
0000
0005
0009
0001
0002
0008
0008
0004
0004
FFFF
FFF9
FFFC
0005
FFFC
0004
FFFC
0000
FFFF
0007
0003
0000
FFEF
0004
0000
0008
FFF2
0003
FFFE
0003
0000
FFFE
FFFE
FFF7
0004
0005
0009
0015
FFF4
FFFD
000A
0003
FFFD
0005
FFFE
000D
FFF3
000B
FFFA
FFF6
000F
FFFB
0002
FFF5
0000
FFFF
0009
FFF4
FFF8
FFFB
FFF1
FFF0
000B
FFFC
0000
0004
FFFC
0007
0005
0009
FFFD
FFFE
FFF4
0004
0004
0000
FFFD
FFFA
0000
FFF6
0005
FFFA
0004
FFF7
FFF7
0003
FFFD
FFF5
0004
FFF3
FFFB
0000
000F
0007
FFF7
000A
0008
FFFA
FFFA
FFF7
0007
0007
FFFA
0003
0002
0008
FFF5
0003
FFF4
0001
FFF8
FFFE
FFFD
FFFB
FFF8
0007
0007
FFFF
000E
FFF7
0007
FFF1
FFFB
FFFD
0008
FFF9
0000
FFFD
0002
0009
0003
FFF6
0008
0009
FFFF
0001
FFFF
FFF7
0008
0006
000F
0006
FFF9
FFFF
0000
000B
000A
0008
0003
0007
0001
FFFC
FFEF
FFFF
0001
FFFE
0007
0003
0003
FFFA
000A
FFFF
000F
0004
0000
000A
FFF0
FFF8
FFF1
FFEF
0009
FFFB
FFF9
000A
0004
0003
0000
FFF4
FFFB
0003
0000
0004
FFFB
0001
FFFC
000D
0011
FFF5
000E
0007
0003
FFFB
0006
0002
0001
000A
FFFC
FFF9
0005
FFFE
FFFE
0008
0000
0006
FFFC
FFF6
0002
FFFC
0001
0002
000B
FFFD
FFFE
0004
FFF4
FFFE
FFFD
000A
0008
0011
000F
000E
FFF4
0000
0001
FFFD
FFEF
0002
FFF7
000B
FFFB
FFFD
FFFB
FFF6
0003
0002
FFF5
FFFE
000E
FFFF
FFFA
0000
FFED
FFF7
0002
FFF9
0000
0008
FFF6
0006
0006
0000
FFFF
FFFC
0005
000B
000F
0001
0005
FFF0
FFFD
000E
0003
FFFF
FFFA
0008
0006
0006
0009
0003
FFFA
FFFE
000A
0001
FFFB
000A
FFFD
FFFD
0005
0003
0008
0008
0001
000C
FFED
0007
0002
FFFD
FFF9
FFF8
FFFE
000B
FFFA
000D
0003
FFF8
0003
FFF8
0010
FFFB
FFF9
000E
0000
0004
0009
FFF9
FFFC
0000
0005
0007
0000
FFF7
000D
FFF5
0000
0009
0002
0000
0000
FFF9
FFF3
FFF6
FFFD
FFF4
FFF9
0012
FFFE
0000
FFFA
FFF7
0007
FFF7
0008
FFF6
0006
000C
0000
FFF7
0004
0005
0007
0012
FFFE
FFFD
FFFE
0009
FFFF
FFFF
FFFA
FFF4
0000
FFFB
0007
FFFC
000B
FFF7
FFF9
0005
0006
0003
0007
FFF5
0002
000B
0001
0013
000B
0005
FFF5
FFF6
0007
0003
000A
FFFA
FFFC
FFF5
000D
FFF8
FFF9
0000
0007
FFFE
FFF6
000B
FFF5
0000
FFF2
0000
FFF7
0004
FFF4
000A
0001
000A
FFFB
FFF7
000D
FFF8
FFFF
FFFB
0004
0000
FFFF
0007
0005
FFFE
0000
0015
FFF5
0000
FFFE
0000
FFFA
0006
0004
FFFE
000A
0000
FFFD
000A
0000
0009
0000
0007
0001
0003
0007
0007
0002
FFF4
FFF8
FFFB
FFF6
FFFC
FFE6
0004
0000
0002
FFFA
0009
FFF9
FFF8
FFF9
0002
0001
FFFA
0000
FFFD
0000
FFF6
FFF8
FFFB
FFFB
FFFE
FFFA
FFFC
0006
0001
FFFF
0005
FFF3
FFFF
0000
FFFC
0000
FFF7
FFFD
0003
FFF6
000D
0014
0009
FFFE
0002
0000
0004
000E
0002
0006
FFF7
000D
000C
0007
0001
0006
0000
FFFA
FFFF
0002
000C
0000
FFFC
0006
FFFD
FFFE
0008
000A
0000
FFFF
FFF8
000C
FFFB
FFFC
FFFC
FFF2
0000
000C
0002
FFF6
0013
FFFC
FFF4
0000
FFF9
0006
0001
0006
0000
0000
0003
FFFB
FFF5
0004
FFF6
0000
FFE9
0006
FFFD
0003
0007
0002
000A
FFFE
0009
FFF2
FFFD
FFFA
0007
FFFD
0000
0000
FFFB
0000
0006
0000
FFFC
FFFC
FFFB
0004
FFF6
0009
FFFD
FFF9
FFFD
000F
FFF1
0006
000B
FFFC
0002
0004
0001
0005
0003
0001
0001
0004
FFFE
FFFC
FFFF
FFFA
FFF4
0000
000B
000C
0003
000A
FFFA
FFF4
FFF5
FFF4
0002
000A
0005
0005
0003
FFF9
000C
FFF9
0002
000F
0004
0000
0000
FFF5
000B
FFF9
FFFD
0002
FFF3
FFF6
0002
FFFD
0000
0005
FFF1
FFF6
0007
FFF6
FFEF
000C
000D
0001
FFFF
0004
FFF1
0000
FFF9
FFFE
0009
0005
0004
FFFC
0005
0008
FFFC
000B
0003
FFF9
0005
0000
0000
FFF8
0008
FFF2
FFFF
0011
FFFC
FFF7
0007
FFFB
0000
FFFD
0004
0000
FFFF
FFFE
FFFB
000F
000B
FFFF
FFF0
0000
0003
0000
FFF1
0008
0005
0005
FFFD
0002
0007
0005
FFFE
FFFB
FFFC
FFF8
FFFF
0000
0001
000F
0010
FFFB
0004
0007
0005
0008
FFFC
FFF8
FFFF
0003
FFF8
FFFC
FFFC
000C
0004
0003
FFF8
FFEF
0007
0009
FFEF
0001
0000
000F
FFFD
0002
0009
FFFB
000D
FFF1
0000
FFFA
FFFE
000B
0009
FFEE
0010
FFF7
FFFA
FFFC
FFF9
0003
000C
0011
FFF6
FFFF
FFFE
0016
0003
0002
0002
FFFE
0008
FFFB
FFFD
FFFA
0007
FFF4
000A
FFFA
FFF8
0004
0009
000A
0000
FFF5
FFEE
000D
FFF9
0005
0000
FFFB
0005
000A
FFEE
FFFC
FFF7
FFFA
FFFD
FFF5
FFF9
FFFB
0011
FFF8
0000
0000
0003
FFFA
FFFA
FFFD
000E
FFF9
FFFD
FFFF
FFEE
0000
FFFA
0000
0001
000A
0009
FFFC
FFFB
FFFA
0004
0002
0009
0003
0003
000E
0006
0007
000E
FFFC
0000
0002
FFF5
0002
FFF0
FFFD
0007
0002
0000
0007
0002
0004
FFFB
FFF9
FFF2
000B
0000
0000
FFF5
FFFA
FFEC
0003
0002
0002
000A
FFFD
FFF0
FFFD
0000
0003
FFF5
FFFF
0005
FFFE
0005
FFFC
0005
FFFA
FFF2
000B
0007
FFF2
0000
FFFB
FFF6
0000
0004
000D
FFF6
FFF6
0003
0001
0009
0001
FFFA
0001
FFFE
FFFD
0004
FFF9
000A
0006
FFF6
FFFC
0005
0004
0007
FFF9
0000
0009
0006
0000
0006
FFFC
0006
0000
0003
0007
0006
0002
0005
FFFE
0007
FFF3
FFFF
000E
FFFD
0003
0007
000C
FFFA
000B
FFF7
FFFE
000D
0001
FFFF
0006
FFF5
FFFD
0000
0002
0006
FFF9
0001
0007
FFF6
0001
FFF9
000C
0005
FFEF
0000
0007
0005
FFF6
0004
0004
0008
0006
FFF6
FFEA
FFF5
0002
0000
FFFF
0005
FFFE
FFFE
0002
0002
0008
0006
FFF1
0001
FFFD
0010
0000
FFFF
0009
FFF5
FFFD
0007
0008
FFF0
FFEF
0007
000A
0005
FFF8
FFEF
FFFB
0003
0005
0003
FFFC
FFFD
FFEE
0001
FFFF
FFFE
FFFE
FFF6
FFFA
000E
0005
000A
FFF8
FFF2
FFF3
0008
FFFF
0009
FFEE
FFF9
0006
0001
0005
0000
000F
0008
FFF6
FFF6
0006
0004
FFF9
FFFC
0001
FFF8
000B
0005
FFF4
000E
0008
FFFD
0001
000B
FFFF
000B
0000
0001
FFF7
0008
0002
FFF7
FFF0
000E
FFF3
0004
FFF1
FFFE
FFFD
FFEE
000B
0000
FFFD
FFF9
0003
0000
FFFE
FFF5
0001
FFF8
FFFE
FFF4
0009
0004
FFFD
FFFB
0005
FFFF
FFFB
FFFF
FFF7
000A
FFFA
0003
000A
FFFD
FFFA
000A
000B
0000
FFF7
0006
000E
0007
0005
000B
0004
0005
0004
0009
0003
0006
FFF3
FFFD
FFF0
FFFC
0002
FFFF
FFFD
0002
FFFE
FFFF
FFFC
FFFB
0002
000B
0014
FFFB
0008
0004
FFFE
FFFF
FFFA
0002
000A
FFF5
000A
FFF9
FFFD
FFFD
FFFA
0003
0003
0007
000C
0007
FFFD
FFFF
0000
0003
0008
FFF3
FFEB
FFFD
FFFA
FFFD
FFF1
000B
0008
0008
0006
0000
000B
FFFE
0001
FFF1
0001
FFFD
0002
FFF5
0002
FFFA
FFF6
0000
000A
000E
FFF9
0000
FFF8
FFF8
FFF6
FFFA
0003
FFF7
0004
FFFC
0005
0002
000C
0008
0008
FFF6
FFFF
FFF7
FFFA
0000
FFF7
0004
0008
FFFE
FFFE
FFF5
FFFD
FFF4
0000
0010
FFFC
FFF9
000A
FFFA
000C
0005
FFFE
0001
0002
0000
0000
FFF1
0008
0008
0008
FFFC
FFFB
FFF6
0013
FFFB
0003
FFFF
FFFD
FFFF
0004
0000
0007
FFFC
0004
FFFB
0007
0005
FFEE
FFFD
0008
0005
0002
0000
FFFF
FFEF
FFF4
FFFA
FFF6
0006
0000
FFFD
000C
0005
FFF1
0001
0005
000D
0000
FFFC
0003
0000
0008
0009
FFEE
FFFB
000B
0008
0004
0005
0006
0002
FFFE
FFFA
0000
FFFE
0003
FFFF
FFFC
0000
FFFC
0007
0005
FFF7
000B
0003
0003
FFF5
FFFB
0008
0006
FFF4
0008
0002
000C
0001
0001
0000
FFFD
0007
000A
FFF9
FFF2
FFF8
0001
FFFF
FFFD
FFF8
FFFB
0003
FFF9
FFFD
0003
FFF6
000A
0006
0009
FFF5
FFFD
FFF3
0010
0000
FFFA
000D
0007
0002
FFFE
0000
FFF8
0000
0008
0001
FFFD
000A
FFF5
0000
000F
0007
FFFE
FFF9
0005
FFFE
0006
0004
0007
FFFA
FFF8
0001
0002
FFF6
FFF8
0006
0000
FFFF
0002
FFFC
0001
0000
0006
FFFF
000E
0002
FFFF
FFF5
0003
FFFD
0000
FFF4
0004
FFFF
0007
0005
0004
FFF6
FFF6
0003
FFF6
000B
0000
0012
0004
FFFE
FFFA
FFFB
0001
FFFB
FFFD
0007
0008
0005
FFF8
FFF0
FFFD
FFFD
000F
FFF2
FFFC
FFFD
0010
FFFF
0007
FFFB
0001
FFFF
000A
0005
0001
000E
FFF8
0003
FFF8
FFF7
0003
FFFD
FFFC
FFF3
0008
FFF9
0009
0003
FFF8
FFFC
0000
FFFE
0006
0005
0006
0006
FFF7
FFF7
0008
0006
FFFE
FFF8
0003
FFF8
0000
0003
0002
0000
FFFB
FFF1
0008
0003
000A
0007
0001
0000
FFF9
0007
FFF4
FFF7
FFFE
FFF1
000B
FFEE
FFF7
0008
0000
0000
0010
0009
FFFF
0002
FFFA
0003
FFFF
0007
0005
FFFC
0002
0005
FFFF
FFF8
FFF6
FFF2
0002
0000
FFFB
000A
FFEF
0008
FFFD
0003
0005
0001
0006
0001
FFEF
FFFC
0004
000D
0000
0008
FFF6
FFFA
FFFF
000C
FFF5
FFF3
0003
0014
FFFA
FFF8
FFFB
0003
FFF9
0000
FFF3
0006
0009
0009
FFEF
0001
0005
FFF3
FFF7
000E
0001
FFF7
0003
0000
FFFF
000D
FFFF
0001
FFFC
FFEE
FFFA
0003
0004
FFFC
0011
0001
FFFE
0004
0002
FFFC
0003
0005
FFF8
FFF2
000A
0007
FFF2
0009
0001
FFF4
000C
0000
0008
FFFA
FFF2
FFFD
0009
FFFA
0004
0009
0004
FFF5
0000
0002
FFFC
0004
FFFE
FFFE
FFF0
FFFD
FFFC
FFF8
0009
0014
FFEE
FFEC
0000
FFF4
0006
000B
FFF9
0001
0002
FFFE
FFFD
FFF6
0002
0018
FFF8
0000
0002
FFF4
0000
FFFC
FFFC
FFF5
0008
FFFB
FFF7
0001
FFF2
FFFA
0003
FFE8
0014
0008
FFFD
0007
0007
FFF9
FFFC
FFF5
0005
000B
FFF6
0003
0000
FFFB
000C
0001
0006
0000
0004
0000
FFF6
FFFA
0012
0000
0009
000B
FFF8
000B
0009
FFF2
0010
0009
0003
0005
0004
FFF2
0004
000B
FFFE
FFFA
0001
0008
FFF5
000B
0001
0002
FFF1
FFFF
0001
FFFC
FFED
FFF6
0007
0002
FFFA
0007
FFFD
FFFC
0005
FFF9
0008
0002
0003
FFF9
0008
FFFF
000B
000C
0007
FFF8
FFFA
FFFD
FFF6
000A
0003
0007
FFFF
0000
FFFC
0003
0007
000E
000C
FFFB
0006
0003
0002
0007
FFF4
FFFC
0003
0001
0000
0001
0008
000B
FFFE
FFF6
0007
0001
FFFF
FFF6
0000
0000
0005
000A
FFFD
0008
0001
0006
FFFC
0008
FFFD
FFFC
FFF4
FFFB
0001
0001
000E
0008
FFFA
0009
0004
0001
000C
0000
0002
0000
000F
FFFD
0004
FFFE
0007
FFFA
0000
000A
0005
0001
0002
FFF5
0004
FFF5
FFF7
FFFB
000F
FFEF
0001
000A
0000
0004
FFFF
FFFC
0000
0000
FFFD
0004
FFF5
FFFC
0002
0004
0000
FFFC
FFF5
FFFA
FFFE
FFF6
FFFF
FFF2
0013
FFF8
FFF8
FFEF
0008
000F
0005
0001
0000
0000
FFF2
0000
000A
000A
FFF7
0006
FFF8
000A
0007
FFF8
FFF4
0005
0008
0007
0008
FFFC
0012
000A
FFF9
FFF6
000A
000C
FFF0
0001
0005
0004
000E
FFF4
000C
FFF8
FFF5
0008
FFFC
0001
FFF9
000B
FFFB
0006
FFFF
0002
0003
0000
FFFE
000D
0001
FFF9
FFFC
0000
FFF0
FFFA
000B
FFFE
0000
0009
0005
000D
0004
FFF8
0006
FFFA
0003
FFF1
0010
0005
0000
FFFE
0004
0001
FFF1
FFEF
000B
FFF3
FFFF
0004
FFFF
FFF3
FFFF
0005
0004
0003
FFFA
FFFF
000C
0000
FFF8
FFF8
FFF4
000A
0008
0005
0006
0005
000E
000C
FFEA
FFFC
FFF3
FFF6
0002
FFF3
0007
FFF9
FFFD
FFFC
0001
0000
0005
0002
FFFD
FFFF
FFFC
0008
0005
FFFA
0001
000A
FFFD
FFF5
000B
FFFA
FFFB
0000
0006
0006
0008
FFF4
FFFE
FFF9
0008
0000
FFF7
FFFD
FFFD
0002
000A
000E
0003
FFF9
0002
FFFF
FFF7
FFFA
FFFE
FFFE
0006
0006
FFF7
FFFC
FFF9
0004
0006
0006
FFF7
0008
0006
0007
FFFD
0002
FFFA
FFFD
0008
0002
FFF4
0006
FFFF
000A
FFF2
000D
0000
FFF6
FFF6
000C
0005
0013
FFF3
0005
0003
FFF5
FFF8
0001
FFF8
FFF8
0000
FFF6
0006
0009
FFFD
000B
FFF7
FFEE
0000
0005
0000
0000
0006
FFEE
0008
0006
FFF9
FFFD
0005
FFFA
FFF0
000B
FFEF
0004
FFF3
0000
FFFE
0003
FFFA
FFFC
0007
0007
FFF8
000D
FFFC
FFFF
FFF6
FFFB
FFFD
0009
FFF8
0010
FFFC
0000
0006
000A
FFFF
0001
FFF8
0005
0009
0000
0008
FFEF
0002
0009
FFF8
000E
0006
0008
0004
0006
0007
0000
FFF4
000B
000B
FFF8
FFFB
0004
0001
0001
0005
FFFF
FFF7
0007
FFF6
000B
0000
0006
FFFA
0006
FFF9
FFFB
0009
FFF8
000A
FFFF
0004
000E
FFFE
FFFE
0006
FFFB
0000
000B
FFFE
0006
0008
FFFA
000A
FFFE
FFFF
0006
FFFE
0008
0005
FFF3
0000
FFFE
000B
FFF4
0004
FFFC
0008
FFFD
FFF8
FFF5
FFFF
0009
FFF1
FFF4
0000
0008
0000
000A
FFF3
0002
0009
0006
0011
0010
FFF4
0002
FFFC
0009
0003
0005
0001
0007
0000
0002
FFFF
FFEF
000B
0004
FFFD
FFF7
0007
0002
FFF2
0001
FFFF
FFF7
FFFA
FFFF
0003
FFFD
FFFC
0002
FFF8
000C
FFF8
0006
0000
FFFA
0007
0001
FFF6
0005
000A
FFFB
0005
FFFC
0001
0000
0002
FFF2
0000
FFFC
000B
FFF9
000F
FFFB
FFEF
0000
FFF9
0009
FFFA
000A
0000
000B
FFFA
0001
FFF6
0009
000A
0006
FFFF
0004
FFFD
0009
FFEF
0001
0001
FFFC
FFFF
FFFA
0000
0003
FFF7
FFF4
000A
FFF5
FFFE
FFF9
0008
0008
0005
0006
0003
FFFE
FFFF
0003
0008
0001
FFFD
0004
0001
0016
0002
FFFE
0007
FFF8
0007
FFFE
FFFF
FFF6
000A
FFFD
FFF9
0002
FFF9
FFF8
0009
0005
FFFC
FFFB
FFFF
0002
FFF9
0005
0003
FFF0
FFF9
FFF4
FFFF
0005
FFFE
0000
0007
FFFC
0000
0009
FFFE
FFFA
FFFF
FFFD
000A
0009
FFFC
FFF9
FFF5
0006
0001
FFF5
FFF8
FFF9
0009
0003
0002
FFF7
0008
FFFA
FFFA
0000
0005
000D
FFFD
FFEF
0008
FFF7
0006
FFF6
FFFE
0000
0007
0006
FFFC
0004
FFFE
FFFA
0009
0000
FFFB
FFEE
0004
0000
FFF9
FFFD
FFFC
0009
FFFC
FFFD
FFF9
0000
0000
000A
FFFC
FFFB
FFF4
0009
FFFF
FFFB
0000
0001
FFFF
0000
FFF6
FFF7
FFFE
FFFD
FFF3
FFFD
FFFE
0000
FFFC
FFFB
FFF2
0000
000B
0006
0008
FFF1
FFFB
FFF3
0000
000A
0004
0016
FFF6
000C
0004
0000
FFFB
0002
FFFD
0006
0002
000D
FFFE
0000
FFFA
FFFA
000D
FFF5
0002
FFFB
FFED
FFFA
0007
FFFB
000E
0005
0009
FFF4
FFF6
FFF3
0004
0008
0000
000B
FFF7
FFF5
000A
0003
0006
0009
0009
FFF9
FFF8
FFFC
0001
0000
FFF8
FFFE
0005
0010
FFFD
FFFC
FFF6
0000
0000
FFF8
0002
FFFA
FFF7
0001
FFFA
0006
FFF5
0000
0003
0003
0005
FFFF
0006
FFF3
0001
FFF0
0008
0006
FFFE
FFEF
0001
FFF7
0003
000A
FFED
000B
FFFE
0003
0000
FFFD
FFFA
FFF7
FFFB
FFF5
0002
0000
000D
0006
0004
0000
FFF5
000B
FFFB
FFF8
000C
FFF5
0002
0003
0004
0007
000C
FFF9
FFF4
FFFF
0006
0000
0002
FFFB
0009
FFFD
000F
0008
FFF7
FFFC
FFF7
0003
0008
FFF4
0003
FFF0
FFF6
FFF3
FFFC
FFFB
FFF2
0001
FFFC
FFF7
FFF9
FFFE
FFFE
000A
FFF8
FFFC
0012
0001
FFFC
FFFF
0008
0002
000B
000F
FFEB
0000
FFF5
0007
FFF5
FFF6
FFF9
0018
FFF2
FFFB
0003
FFFF
000E
000D
FFEC
FFFF
0006
FFFC
0004
FFF8
0002
FFEB
0009
0006
0000
FFF6
0002
FFFA
0005
0005
000A
000A
FFFB
FFFA
FFF7
0004
FFFB
FFFB
FFF6
0000
0004
0000
000B
000F
FFF6
0007
0003
0006
0009
FFFD
FFF8
FFF7
0003
FFF0
FFFD
0015
FFF2
0003
0008
FFF6
000A
0000
0008
0004
0002
FFF3
0005
FFFF
0002
0008
FFF9
FFFE
FFFF
FFFB
0006
0003
FFF8
000A
0003
FFF3
0002
FFF0
0000
FFFC
FFFF
0008
FFFF
FFFE
000C
0006
FFFA
FFF5
000A
0008
0000
FFFC
0000
FFF0
0003
0000
000A
FFFC
0000
FFFA
0000
0000
0007
FFF7
0010
FFF6
FFFC
0008
FFF9
0003
FFF8
FFFE
0000
FFFC
000C
FFFF
FFED
0002
0004
0006
FFFA
FFFC
0006
FFFA
FFFE
FFFF
FFF7
000B
FFF4
0002
000A
0006
FFF3
000C
0002
000A
FFFB
FFF9
FFF1
FFF7
000F
FFFB
FFFC
0000
000C
FFEC
0004
0006
0005
0008
0000
FFF5
0008
000D
0006
FFFA
FFF7
FFF7
0007
FFF9
FFFA
FFFA
0007
0003
FFFE
0009
FFF4
FFFE
FFFB
FFFE
FFFE
FFF6
000A
0003
0002
FFF5
0006
FFFD
FFFA
FFFE
000A
0004
0002
FFF3
FFFD
0006
FFF4
000A
FFFF
FFFD
0011
0004
0009
0000
0006
FFFB
FFF9
FFFC
FFED
0000
0000
0005
0003
0006
FFFF
000C
FFEE
FFFD
FFFB
000E
0000
FFF4
FFF5
0015
FFFA
FFFF
0002
0002
0005
0006
FFFA
0002
FFFC
FFF6
000C
000A
FFFB
FFFF
0000
FFF4
0002
0000
0006
FFF8
0008
FFF0
0006
FFFD
FFF5
0007
0011
0004
FFF9
000E
FFFD
000C
FFEF
FFF4
0013
000A
FFFC
0000
0003
FFF7
FFFD
0005
0010
0003
FFF8
FFFC
FFFE
0008
000E
0002
0006
FFF8
FFF4
000A
0006
FFF7
0000
0005
0000
0007
0002
FFF4
0003
0007
FFFA
0002
FFF3
FFF1
FFFB
0004
0008
0005
FFF6
FFFD
FFF4
FFF5
0007
0006
FFF6
0009
0008
FFFB
FFF4
FFFE
000E
0009
FFFC
0003
0001
0000
0005
FFF9
FFFD
0006
FFFA
FFF5
0009
0000
FFF7
0000
FFFD
FFFF
0003
FFF7
0006
0000
FFFE
0001
FFF0
0002
000C
FFFF
FFF6
0005
0007
0008
0005
FFFE
0004
FFF1
000A
0004
FFF9
0003
0005
FFF9
0005
FFF9
0007
FFFF
FFF3
FFFA
0009
0009
FFFB
0009
0009
0000
0005
FFF7
FFF9
000D
FFF8
000B
0001
0007
0009
000D
FFEC
FFFE
000D
0009
FFFB
0001
0008
FFFC
FFF7
FFF7
FFF9
0014
FFF9
000C
FFFA
000D
FFFB
FFFD
0009
0003
0010
000F
FFFF
0000
0001
0005
FFF8
0004
0003
0002
FFFB
FFF1
0009
0000
0000
FFFE
0000
0008
0000
FFEB
0007
FFF3
0008
0000
000D
000E
FFF5
0015
FFFC
FFF6
0001
0001
0000
FFF9
0000
FFFD
FFF0
0007
FFFA
000D
000D
FFFB
FFFA
000B
0001
FFFF
0008
0002
FFFB
FFFD
0001
FFFD
0000
0002
0015
FFF5
FFF8
0003
000B
0002
FFFA
FFF6
0006
FFFE
FFFD
FFF9
FFFE
0004
0006
FFFA
000F
FFF6
000F
FFFF
0008
000F
0001
FFF5
0002
0004
0002
0001
FFF7
FFFF
FFF9
0000
0000
0003
000C
0006
0000
0005
0000
FFFD
FFF5
0000
0008
FFF9
FFF5
FFFB
FFF6
0001
FFFC
0008
000D
FFF9
FFFA
FFF9
0007
000D
FFFA
FFFF
000E
0007
FFFE
FFFA
FFFB
FFF6
0001
FFF4
0009
FFF9
0000
FFFD
0002
000E
FFF9
0000
FFFB
FFFF
FFFA
0004
0006
000F
0003
0005
0003
000A
FFFC
0003
0000
FFFC
0004
0010
0000
FFF7
000A
FFFC
0000
FFFA
FFFA
0001
FFFB
FFFA
0007
0000
0006
0008
0002
0002
FFFA
0000
FFFD
FFF9
0005
FFFF
000E
FFFE
000A
000C
0002
0004
0006
000A
FFFE
000C
FFFD
0001
0007
0011
0003
0000
000D
FFFC
FFF9
000F
000F
000A
FFF5
FFF9
0004
000E
FFFF
FFF5
0008
000C
0001
0003
FFFE
FFFA
000B
0000
0000
FFFA
FFF8
FFF6
FFFA
FFF8
FFFE
0003
FFF8
0001
000D
000B
FFF5
0006
FFFD
0000
FFF5
FFFC
FFFA
0001
FFFF
FFF6
0002
FFFF
FFF4
0007
0004
FFF9
0000
0004
0000
0006
FFF9
FFF8
0004
0008
0007
0001
000B
0009
0005
0005
FFEF
FFF6
0008
FFFE
FFF5
0008
0007
FFFA
0005
0003
FFFE
FFFF
FFFD
FFFA
0009
0009
FFFC
0003
FFF3
0007
FFF8
FFF8
0000
000A
FFF8
000D
FFFF
000C
FFFB
0003
0000
FFF6
0005
0003
0001
FFEF
FFFA
FFF6
0000
0002
FFF1
0006
FFFA
FFF2
0000
FFFD
FFFC
FFFE
FFFD
0005
FFFF
0000
FFF9
0005
000A
FFF9
FFF2
0002
0004
0007
000B
0000
FFF9
000E
0008
0008
FFFA
FFF8
FFFA
0004
0004
0002
0000
FFFA
0010
000C
000A
FFF6
FFFF
0000
0002
000A
0000
0003
0002
0000
FFF7
0005
FFFE
FFF9
0009
FFFF
0007
000E
0000
0000
000B
0001
FFFA
FFF1
0006
FFF4
FFF3
0000
FFF9
FFFC
FFFF
0000
0007
FFFD
FFFE
FFFF
0005
FFFA
FFFC
000A
0002
FFF9
FFFB
FFF3
0000
0006
FFFE
FFFD
FFF3
FFFE
FFF9
000D
FFFD
FFF7
0000
FFFB
0005
FFFF
FFF6
0000
FFFC
FFF7
000B
FFFA
FFFB
0000
0002
0009
000A
0002
000B
FFFD
0000
FFF9
000E
000A
000B
0007
0008
0000
000B
FFFE
0007
0007
0009
FFFC
FFF9
0005
FFFB
FFFB
0002
FFFC
FFF4
0004
0006
FFFF
FFFE
0007
FFFD
FFF6
FFFD
0002
FFF9
FFFC
FFF4
FFFE
0003
000E
0007
000D
FFF0
FFFD
000B
0005
FFFB
0007
FFF7
0005
FFF8
0009
FFFF
FFF1
0009
0015
FFF8
FFF6
FFF8
000A
0007
FFF3
0000
000E
0003
FFF9
FFFC
0002
FFF9
000A
0002
0006
FFFF
FFF5
0004
0000
0007
0004
FFF5
FFFB
FFFE
0004
FFFD
0003
FFF8
000C
FFF7
0007
0000
FFFF
0004
0000
FFF5
0008
FFF8
FFFA
FFF6
0000
000C
0007
FFEF
FFF6
0005
0000
FFF7
FFFD
FFFB
FFF6
FFFD
0003
0008
0008
FFFE
FFFB
0006
0007
0000
0006
0001
0006
FFF7
FFF6
0008
FFF8
0007
000F
0002
0003
FFFD
FFF6
0010
0007
0006
0000
FFFF
0008
000B
FFFA
FFFF
000C
0000
0001
FFF4
0002
0009
FFFD
FFF8
0006
FFF8
0005
0003
FFFE
0011
0000
000B
0002
0002
0002
0000
0005
FFFB
FFFB
0000
FFFC
0003
FFFE
0000
0000
FFFA
0000
0000
0000
0000
0000
0000
FFF7
FFF1
0000
0000
0001
FFF7
0000
0000
FFFE
FFF6
0000
0000
FFF3
0009
0000
0000
FFF7
000A
0000
0000
0008
000E
0000
0000
FFFF
000A
0000
0000
FFFD
FFF9
0000
0000
0008
000D
0000
0000
0001
FFF7
0000
0000
FFFE
0000
0000
0000
FFF4
000B
0000
0000
0004
FFF2
0000
0000
000D
0008
0000
0000
0000
FFF5
0000
0000
FFF5
FFF6
0000
0000
FFFE
0015
0000
0000
0009
FFF7
0000
0000
0000
FFFE
0000
0000
0000
FFEF
0000
0000
0008
0005
0000
0000
000F
0008
0000
0000
0005
000A
0000
0000
0001
FFF8
0000
0000
000B
FFFD
0000
0000
000E
FFF1
0000
0000
FFF7
000A
0000
0000
FFFA
FFF6
0000
0000
0006
0000
0000
0000
FFFF
0000
0000
0000
FFF7
0005
0000
0000
000C
0007
0000
0000
FFFF
0003
0000
0000
0000
FFFB
0000
0000
FFF1
0007
0000
0000
FFFB
FFFE
0000
0000
0010
0006
0000
0000
FFFB
FFF4
0000
0000
FFF4
FFFB
0000
0000
FFFF
0008
0000
0000
FFFE
000A
0000
0000
FFFC
000F
0000
0000
0004
FFFD
0000
0000
FFF9
FFF4
0000
0000
FFF8
FFF3
0000
0000
FFFF
FFF8
0000
0000
0000
0001
0000
0000
0005
0007
0000
0000
0000
0008
0000
0000
FFF6
0007
0000
0000
FFFB
0008
0000
0000
FFFB
FFF4
0000
0000
FFFE
0000
0000
0000
0005
0012
0000
0000
0005
FFF3
0000
0000
0004
FFF4
0000
0000
0005
0000
0000
0000
0000
0000
0000
0000
0003
FFFD
0000
0000
0006
FFF3
0000
0000
0011
FFFB
0000
0000
000B
FFFB
0000
0000
000B
FFF8
0000
0000
FFFE
FFFE
0000
0000
FFF9
0010
0000
0000
FFF4
FFF5
0000
0000
FFF5
0002
0000
0000
FFFC
000F
0000
0000
FFF8
0001
0000
0000
0000
0000
0000
0000
0009
FFFC
0000
0000
FFFC
FFFB
0000
0000
FFFB
0001
0000
0000
0002
FFF8
0000
0000
FFEE
0009
0000
0000
FFFE
FFFF
0000
0000
0005
FFFA
0000
0000
0001
0003
0000
0000
0000
0005
0000
0000
0005
0000
0000
0000
FFF3
FFF6
0000
0000
0005
0004
0000
0000
0004
0003
0000
0000
000C
FFF8
0000
0000
0004
0002
0000
0000
000A
FFF3
0000
0000
FFFC
0004
0000
0000
0002
FFFE
0000
0000
0003
FFFD
0000
0000
FFFA
0001
0000
0000
FFF3
000B
0000
0000
000B
000B
0000
0000
FFF7
0009
0000
0000
0002
0005
0000
0000
0010
0006
0000
0000
0003
000A
0000
0000
FFF3
FFFB
0000
0000
0006
0009
0000
0000
0003
0001
0000
0000
FFFE
0004
0000
0000
0009
000D
0000
0000
0001
0001
0000
0000
FFFA
0004
0000
0000
0007
FFFD
0000
0000
0004
0008
0000
0000
FFF1
FFFF
0000
0000
0008
0000
0000
0000
FFFD
FFF9
0000
0000
0001
0009
0000
0000
FFFA
FFFA
0000
0000
0001
FFFE
0000
0000
0004
0004
0000
0000
FFFE
FFFB
0000
0000
FFFA
FFF9
0000
0000
0000
FFFD
0000
0000
FFF8
FFFA
0000
0000
FFFA
0007
0000
0000
FFF9
FFFC
0000
0000
FFFC
FFEF
0000
0000
FFFA
FFF7
0000
0000
000F
0000
0000
0000
FFF1
0006
0000
0000
FFFA
0000
0000
0000
0007
FFF1
0000
0000
0003
0010
0000
0000
0003
FFF6
0000
0000
FFFC
0001
0000
0000
0005
0017
0000
0000
0004
FFF9
0000
0000
0000
FFF9
0000
0000
0000
0003
0000
0000
0000
FFF9
0000
0000
0003
FFFF
0000
0000
0009
0003
0000
0000
0002
FFFD
0000
0000
0003
000A
0000
0000
FFFB
0002
0000
0000
FFFC
000E
0000
0000
0000
0017
0000
0000
0003
FFF7
0000
0000
0002
0000
0000
0000
0005
FFFB
0000
0000
000F
FFF3
0000
0000
FFF3
0004
0000
0000
0000
FFFD
0000
0000
0003
000B
0000
0000
0006
FFF2
0000
0000
FFFC
0007
0000
0000
0006
0002
0000
0000
0000
0002
0000
0000
0000
FFF0
0000
0000
FFF9
0003
0000
0000
0000
FFF3
0000
0000
000C
FFFD
0000
0000
FFF7
FFEF
0000
0000
FFEA
FFFC
0000
0000
FFE9
FFF5
0000
0000
FFFB
000B
0000
0000
FFFA
000C
0000
0000
FFFF
0004
0000
0000
0000
FFF4
0000
0000
0000
FFFD
0000
0000
0009
FFF1
0000
0000
FFFD
FFFA
0000
0000
FFF4
FFFD
0000
0000
FFF7
000D
0000
0000
FFFF
0000
0000
0000
0000
FFFD
0000
0000
0000
FFF2
0000
0000
0013
FFF7
0000
0000
FFF0
0003
0000
0000
FFF5
FFFA
0000
0000
0004
FFFB
0000
0000
FFFA
FFFD
0000
0000
0001
000F
0000
0000
FFF3
0000
0000
0000
FFFA
0009
0000
0000
0002
000B
0000
0000
FFFE
FFFE
0000
0000
FFF7
0012
0000
0000
FFF9
0002
0000
0000
0009
0009
0000
0000
FFF2
0009
0000
0000
FFFA
FFFA
0000
0000
0007
0005
0000
0000
0002
000F
0000
0000
0000
0006
0000
0000
FFFD
0007
0000
0000
FFF8
000A
0000
0000
FFFC
FFF8
0000
0000
0000
0009
0000
0000
FFFE
0006
0000
0000
0005
FFFD
0000
0000
0000
0000
0000
0000
0004
FFFF
0000
0000
FFFA
0000
0000
0000
FFF5
0002
0000
0000
FFFC
0007
0000
0000
0005
FFFB
0000
0000
FFFF
FFF7
0000
0000
0002
FFF6
0000
0000
FFFF
FFF1
0000
0000
0000
0007
0000
0000
0006
FFFA
0000
0000
FFFF
0014
0000
0000
FFF3
FFFB
0000
0000
FFFE
0002
0000
0000
0007
0000
0000
0000
0008
0005
0000
0000
000A
0002
0000
0000
0007
0000
0000
0000
0006
FFF7
0000
0000
FFF3
0000
0000
0000
FFFA
FFFB
0000
0000
FFF8
FFF5
0000
0000
FFFD
0007
0000
0000
0007
FFFB
0000
0000
0008
0000
0000
0000
FFFC
FFFE
0000
0000
0003
0009
0000
0000
FFF7
0010
0000
0000
FFF8
FFFD
0000
0000
0008
0000
0000
0000
0007
0006
0000
0000
0009
0009
0000
0000
000E
FFFC
0000
0000
FFF8
0005
0000
0000
FFFB
FFFE
0000
0000
FFF7
FFF6
0000
0000
0003
FFF8
0000
0000
FFFA
FFF8
0000
0000
0009
0006
0000
0000
FFFF
0008
0000
0000
0006
FFF7
0000
0000
0000
0003
0000
0000
FFFC
FFFD
0000
0000
0001
FFF3
0000
0000
0001
000E
0000
0000
0003
000D
0000
0000
FFF6
FFFE
0000
0000
0002
000A
0000
0000
FFFC
FFFF
0000
0000
FFF8
0009
0000
0000
FFFC
FFFB
0000
0000
FFFD
000D
0000
0000
0004
FFFA
0000
0000
FFFB
000C
0000
0000
FFFD
0009
0000
0000
0000
0006
0000
0000
FFF7
FFFA
0000
0000
FFF5
0004
0000
0000
0002
FFF5
0000
0000
0007
0000
0000
0000
FFF9
000A
0000
0000
FFFF
FFF7
0000
0000
0011
FFF5
0000
0000
FFFE
0007
0000
0000
0006
FFFF
0000
0000
0002
000D
0000
0000
FFF9
FFF9
0000
0000
FFFD
0000
0000
0000
0008
0002
0000
0000
FFFB
0000
0000
0000
000B
0008
0000
0000
0008
FFED
0000
0000
0006
FFF2
0000
0000
0001
FFFC
0000
0000
FFFA
0009
0000
0000
000F
FFF5
0000
0000
000A
000A
0000
0000
FFFE
FFFB
0000
0000
000C
FFFB
0000
0000
FFF9
0000
0000
0000
0005
0001
0000
0000
0000
0004
0000
0000
0007
FFF9
0000
0000
0006
000D
0000
0000
FFFD
0000
0000
0000
0004
FFFA
0000
0000
000E
0009
0000
0000
FFFD
FFFB
0000
0000
0006
0003
0000
0000
FFFA
0008
0000
0000
0008
FFFF
0000
0000
FFF7
0000
0000
0000
FFF1
0001
0000
0000
0000
0001
0000
0000
0007
0000
0000
0000
0005
FFF9
0000
0000
FFF5
0007
0000
0000
0003
0004
0000
0000
FFFB
FFFF
0000
0000
0008
FFFB
0000
0000
FFEE
0002
0000
0000
0004
0000
0000
0000
000C
FFFB
0000
0000
0003
0006
0000
0000
0009
FFFE
0000
0000
0000
0006
0000
0000
FFFC
0006
0000
0000
0000
FFF6
0000
0000
000B
000D
0000
0000
FFF9
0001
0000
0000
0006
0005
0000
0000
FFF9
FFED
0000
0000
0006
000F
0000
0000
FFFB
FFFC
0000
0000
0003
FFFB
0000
0000
000A
0002
0000
0000
FFFD
0005
0000
0000
0003
FFFA
0000
0000
FFF7
0002
0000
0000
0001
FFF8
0000
0000
FFFE
0000
0000
0000
000C
FFFC
0000
0000
0008
0008
0000
0000
000F
000B
0000
0000
FFFF
0007
0000
0000
0002
0001
0000
0000
FFF7
000D
0000
0000
0009
0001
0000
0000
0002
FFFD
0000
0000
0002
000E
0000
0000
0001
FFFA
0000
0000
000D
FFF5
0000
0000
FFF2
FFF6
0000
0000
FFF4
FFFB
0000
0000
FFFB
0009
0000
0000
FFF9
FFFF
0000
0000
0000
0000
0000
0000
FFF3
FFFE
0000
0000
0007
FFFE
0000
0000
0010
0001
0000
0000
0003
FFFC
0000
0000
FFFE
0003
0000
0000
000B
000E
0000
0000
000E
FFFD
0000
0000
FFFA
FFFC
0000
0000
FFFD
0001
0000
0000
FFF8
FFF7
0000
0000
000D
0001
0000
0000
0000
0007
0000
0000
0005
FFF7
0000
0000
0000
0005
0000
0000
FFFE
FFE9
0000
0000
0008
FFFC
0000
0000
FFF7
FFFA
0000
0000
000F
0008
0000
0000
0000
0000
0000
0000
0000
FFFD
0000
0000
FFFC
FFFE
0000
0000
000A
FFFF
0000
0000
FFF8
0007
0000
0000
0009
FFFD
0000
0000
FFF2
000A
0000
0000
000B
FFF3
0000
0000
0005
0012
0000
0000
FFFA
0009
0000
0000
FFF6
FFFC
0000
0000
FFFC
FFF3
0000
0000
0002
FFFE
0000
0000
FFF1
FFFB
0000
0000
FFF6
0000
0000
0000
0007
0000
0000
0000
0000
000F
0000
0000
000A
FFF7
0000
0000
FFFA
0001
0000
0000
0003
0014
0000
0000
000A
FFFB
0000
0000
FFFF
FFF8
0000
0000
0000
0009
0000
0000
FFF9
0009
0000
0000
FFF6
0005
0000
0000
0001
0011
0000
0000
0004
0012
0000
0000
FFFA
0000
0000
0000
FFFD
0001
0000
0000
FFF5
FFF8
0000
0000
0003
FFFC
0000
0000
0003
0000
0000
0000
FFFD
FFFA
0000
0000
FFFB
FFEC
0000
0000
FFFA
FFFA
0000
0000
FFFF
000A
0000
0000
FFF7
0008
0000
0000
FFFC
0002
0000
0000
FFFD
FFF4
0000
0000
000E
FFFF
0000
0000
FFFC
0005
0000
0000
0007
0004
0000
0000
0000
000B
0000
0000
0003
0005
0000
0000
FFFD
FFF7
0000
0000
FFFA
0000
0000
0000
FFFD
0004
0000
0000
FFFF
0001
0000
0000
FFFC
FFFA
0000
0000
0000
FFF7
0000
0000
0004
0004
0000
0000
FFF7
0002
0000
0000
FFFF
0008
0000
0000
FFF5
0007
0000
0000
0003
FFFB
0000
0000
0000
FFFB
0000
0000
FFF3
FFFA
0000
0000
0005
FFEA
0000
0000
FFFC
0002
0000
0000
FFF8
FFFE
0000
0000
0002
FFF1
0000
0000
0000
0000
0000
0000
FFFA
000B
0000
0000
0003
FFF9
0000
0000
FFFF
FFFE
0000
0000
0006
FFFA
0000
0000
FFFB
000E
0000
0000
0007
000A
0000
0000
0008
0003
0000
0000
000A
FFFA
0000
0000
0001
0003
0000
0000
FFF9
FFFE
0000
0000
000B
000B
0000
0000
000C
FFFA
0000
0000
FFF4
FFFD
0000
0000
FFFE
0002
0000
0000
0001
FFF4
0000
0000
0006
FFFF
0000
0000
0001
0010
0000
0000
0001
0000
0000
0000
0000
FFFD
0000
0000
FFFF
FFFA
0000
0000
FFF8
0009
0000
0000
0002
0003
0000
0000
0004
0003
0000
0000
FFFC
0004
0000
0000
0000
FFFC
0000
0000
0000
0007
0000
0000
000A
0009
0000
0000
FFFF
000A
0000
0000
FFF1
0002
0000
0000
0003
000E
0000
0000
0003
0003
0000
0000
FFF1
0000
0000
0000
FFFE
0000
0000
0000
FFFA
0000
0000
0000
FFF8
0002
0000
0000
FFFA
0006
0000
0000
0012
000A
0000
0000
0000
FFFA
0000
0000
0000
FFF6
0000
0000
000E
0001
0000
0000
FFFF
000D
0000
0000
0001
0000
0000
0000
0002
000B
0000
0000
FFFE
FFFB
0000
0000
FFF0
FFF6
0000
0000
FFFB
FFF9
0000
0000
FFF5
FFF3
0000
0000
FFFC
0000
0000
0000
FFF5
FFFF
0000
0000
FFFA
000C
0000
0000
0005
FFFC
0000
0000
0002
FFFF
0000
0000
FFFD
FFF6
0000
0000
FFFF
0003
0000
0000
0007
FFFE
0000
0000
FFFE
000A
0000
0000
0000
FFF5
0000
0000
FFFA
FFFC
0000
0000
0003
FFF5
0000
0000
FFFA
0004
0000
0000
FFFE
0005
0000
0000
FFF3
0000
0000
0000
0001
FFFB
0000
0000
FFFD
FFFA
0000
0000
FFF7
0003
0000
0000
0004
0005
0000
0000
0004
0009
0000
0000
0003
FFFD
0000
0000
FFFE
FFFC
0000
0000
FFF5
FFF9
0000
0000
0008
0007
0000
0000
0013
FFFA
0000
0000
FFF8
FFFE
0000
0000
FFFA
FFFC
0000
0000
FFF4
FFFF
0000
0000
000B
FFF4
0000
0000
FFF7
000A
0000
0000
FFF5
FFF3
0000
0000
0001
FFF1
0000
0000
FFF8
0005
0000
0000
0000
FFF9
0000
0000
FFF5
0012
0000
0000
0003
0008
0000
0000
FFF2
FFFF
0000
0000
FFF2
0001
0000
0000
0004
FFFB
0000
0000
000D
0000
0000
0000
FFF8
0002
0000
0000
