fff6
0087
00d6
0192
fce4
0196
fe8c
0450
0195
00fc
fffe
0081
ff96
fd16
ffb6
023a
028d
fee8
016e
0047
fb9e
ff94
fce8
037e
fe9f
006a
fdc5
feb5
fe3f
fe19
01cb
fdce
01b3
016b
ffbd
ff60
fdce
fe66
0200
01ec
fe8e
01be
0176
0025
01dc
02ba
01ab
fd12
fe51
0075
ff22
0012
005f
0308
0075
ffc0
ff9a
0097
ffcb
ff45
0238
fc3d
fe23
0403
fef0
014d
005d
0046
fc37
fd0b
fe62
fdba
fee3
02ee
ff97
0040
0148
ff4d
0024
fcb8
01df
00a3
ff76
ffcf
fe6a
047b
02fd
fecd
febd
fe2b
ffe8
fff5
feff
feaa
02fb
fdcf
fee3
014e
0098
003e
022b
05ad
01c0
0156
0077
fdef
0005
ffc2
ff2c
fd91
fde2
0603
ff43
ffd5
ff31
fff3
fcbd
fce7
fd99
02dc
ff0e
0115
0095
0109
0179
01e5
005e
003e
01b5
fe75
ff88
ff38
ff41
fef1
fc8e
06f9
0112
0094
ff07
0024
fafe
0097
fd9a
007f
005d
004c
00fa
0038
00e3
00bc
0262
ffec
ff61
00f9
0009
ffd8
fd97
fda5
fe99
fe7d
002c
ff2a
ffe7
ff7a
02c1
fc27
0092
0165
0000
ff7a
fed3
ff10
fe73
049e
02fd
0224
febe
fe14
0097
0007
012c
fc99
fd8c
ff94
ff3c
00f2
ff0f
000f
fe15
00bd
fef8
01fe
ffc8
0159
ffea
0059
00ae
ff08
fd04
fdc9
fdfc
001c
ff2c
ff6f
fe07
0303
fda1
fd77
0102
017d
ffdb
00a4
022b
fde2
001e
ff96
fea8
009a
fe74
0214
fb80
0039
02a2
02ef
ff88
fde4
ffb6
005f
0060
007e
ff9e
ff97
002a
fec2
0019
0052
fd51
fff7
0355
fe87
0119
00bd
ffe4
ffb2
01c8
fe08
028b
ff60
00de
0119
ffa1
002b
fcf5
fdec
03ba
028b
00f1
fcbb
0020
0006
ff14
02fb
01da
fcd0
0051
fec1
fffb
0046
fe6b
fefb
0319
ff71
0161
fe4d
ffb5
ffaa
0071
fe9c
ffb7
01cf
fe7d
0193
ff5d
ff4a
ff3b
feaa
fe29
fc16
0209
0297
00b3
00a1
00da
014a
01c6
fe64
01b6
02a8
ff59
002d
fe11
ffa3
fd51
fd73
0032
ffc6
fede
ff8e
fe83
ff4d
0196
feb4
0236
fff7
ff98
ffd2
f957
005b
fdc9
00da
feba
01ce
ff3f
ff0f
fe34
fc41
0242
fdbe
005a
febf
0004
ffe8
0101
fecd
009e
fe2b
0146
015b
0015
006f
fde5
0183
0184
00c0
feba
0077
0057
ffa1
fe2d
0186
fdf7
003b
fe18
ff20
fde5
fe2b
fb4a
ffee
fcfa
fd7d
fe7c
fe08
003a
ffe1
00ca
0223
fc67
0273
0008
fe7f
ff1a
00d5
0129
0285
02fb
0334
fe04
fe10
0095
fee6
ff58
05c6
fd51
fe1f
fe27
019b
fe14
ff5f
f917
0024
fd9b
ff55
0256
01d1
fe1e
fe38
fff2
004d
0172
01ca
ff8e
feb4
00de
ff9b
fc7e
fd9a
ff30
017d
ffc4
fdcb
00d8
ff65
01c6
ff0b
02ca
0034
fffd
fd57
ff19
ff86
faa1
ff7e
0186
ffdd
0072
fe0a
0044
014a
fa18
fed2
0091
028a
00e5
00ab
ff53
fe74
fcda
fce4
fd9d
fe5d
fe91
02a7
ff9d
00e4
0314
03d6
0513
0370
0004
004d
007d
ffab
ffec
fca1
002a
fcb2
0088
0076
00c7
00b5
ff4c
0000
02c3
01a4
feae
ffc4
ff78
00cb
fabe
ffce
018e
ffba
0183
0198
ff59
00e5
0076
0280
fdea
0169
fe61
0150
01c7
001d
fa59
feb9
010b
fd5f
0317
fec2
ffa2
006a
0014
0313
00d5
fd4b
0192
0000
ffe5
fff4
0172
0134
fc2f
fdd9
000d
0155
0004
004e
fd48
fd31
ff94
fe27
fffe
0055
006e
ff95
043e
fe9a
0049
ffa5
00e0
0169
ffc7
ffd2
fdd2
fe2a
0003
03eb
01e7
001c
01c7
0031
fbfe
fffb
016f
ff2c
ffdc
006f
feb7
0007
fe53
03bb
fe21
01f7
0083
007e
00af
0044
034a
0102
01bf
0470
ff4d
fd73
ff14
0103
00ef
fc2a
0034
ff44
fff1
0269
0106
0082
02f0
ffaf
fec9
007c
0041
002f
0033
009e
fda0
004d
fdf6
fce2
0243
fcd1
002e
ffcb
ff70
ff92
fd98
018c
0038
00f3
0012
ffdf
ffe2
fdcf
063a
fcae
018f
0213
ffd2
030c
fcfc
0087
ff54
ffed
01fe
fe62
0323
ff1b
f9e7
fdc8
feaa
031e
000a
0217
0056
008f
fe59
fcb4
fd88
0391
ffc1
fe10
00cc
0107
ff65
0158
ff48
ff0c
0228
ffe7
ff79
ff40
f9af
fd95
fe0f
fe3d
00c8
01e2
ffea
ffba
fb15
005b
fec3
0167
ff58
02dd
ffd5
0039
0150
fc7d
fd96
fb69
fe64
0009
ffab
009b
00e7
fe56
0006
037e
fe0e
0112
ffd3
ffea
ff42
fc14
fcdf
ff78
0144
ff02
ffb5
ffa6
0075
0057
fc7f
ff49
01c6
015a
ffc1
ff82
ff47
ff02
fcd8
0071
fdc5
00be
ffde
ff33
fc7b
fdb5
fd8a
0202
0163
fe6e
0070
0076
00a7
014e
018b
fcdf
ff52
ff89
0087
0048
faa6
0187
01d2
02be
fff7
fdb4
fffd
0000
fd80
044c
fd95
002c
ff30
002a
ffaa
00a5
000f
fd2b
ff7f
028c
ff9b
fd85
ffac
0068
fd81
ff22
fdb2
0038
0129
009f
ffbe
0065
0087
02a6
01d8
005b
fdf8
0178
00fa
ffed
0073
04b1
fe80
00ac
fe7e
0062
fff8
0139
ff12
fdd9
fcf0
026f
ff36
ffd8
feed
ffdd
00aa
fcd6
fd96
0157
006d
ff08
ffe0
ffe1
011e
ffdc
0034
045f
00b6
fef2
ffdc
ff4d
fd31
0002
00a4
00ab
fe9c
fe70
ff16
ffd5
00ae
00b5
01b2
fb93
fedd
0154
0054
001b
00c6
fd18
0219
ff4f
ff5c
014e
ff23
fe93
fbdd
00ad
fe25
ff48
00d4
fe26
010e
00a8
ffe4
04ca
fee8
fe36
004c
011a
ff9d
feee
fc07
01ec
fdd2
0304
fecd
001d
0017
0207
fcef
fdad
fec4
ff76
00b5
fec1
0010
ff7a
fc97
fdaf
fefd
fcad
002f
002b
003c
009d
0194
fd50
fce0
066e
0133
feec
ffd8
00dd
00ba
043d
05ed
0240
0100
ff85
007d
ffb8
0036
fdcd
ffd4
05cd
fed9
fe98
ffde
0107
0391
fc4c
fe90
00dc
feb4
ffb4
00b3
0015
fde4
012f
fe81
fffa
0149
feba
ffbb
ffd8
ff4c
fcbd
074e
fbdc
019b
ff2b
ff01
01d7
fba8
007c
feac
ffbf
010c
ffc7
fffa
0032
ff31
02fd
01ba
0153
0203
ffe3
0099
0082
0208
ffb4
fede
0316
01e7
fedd
ffd7
004e
ffbd
0090
ffde
0548
ff8d
0000
00d0
0159
fbc4
000b
01ea
0345
0129
fe6e
ff8a
005d
fe25
fd2e
0204
0125
01d4
ff70
ff99
ff72
fe40
01d3
0218
ffd7
ff47
00a0
0035
00cc
043b
fe60
fff8
056a
feb3
0009
ffed
0014
ff04
0094
0039
ff29
00fd
0140
0007
ffd7
fd5e
026a
0319
01bd
00ae
fed5
ff7b
ffbe
ffa2
0050
ff0e
ff32
00db
00d1
0051
ffac
fb7e
fcea
01d4
0157
ff26
0099
ffb2
00ce
0172
fe89
03bf
fdf6
009b
fdd0
0073
0011
0001
0086
0006
0484
01a1
fe5f
ff73
ff67
fd5a
ff04
fd7e
007a
023e
feeb
0013
00f7
0110
0130
0184
02b8
ff00
00e2
006a
fd42
fad2
029c
fd55
02c5
00bc
fe35
0030
ffb2
01ba
008a
001f
fce7
ff87
ff5c
ff9c
ff5a
fd5e
fec6
ffea
047a
ff26
fea7
ff8d
001e
ffdd
fc09
06d9
fc41
fea2
fdb9
0026
ffb9
fe0a
fd6a
03cb
fede
fe02
fe3f
ffbf
005c
0005
fccf
02fa
fd91
0188
fe7c
ff29
ffb4
00e2
0400
fd61
fddb
fe96
ff7b
fedf
ff5c
fdc6
fdf8
fe0a
fcb5
00e7
ffab
fe5a
ff79
fa77
fe0f
0007
fec7
fec4
0080
000a
0016
ffb2
fc7d
fe19
fbee
fdd3
0011
00a7
0068
062f
fda2
fccd
fc45
ff40
01a0
014e
006e
ffaa
ffa7
fcf7
001c
0002
fe32
ffc1
00b7
ff07
fe7f
ff53
023a
ff8b
fe3c
ff91
0041
fdc6
01e0
0038
fe69
fef0
fe41
0077
0043
015c
0046
fcfb
fe09
ff15
fe4b
006c
0117
fc44
0216
025b
fe02
fe68
00cb
ff3c
0057
ff44
016a
fde2
00e1
009d
0060
ff40
ff9a
fd83
fcdd
ffc6
feb6
fe6f
ff7f
0015
001d
fe73
00a6
fd18
fc4f
002f
fd85
ffde
0076
0148
00d5
035c
00a2
0002
0256
fff6
001a
ffe6
fd3d
fe7d
0420
febc
fe8e
ff71
fff9
009a
ff60
03d2
0140
0171
018e
006c
ff19
0246
025c
ff7c
009a
0153
ff08
ff8a
ffa3
ff10
0244
fddc
fe8d
0086
00a4
fde1
ff99
fe69
fdb7
00d3
007d
0068
023d
ffea
ff58
fce2
ff79
02af
0017
0055
fe83
0080
0040
fb6f
016c
0459
febc
fe36
0013
ffab
0005
0173
02ed
fee0
03fa
fe97
fedc
ffcb
fff3
02d7
fcfc
fe95
02cb
ff44
fe38
0074
00b1
00b1
fcef
fc1b
000d
fdd6
ff56
ff7d
fe55
f838
ffcc
fdf2
01c0
ff60
0016
0012
00a0
01f4
021a
fe9e
fe3a
fdd1
fde8
ff2f
ff05
fee6
0383
0124
02c4
fffb
00c5
0056
ffdd
fe66
00a6
0150
ff40
00ed
01f6
ff65
ff92
00d0
fd98
feed
ff63
ff10
ffda
005e
001e
01c4
fc6e
0352
00ba
000b
0207
009b
ffea
fb8b
0218
0160
05d1
0034
fe5a
007d
0089
011b
fd19
0087
ff28
ff49
00e8
01fd
fe52
fe8e
fe75
0298
ff5f
ff27
fecc
005e
0065
ff4b
02b6
fdec
ff41
0196
00ff
ffc3
ffab
fa8a
fe31
024d
006d
ff69
ff63
ff43
ff94
fbcc
0079
0319
fef2
0079
ff0e
0090
0058
ff61
fef3
fec9
0025
ff3d
00bc
0018
001f
fbe9
fdee
fdfc
fee3
01d0
0039
fff1
ff6d
fcae
ffe9
fe56
01a2
011d
feb8
0078
0071
fe17
fcbf
fffc
036b
007e
0245
0054
004d
019a
fd6c
04e6
fe79
02a7
01c3
0067
0052
ffd6
fdf0
0231
fe59
0031
0271
0009
003d
ff11
fc69
0345
fceb
028e
ffbd
fe2e
014d
fad1
fe21
fe6e
015f
ff9d
022d
0044
ff56
fac7
025e
0102
014c
fe57
022b
ff8a
feee
fd52
fe7d
ff0d
fd1f
fe2f
0012
fee2
00a3
fc1e
0034
fdc2
fe37
ffea
0114
ffa3
0102
036a
04bc
ff1c
fe0c
018a
fe6a
ff69
0053
0112
fda2
ff53
fe82
017a
fe8f
0025
ffa2
002f
011b
02a3
ff4a
fd44
005f
0065
0014
ff46
ff84
fe74
0245
0001
002a
0050
0088
ff11
fc6d
feea
ff9b
022f
0069
ffed
ffdb
fcf1
00a9
fdb9
fe62
ff97
0069
ffb2
ffbe
fdc9
ff22
00d7
fdbf
019d
000a
ffb5
0015
0034
fea2
ffa4
ff95
0198
fed3
0006
00ff
fda4
fd75
fe0d
0350
00ae
fe6a
fff1
ff7a
fd8c
0133
fddb
01af
0118
00f3
006d
fda1
fd97
fe26
fe32
fe15
ff73
0060
ffe2
0014
005d
02ae
fc16
ffc1
017d
ff35
0083
005b
03e9
017e
ffc1
0211
0262
fea9
0029
008c
fce2
fee6
014f
01fc
00f4
00f9
0056
0007
00a8
01b7
00e5
0072
fe8c
feda
fff5
0064
fc96
0297
fe23
00c0
fed6
01af
ff99
ffc5
02f9
0049
ff12
fc1a
fea2
02d7
0027
00de
0097
00ed
01c4
feb7
fdaf
01ee
0049
ff99
ff66
fc77
fcdb
0422
00a0
fe9f
0046
0021
0226
00f3
01c5
fe27
0069
fe14
fe27
0128
fc0a
fce4
fd40
02aa
ff3f
ffe9
ff5b
ffd4
00a0
fec2
fff3
fe99
ff9c
0116
0069
ff5a
fce6
00d8
fd3a
fd58
fff3
00e1
001c
fff7
fe08
fd4f
0110
00d0
fe23
00a6
0002
0038
fcd1
023f
fd37
01de
ff48
0033
006f
0058
011d
fddf
0266
01b1
01c1
fee0
001b
005d
0204
fedd
ff4c
0480
fe55
0171
005b
ffa9
ff32
fdeb
fda6
ff05
01fb
ffb7
001c
ffa9
ff09
fda6
00a7
0001
fe8a
fef0
ffa2
00f9
0071
ffba
0199
fb3a
ff0d
feef
0094
002a
029b
0051
fe64
fd5c
0013
fd97
feb2
0188
fe66
fe6f
01cd
011b
ff68
00ac
ff74
fe52
fbc4
03d2
0263
0077
fde7
ff43
fd91
008c
fd5b
00d2
fe85
0328
ff74
0118
0003
004f
fdc1
ff35
fe15
fe1d
0082
0249
00ce
0020
fbcc
fdd0
ff0d
fcf6
fe08
fdba
0071
0052
00af
fd91
ff76
fd22
00f5
ff52
ffcd
ff70
fe48
fea1
01f2
00b7
ffea
ffe9
fe6d
00a1
ff1a
fe64
00d1
0114
fe46
fe0d
003f
fe94
f983
ff84
019b
fe51
007b
ffbc
ffdf
fffc
02a9
0158
fe8d
fff8
fe70
ff33
0012
0063
fa0e
0223
0328
0204
ff0e
019e
ffff
007f
fe6e
fed7
0146
0059
fe54
017e
ff75
fea7
0191
ff6f
01d1
02c6
fe25
00cd
ffb3
0085
ff95
fd15
0092
febb
feeb
0027
ffea
0174
fb8b
018b
00a8
0481
fdfe
ff06
ffb5
002e
fd5c
fdbf
ff3d
ffb3
ff61
ff13
002a
ff9a
fe19
0475
fe0e
0049
feb4
ffd2
ffd5
0094
fd24
ffbd
ff68
0114
fefa
feb1
0064
0097
fe84
fc87
fd5a
fdb4
01c2
ff51
ffc2
00bf
fdf0
fd40
011c
02a3
021b
0030
fee4
ff9d
fc3c
ffe5
ff4a
0018
fffa
01a2
ffc2
fffb
0310
0055
ff04
ff62
00eb
fdbf
019a
fef0
fdf8
025f
02da
fd08
ffbe
febd
ff2b
ff57
fe51
00e9
01b5
fffe
01c2
fee2
fff9
ff8b
ff04
0232
00d1
fd65
fd5e
008d
01b0
003f
f8ee
fe38
0109
0099
ff2b
ff7a
000a
fcdb
fcbf
0303
fd05
fdea
fe11
feb1
ffe2
0000
fec6
ffbb
fbcb
0112
0197
0317
ff8f
0143
05dc
fe97
fed2
fc7b
0034
0057
fa5e
fbd1
f999
0174
0022
fe24
0099
ff3f
ffd4
0081
01d4
fd5d
002b
02a0
ff5f
fe0e
ffd3
0089
0134
01db
fd72
044f
00f8
ffdf
ffa0
0152
fdbd
ffc1
00c0
0076
0098
0225
00b7
007d
00cf
05ca
053b
00da
011b
00e1
005c
0009
0162
fe47
feda
fb34
feb7
ff3f
ff98
00e0
fffe
022d
0283
00ad
01dc
0206
fef5
0087
fcf7
fdad
fefa
fc42
ff28
fdfc
0043
ff76
fe7f
00af
fde1
ff72
00e4
00c8
ff6c
0037
fa71
ff92
00e0
fd58
01e1
fe36
fd6f
03cb
fa82
ff79
fe03
fe47
01ad
0100
007b
0091
ff87
fdb9
fffc
002f
0239
fdc7
00c8
ff89
f993
02cd
ffba
02f2
ff41
019d
008e
fefb
0247
0189
0227
00bc
0204
00f6
0042
0005
fca1
022f
ff41
fe91
01be
fff8
00f7
ffcc
fe58
fd2f
fdc0
fecf
ffb8
ff76
ffe9
ff3d
fbcd
011f
fff0
0110
01f9
01ed
ff77
ff47
fefc
03f8
00c9
019f
fed1
0129
0058
ffa8
0005
0067
fd93
0045
0139
012d
fd67
ff21
fb12
fd2b
02fa
ff49
fdfc
fe0b
004b
fff4
03e1
00ce
053d
003c
fe2b
ff3b
ffca
0011
f9b8
02b0
fd66
ff49
00d9
fef8
0019
00f6
fece
013c
fdc0
ffcd
00e7
0054
ffa2
ffa2
0032
ff2e
fed4
fc07
00c5
ff66
ffea
ffed
0027
05ef
fc7f
0059
fe4c
fe39
0046
ff40
007e
ff2a
03fa
0266
fff0
fec9
ffde
ff8e
fcee
fe45
fde2
ffb0
ffd3
023c
0044
004b
0311
fc6c
0217
fb7a
fff3
0047
002e
ff14
ff39
fe93
fc52
03b1
00fe
fe76
0111
fd2a
fd42
02ad
fe48
02cc
0179
01b6
0042
ffdd
023a
fec5
055f
fe74
fe2e
ffee
003d
0009
0030
fbe9
0123
fb81
feac
0104
ff88
0059
0051
fc62
0222
ff9f
fe8e
017c
ff4b
ffeb
ffdf
fd5b
fc34
fd87
00c6
0140
0047
0070
00e6
001a
fc22
0057
0128
0110
0062
ff78
0360
fce5
fecb
0137
011a
00e9
0038
0091
fe9e
ffb3
fdc4
fc7e
fe67
fd5d
006f
0116
014d
ff2d
0173
fe82
fedf
0126
ff8f
00b0
fcc2
fead
025b
0316
fef7
0184
0027
006a
037a
fd78
ffef
04ee
0194
00f7
003b
008f
ffc5
019f
fef5
0114
fea3
01ec
0001
ffc7
febe
0547
fc83
029d
0186
0020
ff6a
009d
fd1f
ff5f
fcfc
fd58
0136
015c
ff0a
ffbb
fed6
0116
0237
01f3
ff79
0027
ffc5
fe1d
fbb4
001b
fc38
0260
ffed
fe84
0066
0044
0075
fd5b
ffc9
fe63
0034
febc
00c9
008d
fe7d
06b9
fd61
03f8
01fb
01ec
ff14
ffc7
fd13
fd9b
ff96
0082
0072
023f
001f
002b
0035
04ba
feb9
06f9
0123
ff6f
00af
0140
fb3c
001a
ffda
ffcd
008c
ff60
0191
fe69
fea5
fe13
fe6d
ffe5
0106
03bb
014c
000f
0076
03f3
fdc7
ffd5
01f6
00ac
0012
ff9b
fd2b
ffa6
feba
0357
ff9a
0124
ff9a
00b3
0102
fcf9
0098
fdfc
ff24
00ac
fffa
0093
fec1
fe0a
0081
0113
0100
0104
00a7
0026
01dc
ff69
ff34
039c
0088
016a
0071
ffb3
ffa5
ff03
ffc7
02c6
0280
01e2
0082
0076
fedc
ff43
026b
0413
ff6b
02aa
ff6e
002a
013e
fe17
fc35
0135
0270
0006
0026
ff8a
017c
0794
0142
01ef
001d
fe4d
ffb4
0084
fe0e
fddb
0547
00d9
fecc
015d
009f
0062
fecf
02b9
fc67
fd3a
01a2
0296
fd16
ff6e
fbea
fd42
fd4b
fce6
00a9
011b
ff73
fff7
fd3a
ff86
016d
0004
fe0c
008c
ff66
001d
fbb5
fd20
fd05
fe1b
0077
00ac
013c
0019
fe42
048d
fe20
02de
fee3
00ec
ffe7
0084
fd3c
011a
fe2f
04f2
0114
ff5f
ffdf
0038
fe7b
0158
ffcc
fe43
0130
0153
ff2e
0051
fc11
fe64
fd71
0072
013a
ff2a
0156
ffa4
fe5d
00d7
fd2b
0055
020e
fe7a
0062
ffe8
fd7a
00f9
fb77
fb7a
fe68
0093
ffef
ffd2
0206
062c
0090
0258
023e
029f
ff80
ffc0
fe30
ff01
fe71
feba
012f
000e
ffed
fffe
004b
fd28
fdcc
fc18
fed7
fefa
0020
ffff
fcb3
00e2
02e6
ff20
ff9b
ffef
fe79
010f
ff63
fc10
fe1f
fcec
0037
0129
fe88
ff24
fb27
fe96
0027
00b9
0167
0177
00ab
ffee
fc80
ff6f
006c
fde8
ff9c
000e
0190
ffdd
053d
fd3c
0047
ff3c
fd88
ffaa
0013
ffc7
009b
02a2
01b5
02e9
ffab
029b
000f
fddf
fb15
fd52
0290
0117
fe03
0128
fe4c
ffb7
fc6f
ff9c
02fc
fd49
00ad
0142
00a8
ffe8
fe9d
014a
fc97
fefe
ffd6
fff2
00ae
0047
fd3e
0115
fe8c
ff60
008b
fec7
ff36
ffc5
0225
0078
fe6d
fec4
fe7b
ffa9
fecc
00cf
fe5f
fd93
0068
033c
ff1b
ffb3
ffb7
0071
ffb0
021a
0239
0534
01d0
ff9c
ff82
0032
ff8c
fc29
01bf
fcf3
fe72
ff23
0168
ff5e
f922
0021
0052
038e
00b6
ff6c
fecd
00d9
fc08
fe80
02ae
01a1
01bd
010b
ffba
ffef
ffd6
0508
ffa5
fe1d
0041
0075
005a
ffc7
fdf2
0131
ffeb
0002
00b4
fdbd
00f4
fef0
feaa
ff2f
023e
048d
01b1
019c
0079
ff55
0426
01a1
00ba
fce2
ffbc
ff90
0193
001a
0522
01a7
fd4f
fbbb
0192
0131
ffff
0155
0349
fe02
fd85
0364
ff6b
0046
ffc6
ff94
001e
00b5
016c
0405
01a7
0159
007f
000f
fe6d
0096
fddc
fd52
0187
fe15
ffc6
ffd5
fe93
03b6
ff70
fdf5
fedd
ffb7
ff41
fffb
0009
0213
01ad
fb94
0109
ff39
ff8f
ffee
0211
0099
005a
02a0
00fb
fd6c
0232
fe6e
ff66
0236
ff71
fe9a
0116
01bd
00ad
0005
fc8d
01bf
0020
03b4
ffa0
fef3
003a
0018
0311
fdb5
ffe8
00b4
00b2
010d
ff76
fff6
00ac
0244
0000
0231
fd9e
ff16
0044
00dd
ff38
022d
02fa
ffc4
fe1f
ffd3
ffd1
0044
0074
fd1a
00ec
fecf
fe3e
0004
00a6
ff82
fc3b
fcfa
fd68
fd8f
0026
fe89
ffad
ff70
017d
01ad
ff19
ff72
0029
fe98
0073
ff22
fa81
ff6c
ff3b
0217
fe07
02b7
ffb1
ff68
ff79
01cc
0364
028b
ff36
fdd6
ffe2
0042
fe22
0207
fec8
fc4c
ffac
0250
fed0
ffb3
fc9d
027f
fdea
02e6
00d1
0054
000f
0014
015d
019b
fbde
fda0
012e
0081
ff7b
ff0a
f83e
ffb7
010a
00ea
01f7
ffe9
ffb9
0093
fd0b
0211
0016
fcdf
fd21
028c
ffa4
ff80
fd63
0208
01d9
fea7
0122
0283
ff56
0091
fe78
fefc
ff39
0114
01ce
00f1
0058
0072
ff75
0168
ff95
0053
fe9b
ff64
0082
ff82
fd7d
fe55
ff8a
fd68
ff86
fefa
0096
ffe9
ff10
02a8
fde1
fe9f
013b
ff7b
006a
00ad
fed3
fee9
0533
ffb4
0132
00d7
ffde
ffa9
fec8
fd9e
0082
03d5
fe67
feb3
0024
0024
ff1d
fd21
fd3e
0381
00e1
ffa1
0190
ffff
0170
000c
000e
01c7
ff88
fd39
ff38
fffe
fb3b
003a
02a2
01b0
fde3
fd9f
0034
0072
fe45
ff6f
fec1
0363
fdf0
019b
ff14
0019
00e7
fdee
fe47
0155
fef3
fd6f
006e
0045
ff81
ff48
fd69
fd2b
0130
fe2f
fd43
033c
f9c5
ff33
003b
feb1
ff36
fe35
0072
ffcf
001d
fd9f
02a9
ff76
019d
ff58
0069
fee8
fd4e
fc88
0033
00c8
ff89
fe75
ff56
ffc2
fecb
fcc1
0448
ffb3
fee8
fe61
0053
0043
0259
fd1e
fe84
011a
00c3
ffb3
00ed
ffeb
fe16
fdf7
fdb9
ff92
02a7
00da
0081
001d
fdbb
fd27
ffc5
fd43
fe52
ffd4
001f
ff97
f8d3
00ad
fe05
020a
0073
ff17
0047
ffb6
00b8
fe5e
047d
ff1a
fef9
fead
0001
000e
fe22
fc08
022a
fbaf
0194
0065
ffbd
0021
01b0
ff5c
0017
006d
fd9f
fe49
ff5c
ffca
fd3b
005d
ff8e
fd3f
fe2a
fed7
ff2d
0170
faf7
fd2c
001a
fd39
fe88
0047
ff26
ff90
fc2c
0035
fded
002b
ffe1
fdbd
0012
0080
01ab
05cd
ffa5
fcb4
fe90
013a
ffee
ffcf
02f6
010f
03af
fc96
00fa
ff4b
0060
0065
fed0
fd21
00dc
040d
00da
ff6c
0012
ffc3
013b
fe18
02e2
fd0c
fdb4
0153
018f
014e
fb07
ffeb
feb6
fed4
00a8
fd94
0001
00dd
0182
01e9
fc92
ff39
fe0b
fe96
ff5f
0013
fd30
0197
001c
007f
ff83
fdcb
00b9
0032
009d
ffa0
0387
fe9a
ff27
ffe7
feee
ff8b
fed9
fd56
fd29
00bc
013a
0102
fef8
018f
ff5f
febf
ff6d
fca0
fe95
007d
ffbc
ff9e
fb87
0112
ffa7
fdae
004b
00f0
ffa9
0234
faa5
febb
ff3e
0326
ff27
0272
00a9
0084
000b
050a
fc1e
026f
ff69
026d
0101
fff7
f878
fd91
fe12
fc5b
00d4
00a8
005a
ff4e
ff21
01dc
0023
00eb
0021
01ea
01b7
ffd4
fefd
fe25
fd8d
ff5b
014c
01eb
0007
ffcd
0017
0095
feef
fc47
ffa8
00c3
ffe3
ffd8
fe4c
fccc
fe09
02c6
017b
01da
fde5
feee
ffc4
0017
fdca
fea1
0137
fda1
ffb2
fff4
0197
0198
fc20
0689
01ef
0160
001f
fffb
0284
feab
fc35
ff9a
013d
fe4e
0039
008f
fe5a
010d
0018
0245
fed7
0064
00ed
ffb6
feae
fc58
fd97
02d2
00a8
0108
0075
0086
fdc0
fed8
00db
fdb6
0257
ffe7
0156
00f4
fe91
feb1
0143
0255
02ca
ff6f
ff9f
004d
0083
feb0
fc21
febe
016d
0145
fee1
00a5
fe83
ff58
fd28
ff57
017b
022c
0076
0051
fccf
0218
fe6c
fcde
020c
0032
ff29
004a
fd99
fe0d
fea1
016c
fe3a
fe96
ff87
ffe6
ff50
0332
0267
ffcb
022b
ff7b
0094
ffd6
012d
fe8a
feac
fd96
ff84
00bf
ff51
00ba
fc78
fda9
0030
01c1
fd6d
01c9
0032
ffd7
fee0
ff40
fe28
03ea
00ed
fff3
ff9b
ffa0
fe7c
ff95
fd08
ff15
0133
fef0
00eb
0004
f9a1
fde9
01b6
00e7
ff3e
0031
ff28
ffc7
01fc
0101
ffd6
fbd5
00dc
ff95
01c5
0032
ff26
fcd9
fd18
0494
fe5c
ff7a
00bc
0041
028b
fd5b
fe2a
fe15
003b
00cd
ff5b
ffa6
fc4e
fe28
ff80
ff44
fd82
01cb
00aa
00c4
0196
fd72
0073
01b7
fe2f
fe77
00be
ff7c
fd31
ffbc
01ac
0106
00f7
fecb
ffd5
0009
fd0d
fdb3
01d5
01ad
ffe2
000d
fff5
003d
01c1
03e3
0429
fd4c
ff8e
fed1
fff7
00b7
00b2
01a7
ff43
0364
fe28
fefa
00de
008a
001f
ff9e
fd02
0296
ff3b
fe9a
ff30
ffe3
fb91
005e
fee2
0276
fd5e
025c
0084
ff70
fca0
01fe
02bd
01e5
0158
fd8c
0007
010d
fe40
fce3
0071
01be
ff8f
01a3
00fa
01b0
fd2d
0222
ffe1
020e
01f0
00f5
005d
ffe2
fc2d
fd15
fd08
fe1b
0058
fddf
ffc3
0097
fc48
03f8
0098
014c
ff39
00e5
0026
ffcb
fecd
fded
01ea
fc5e
0043
015b
ffd0
0017
fe76
00e7
0081
fced
020f
0028
00ec
0058
fa9d
01ef
019d
01ba
fdde
ff7e
00e4
003d
ff0d
0142
fe8d
fe9d
0142
fe9a
ffaa
fffd
ff6d
02af
feb2
0297
017d
fe4d
002c
ffe7
ff5d
feff
0157
05d9
023a
fec2
fefc
0014
ffc3
fd6c
ff0e
07af
ff3e
fea7
ff26
fffa
02fd
0224
018c
0580
020a
0115
00ad
00d9
faa2
00a4
fd4f
ff2c
fefa
0033
ff28
ffe7
ff74
00d0
ffa2
fe72
fe3a
0108
0062
ffe3
005b
fc78
fcd2
fdba
ff57
ff03
fd64
fcfb
fa6f
018e
01f3
0335
fdc4
ff34
00c6
00c3
ff3b
fd4c
0311
fd7e
fe4c
0260
ff58
ffaa
0153
fecb
fc0a
024e
fefa
0049
fee0
ff1d
fc30
03d4
000c
0139
00a5
00bc
008c
ffb9
ff28
02d6
0063
ff98
0128
fec4
ffed
003d
009b
02b1
fe1a
fe72
0011
01f9
0065
ffcf
02d5
fc4d
00fa
039c
fe26
ff9d
ffd3
00a0
01ab
fd9c
fc55
0104
00a3
fee0
ff64
0028
ffe1
fc46
0345
0229
00ca
fdda
0005
0032
00a9
ffc6
fe83
fe05
0137
015c
0098
0018
0057
fd9c
0240
fd94
ffda
0187
ffb8
ffea
0039
0153
02f4
fd03
fe97
fe3f
01b9
0023
0126
fd72
fd5d
033c
01d3
0141
0034
ffaf
0021
0014
0215
0570
0088
0155
fff5
fedc
0106
005a
ff80
02a8
fedd
01e8
ffd5
ffb4
0081
037d
026d
0271
0170
01be
ffaa
ffe8
fca8
fff1
fe16
021e
fe20
00af
fe89
fdf0
fc36
0075
015e
fff9
fe17
00a3
0020
ffe3
00e0
fe42
fdc5
fd5b
00e6
018c
0006
ffa4
fc5e
ffbd
02ea
fd61
ffca
00e2
ffce
ff5e
ff98
02fd
ffe0
0136
0088
ff9a
0015
fe6f
fadc
0017
005c
feb3
001d
001b
02b5
fe5b
fbdb
008d
003e
01d7
ffb8
0152
0097
0132
fd91
0075
02bc
03eb
ff22
018a
ff0f
ff54
00a4
0014
01d1
fd3f
ff8b
005c
00cd
00a4
ff0a
00fe
fed7
0166
0063
fd95
0096
0021
ff44
05e0
0007
0145
0052
0159
fe43
ffd5
ff91
fc89
0199
fd00
ff95
ff48
ffca
0038
faa7
ffd0
00f4
ff9f
fff3
0038
004f
005b
ffcf
02ee
0236
00e7
0154
fee4
0044
ffa8
fee6
fd5c
01fe
fee1
001d
ffd8
fee1
fff7
fcf9
fd27
feea
00c2
0267
00fa
ffba
0068
0118
0280
ff2d
ff94
013b
ff2b
ff3c
01ea
fc4f
00b5
02ba
045a
fe7b
fea5
0089
ffbf
01c2
fdb9
0534
01bd
feb5
0092
0014
008f
013d
ff51
fd2f
012f
0045
00b1
00b4
000e
ff9b
fe49
ff68
fe46
ffc1
feac
ff9b
0005
ffac
fdb2
00bc
0402
0067
030f
ff40
ff03
ff5e
0090
fda1
0016
003e
0171
0155
00fd
fe10
fff5
ff94
ff41
fefb
fdfc
ffa8
0041
fc32
022c
023b
fe6e
ff22
00a8
ffe1
ffb2
ffb3
01ff
0656
fe9f
01cb
0081
ff52
fff9
fdc2
fe54
fd39
fd7f
ff73
ff80
fe6f
01bd
f97d
0260
01f4
fdf9
ff62
0039
ffd8
ffc6
ff5a
fc57
03d1
fecd
ff64
fef7
0004
006e
0014
01b7
ff5c
fed3
00cc
ff11
fffd
0023
0187
0503
014f
0201
ff14
ff9d
00e0
0004
02c1
0252
fccc
06a5
ff14
019d
ffde
00b5
fc18
fff0
feca
03a8
fef7
fd9d
ffd9
0023
01f7
0292
0690
0177
01a7
fee8
0033
002a
02a4
02e2
fc63
fe13
008e
ff73
0022
001c
00b4
fdd8
01b8
fd0e
fe5a
00b0
ffb9
ffb3
f89d
00b3
009c
fe7d
ff95
0201
0065
002d
fd41
0223
0162
fc9e
fe4c
fda7
01d2
0082
0087
029c
00e0
fe7c
ffaf
00bc
0091
007e
ff11
fc54
fdc3
fd5a
fd90
ffc8
ffeb
008e
f9f3
0266
fc5d
fd4b
00d1
fdfa
007a
004a
fee3
01ae
fc62
fc79
01eb
ff10
000d
ff7c
00ab
fd86
0337
ff8c
ffc7
0047
ffb3
001b
fe45
ffa1
00a9
fdfc
ffb6
00e0
0085
ffeb
0142
00b5
0172
010c
012b
014e
ffc6
002c
fff6
fe26
0089
02ab
fe34
fe9c
ffe0
ff77
ff63
ffdb
03d7
019a
fef2
ff75
002c
ffb1
ff6f
ff41
fe0d
03ee
0126
fe4c
0085
004f
ff55
fd06
0000
02de
fe7a
ffb8
0039
0099
fe5c
ff82
0109
00f5
ffd6
02b6
ffff
ff8a
ff99
0278
fc87
0009
ffa3
0025
00e1
ff38
04fe
ffc2
023d
0638
0103
0143
0181
0191
fb95
01b2
fee8
feb0
017f
01c8
fef5
002e
fec9
fe86
ff0c
033c
0259
0045
ff98
0089
ff04
0198
0085
fdec
00da
fd41
ff9b
fff4
02e9
0123
fcef
ffa8
ff2c
007a
0029
007e
fe6f
fee3
febc
fe45
0080
fe79
013b
0024
f683
fe29
010d
0088
fe8b
008e
ffbf
ff96
01a1
0135
ff4f
0043
0073
fe46
ffd2
fec0
ff8a
fed6
fd8a
0547
fe40
ff01
fe8f
ff92
feff
03ab
fdd0
01db
018f
00c6
ffa8
005f
00ea
ffc8
fcf2
00fb
0205
013f
fe8b
ff6a
fbab
feaa
fe86
02ed
ffe8
fee7
00d0
ff72
fc9f
ff74
ffd9
0029
ff29
023f
0097
0074
027f
fe5c
0451
fe94
0156
fe03
fff3
fe9b
f91b
00da
ffa7
fe94
fe97
ffeb
0022
fffc
0183
01f9
fd23
00a9
0063
004b
fef1
ff9d
001b
035d
fe20
01a5
ff6a
01bc
ffb5
0006
fcc1
ffbc
0322
ff5f
ff73
ff9a
0077
0010
033b
0505
02f9
fc3d
0170
fd40
ff66
ff8a
ff87
03d0
ff73
0283
ffd6
fff7
ffc4
002b
fd07
fe6a
0374
fd54
fecd
ff96
ffc1
ffaa
0089
ff17
03d8
fc9c
0146
ffce
fe13
00a0
fe9f
fd0f
fe28
fe63
012f
01e7
ff60
fe1c
fe16
00fb
ff7d
0032
ff1c
ff57
fffa
0058
fd88
fde5
020e
ff20
000f
ff7a
ff7d
0081
fd3e
fea3
02e5
031b
012f
ff62
fffb
0003
fbd7
fde3
ffc6
0086
fe86
0003
ff9d
ff6a
fecd
fe16
0243
0006
ff11
fee0
ffd5
ffdc
0053
ff9b
000a
0185
0214
023c
012d
fe7b
fe35
03e9
fec9
00f1
0070
004d
0096
007d
0168
fc99
0553
fbb5
009b
fdac
ff80
0021
0498
0345
ffc7
ff4a
003a
006e
007e
ff3b
01c3
0177
023a
04f1
00a9
005e
ff48
ffb8
fe88
ffd1
fe17
03e6
0140
0197
010b
0048
0122
0256
0213
0214
ff68
00d9
ffad
00c8
00dc
fe20
fbc4
fec2
01bc
ff09
ff24
fec0
fe6d
0171
00db
ff9d
00c7
016a
009d
0000
0227
ff28
feed
fd7d
00ed
fd3e
0013
ff78
fe9a
fbd4
fd85
fd3c
008c
ffc9
005e
ff57
fde1
0652
01d8
fdb5
0061
02ce
ffe7
007d
0202
fea6
0109
0177
fed2
01ec
00c2
00b6
0192
0011
fe2a
ffd1
ffc4
ff46
fe6a
ff77
fe9a
fd53
fd32
fd4d
fe3f
fe09
002b
ffe7
ffe4
00b2
0330
fc7e
0145
018f
ff71
0028
0198
043f
fcf5
018e
fe84
fea0
0018
0036
011a
01c3
002c
fe5e
ff7e
ffae
feb9
ff84
ff2b
ff1c
fea5
fd5d
fe9d
feb3
0000
00ae
0146
0541
ff0b
ff7a
0048
fe02
fff6
002e
0176
fe29
013a
fdf0
0160
0204
0057
002d
fbb1
fdf4
fd0c
fe60
fdf4
ff9a
0088
fea8
fe6f
0422
025f
ffd6
0179
ff86
0251
ff33
fa51
013c
ff0c
0169
01b4
005e
ff82
00ab
fe09
01f4
fe75
fe61
00a2
01a9
001d
001a
026a
02dc
fe8a
00bd
ff4d
fef3
ffe5
ff31
ff1b
fdb7
00da
0046
0183
004e
000e
0086
009e
0224
0223
043b
ff95
0244
00fb
ffdb
fd9b
fe25
ff9b
feea
ff12
008e
006b
fffa
017d
0190
ff92
ff6f
0002
ff9a
004b
0050
ffc1
fe8e
0256
feb2
008f
ff14
0093
0055
fb16
022b
0323
044b
fe8d
fedf
ffeb
006c
fd5b
ff62
0517
fc81
01ef
0154
ffd4
0025
005d
fe2a
0034
fef0
ff93
ff5d
fe28
ffa6
fbc3
fede
ff87
ff5e
0195
013e
ffcb
0065
0133
fb2e
00ee
fac6
00c4
ff4b
ffcc
0051
ff96
01cf
023e
fe3c
ffbf
01ed
ff1f
fee7
ff77
0421
feaf
fd6a
0028
ff6c
ffd8
ff9d
ff7d
fdd8
00a9
019d
0073
003b
00d4
00cb
0108
025a
fee4
0392
018c
0021
0157
0146
014a
ff12
018b
fdf2
fe61
0036
013d
ff0f
facb
ff49
021a
0130
ff3b
fefb
fec1
fe0e
fecb
0052
fdc1
fcac
ffd0
0021
ffb7
0091
fe18
0204
ff79
fdf7
0043
ff4b
ff86
ff8f
fde9
041a
fdc3
ff65
0154
fdf2
ff51
00b3
fd23
043e
fedd
0009
0133
0061
ff73
ffba
f805
00b7
ffb7
0178
ff20
fe74
ff5c
016e
fc79
01a5
fe67
fe7d
0206
ff74
ff86
ff95
0061
ff60
0207
0149
fede
feda
ffbb
ff53
fd94
fe1f
00a0
0049
0034
fe4c
ff62
fff6
ff21
02ee
0140
0195
ff38
ff52
ff76
0013
002e
fc87
0022
fc42
0194
fe3c
000d
0026
f950
007b
0221
0341
ffd2
0079
ffba
003f
ff45
006d
00ba
ff65
fe89
0254
0070
ffcc
02d4
013e
ffd4
0370
010c
fedd
fffa
002a
ff8e
000e
023e
fde3
fed5
ff45
01a0
ffae
fe7a
0088
fd62
037d
0080
fdd0
00e0
0056
022a
fcc6
0141
fc8f
010c
fdce
0000
ffb9
feea
fe2d
0550
fbb7
ffea
fff7
ffe8
0063
0071
012a
ffef
fe8f
017b
ff9f
fff5
0036
fe3a
0263
feba
fedb
0166
feec
ffd6
002e
00c1
01f5
ff58
fec4
ff8f
0106
0000
ff48
0120
ffdb
fef0
fed1
ff77
fdba
0024
0016
ff52
fd5d
fd52
01de
0255
fe47
ff55
ff7f
012b
fe37
0273
0273
0205
fe2d
ff8d
00ad
0149
02e0
02e5
02aa
ff40
028a
00e1
ff4e
fc64
fd7f
0363
021a
002c
006a
ffdf
0092
fcc7
fd6e
00a7
feb8
fe77
fd79
ffbc
0012
fce4
0193
fe23
046f
00cb
ffe2
0018
ffce
feea
007c
01f4
fd8c
fe51
fdd7
ff6c
ffda
02bc
021e
fd83
053c
029f
00df
00b1
ffd0
fb1c
fe5c
fdac
fdfa
00bf
015d
0033
009c
fec4
0553
ffe7
04a9
fed7
ff4c
ff4f
0124
ff66
fe8c
fff9
01ce
ffab
ff72
007c
ff16
fbda
ff34
ffe7
ff6c
ff12
fe91
ff2f
0155
fb1b
0247
0094
fe26
fe70
ff80
fe58
ffa5
ff95
fdb5
02ed
ff94
fe9b
00ea
ffe7
005e
ff9b
fbe3
0240
03c5
00b1
fe59
00a3
01a0
ff9c
0348
01da
01eb
fed9
0074
0003
ff52
fffc
0141
01f3
00db
ff06
0159
ff24
fd36
fa92
feec
0016
0207
fe46
001a
0045
ffdb
006c
ffd1
01fd
0093
ff81
01ca
ff85
003c
ff9d
00a9
fd22
0305
ff00
fdcf
ff92
fee0
fc74
fc9b
fe05
ff54
005e
ff19
0020
0060
fe80
fe38
fdaf
01d4
0195
00b7
001c
00c2
00b9
0000
04ba
fff9
0156
00cb
ff82
ff19
0203
0014
fd3c
0113
0089
007a
009e
ffa0
f9a0
01f7
ff11
0255
ff55
00c8
ffa9
fffb
fcbe
0152
ff1b
00cf
ffb5
00fd
0046
00a5
fc2f
0353
02c1
038e
fefa
fdf4
000e
0047
0097
0132
04cf
fb07
ff15
0055
ff75
006f
ff93
006a
01fd
fd3f
ff89
fe9b
0023
ffcb
fece
fed8
fe94
fc1b
0094
01a3
013c
ffb6
fe4d
0577
fe5a
ffb6
00c9
ff67
ffa9
0055
fd2a
030f
02df
0132
fe93
fed1
ff29
fff3
fe96
032b
fea8
fba5
ffc8
029c
ffb2
0045
fd00
0324
fd79
fc45
ffdf
ff85
ffe7
ff8b
ff72
fcf7
0132
fef5
0083
00b4
ffdf
0038
01ed
0080
fcc2
fd63
0069
017d
0093
ff45
ff78
007c
fe63
fd71
fefe
00ec
ff18
009d
00af
0318
ff8d
0035
0194
02b1
0007
0085
0113
01b0
fd9c
fe5a
004f
0090
0004
0026
0111
fcf9
fe9c
fd4f
0292
ff58
0062
0035
ffe3
ff93
02ef
0138
ff91
fe13
0077
ff82
fe1c
012f
01e0
fe33
00b4
0100
0016
ffc3
ff39
fe41
02be
0419
febd
0132
0044
fff3
0024
ffed
0038
0588
ffb9
fec1
ff36
ffc3
fcef
04b8
02e7
fd94
fd99
ff00
0079
0007
02dd
fdb6
026f
038e
00e9
01e7
0097
011c
fe09
fd7e
0019
fff6
ffb2
02a5
004f
ff60
fa1e
01ed
00b6
fe14
0090
ff48
009f
ffc5
02fd
00c2
fe92
fc69
0192
0062
ff1e
ffce
00b8
0380
fd95
0568
0169
023f
ffb8
009d
ff1c
ff85
0246
0306
010f
0005
ffcf
fff2
fbc0
013f
ff23
00d1
ff68
0191
0035
00f5
fda5
fe12
fe63
02a0
ffb0
0027
00aa
009e
fb21
fe94
014f
ff6e
0082
fe16
ffd1
0005
00b8
fd5b
0082
fdf6
fe0c
0003
ffca
001a
ff73
fc72
0191
ff7e
0098
0009
ffe3
003d
fe21
fd3f
ffd8
01ff
fde3
013f
ff0a
fcaa
fa1e
fdb5
ffff
fe3c
ffb8
001b
ffeb
ffb6
fab5
004a
00e4
00e3
01df
00b6
ff93
fffa
0169
019f
fe16
0095
0070
01a8
fec9
00cd
fc5d
01b2
0186
ff19
033c
0028
0083
002c
00bb
026c
02af
01c9
ff6e
fe1b
0021
ff7b
007d
024a
fcb5
0031
013e
fe9d
ffc9
ffdf
013f
fe33
fcf5
0015
ffa7
fecf
ff6f
00c0
01f9
ff14
01ed
0621
fef4
0049
00b4
0009
ffa5
0261
0254
029a
ff60
015f
0054
0062
01d3
fc8f
007d
0249
02c2
fe4c
0070
002f
030d
fcad
fe9f
0274
0003
ffcf
ffbc
00df
005f
ff44
fdf2
0128
ffc7
009a
0049
0118
fd49
0037
002e
0193
fff5
0057
fe74
0187
fd14
fdec
00ea
fec1
fedb
00fa
000f
0034
00f8
02a0
fc96
06d1
0147
0280
0010
ff86
ffb2
fe68
fd15
01f1
ffde
003d
0070
00cd
00d8
0127
00df
fbd5
00a1
ff96
ffa2
fff0
fd97
fdf0
0184
00f8
019f
fe3b
0022
003b
0346
ff76
fdd0
fe2e
0068
014f
0069
0096
01d2
00f9
0047
010f
005d
ff3f
ffb1
00b4
fbed
ff39
fd49
fee7
fee9
fe42
ff48
ff94
017f
fb90
031b
ff66
fe68
0066
ff94
feda
feae
010b
feb8
02a3
ff73
0161
0072
fff7
fcec
fe39
fdcf
0072
fdf7
fda9
0027
006f
fdbd
007c
00fa
fe24
0138
01b0
ff98
0036
ff1c
fe6a
0333
0355
0094
0077
000e
0015
01d2
ffc4
0055
0536
fff2
0088
0005
003c
fef1
017e
ff9a
0109
00e2
fddc
007f
ff8b
ff29
00fb
00ba
05d0
0117
0268
ffc7
ff6b
fb24
00a1
fe58
0463
fee1
fe22
ff29
ff17
015b
fc9e
01e0
fe47
011e
016e
001a
ff4c
008c
01f3
fdaa
fc3f
fe26
ff71
ffd8
ffe4
fd96
fc6e
016a
fe85
fdb5
01f4
009b
0043
ff36
0345
03b7
fe24
feb3
00a7
ff4d
0044
fcb5
0192
fe2b
ffa5
fe1b
02f1
0061
001d
fb65
039d
0028
fc76
0015
fe85
0085
008f
010b
0141
fc2b
ff56
fe7b
00c3
ffa8
ffd7
01b3
ffee
fee3
0037
0071
ff1d
fd79
0107
03ae
fcfb
0088
03e7
01b6
006a
0063
0094
fdd3
fee8
fd30
ffac
00b2
ff78
ff87
fffe
fd7f
01b9
011c
fee2
001b
ff8f
ffdf
002d
ff4c
fd9f
01fe
02b2
fef5
0167
014f
ff8a
feb1
0123
febd
00e2
011d
fecc
0020
0000
ff96
fee5
fe3f
fe75
fdcb
0262
fefc
000a
feae
0070
fff1
fe30
0077
0076
0019
000c
0182
0045
fe88
fe64
0011
fd9b
00dc
ffc0
fbf2
014d
0083
fdbb
0044
fe46
fed1
ff22
fcf7
01db
fcd8
fe60
fdfb
018b
0011
ffde
008a
022a
01b0
fbe8
0056
fe0c
0028
008b
ff59
fe0a
0312
0095
ff35
fede
ff15
0023
f95f
00c5
ffd0
fcea
01c3
ffc1
0117
00a9
fe73
fd57
fd1d
004f
01ab
ff62
ffb7
004d
fe29
fd3a
00d0
02fa
fead
00cf
00ee
019c
fd65
fead
0243
0536
ff26
fd8c
ffc7
ff72
019f
fda6
fd98
fe0a
0177
fe6f
ff5f
0023
ff4f
0190
fd79
fdff
ff93
007e
004b
fee9
0094
ff32
0202
016d
feb2
0092
ff9a
ffa2
ff65
0287
04cb
fdb5
ff9c
fe8d
00e3
00b9
ffae
0027
fff2
0212
01f5
0067
0067
00f8
fa8b
fdff
fff8
0002
01a5
00cf
fff0
ffc5
00a7
fdeb
03a3
fde8
ff96
fe96
01c4
fd09
fa51
0214
ffbc
0200
01b7
fe4f
00a5
ff8b
021e
02de
0294
ffd9
fd7a
fe33
00a7
00ab
fa84
0013
019c
ffd2
0056
0223
00e7
008c
01fe
0157
febd
fc2e
fdc8
01f6
ff48
ff7a
0096
fdc8
0211
0239
fe7f
fd05
0014
fffe
fdb8
fe91
ff34
ff87
ff26
fe1d
ff22
006e
fd42
ff60
ffaa
ff4f
fe9f
0068
ff53
ff4f
fe99
fdcb
fd0a
0098
0138
fea5
01d2
0035
fbaa
fe89
0219
ff9b
fded
ff99
fea5
ff47
00c0
0385
ffde
0293
015b
01d7
ff50
fed8
00de
0384
0124
fe74
fe9c
ffea
ffa6
fff9
0131
0192
00fb
fc68
ffb4
ff4e
0057
fec9
ff54
015b
0221
ffb1
003c
fe9a
ff75
0066
fe5a
fdd4
fcb7
fdfb
ff0c
ff18
0029
0067
003c
0373
fcf5
ffb3
fde6
0248
ff89
ffca
fdff
fe9c
fd1a
fceb
fee6
fea3
006d
fff0
034e
fca2
0340
fdb5
00eb
005e
0058
00c6
01c6
019a
fcae
005a
ffb3
028c
00d9
ff9a
fc5f
fd86
fcd5
ff83
00e6
feb4
0028
ffee
fa93
fe38
0035
0265
fdcc
014f
0061
ffc5
0054
ff39
0024
022f
ff16
fd77
ffb7
ff73
fffa
fcff
fdc2
015b
ff46
016a
ff34
ffaa
fce7
ffbb
fe6b
0067
fef7
ff95
fef6
015c
fbbf
0065
ff60
01c7
00ca
feb2
ff71
ff88
fd79
0128
feb7
fd90
fdf8
feb8
0026
0027
ffcd
fe96
01ef
0015
00d5
013b
fee3
ff79
fa6c
ff48
ff4d
00a7
00bf
0267
0010
ff76
0317
ff45
0249
0126
ffca
ff0b
048f
fe2e
faf8
fd7a
fedb
fed4
0100
ffaa
0096
0020
fe71
01cf
0282
012f
0032
0145
009b
ffea
0227
fda8
01a7
ff32
0135
ff8a
0047
ffc2
ff51
0303
04dd
fc9c
ffc2
0051
ff82
fff2
0406
01a8
015e
febb
00d6
01a5
00e0
0000
f9f8
01a8
00c7
030a
0027
ff90
fff7
004b
ff99
01a6
fe1c
fc71
0046
001f
0028
ff86
fea1
0288
0068
fff0
00e6
013c
0036
fff8
fed9
035d
fce8
fdf9
01a3
ffa0
0030
0036
fd8b
fe9d
0156
027d
009f
fde6
0023
ff05
fc1e
0162
019c
0344
0015
fd26
0017
ff6c
006b
fef0
fc33
01ae
fe1b
fe38
0007
00bd
01c4
fd97
fe02
015d
ff20
01ce
ff8e
fefc
fe14
00de
ffe6
fe88
01b2
ff78
ff93
0006
ff46
0438
011a
04d7
0026
ff7e
ffaa
004b
ff91
0152
fcf7
fc98
012f
fde3
ffd4
ff62
fea9
0229
0072
ffc8
ff3f
00ef
0069
ffdb
0250
0314
0315
fe31
ff8d
fed4
000f
0013
031e
fd23
fc15
fc15
01db
ff13
004d
ffe1
ffee
fdc7
ffa8
01ec
fe2a
ff47
ffa0
0046
007a
05b5
fc96
fe06
0170
ffe9
003c
009e
03ee
ff17
fdc0
0268
ff51
0010
002c
0003
fe61
fcdd
fdbc
ff1c
fe76
fdd5
00b9
ffb1
028c
fd14
0052
00ed
feb2
005a
001b
0068
ff27
ffe7
ff39
fc0e
0190
ffa3
ff28
00bf
f877
0184
ff24
fd09
00d4
ff4c
ffef
ff9d
0171
0226
fcab
0144
008f
0116
00b7
0047
05b4
fcba
feed
fd22
fe2d
ffa4
0047
ffab
0355
fc96
fb63
0291
fec6
feeb
01b5
0007
fac7
fd46
0040
fdad
ff52
00c3
0014
0018
02e9
0184
ff96
0183
ffd2
0116
ffbf
ffb3
fd06
fdb7
fe54
02fc
01da
0095
00fe
0023
fddf
00e6
fd61
fdf3
0218
ffb7
ffa6
ff17
015e
0210
ff5a
0287
ffd2
ff89
0008
0056
0259
fc7c
fbca
015d
fe8e
fde0
ffd3
fd00
fa96
fced
023a
009e
ffd9
fdf4
ff71
00b7
0033
fe00
fd75
0299
fe2e
ffc7
00b1
ff71
fe5a
0425
feaf
06f0
01ab
00d1
ff76
0121
0037
012c
ff7c
024a
ff6e
0226
fff5
0077
fada
fe4f
fec1
fde6
fdd5
fe7b
ff4a
0040
fba5
fd5f
0332
003c
fef3
0154
009b
00dc
fe86
002d
fd52
04cb
01bf
0177
ff5f
ffb5
fe61
ffc0
fea9
019f
fe48
fd8b
0088
ffb0
faa7
fe51
fe83
fe23
0189
0025
00a3
0033
021f
fd5e
0133
0151
00b1
0100
ff73
0069
fe85
005d
fbf0
0227
002c
0047
ff98
ff9e
ff41
feb7
fde0
fe35
005d
01a2
0024
0000
fe82
fdaa
ff38
fcd0
fec3
fe8f
ff2e
ff5b
fadf
ff3c
0144
fef7
fef6
fd94
0039
ff92
ff62
0050
fe34
0010
fffc
fe0f
ffa9
0001
fe63
fcdb
033e
02c2
ff79
00eb
0051
ffb0
0043
fc68
05b6
fe6d
0190
fe77
ffe8
002d
fe6d
0237
00b9
fc9c
febc
01b2
007a
0081
0132
00cd
02d6
fdaa
fff7
0170
0009
ffd3
fe83
fd55
fefc
00d2
023f
015d
0046
ffa1
0174
fdf7
0516
fe7e
01c7
fd79
fe80
ffa8
ff25
fd77
ff3a
fdd1
020b
fe4d
ffeb
fff4
ffb7
fc5e
0147
fe31
ffd2
0127
0060
ff6f
0224
0111
fe07
019d
fe81
0042
ffe2
ff7f
ff70
fd61
fd3a
fcf0
ff16
ff09
ff54
ffa4
fdb6
fd75
fd36
ff77
0107
ff98
0021
fffe
017e
fbb9
031d
fd13
0042
ff43
fffa
fef3
0262
ffd4
0038
05e4
fe4e
0119
fff8
0073
0205
0295
0094
01b8
0221
00ff
fde0
fea6
fc13
02b4
feb2
ff51
fdd9
010f
002f
ff8a
fff0
fffc
0358
017a
ff1f
00bb
0004
0044
ff3c
035d
fd80
039a
ffee
024a
ffbf
00f5
fc0a
fe0f
ff77
fc6b
ff15
ffb8
00db
ff6d
0030
011b
01d3
02c3
fe48
005c
015e
00ce
00c6
febb
00ec
ff07
00dd
0129
00c7
0018
fe41
fde7
ff90
fcf4
ff47
ff26
fff3
ffe4
fda0
00dd
0253
fe57
0071
fe9c
0056
fffa
fa79
fd6f
0181
0003
0167
014d
003d
0045
0311
0012
fb5e
fd92
ffb1
0047
011d
0038
fcd3
fd8a
fd77
fff0
ff1d
01a5
0012
0008
ffbc
fe22
00f5
fea6
0072
fe05
ff65
00b0
f988
fffa
fc8d
0312
fe29
fd68
0052
ff5c
fd6e
00ca
feff
0320
00cf
015d
0081
007e
fe27
fd81
0666
fe3c
00f3
ff06
0086
0003
fdf9
00c9
027f
00e3
fe51
ff65
0035
ff2b
feb0
fc91
024e
ffb6
000b
010c
0010
00a5
fd15
fe9a
00dd
fea9
0146
0134
001a
ff8e
0130
0175
01a5
01b4
011c
002a
01ef
0005
fae0
fd44
ff87
ff14
0077
ff20
00bc
004c
fe97
0286
01d0
fe32
ff5a
004b
012a
fef4
fe04
0155
ff9e
fd0b
0171
ff67
00f0
0037
fada
ffe1
ff59
0119
ffa0
ff54
000a
004e
0177
036e
fc68
ffd1
fec7
ff7a
ffca
007f
0085
00e6
03f1
fce9
ffd5
fdc5
ffa1
fff6
0203
fc9e
00d8
fdcd
ffd1
01c4
005d
00a7
0035
fd99
ff24
0253
ffca
0151
ffbd
0019
008a
fcd5
0303
0081
ff6c
ff8a
00bd
0081
ff96
fe5b
0029
0168
fe7f
fee7
00a6
ffe9
00d8
0249
fd79
022d
ff7f
ffa4
005f
0020
fe21
04c7
fde7
04f6
fffa
fe1b
00db
0027
fae5
fdbe
0279
0213
ff05
0275
ff24
ff42
ff9d
fe96
01c4
0025
01fa
fe77
fff8
ffe9
fb3d
00c4
0039
0218
0087
0134
0000
001d
fd1d
fe1b
fd88
0048
fff5
ff65
009b
ffd8
fb0b
029e
00a7
fee3
fe39
012a
fe9b
01ba
fcbc
fe99
fe63
ff44
00bc
ffbd
ff35
ff58
005b
0059
02a8
0621
007a
0003
fffb
fff6
ffaa
00aa
009d
fdd8
0072
01d1
ffd1
ff69
ff8e
fd77
fbae
037b
0037
fe86
002a
00b6
fe70
ff1e
0256
fc2c
fe19
feab
ff17
0044
ffab
0362
029f
026a
0195
016d
ff0f
00f2
fb9d
ff66
00a6
fe0d
fe9a
fe1e
ff9a
007c
003b
fca1
0361
024d
fed8
00cf
ffed
ffd4
02b3
0061
fd03
025e
00ce
fea9
006e
00a4
0248
01eb
0103
fee1
002e
001f
0150
ffba
ff86
02a0
028d
fd3a
fe79
00da
ffe0
0036
008e
fda6
03e1
0430
fedd
0209
fff9
012d
fd2c
0294
006d
011c
0061
ff12
ffb0
0029
ff7d
ff2f
0118
0009
fea5
fec7
ffec
ffea
00d9
fd7c
fe01
fe04
016d
fe99
0019
0036
0026
01f1
fd35
0552
00af
00eb
0114
ffbd
fa0d
0070
fc59
01ed
0286
0023
ffb2
0078
ffcc
0309
0144
00d3
ff56
0008
ff71
ffcf
fcb2
0093
fe68
ff9e
0084
ff19
0091
ffd3
fd40
fe72
0385
048a
ff4e
ffed
ffdb
fef7
fec1
03a1
ffaf
014f
013e
fe7e
ffef
0022
008e
0116
0292
fdd5
ff91
00ec
0178
fec6
0198
02c8
027d
fe4f
018d
00eb
ff73
ffce
fe2f
fbf0
038b
fc8d
024e
0028
ffed
0021
0065
0104
0407
fde0
009c
fe05
007f
0099
010a
0234
fc9a
fd7a
fe29
030f
0159
ff30
fef0
fcdd
0225
0398
fe09
ffcf
0064
00ce
02b4
fd36
fea5
0410
003d
ffd9
ff54
0121
ffb4
fcd2
02bc
fe08
0113
0111
0053
ffe3
fe2b
fcc7
fd94
0127
ffb9
0090
0064
fe3a
fa75
fd8e
fe72
02dc
0116
0263
ffd1
ffac
ff25
fec2
01e0
001d
0055
ffe7
005e
ffe5
fac5
01a3
fd56
0113
fdbc
ff50
ff17
002c
fd38
ffe5
02b4
ff35
ff05
0235
feac
ffbd
fa09
0100
0265
fe8a
febc
000d
0032
ff86
ff9b
fdbe
fc49
00f9
fdb0
0002
fedc
0066
faa9
ff7a
0183
fe7d
fec4
018d
ffb7
0007
ffc2
fce3
fff1
fe32
fe88
0185
008a
0077
ff0e
00a4
fcf3
00fb
ff0e
02fc
039b
fe62
fb7d
024f
0129
01f0
fe6b
fe66
ff23
0003
fe8e
0175
fdb1
04ab
00c9
0000
ffe9
00e5
fc3e
fd66
048f
03f0
0010
0053
ff89
0069
fedd
fc79
0066
02d0
ffeb
0294
001f
00b9
017b
ff63
ff31
fd2b
fe12
0076
ff85
ffc0
fea7
02a1
ffe1
000e
00ff
011e
fff5
003d
ff5b
fd62
fbb6
fba5
ffda
fe50
ffa6
0028
0007
fe35
000b
0072
00ce
fe2f
0045
0026
00d5
fd74
012b
fe1e
0042
fec5
01fd
fe41
f87c
ffb4
01ca
feaa
00b9
ffbb
004e
000a
01da
fbbe
fc94
01ca
001f
ffed
0097
ffd6
fe06
0207
009b
fe35
0132
0168
0008
0013
0061
fced
fce9
02a8
0000
0132
ffcd
0099
0099
0601
02a7
ffc8
01e1
fecb
ff65
0067
fbde
000f
ff8d
00ad
0042
015d
004c
0046
ffef
ff5b
fd03
01f1
003c
0025
ffa2
0010
fdd3
003f
ff0b
018b
0024
fe37
00c7
009a
feb9
019c
008f
0253
0057
01a3
0133
fef1
fe70
007f
034c
023a
0138
0164
fe39
fea3
fb37
0180
0214
fe23
ff29
fff8
0252
00aa
fb3c
fdc6
ff19
fd51
00c6
004c
0097
ff7b
0223
0733
fc25
008c
fe2d
001c
00f2
ff7c
fd5e
003e
fddd
fe56
feec
ff9f
001f
006b
00d6
0190
fe20
04a5
0018
0173
ff11
feb6
ff56
ff82
fd2d
fdf6
ff35
012e
ff2c
ffe1
012f
fdf5
fd7b
01ea
ffb8
fe45
ffe7
0003
0221
fbff
fdad
00a5
fff1
ff80
000b
ffb8
ff5e
0314
fc0f
057c
ff39
fed4
ff65
ffbe
fc6b
0210
00dc
0229
0205
fdee
ffe5
0028
0066
fcf0
02b7
fc74
009c
006c
0099
fff5
00f4
fd50
fd03
ffa0
00dd
fe55
fd3c
fdeb
fb90
ff7f
0031
0103
fe8e
fd7e
ff3f
004a
fdaf
004a
fcb1
0310
ff80
018f
ff92
00b5
0009
ff82
0283
fdd8
fdf6
016f
ffb2
0024
014e
024b
01d2
fff1
0103
fe06
ff77
0004
ff93
fde3
ff61
fd49
ffa0
003d
00ab
0030
009a
fde8
00c3
02b7
002b
ff76
fea9
ffba
ff60
fbed
0066
0098
fe0a
fed8
000f
0001
fafe
007d
ffd3
ffe7
fef8
005e
ffde
0019
fe20
00e2
fe34
0396
fdb2
011d
0080
00a9
ff2e
fef4
ff5a
024b
016a
01a3
ffc4
ffa8
fe95
ffd1
ff0c
fdde
00d2
fdfb
01ae
00a8
fd2f
fe52
01e7
fd25
fe4f
006a
0071
0052
fc61
0363
ff1f
00fc
ffb0
0164
ffef
ff95
fa42
00db
fdcb
016d
0082
ff81
002f
ff86
fe67
0158
ff48
0119
0125
ff63
005a
017e
fc7e
fd81
01d2
fe67
fd3c
fe23
00b1
00c3
ffba
fd9b
00e5
fd80
fdfc
015a
ffee
ffcc
008a
0168
fb29
ffa6
0038
022b
ffca
003e
fb28
00fd
005b
ffcd
00bf
0146
ffcc
0034
fe5a
0428
00a5
fdec
ff6d
fe94
fefa
001c
fdde
016f
ff4a
ff9d
ff26
0000
ff71
ff8c
f9b7
fee7
001e
028e
0117
ffa0
ffd0
00b4
013b
ff97
ffe2
ff60
004e
ffe1
ffdc
fed5
fd31
fded
0160
fd6d
0127
ff6c
0033
0012
01a2
00b7
01d7
fc0a
011e
0160
ffe5
ff79
ff29
0318
02e3
fd77
fe12
0232
0062
ff5f
f983
feef
fe5c
040f
ff31
017b
ff4b
0066
fc2c
fede
018b
02a2
fe71
fddd
006e
003c
0013
00de
000d
fcc9
00ed
02b9
ff62
0082
fe50
febb
fbf8
fd4d
0106
ff94
ff9a
0059
fa54
02de
01df
007e
0065
ff31
0075
003b
fb69
fdd4
fd9f
02e0
fe21
fddd
ffd7
fff7
0091
fcb4
fcdf
ffad
02ae
fef4
ffdc
ff49
f998
0016
0398
00c0
ffc0
fdc4
fffe
007e
fe24
0062
00d8
fddb
015a
feb1
ffff
ff9f
fc6e
ffa9
01a2
ff4c
fedb
0018
fee7
0137
fbac
00c3
ffa7
0059
00bb
0064
0006
ff6a
fe83
032a
02d2
0261
00f7
0009
0000
ffaa
0306
fe87
fd21
0171
0036
ff2a
0062
ffe9
ff54
01a6
0105
000c
ff8d
fe13
00ca
fd3f
000a
0019
fef9
ff8b
0001
fe83
fd83
ffee
fb6b
00c4
0117
fec1
fe06
0026
002e
ff89
ffc2
0194
feb3
0204
012b
00f8
016b
006b
024b
fd28
0136
0117
fe65
01c0
000a
005f
fbf1
fe38
0200
0246
0093
fdf6
ffa9
0006
fbfe
fe54
0241
fd1d
fec3
fe85
ffd6
ffcd
0227
fd64
fe1e
ff21
fe65
0158
ffc4
006d
ff18
0094
fedf
00f3
012d
003c
ff7d
fee2
fedb
015e
03a6
0293
0139
0280
fd6c
fb8d
f98d
025d
017c
0199
00e5
00e2
000f
0067
fe60
ff51
0252
02bf
fdf0
01f9
fffb
ffef
fc6b
fea2
ff55
fd61
fdf6
ff8a
003b
00b6
ff57
0653
ff87
0006
00a3
021e
ffda
0015
0167
fcee
00e2
fe5c
005e
fe71
0082
ffc6
005d
00cd
fe01
fe62
00ed
0179
0067
0067
fdac
0222
fcc4
00e4
ff84
0215
ff96
0088
0078
fcf5
fe9d
02d8
0065
017d
0171
0023
fcc4
03d8
ff1f
ff68
01e2
0116
ff9c
ff55
fd85
fe9e
01b1
ff48
ffdc
02ed
001c
0060
0207
04ae
0598
0267
00c7
0207
0027
ffd8
027f
0058
fe3c
011f
0185
fe35
009a
005f
035f
fcfa
02e6
fbf6
0305
fea8
ff24
0068
01e0
fd16
fce6
0223
014d
017f
ff93
0034
0130
ff21
fe90
03a6
ffd5
ffe2
ffc2
ffb9
0111
ffdb
ff15
00a7
0001
ff1a
0090
00f9
0085
fe77
000e
0263
fff3
fd11
ff66
ff41
f85f
0243
fdce
fef0
020f
febc
0050
004a
fe63
fe86
facb
fce8
0121
0185
01c6
003b
fc68
fc7a
0076
ff87
feb1
ff2f
00a9
008e
00ea
036f
fdc1
fdf3
0010
ffb7
ff28
0018
011c
fed8
01cc
03bb
feef
fe6e
fff0
0059
0054
ff3b
01d2
fd99
01d1
ffd5
fe21
ff04
00a8
ffb6
fc8a
ffbd
ffd6
ff1c
ffa2
00c0
02e9
fbe6
0040
fe98
0093
0238
00f7
ff71
00d6
ff7e
ff9b
fc07
fdec
ff94
0020
00b8
fd08
03a1
0225
fc8f
fecc
ff4e
ffe9
0136
014a
fe14
02d7
ffa8
01f5
0223
fe3a
0154
fbf4
016f
016d
014d
fe24
ff20
ffc6
fff5
fd59
ff9b
fef2
01d4
025a
008b
0066
ff91
fb2d
fd00
05da
ffbe
004f
028f
003b
001b
0037
02bb
0032
fe83
01a2
fe12
001a
ffff
0102
0320
fd24
0265
febd
ff23
0150
ff1a
0254
045e
fe64
ff5b
0129
005a
016f
004f
fa7e
010a
0203
0113
ff05
fdfa
00cc
0002
0296
fbb5
033e
fbca
0184
012b
ffc4
003c
01c7
fee6
fef0
02b6
ffe2
ff1c
0105
ff85
fd74
ff2f
046a
fd50
00f8
0250
ff6f
0137
fe6c
fcdb
fd88
01ba
ff9f
ffc0
ffd9
ffb5
fe3d
0161
00e0
008a
ffe5
fe0a
00d3
0012
01cd
fff9
011c
038a
fe1f
0182
ffd0
0055
0150
014a
ffaa
fed0
fd89
ff7b
ffbe
0250
fb6d
0122
fcf7
fe06
fd92
0035
ff60
ffdd
fe99
02a1
ffa5
0003
fd9e
fdd0
000e
00c3
0148
fc60
fede
fbf4
fff7
feb9
ff4d
0021
00c6
fde7
fe99
023c
00b0
00ec
006f
0048
fea4
0014
fd6d
ffd8
00d6
ffb3
015f
0086
ffe0
fdb8
0339
01ee
fecc
fe9c
ffb6
ffa9
fff5
fbfd
0342
fc7e
017f
0130
ffc7
ff59
00e1
030b
fd41
0652
0016
0126
0033
ff23
ff88
fd6e
ff7b
fefb
003a
010b
fff3
0077
0054
01f0
fd06
0284
0303
fe66
0043
000f
01cf
fd1a
0440
029b
009e
fe47
feee
0046
fd12
00a8
feac
016d
0011
ff4b
0054
0036
ff16
fe6d
fe14
0685
00f8
0087
007b
ffb5
ffc6
fe47
0426
ff5d
ff84
01e7
ff3b
007e
fe8e
fc9d
03ca
ffb2
fca0
fd15
017c
fcea
fe2a
fe81
0037
fd72
00b0
0493
00ce
fe93
ff8f
01ab
fe2a
007c
03e2
fd6e
018f
fcf1
018f
fd00
02cb
fd84
026e
fdd3
fc55
0437
010f
fec8
00d8
fe71
05b4
0255
ff9c
0031
0009
01e8
00af
ff5a
fc2b
fc1b
01e5
00c6
00b7
0100
feb2
01de
fffa
ff4c
0205
ffb5
020a
ffc6
045e
0007
ff58
0573
fe4d
fa90
fe41
fd73
fec3
0524
02e4
0386
fea6
0102
01cc
00c4
fc75
0188
003e
0227
ff33
019c
fe42
fd01
028f
fcc0
ff31
fe1b
fbeb
04a7
fff0
0188
fe92
01c2
01fa
0107
fe6d
005d
fd42
005f
fd70
fe48
0034
ff7f
ff56
0153
fe50
feab
fdfe
fde0
0127
0646
fc97
ffeb
fe16
ffe6
fbf7
fdbc
0101
ffa6
fc66
fd6d
fef1
00b7
ffb4
fe38
fc79
fef2
ff41
fed5
0386
fce0
0208
013a
0194
fdf7
01d3
fe84
fd6e
fcf3
0607
fd3c
fdbf
0152
039f
fd4b
fe5b
ff18
ff5a
fdff
fb10
fdab
0247
04b0
fc04
026e
fe9f
fce8
febf
0468
040b
fe17
0205
0055
fe38
0093
021a
ffe4
fe56
ff0d
03be
0394
fcf1
ff56
0270
00e1
ff9a
0322
02ba
ff1e
fe45
ff9d
00d8
0148
fd9f
053d
04cb
fd94
038a
fed8
ffeb
032d
fedc
02d7
fed0
fdc2
0151
0251
fd9c
01ce
fe0a
fe0b
004c
03a0
0019
fc5a
fe13
04de
009f
fd8b
fffd
027c
01ba
026c
00e8
fb4e
0010
fe7d
fe47
0574
ff46
038a
009e
fffd
fdf3
fc13
ff79
0274
00d3
01d3
fd12
00ea
01b5
fe6f
ff7d
ff54
0538
feb6
00cd
000b
ff04
fd87
01bd
0633
feee
0417
fd65
02eb
014b
ffc3
0232
0480
fde3
0086
fdb9
02f9
00e5
fd18
00c6
febb
fde5
ff8f
fe9c
fbbc
015f
026c
fdde
fee1
fef3
fe73
fdaf
03db
015e
015d
0124
fcc5
fce3
ff48
029e
03b1
024a
040e
fd6d
0692
03de
0285
fdd9
030f
0112
fc92
0445
feea
fef7
019d
fca6
035d
ff5b
fd89
fe51
031b
019c
ff78
ff73
ff98
0453
fee0
fd7f
fe7f
0116
feba
017c
01a8
fd63
feb2
feeb
fda0
007e
fee0
004a
01af
fc6b
0447
02f5
006f
034d
fcac
fce5
fc85
ffa3
04d6
fd70
0009
0205
fedd
028b
fd62
fdfe
fdf0
04a1
fc52
fc8a
fff4
0066
ffb4
fda8
0080
fdba
fe43
fd97
fec9
00f6
fdf5
fc81
0048
ff11
04b6
00f4
05eb
005f
054a
fe7d
00ae
fcdb
0145
fe68
0189
02af
00e1
ff47
014a
ff30
0065
01fc
fffb
0048
01f2
ffce
024d
ff00
fc8e
0230
ffcb
ff7d
fcf0
fe09
fdfc
fc90
01c5
017c
0233
fea4
ffd8
fdd0
0270
0066
fdc9
ff14
0160
018e
0465
000a
0348
ff64
fc59
fd8b
00e5
0377
fc98
00e3
0000
01dc
008a
fdd4
ff6a
01e3
0382
ff8e
feed
ff00
042b
ff69
ff22
0023
0001
0221
00dc
fe87
ffb9
ffd8
fee1
020d
0414
fe0b
ffbb
020e
0028
01e3
0228
0049
0032
fef0
ff6b
0123
fcb8
fd8a
fee0
031b
fc44
fdab
017a
02b3
fe19
fd2c
fd6a
022e
0222
02f3
031c
fe8f
fdeb
00a4
014d
01fb
023e
01f5
0054
fcde
037a
ff9a
fe20
ff64
ffa3
ff82
057d
fe0b
00e0
0029
fd5a
0428
0244
01f9
0298
004a
00c3
fff9
fe33
0070
fe92
ffdb
0305
fdf0
01ac
02b8
fd8a
0084
fc56
014b
ffd4
fe5d
fd81
fdaa
ff9c
ffdd
fd1a
014a
02cf
fe55
042d
fd19
0062
03a5
ff56
035a
00f2
feb0
fe6f
0004
ff4a
03df
fcc6
fe92
f981
01c9
ff29
fea3
02e0
02ad
0252
fe7b
0345
ffc0
015c
026c
fe7a
fe50
fd38
0204
02e1
fe0d
ffa0
fd40
ff1e
02f4
0396
fc4e
ff1c
ff31
fd08
fd2c
fe95
fd48
fc08
fd1a
00d3
ffba
fdad
00f3
015f
013a
0334
fd13
fd68
fe40
0082
00d2
02bf
0069
0605
fcf2
fcf5
fdab
0465
fc26
ff6d
fef5
ff90
03b3
02d2
00d5
ff9a
fda0
fd30
025d
01ba
fe28
fe6e
fdea
018f
0221
ff08
fb89
fe5b
fe51
0117
fe14
fd27
feb4
ffd5
fd69
ffaa
02fa
0122
fd9e
03cf
0245
021c
00d6
020d
ffef
0254
fe57
fd77
0145
fe09
fc84
fc57
ffc0
fdfc
00b1
0238
fc9a
fec8
0484
fe5a
0047
ff44
ff59
0256
ff95
ff76
02d0
0204
0189
fc98
fdd7
027b
0176
00da
fd6b
ffc0
0174
fc9e
ff71
03ae
ffdf
fd97
006d
fc36
0442
ff32
0326
fff1
0858
fce8
01c7
0558
0121
febc
fddd
fe46
fd60
fec5
fcc4
fd05
ff1e
fdc0
01a1
01a5
045e
ff20
fd1c
03f4
ffe2
0427
020b
ffbb
fe5f
001d
ffd7
01a6
03f4
01b6
034e
0370
0321
fd90
00b6
0376
0014
ffb8
0114
fd23
0120
00bc
0222
031d
0211
001e
003f
012b
003f
048a
ff8a
00e3
00e7
ff5b
fe44
fecd
0200
0262
00d8
0091
ffe3
ffbd
0155
ff02
fe15
fd17
ff8c
03fd
ff6b
016f
028c
fb78
fca9
015b
fe11
05ec
0003
fcf9
013d
028c
ffc3
fdfe
fd3c
0741
fcd1
fc2d
024c
fd5a
fdab
fe12
fc4a
03f3
fb77
ff30
fddb
00b5
fcd7
ff48
01c3
fb98
fdd6
fec7
fd3a
006b
026e
ffc2
01d4
fbae
0250
02b8
fd1f
fe39
0405
006c
009a
0346
fe9a
fdb1
fd11
02ba
fdfb
fff7
ff01
024f
000d
fe59
0133
002a
006e
028b
fcf7
fc0a
0238
03a1
fe98
00ff
03f9
fd17
ffda
021c
ffb6
00ea
fe8f
01ed
ff2d
01d6
0243
fcc2
03f5
0086
fdc7
ff36
fd24
007b
0709
005b
05a5
0034
ff81
fd8c
febe
04c0
fdd3
fff9
fffa
030f
ffa1
ff7c
00b4
fd52
ff4d
fe71
01c8
0074
01ef
fe83
ff1d
0177
01d4
0233
fdda
fd2a
02a5
01a7
ff09
fe51
fda7
0110
00ef
fefc
0255
0306
02c7
0104
0216
f9f4
0187
00a2
017a
03ec
fd43
ff80
fd92
ff71
0031
fd48
04b0
0355
fe0c
feba
fc39
0376
feae
002b
fed2
fcb3
ff0a
fcfa
fdef
0083
01fb
ffa2
02a3
0107
0140
01bd
fc8a
ff9d
fe73
fbda
fc9a
0203
0119
ff83
fe20
ff6a
ff33
007c
01bf
fecc
005e
fe8f
0240
ff74
0095
0264
fd9e
fd1f
0141
fc42
068b
fce9
fd41
0025
ffc4
fd44
042e
fee4
000a
0115
018a
0427
00dc
0001
fcfd
0087
fd2a
fdfa
fe63
01dc
fd27
018b
fdcc
0133
00f2
fcff
febb
fced
fe2f
fd66
014a
00d9
0595
ff59
ffbd
002b
fd5a
0101
0385
0113
fc00
ffcb
fe0c
fe58
02e5
fea3
00e8
fe37
0298
0042
02b0
014f
fedc
fe3e
0557
0046
ff7b
fa1e
03cb
020f
00c8
0096
fc5d
ffd2
ff97
0374
007d
fd6e
03da
fe32
002a
fd80
fdcc
029c
fec5
fd2d
fe8e
fe90
ffc1
011d
ff0d
0058
feb7
024d
0003
02f9
ff1c
01a6
0148
fe2e
ffc5
fd71
00d8
ffa0
039d
ff9e
028e
019b
005f
fe68
ff77
0216
fe76
feb7
0273
02d4
0356
0276
ff13
fb1e
fef1
fe6d
ff51
fe64
fe25
00d0
013b
fcf4
ffe7
0274
03e2
00bb
fde5
0033
01a4
fde2
0481
ff08
01bf
026f
0166
ffbe
020e
00af
fee7
ff55
02aa
fbac
0252
fe61
fd4d
0085
0281
014b
ffcb
017e
ff6a
01f1
022f
fc1d
021a
fcf6
0149
fe96
0049
fda4
ffae
04bf
020c
ff2b
0399
fef6
fe87
fe61
011d
fc57
fee5
0179
03ad
04cc
fe33
fe30
012e
00ad
feaa
0274
ffeb
fc58
fcf0
feb6
fea5
ffb5
fdd6
0091
fc0d
0106
fda7
00dc
01d9
02b8
fe50
0050
010b
058a
030e
f9f1
0379
fbbd
ffa0
fe81
051e
fdb7
0178
ffd0
fe63
ff5d
ff01
fe19
fdec
fd4b
0010
fb3d
02d4
fd94
fdb8
01d8
03d1
ff76
0084
ffa6
fd80
007a
fe52
0022
fe51
0095
febb
ffe2
004b
fdef
fd44
fecf
ffc4
001a
fca2
0057
01e5
015b
01e6
fdc9
002d
044a
fe75
ff87
ff60
025e
fd1d
ff14
fc59
027a
ff1e
faec
02ee
fe9f
0326
036b
0186
ff44
01bf
0130
fe69
0046
03f6
0214
02d9
00f9
0046
fc60
feae
fe28
fd7f
0304
ffb3
ff89
ff98
ff77
01eb
fe9f
04f5
0096
03ef
ffe1
fe9f
04e8
0000
fe5c
0175
ff2d
023a
046d
01e7
02ed
fcb6
ff30
03cf
fe07
fe7b
fe97
00f7
fd47
fe63
028b
0141
fefe
fe90
033a
fe66
ffcf
fed6
fdba
fe9d
fea0
fdf2
012b
ff9e
0280
015c
00b8
00d9
00e7
00d2
03a0
021d
fd86
ff03
03e9
fd5a
fdc6
038c
fea3
fe42
fe94
067f
0144
0126
0179
ffed
fcb6
fe50
fd77
fe6f
ff39
03d9
fdc4
fc53
020b
016e
0236
001b
026f
fce9
007e
0159
fd41
ff6f
ff56
0045
014d
fd65
fe7e
062b
00d6
0393
fe26
fe5e
fd7a
fc0d
fce2
fc6a
fecf
02ab
02dd
ff84
fe01
fd3f
01de
003f
0289
ff47
ffec
fef8
0330
fdbf
0096
0197
ff77
fce3
fec4
fead
04da
0151
0471
00ab
024f
fc8b
0507
ffc5
fe15
01ba
fdcd
fd51
fea7
021b
02a1
fe74
ffcd
fc43
fd90
ff46
fc8a
ff5c
0261
fdfb
0344
ff84
0043
004d
00e1
fd93
0468
fe8a
ff0e
fdb9
0201
02d2
fe2b
fcfc
fcde
00ac
fc59
fd96
020d
009c
ff85
ff65
01e9
015c
0123
0179
fe56
fd37
02d5
020b
fe93
fe92
006e
0086
feaa
0168
0192
0117
feea
039d
00d3
febf
fcf3
00f3
022d
fc4b
05bd
ff1d
006c
fe4c
fe57
0272
ffa8
fe64
024d
ff99
fede
fdbc
01ab
0192
fb5f
fc33
034e
fd31
015e
ffb1
ff6a
fc04
fc80
fc0c
fee7
fd1c
001c
0009
ff18
0101
fa55
0159
fdbf
029f
fd35
fd73
fd7a
03a8
0216
0170
0407
fd43
02fa
fdb9
ff8d
fdc7
fd39
021f
fdca
013a
01e0
fdbe
fd98
fdd3
ff47
0133
ff66
fd21
013b
ffa4
fe0d
fe89
fd7b
fe0f
ffe2
031f
0070
fec8
fda4
fcb4
02c4
0042
fd45
fe23
fddf
0240
0029
060e
fc63
ffa3
fd69
fdf4
ff05
fdd7
0017
0290
017c
018c
00bc
fe86
fd53
fbf5
ff1d
0002
fd9c
fff2
0330
0012
fe5a
fcc0
0130
fde4
0193
02d9
fc5d
0174
fbfd
fc91
fd3e
fe36
fee0
0061
ff5b
02f1
0381
fe5c
0095
0069
020e
fd72
fe86
006a
fe7f
036f
0065
00fe
05ef
fd7b
0142
fe8c
ff95
ffcc
fec7
fe65
fe2c
fd2e
fdac
00ea
0040
00ae
fe57
fd92
029c
fee5
fedd
fdbe
ff17
017d
01df
0111
0120
00bb
00c6
fff3
fec0
00d6
feb5
ffad
ff2b
0247
ff3e
019c
0378
fff6
fed0
ff4f
0213
0042
fbd7
0169
05b7
fd85
0180
fe85
05a5
04dd
03e2
04ec
fe39
000e
fbcb
fdee
fdab
0221
0214
ff4e
034d
ffeb
ff3b
ff5a
03a5
006b
020c
0006
ff55
fe51
01c5
026e
fe03
fe55
ff12
034c
feaa
fe8f
0040
01f5
052f
fd92
052a
01d9
fd8e
0149
fe7b
fd09
fe18
016d
056d
fd21
fe8f
ff70
0033
01ce
ff69
00b8
00af
ffac
017a
fc62
0222
0351
ff6d
00af
fd9d
fd83
0410
fc96
010b
00d3
03f7
ff05
ff7e
0228
01b5
0072
0112
fd7b
fe33
006f
fe1c
02cb
feca
ff02
fc78
0077
0457
fd78
017e
ffac
fcd2
fe95
0024
ffd9
042c
ff4d
fd99
fd67
ffcf
fd06
fd5f
0038
fe9a
02b6
045b
fef9
002b
feb4
fe11
fc1a
052f
033c
0549
fef6
ffb3
ff2c
0096
fbda
ff4c
fced
ff9b
fdc2
ff95
007d
00b5
030b
fdee
02df
fc5e
0173
01a9
00b6
002e
fe6c
fb3f
ffa4
fd2f
ff69
fc23
0365
04e0
fda1
035d
fd15
00ac
fcc4
01c0
00e3
0044
00e4
fcb5
fcf5
fc15
01ed
046d
034d
fea5
00be
fd73
018a
0141
ff4a
ff5d
feee
fe74
fd38
fe9a
015b
fd40
fe94
0033
017e
ff1c
ffac
ff06
01fa
0265
ff94
fec2
0026
fd1f
ff1c
0607
0082
0084
fe51
0029
ff72
ff92
fed4
02a5
005b
0298
fdb2
00bb
fd1c
fd07
0013
ff0c
fc12
fb2b
fcb6
ffe4
0080
01af
fd8a
0339
01bf
fe5f
01bf
008d
fd6a
001f
005b
094b
0031
fbe5
006e
fd62
ff6b
ff4d
01ee
01bc
ffd9
001f
fd99
00a7
ff5e
fffa
00bb
fc3b
03b0
03b4
fdc1
fae3
0278
00ec
ff45
fe9a
fe8e
fdc3
003b
0265
fca4
ffc5
ff0f
fe21
fd8d
ffe4
073c
0010
017d
fd8b
fc58
fdcb
0044
037e
fe16
fd59
0032
014b
ff73
fe4b
feda
fdb5
02ab
038c
ff4f
04be
01a4
ff66
0096
fe66
ff4a
feb4
014b
0182
fd59
ffd5
0120
fce9
ff05
ffbf
004f
ffef
ff71
fd55
fe9f
fdb2
027b
fe5e
fcbd
fd8e
0234
0098
fed9
fdce
fffa
031f
fd6d
ff3b
0172
04c6
015b
fe94
01a7
fd35
0009
ff45
fcf8
030a
fdbf
fcad
0372
ff15
fde2
037a
00c6
0143
01e1
ff48
fdda
0021
013e
fd4e
02c6
fc3a
ffec
01fa
ffaa
05e6
fda5
02e7
018d
ff3e
ff65
04b4
fff2
fee8
0064
fe9a
029d
ff23
fe7b
fc37
ff1b
01cf
0175
fdad
ff15
fd9f
fe20
02cf
0202
0009
fea3
019a
0201
fd8f
ff6d
0347
00c6
0273
fd97
0293
fcba
fc5d
ffa2
0142
ff45
fef8
0032
00b2
fc93
00b6
fd24
0450
03e3
fc7f
0350
fe54
fb6b
fe42
0438
011a
fce1
03e6
fcd5
01b1
fe34
0218
0172
fe36
ff3d
01b5
fec6
ff6c
fbb4
051f
fe6f
006c
ff79
ff44
ffc8
0304
ff2a
0090
004d
02d8
0029
fef6
0080
fda1
ff8a
fef2
008d
fe52
0130
0082
fe0f
02f8
ffee
fcf0
fe8b
02ce
fcfe
0200
00ae
0118
ffd0
fe73
fe56
0020
03da
ff2c
0230
ff85
030d
fd34
fe3f
fb66
03d1
fca9
fdf0
0317
fe11
020b
fe84
0221
fd79
039a
fe97
fea7
014a
fe84
fedc
0455
01a9
fef2
0160
fd46
ff22
fd74
02ac
fe5b
fe7d
fcc7
0271
fe1b
fd0c
fe95
030e
fef7
fe7b
0322
0081
0316
00ee
ff39
028d
0105
01cd
00b2
0170
fcca
0059
fe7f
fdbc
ffac
021f
fd5e
025b
0141
007a
00ce
04a2
042c
014f
fdb1
fdd4
fcb9
fe9b
0276
fe8d
021a
fef0
0273
0224
0261
fdd6
03a1
ffb9
0043
0126
03bb
ff6b
0258
fd86
fd07
001a
feab
ffb1
04ba
fd73
0374
0089
fe8a
fe75
0141
ff08
fd6c
0110
ff1a
fe5e
03bc
029a
00ec
0443
fd5c
ffa6
0455
fd2d
00f5
fcf1
ffe2
007d
0162
ff82
fe68
ff40
fd50
041a
04ab
fd20
0232
fdef
fd18
ffd1
0190
fde8
01b3
ff93
fec3
0227
01e9
ffd4
ff61
0403
fe25
fd11
fd6b
fd71
ff1a
fc38
feca
fc93
006a
0409
01c5
00bf
ffbf
fd31
fce9
0061
02b5
0183
0365
fee0
fcaa
043e
00b6
fdda
ff0f
fe2b
fc4b
fdc5
ff62
ff31
0189
ff8a
0049
ff8c
0404
0121
ff31
faa0
fcce
fdf3
0426
ff0d
fe80
0141
0187
ffa8
02bc
002f
02a1
00bf
ff3e
0161
fef3
0180
fde8
0018
fe6a
fe31
fdfd
01b4
0175
fbee
ff84
fc59
fc84
04e3
ff59
02b8
01fe
0416
001d
000f
04d1
fd65
fe8b
038f
0307
011d
02c6
fc15
fc76
0047
fcc0
ff6d
ff1a
fe8c
0716
0160
041e
fdbf
03b2
fc60
04e0
fe0b
00d4
fd8e
fd37
0492
043f
fcad
03ac
04e2
fca9
fdde
0194
0481
fe0b
fbbb
030a
0307
fda9
fcd0
0020
feac
005f
01dd
ff7c
fcab
0489
0076
fe55
02b7
03ff
fec0
0158
fcd4
01ba
0176
ffe0
0323
ffce
ff03
fe79
0171
fe4b
fec4
ff11
020c
0682
0040
01de
ffa5
02fb
fe72
008c
fd73
fea1
fd11
fc6c
fe81
fcb0
02d2
0262
fe20
fec2
fc78
fce4
fd58
fc14
fdca
fef3
042c
ff96
fced
024a
fd61
fe4a
ff4f
0193
03bb
fcef
027a
0160
011b
032e
0059
0424
fd7b
fd7a
fea5
fd45
fe69
036c
0145
0206
fe07
fd88
02d1
019e
fcf5
fcf7
0347
fe05
01cd
fceb
feab
00b2
018b
fdff
feda
fdac
00b4
00fc
ff5f
fd48
fe34
fdee
fc82
fbcb
0214
fd33
ffde
fe65
0208
fcfb
01dc
02ec
fdd8
ff38
0224
0052
0292
02b4
ff44
0286
fe5b
0065
0191
ff18
013c
fdde
02a7
041c
0122
00df
03c3
fe33
ff43
021f
fd31
0275
0000
007b
0159
0020
fe1f
feeb
fe77
fc4b
ff62
0072
fbf8
0290
fe2a
0340
01b4
00ff
001a
fdb6
fde1
014b
fe7b
0014
0212
fec3
ff4b
feb8
fe95
fff3
fc68
0436
ff95
0118
0098
0336
fd82
ffc6
04ec
fcb1
ff44
fede
fccb
fb5a
0007
fde5
feab
06ab
038f
fbe4
01ad
0467
015e
ffbf
022d
ff6e
fe53
fdfb
fe4f
fd5a
0153
016b
0135
fe70
0407
0138
fe96
fc94
fd8a
fcd6
ffb2
fffc
05e1
fd9b
ff32
0248
fea8
ff52
0052
0373
017a
fcd3
ff3d
ff54
02f8
fff6
fc7c
fe2e
0350
009a
ff65
fdc3
ff32
ff64
0011
fe38
0279
004c
01f4
000a
fded
fd19
fba8
021a
fd11
fe2e
001b
fdf3
fe88
fe58
fd6d
0111
ff6e
fdc3
fe16
0102
ffa4
ffbb
0110
00d2
046e
0437
fd45
fd00
fcf0
00ba
fe1d
01bf
005f
00cd
024c
fe5b
fee6
fdbf
fd9c
fe2f
fe8f
013d
fdff
0322
013b
043b
fd9c
0579
fd97
0041
0553
fd3f
0207
ff08
0124
0252
03c2
05cf
fd33
fcb0
ff96
fcc0
fdba
0053
fd6e
013f
fe12
fc4d
035a
015b
fbb4
fb2b
0411
040a
0251
0035
004a
fdf6
019a
02ca
ff3c
0110
036e
fe9e
0112
fc21
0471
fd0c
00fe
014b
fedb
fda3
ffd2
00fa
0209
04c3
ffa5
fde4
fdad
0042
0168
fd2b
026a
0260
fdfc
fd34
0273
fff6
0194
000e
014d
fe5b
fcb4
016a
fd32
05ce
00ee
031c
fd20
fcb4
fe8d
ff9b
00bb
01de
fe68
fefc
00b6
02df
fdf5
02d4
01b5
008a
01d7
fed5
fe67
fd65
00a9
0004
fddf
fe9d
011d
fe89
005c
00ac
fe00
fd39
0004
fea5
fdc4
00c3
0071
0181
fec9
0136
ffd3
fef1
ff42
00ea
02e2
fe3f
0154
ffe5
ffbe
048f
00d0
fccb
01be
fd34
fe2a
0346
fd3c
01c4
fff3
0078
0163
fe82
fdca
fb62
03e5
0033
ff22
fd7a
01db
fd43
ff27
03ab
fe09
0369
03f3
006b
0021
0095
ffef
fe92
fe4f
0020
01b2
028f
fd74
fedb
fd08
fee5
0138
01ff
0085
0074
fed1
002e
0123
fd12
fe64
03b5
0136
fda9
02c8
01e4
ff23
fe01
01bf
01a6
fc31
ff1c
fef6
01e7
fd03
0044
ff74
fe0d
0184
01fd
fe09
02de
ff66
fc35
040e
f9ac
0024
01ad
051a
fcc8
023f
0544
01e2
00be
feeb
017f
0356
fc4d
00f3
fd44
fe49
0227
fcdf
fe27
fdc4
0043
005f
fecd
ff0a
fed3
ffc8
fd8f
fc55
0268
022c
fe1e
fd5c
fdca
0534
fe01
00bd
0030
0105
03ec
fdc2
00b3
ff3a
0243
fd36
0578
0047
03c0
fc89
feea
fc4c
fe28
fdca
fd57
fefa
030a
000b
fdd2
0348
fd4d
029a
ffba
0222
ffd0
fe3e
0395
01d0
ffba
02cf
0078
fdea
048a
fccd
0024
00a5
fedf
0053
ff19
fe0e
0183
00fd
fd37
0473
015a
fd0f
0091
0087
fc45
fd81
fe9e
ffef
0077
037c
fef2
fee0
fff8
fc8b
0429
fd0a
ffd8
ff54
0272
fcad
fceb
fdf2
fcb1
ff0a
02ab
fcce
029a
fe0f
fdb4
fe72
042b
fe6d
015b
ff74
fd63
019e
00b0
0354
febd
fc91
fdc3
fd87
fea3
fd85
034c
fdee
fdfc
fced
0189
fe77
019d
ff72
ff92
0348
0015
00bb
fcbc
ff8a
fef6
fdb1
0298
02ab
028e
01a2
fe58
ff9d
0053
003e
fd7b
ff02
00d4
023d
fe25
fffe
fda7
fc56
041b
ff00
041c
01ac
0429
0178
03f7
ff6e
fff7
02ca
fe77
ff98
fd86
04cf
02f7
0138
013f
0214
fece
fdb0
fe17
ff3c
018e
fdaa
024c
00ba
003f
fe51
ffe6
0192
fde0
014a
ff1c
016d
0274
03b0
fe5e
0162
fe1f
fd93
0045
fda5
fe44
fdc0
02c2
01f8
0402
0138
00ad
019f
0389
ff79
ff76
0044
0178
00b4
fee0
002d
00af
fffe
fcf7
fc6f
0227
fc0b
03a1
ffe0
0192
fff0
03b5
0296
0124
fdf4
fb79
00c3
ffc3
fecc
0075
fc5b
0018
0109
0184
0277
00d1
fdde
029b
fde1
fe8d
ffb6
005f
ff6a
032d
0142
0115
00cf
fdab
0199
00fd
ff5b
fcfc
00ac
fe23
fe1f
0144
015e
0129
fcbd
fe22
fcdf
fd90
fde3
069c
ffb1
fe18
00f6
0474
fb7f
0196
01d0
0323
01d1
fc88
0031
005f
01cf
003d
00bf
fe0a
fee8
01ac
ffa0
fd89
ff08
fda5
0301
03bf
02b2
0019
ffef
027f
fc93
fda5
0531
fc75
0140
026e
010b
020b
ff9f
024e
ff5b
023f
fd0f
ff24
00c8
fe39
fd00
0063
fffa
0141
fcee
fc79
ff4a
0481
ffda
fffe
ff2a
00b3
fcd5
ff66
00ba
0459
ff1e
004d
0050
fe8f
02e2
fd6f
039b
ff63
00f6
fe03
ff66
01ee
00bb
0320
0000
0273
0192
fd8b
fbe5
fdee
fbec
ff94
fecc
fded
ff83
0041
019d
02da
fbbc
fdde
fd59
0173
01cf
0286
fea5
fcfd
006a
02ca
fddb
ff0a
0147
ff65
fc4e
024c
fd72
fe55
0024
005b
01eb
fff2
00b0
016e
011a
013f
fe63
03fc
003b
fe36
fe87
ff78
0018
0069
00a6
fe30
00a8
ffdb
ffd7
fdea
fd0d
fee4
0103
fc44
fee8
fefc
ffb2
fe12
01e6
0189
fff6
03ae
fd49
fe29
fe7e
fd8b
fd53
0350
02c2
ffc2
022b
0012
ff2b
034b
fff2
fdf5
0176
ffc2
0136
0250
019b
007e
fd26
fde2
fdd9
ff91
02d2
0061
053d
fe7a
0257
fe46
fe57
0134
010c
0469
fcf7
fcdf
0237
0180
015e
002c
0188
fff6
fe88
0316
01bd
0313
fce1
fe98
020a
fd87
0123
ff0e
fe62
0231
0195
0382
fcbb
05ed
fdcb
fd6e
032c
025e
ff0d
fe50
002f
ff8d
fd77
00d6
fcfd
04f8
0003
038e
fdec
0179
040b
0199
fdb6
fe67
0122
ff37
fe6f
01ea
032b
01a4
006f
ffd6
0148
0023
0506
fe0f
0315
0092
0184
057f
fd30
fc75
029a
fdf6
01ee
fdc7
008c
fc2f
0169
02de
0059
fd90
046c
fec6
fde3
039c
fe03
034f
fce1
fe21
0243
ffb0
fce1
0599
021c
fd4f
ff97
00db
fe49
ffef
0232
0338
fe9d
fc01
ff77
0041
01fd
0012
030b
ff4d
009f
fdb9
fdff
fd56
ff1f
fe29
fc9c
0597
fed1
ffeb
fdbe
fde6
0251
fe46
fc92
0277
04fe
fd46
01ae
ff76
ffe6
04ca
0222
ff53
ff5b
fd35
0088
ffca
fed7
050d
fdeb
fc76
0042
fcd2
02d3
01b8
ff0e
ff87
fd02
01c5
0274
0421
ff87
01e8
020f
01b7
00a7
0010
025a
fd16
ff24
004a
fe0f
fe5b
fdf9
0191
fce2
fddd
01ac
fcbd
013a
019d
fd5d
fd4c
ff2d
0093
fdc6
02b9
fd50
0166
fd18
fe86
fcdf
fdab
ffd4
01aa
fce1
0645
ff26
fc52
02c4
03c7
fd98
ffbe
0174
faf2
0556
05b4
fed4
fbb1
02f3
01eb
fde8
fcf1
0071
0100
0071
01f5
0549
ff10
005f
0338
ff27
ff74
feb9
00d5
01b3
01ab
0423
febc
ff97
ff3a
0282
04b3
ff5c
01c4
0034
0012
01d7
fe88
fdd8
fc7d
0431
fd3b
fd5e
034b
fde1
0274
fd7f
ff59
fef0
0207
feaf
0733
03d4
01ab
fd84
fe2b
fc1e
fe58
ff4d
fbf0
008a
fb67
fedf
ffdd
0249
fd2c
fd18
fde5
fddb
fe85
fd4a
0056
fd8e
fe91
027a
00dc
ff67
0132
fd8c
00af
03f2
ff20
fb3b
fc19
fb87
ff1f
fcee
fb4c
0149
fbbf
ff0d
fd3c
fdeb
fcad
ff27
0104
026b
0287
fcbe
04c3
ffcf
ffa7
0228
0009
fd42
fd84
fff3
0469
fbaf
03c2
008b
01e4
00e3
038c
0331
ffdb
015c
004f
feab
ffb3
028b
fd65
0278
01bd
ff07
ff3c
0365
ff94
fe14
fdfd
fe04
0089
0349
04ed
02b9
fe78
fe2c
fcb2
05ad
fd66
06ea
0007
fede
fd46
00a6
fc26
0234
ff89
041c
fd17
ffd4
fd42
01ac
00cc
0135
fffd
0034
0143
0160
ff57
01c5
fec3
006a
00e8
00a8
0214
fe3d
030d
01f1
fde0
fd60
fdf9
018a
fd34
fd36
fed6
fcf0
fdb0
0264
02ec
02b1
027f
01aa
0053
ff0c
026e
fd2e
00f1
0220
fe66
fefa
02b1
ffec
0488
fd4a
fdf0
fd82
fede
01a5
ff74
01bf
013a
0213
012d
0137
fd7c
0353
01b3
0287
ffc1
fc68
fed5
fe4d
030b
fe2e
0439
fbe0
0021
feb7
fffa
fec9
fcb6
041e
ff0e
fdb9
0209
0095
054a
00f1
fe0e
0190
022d
ff41
fd7b
fde3
fe1a
fed3
0005
ffed
fcae
fe85
ff52
ff4e
fff8
020a
fcac
0129
fccf
ff88
fe9f
00a7
fc98
012b
ff4f
fc14
0081
fc45
043f
fde0
03e7
ff5b
01f1
fc63
0250
fd2c
fccb
fcef
fe42
0087
0148
0151
023c
fe58
feb6
ffdf
ff55
ff16
016c
fd06
0150
0089
0165
051a
fc20
fd63
01c5
fd51
0027
08e5
fdb1
fd53
fd1d
0138
fec4
fd44
fcc0
00fa
fd32
0629
fd08
fd89
0099
fdcf
0561
fe3d
fdc5
fdb6
fd4f
0390
04b2
0129
fc3c
01b7
fddc
fe10
fdbb
fbe0
ff41
fd57
0424
0152
00d1
04c1
02fd
02a7
042e
ff9a
ff77
fe4d
00d1
fe66
0064
030f
ffbd
01a6
fdf4
ff2b
fde7
ff30
ff81
ff37
0210
0241
0187
feaf
fe75
fc73
fe6b
fe09
ff70
feb5
0388
ffbc
03cf
fc21
fe5c
fcce
ff94
fe97
049a
ff2b
fde0
ffee
0438
fdc7
ffbd
03ea
fd6e
fe05
fed6
045a
fe12
0119
01c7
ff7d
ffa7
0125
00e1
fe4f
0072
04b7
005e
01ef
fd8d
feec
fd95
ff71
fe0e
fdeb
fe17
fe5b
016b
fba9
ffca
0069
020d
ff76
fd77
025b
009b
0122
0101
fddc
ff9a
ff8e
02bc
017d
010b
ff2f
ff22
015c
017c
fc0e
fc1a
ff97
fd82
0407
020e
0236
fc05
ff89
fe66
01c3
0048
ff4b
0143
012b
fdc2
fe7f
ff5a
0058
feb9
028b
fe96
fee3
fecb
00cb
0122
01ea
fd24
00c5
00d9
0148
fd0d
004f
025d
015f
fdab
fec1
00ef
fea4
0149
fcac
fe49
ff87
020c
0371
02c3
fe36
0652
fd06
ff9d
febe
fd3d
ff50
ffae
0293
0049
043c
0163
01c0
0032
0133
ff44
fe18
ffbf
fcf4
03b8
fc53
fe3c
fcdb
fe75
ff15
ff9a
0096
005b
02a2
fdc4
015a
fd45
fe2a
0235
01a1
0128
02b6
0255
ff5b
fcef
ff3e
02a0
00ee
027e
fc95
05df
fdb4
fd06
00b4
0471
0249
0207
00b6
02e9
0172
fd45
fd63
fdb0
fe61
fe04
0154
00d8
ffd0
fe9d
fd7f
fd91
ff5a
035a
ff25
00c8
010f
01e1
037c
fda7
fdc3
00c8
023d
01ad
0329
fe2b
ff48
fff6
fdb7
013f
02b1
005a
fd1d
ff7f
05a3
0027
ffe8
fdb7
fe39
ff00
fe86
034a
fdc1
fd3a
fe14
01dc
003f
0343
ff02
0000
ffb5
fee5
fcd7
fb7e
029e
02e4
fdce
066a
03ed
fef5
fe76
fce4
0414
01eb
00f8
fed3
0101
0214
fdbe
fecb
fe01
fcbc
015c
00d7
fe0e
fce6
ff2f
fde8
ff0e
fe6a
0277
ff3d
0126
02b4
01d5
021f
fc43
ff7e
fdea
fd78
00e5
fd09
fde7
01f9
ff09
048a
fbff
0277
02a5
fd1a
00de
fff6
fdd0
ff1c
0331
0126
024b
0773
ffb1
0103
ffd1
fdd7
fcde
fcae
fd2b
0374
0209
00da
ffee
fd2b
010a
fd53
fe9e
fcc8
036d
ff8c
fe89
fc44
023c
fe53
0237
021a
fd62
ff35
fee2
0122
00d5
0086
fdec
fdcf
ffc7
00a2
fe33
0138
033c
fff6
020e
faea
03e8
018c
ffc5
fe85
0069
fd16
05bc
0336
026d
0492
ff11
fe25
fe42
ffc6
0047
fefd
00d5
005f
027a
0549
028f
0234
fdee
ff9f
009e
fe09
ff79
0063
fe65
00fc
0106
05e3
fe6a
0010
0290
005d
0156
fcf9
fe46
feb8
021d
fcfe
fd55
00da
01da
01c7
0025
fe26
01fc
fff4
02f7
007a
ff5e
ff25
ffcb
01bd
fdf7
fe74
ffff
fd49
00f9
006a
002c
053a
fe99
fff9
fd53
019b
019b
03d7
0238
00cb
fefe
025a
fff2
02b6
fea9
fe44
0367
012e
fc64
0410
ffac
0102
02c4
01d2
fd9b
0172
022e
ffac
ffa1
ffc6
fe0c
fd40
ff99
0110
fe6d
0101
fd30
0180
fea5
fe65
0457
021d
fed1
fdff
fe54
0093
002c
fde0
fe53
02ba
fe05
01af
fe79
fab8
fc33
02e1
fe5d
0141
0073
fdf2
fdd3
ffc7
ff10
007e
ff26
fc1b
00ed
01a6
fd42
ff69
057c
0005
fdff
fe44
063b
03d0
ffc0
fda6
fde6
01c2
ffc9
fc57
00ce
fc50
00f1
fc84
0447
fc57
01c3
02a5
0382
fca5
fe79
032f
fd4c
ffdc
fd62
ff1d
fd85
021b
0009
ff69
fdc8
fe06
fc75
0416
00e3
fd0b
02a3
ff60
ff74
012e
fd47
0510
007f
fc3e
020c
fa7f
0040
0075
06f7
fd2a
07ed
01f2
fe53
fa46
ff71
feb4
012a
0338
023d
02b9
fdb2
01cd
fe1f
01c9
fbf6
02fe
fd2d
fe6b
036f
fd89
ff0a
ff55
029c
fd01
0038
029c
024a
fe45
01c7
ff71
01d6
ff7d
024f
ffb8
011a
fe74
fe23
ffab
ffaf
fd66
fc08
fbe0
fd3e
0313
0153
0075
fec6
025c
013e
0162
fe17
01dd
fff5
fdf2
0307
0024
ff23
049c
fd54
0153
fe34
fe3a
fcdb
fb98
04bb
00fe
01ab
fc0e
fe0d
01eb
fe88
00c0
fec8
00ca
ff5d
ffb4
fd35
0131
0106
fb42
fdb0
019b
03a7
0212
fe26
ff30
fe6e
ffa0
ffd3
0281
ffdc
ff10
009e
0108
0281
0098
ffa4
fc25
ff24
00f8
0160
0254
0081
fbaa
fef8
0299
0265
fb64
01bb
fb9b
00b7
037a
fe8b
ff45
fdb9
fd82
fd16
033f
fdd5
fe6c
008d
fd60
036f
03df
ffea
0182
fe03
06ca
fd74
fd18
fccd
0454
005c
0632
0036
006e
0180
004e
001f
0185
fff5
fe03
fda1
00a7
0105
ffc4
ffd1
0450
000a
ff4f
ff35
0064
fdad
0385
fd84
02a4
03e6
fe36
fc80
fb7e
fd3e
03e5
001a
012b
028f
0252
fcf3
017a
fe6f
0032
0328
014d
fe64
fe76
0103
fd2a
ffb9
004b
fec5
00d7
070a
fc76
fe52
0269
016b
ff05
03e3
0235
fdfa
fe33
010d
0002
fd95
0125
fd73
027e
fcf7
01e9
031a
fc3e
fdf8
0380
fc6b
0443
fdd0
037c
01bb
035d
0187
fe15
feda
fdf9
fcf6
fe1a
fd91
fd19
fc50
fe1b
007e
0414
fd20
0040
00e2
01bc
ff6e
029b
feb9
ff22
fefb
fd9d
0431
0037
ff8c
ff88
fde1
0015
ffcc
02a7
fcd7
fddf
fecc
ff51
fd3b
fda5
061b
ff72
037f
008f
01c1
ff10
00a2
fe1b
fd0d
00e5
ffb5
ffc7
ffcf
fd35
ff3a
fe3d
feb8
feb2
ff41
fd4f
0191
030b
fc8d
0033
ffa5
018c
00d5
019e
fd91
ff17
ffa7
ffc7
00d4
fd83
fc85
036d
febd
02a5
fd9f
ff02
0000
fcae
03df
fd39
00fe
fbbf
fd87
0014
fd09
00e7
0454
0048
02e4
041e
0055
0042
feb0
fe0b
fb3c
fe3d
01c9
ff43
ff0c
fc2e
04b7
fd84
fd24
ffd0
005e
0537
fe30
fd34
0032
001a
fccd
fcad
fd7e
ffd4
fccf
068c
fde0
fef6
0093
00fd
fce2
fd8d
ffaa
01c8
034c
ff47
0047
03d7
fdb0
00eb
010a
ff82
fca6
fda3
0088
05a1
01fb
019f
ffb5
04ac
fd9e
0202
fff6
0217
fdd4
0298
fdff
04cd
0061
ffd3
0035
0021
0041
ff08
00a4
00e0
fefb
fe2f
ffd1
fd7c
0100
fd32
ff83
0180
032d
00b1
02cf
026e
0031
feca
fdd8
013e
002e
fe5a
04ff
fcb5
fe08
0034
fd8f
017c
fba2
ff12
ff14
0321
ffd6
fe04
0250
02ee
fd4e
04d0
fd78
fb3b
0166
fd71
00bc
fcef
ff0e
feb0
0100
ffa2
0304
0253
0271
fcc6
fd0a
fd31
0134
fd1b
072c
04dd
02d8
fe85
fe6f
ff0a
02f5
ff07
fe61
02eb
0191
02e7
fd23
ff14
fd16
fcec
ff26
018f
00c4
fcd2
ff98
ffea
0187
033f
fc26
fe3a
0255
fd9c
ffe4
fe47
0263
0157
0115
00ba
019e
009c
0489
fe95
0198
04e2
fd3f
fda6
fdda
ff1c
ff19
01e3
0422
fde3
fd01
014b
fd69
0397
ffa5
025a
00b8
fe7a
fe70
00b9
ff33
03f2
fd2c
0088
01c5
0161
00bf
0182
ff3d
0042
fd29
0030
ff15
ff88
feac
fa93
01e0
fad8
035a
fcf2
01e8
0304
fcb9
016c
0376
03b7
fce9
fe49
fd2f
0671
fd9c
0068
026a
ff0c
00da
fcbf
01c8
005c
fdcd
02ed
00c4
0090
fd65
017a
002e
0212
fe42
034b
fea1
0041
0239
fd96
fe31
03f5
012b
feb9
fdf4
fcb3
fc96
fd14
0151
ffb8
0142
0151
017c
0266
fe5e
feba
ff67
fd12
fd00
04c6
01d2
fc9e
fecf
ffd8
ffa2
0158
fd8f
03cb
fe57
fd3f
0072
fdf6
00da
03ea
fd9f
01cf
035b
0112
015d
042b
ff44
fee4
fe73
ff98
01e3
02b7
01f3
0152
fc92
fda5
fe49
fde0
03fe
00c6
0064
fff3
fefa
00c6
fd35
012e
0038
01c4
fcbb
fd2b
ff77
fd98
fe77
fdd6
0011
03d5
fd40
00ca
00ce
019d
0055
fce2
0247
01ce
ff57
01c8
0024
feda
0149
0173
fe37
02bc
ff82
ff51
ffa9
fc95
fccb
fc80
054d
0220
0290
fdd9
ff2d
ff75
fd36
fead
0299
ff35
05ca
fd21
fef9
00e6
fd8c
fe5a
febc
02c4
0098
0231
0139
fd39
0069
0294
009e
fd51
ffdd
fdcc
0062
0067
fc01
0053
fe4e
03ec
fce0
014e
fcad
014f
ffc1
0282
ff23
fd1c
018b
fcf2
fecc
feba
00bf
0094
00e5
0078
0290
0085
0026
04c9
fedc
fda4
ff8b
ff80
feb8
fe5d
fd91
0355
02ad
0042
02c6
feea
fc47
ff2d
fdc6
fdfc
00b4
00e9
ffcc
01e0
ffc4
0370
0021
feb9
fdc9
ff0c
fdf3
0489
ffa1
fe5d
fd46
0182
01ba
fe6c
fd2c
ffc6
0063
fd17
fd40
ff7a
0108
fe30
00cb
ffe0
fddc
013e
ff36
ffdd
017a
01ec
0088
0207
fe84
00af
017d
ffad
ffd8
fe8c
000a
014a
006b
00ed
fe62
0178
fda4
fd22
ff10
018f
0147
0318
0420
ffac
00f7
009f
fec9
019c
fffa
0205
02bc
febe
00c2
04d5
ff6b
0057
fdbb
0162
fd30
fdcc
feaf
fbef
0494
fb78
01b8
00cb
fe5d
040f
04c2
00cf
fffe
fd37
ffee
fced
fd53
ffd2
fe02
fe6c
0120
00e1
fdc8
017b
00e0
03f8
fd5e
02e9
0198
01ae
fdea
fe39
0193
029c
fd34
ffcd
ffe4
fe11
0356
0094
fff3
01b7
ff32
fdc8
04c5
011c
074f
fc98
00bc
01b7
fe64
00fe
0202
0175
fd29
fd85
fc18
fe1b
009c
040d
ff4f
fdbd
01b4
fe98
02c8
01f5
024e
ff68
ff04
0170
008c
0044
0474
024a
ff3e
fcad
fe7d
fdf7
fdf5
fedc
fec8
fdf6
00d6
fc05
0288
0228
03bc
fcf7
fe19
0140
004b
ffcd
fe57
ffe9
020c
ffc7
0170
0229
fea9
01e4
fe70
006e
025c
00c4
0487
ffe1
04bb
fb4e
fffc
ffde
ffd6
fe5c
0426
fc53
040a
03fb
fd55
01cb
010a
000f
0280
fd84
ff54
fd2d
0053
01ae
002b
01ad
02e8
0237
ff40
0189
ff1c
0382
fdbb
00f1
ffde
00d5
026e
fd66
0005
feed
0269
fee2
fa39
fca6
0191
02d8
0132
031e
feef
00f9
fcbe
048e
fc6e
02ef
016a
fe96
fd0b
fd8f
fc38
0158
fe4a
fd7a
0403
03c1
fe6b
00c3
fe6c
fdb1
013c
0073
023a
0243
ff1a
fd81
fed4
fcd5
0135
012a
ff8a
01cb
00d8
fcae
0305
02fd
02d1
03c5
fc6d
022e
008b
0063
fe15
fc57
00cb
0375
01c7
000c
01c4
fe21
fe8b
fe37
ff8b
0054
fdb2
002d
0266
01af
0316
0220
00ef
026b
ff58
ff29
fd6c
ff80
fcce
024c
fcee
fcfc
0274
fc3e
ff85
02ad
0149
fbd9
0150
015b
003d
034c
0037
0089
052b
0108
ff6e
001c
01ad
fe20
022f
febf
00a2
0258
013b
052d
02f6
014c
0252
013e
015a
ffc2
fd9a
008e
015d
fdf9
ff90
0077
fdd2
0109
fdd2
fce7
fdb7
ff73
fee2
0006
fd74
0504
ffde
fcf4
fe1d
ff24
023e
fe1e
0030
ffda
fdb5
008e
0027
0207
ff16
0020
0405
fec8
fe20
0157
007d
02c9
fd1e
fd34
024e
fe94
fe06
fe98
fbf2
f96c
03d8
fee8
fbd1
fae2
fe7e
ff39
fdf0
045c
00bc
0354
0335
0035
016f
0039
fd59
0261
fd2a
014c
fd53
fd3a
fdbe
0322
0141
025e
fe9c
fbe0
fccf
0374
fc24
009a
001b
fe3a
0281
fdb2
fe98
018d
0124
0246
0060
0159
036d
014c
0192
03bc
0188
ffde
01dc
02b3
fe9b
0081
00f5
fe6e
ffdf
fe57
0131
0223
025d
016b
fe9e
ff09
0094
0245
fe61
fddc
02db
fe2f
fed2
fc7e
00f1
fcb6
020a
018d
ff56
00d6
ff59
0315
0110
feee
ff40
0007
ff1d
ff49
fd4a
01da
03b5
01a9
008b
fce7
fd73
011b
0237
0255
00e5
ff30
ff1e
fdfa
feaf
0007
0137
0231
0069
fd49
fee9
fef0
0216
fcc3
fed3
0088
0230
004c
fffc
031e
fd84
0230
0337
fee1
fe44
00cf
fea3
fcbd
024d
0155
0384
064e
fd23
fd1d
0500
fd96
fd88
fce5
01d5
01bf
ffcf
fdab
0344
fc79
040a
01ab
00db
fc04
01cc
fc8d
fd61
05ea
00dd
00a8
fd68
fc7e
0167
feff
0322
ff30
fc3d
fe97
0477
fcb1
fc5e
01aa
fc8e
0048
01e3
013d
008a
02f0
fef8
fc7c
030e
fcd3
ffe8
fd2b
fc37
fee9
00f8
fccd
0134
00c8
fff1
fd22
01ea
ff2b
013f
ff79
013f
ff55
fe30
fe96
0021
0149
00dc
01a3
fe76
00f5
fe46
ff61
0273
fdf8
ffe9
ffa2
fe3c
ff05
ffb3
0194
0024
02ad
019b
fccc
fed6
002d
02f4
008a
044f
0242
0371
0343
000f
03e7
ffc1
fd46
0420
fed6
fecf
000f
0042
0060
fe7f
ff85
fd5a
fcff
fd48
fcc7
ff58
007a
ff03
fff1
0480
fe89
fe1e
fbe4
fe84
0091
03c6
0142
012c
02e1
ffe2
fb20
0086
016d
fc66
00fb
ff4c
fe17
002e
ffb7
01bc
0088
fbd5
fd6f
01aa
03f7
fe1d
0129
fe3f
fc8c
fc81
fed7
0299
fd61
0487
0589
fe61
fd54
0128
011c
ff32
01ea
ff87
fced
fdf0
004b
fd0c
fe73
0210
01b9
01b7
ff16
fe84
022c
fc96
fdd0
0020
fc4b
ffdd
ff26
fd48
0258
fe40
ff1e
0230
fbfb
fcb5
fe0a
051a
fd55
046f
fc93
fe32
0419
fdbc
fe61
003d
fd63
0240
ffb6
0386
fdb9
ff85
fd57
fd2c
ff12
fe68
ff76
ff27
0114
0196
016f
ffe3
0138
fe93
ff78
fe9e
0313
fe71
012e
fbdc
fc5d
05a5
fbe5
011b
029e
fdfd
00d0
ff31
0313
00e7
fca3
03bb
0115
0136
0356
0056
04fb
fc8a
ff49
0376
ffe9
fd3b
ffb9
fff6
ffae
fd65
0169
02ca
fd55
009d
fbe8
02b0
025a
ff28
014f
0145
0072
0323
fe9a
0034
fda9
fde9
0032
fe5f
fdee
02f3
004e
ff5a
022d
fe3d
024f
fd89
00bb
ff20
0022
02a2
ff83
02b1
01c9
ffe8
0000
ffb7
ff98
ff25
01eb
004d
017e
ff5a
fe3a
0353
ffd9
febb
fe89
02f9
fe88
fc9e
fc3e
0459
0264
ffe6
029d
ffb1
fe5f
0174
04ba
ff00
03c2
02f5
fee1
fc9c
fe19
fd08
fedc
0132
01ac
0475
01a2
fe5c
00e0
ff6b
0105
fec6
fd7e
03fb
00c0
059e
fcbc
006e
fe6c
fc9f
ffa1
fdf1
0265
ff4a
02c8
004a
fc93
041f
02d3
fd36
008a
fdfe
ff19
fee4
ffc1
ff5a
020d
00bf
fde9
01d9
fe93
ff3d
fe4b
fffc
0451
015e
fdff
032d
fecd
005c
fb32
0226
062f
ff1c
fbec
ff85
ff97
fc31
02de
ff94
0297
0266
021e
02b9
0232
fcf3
003e
fcae
fcd4
008c
0245
fd41
fe42
046e
fe67
fe80
fe55
ff57
ff02
ffa7
01f2
0179
0258
005c
fddc
fe4a
03c8
0187
fe27
030a
fe2c
0128
fd3b
009a
041e
019f
fd3e
fe5e
fb13
0630
ffd8
fffe
0311
ff11
ffa3
04be
fe28
0168
0018
0032
01db
006c
fefd
0070
fe88
0122
fdcd
01e0
02d1
fc96
01a5
fdc8
fc31
fc70
02dc
ff43
02b4
fe70
fdbd
01f6
fd8d
ffb6
018b
0464
fff7
0118
00bc
ff02
ffee
fdd8
012d
0374
ffda
ff9b
024b
feef
039a
01e4
ffbb
01a9
00f5
0215
01c0
ff77
fda8
022b
01a3
022d
00f7
fff4
01ce
fc84
ff80
fef6
fe4d
006b
fbfe
fd45
fcc1
001e
fde4
fe81
fee1
ffb8
01be
011a
ffac
fe96
ff28
fd14
fb2b
02ce
fd6c
0112
00ec
017e
ffb8
013f
0151
fd9a
01ed
0177
019c
fd64
0475
fce3
023c
fcbe
013a
fc4d
040d
feab
015d
049a
0229
0262
025a
0249
fdcb
fd00
0416
fe0b
fc5d
fd92
001e
005a
fe59
0297
fcdf
0180
ff53
0055
00dd
fed3
00f5
021b
021d
023b
0151
ffe6
0213
0194
003c
fde9
fbc2
0306
0108
00a2
feef
fe52
00e9
0168
fc9d
ff48
fe86
ff29
fb18
0069
02f8
046c
0083
ffcb
ff34
ffab
02f2
fc67
fe8d
01f1
0069
006c
0208
000a
0173
fdb1
0270
fc5b
fd84
fe57
01a7
002c
0109
03f0
025d
ff2b
0285
fe7e
0021
ffe4
ff6b
fdb8
0253
fc3d
04e9
0154
fdb1
fdd4
0565
03fb
fcfe
00b7
0088
04cb
01fa
ff1c
0435
0160
fc63
ff51
0122
fcaa
feaf
fd4a
ff57
013b
ffcb
fe46
0259
fe82
02bf
ff5a
003f
feff
0179
ff5f
02c7
00a2
01c3
01fc
0272
fd0a
fdf1
fda2
fb92
fd8b
00b3
fea4
014b
fe6d
ff31
02ca
01be
fc57
fef8
0217
0007
fde6
fd4a
0064
039d
005f
02a0
ffd8
0194
01bb
fe51
fe26
fd2d
fef1
fd19
0204
0090
030d
0110
02b6
ff66
ff70
03fa
fcd1
0300
0225
0008
fde1
fe07
fead
0476
feda
fe40
01a6
00f2
fef3
fe6b
ff03
04fb
fec4
fe66
ff1d
0282
0227
fd53
fea4
00fa
022a
ff58
0027
ff5b
ff8a
0010
0238
00a5
fe69
039c
fed2
003b
fe17
0398
feba
fe98
ff2f
fd90
fce5
0107
fc9b
fddd
fc9e
feff
0280
fe11
fc5d
fd09
fe41
05ce
fc12
fc20
0271
07cd
0005
0115
00dd
02a8
00aa
00e2
00dd
0133
035b
0186
fd97
035f
fee7
fd0d
007f
fe30
00ad
03d4
fd50
fe94
023d
017d
027a
0083
ff72
00ab
fc94
015c
037e
fe83
0376
ff8d
04ea
ff52
005f
0248
fd83
ffe1
003e
fc80
0016
fcca
fe57
fe03
fd3b
0161
fcd1
fe87
fd50
0251
fb8a
0196
00d0
02e9
fd3e
fe1f
002c
fd0d
ff07
0081
02a1
ff1b
01eb
05ca
ff8e
01c9
fe49
ffb7
fdbe
fe58
00c1
fed7
feb4
0096
ff9a
0390
fdc0
fc93
00b4
fe7b
01db
022e
fdcb
0506
ff7b
02da
fe1f
0282
ffa1
01d1
04ce
0220
ff4b
fca0
feae
fd3f
ffa0
00c2
04df
fae8
ffbf
02e4
fd45
037b
02ad
006f
008c
ff41
020b
fca4
05b1
011b
04df
003c
fd27
0387
fdc9
feb6
001a
02ce
ff2b
fff6
fe0a
ffb6
fdd6
ff86
ff99
05c7
0014
00bc
fd48
fdec
0240
024a
037d
feac
01c3
fd3e
fea0
fd84
01a0
fee8
02ec
01d4
fe0c
fe92
fd33
fd48
fd28
0614
fe53
01ef
02de
025e
ffca
fd15
fe44
fd89
fecb
fe9e
fc06
024c
fdfc
0256
0090
01f5
fe9b
013d
fe8b
fffe
05de
fa47
01ce
031d
018d
fd76
ff44
fef3
fee5
ffec
ff7b
fb6a
fd90
0417
01ed
03e9
04b1
ffa9
fd5d
fd22
0044
006b
fd78
fdc1
fcf2
fc1b
fdcb
015d
fe35
01bc
ffc0
0225
fc21
01b9
fcdf
fc56
00c4
fe85
feb9
feab
00af
0295
fdee
fc7d
fef4
fd5b
0138
ff8f
ff84
0269
ffbf
ff58
008e
00c0
07d7
ff73
fe07
fd5a
0031
00c3
01e8
fdfd
fe6a
fc5a
036a
06bd
fff9
fd62
fdc5
fe17
0129
0210
0144
ff52
0132
0011
fe57
0062
01d9
febf
0219
fe40
fd00
fe11
ffed
fff9
fe5e
0336
027e
02a7
ff50
ff38
ffbc
00a9
fffc
ff58
0292
05ba
013a
fc0f
fe8f
fcbb
fcdc
01a3
fcd4
028d
fd85
0084
0456
01c4
fe08
fec4
0046
fe7e
ff53
ffd8
0256
00d3
ff0c
ff9e
fe11
ff7b
0029
01a0
fee9
fffd
fe64
01f3
fc61
004f
018f
fd6f
fffa
0366
0269
0045
fc58
03ea
ffe4
0372
0280
005b
007a
fdce
00b2
00a0
02d7
fca0
fcf5
02e4
ffa1
fed2
0079
ffa5
fbfe
fd59
02bb
fec5
020b
ffaa
feda
030a
fd55
0302
fe3a
fe9f
fe2d
fcbd
feb8
ff32
fd9c
ff6a
013b
0765
fcd8
0382
ffe9
027d
ffca
035c
fd2a
fe6f
fde1
fdd9
fef3
fc99
fc58
0504
00d9
ffb1
0171
016c
fee5
ff9e
ff3f
fff6
0430
0256
fffa
00a0
fc6b
fc4a
02e7
018a
0134
fd1e
0079
0183
fe2b
fee6
fd29
0092
0024
0288
02b0
0309
0001
0237
fee8
0432
00b0
fc95
ff0a
0146
ff53
fdd5
0225
fd48
0304
0116
0123
00de
ffba
014b
fe20
00ed
02bd
ffe4
fb0a
ff5c
0136
012a
039e
ffc2
fdf2
fd97
024f
000e
ff40
ff83
0238
0439
0136
fc51
fc0d
024d
fb5e
04c5
0588
03e6
fce9
feac
fc7d
fcb6
02d0
ff35
fcfa
03c4
006e
01f7
fc70
03a5
fd9b
ffb9
0106
ff4d
0546
0405
ffa5
01da
fdce
0030
fc32
0458
fecf
0343
ff3a
004a
00d8
018e
fdfa
fcbd
0205
0235
024e
fe94
0372
fae9
ff77
00f6
ff59
ff0b
fecb
fda1
ffe0
ffdf
ff6a
fe6a
fe72
01dd
0149
0034
ffa2
0178
0041
fdd3
010f
fd65
010f
00d6
ff90
0265
fd70
fc7a
00ec
03ab
fd73
0100
ff22
0460
ff99
feb7
00da
fcbd
fd49
ff03
fd46
ff2d
fd9f
0585
ff66
ff61
fd8b
fdde
0055
ff7e
0295
0068
fc3d
061d
fe0c
0121
fe3a
00ba
00a5
0417
ffb2
0369
0038
025d
01fc
03dd
0156
fd14
ff71
fe1a
fe1e
027b
ffff
02c5
ff87
02e3
ffa7
fe0d
ffcf
fec8
fe97
fdec
00dc
fb27
00c8
02fd
0492
00c4
fdb0
ffbb
fdfd
fe7a
fdaf
02fd
fca4
036f
030d
ffec
fdb1
fd21
014c
fc17
fcd0
00bb
fe02
001d
0038
fe3b
005a
0274
fe49
fdbc
01a0
fbdb
ff8a
04ac
fe79
fbba
fe1e
fd2d
ff36
03c4
00bf
fe98
0136
fd4a
fd7f
0187
00f7
02be
fc9d
fdb3
02cd
fcca
fdb0
fe22
0513
fd15
0053
02a3
0151
fe4d
003b
0465
01c3
fe63
fce4
02ce
01d5
0269
0466
fe68
0454
00bc
024c
fddf
fe3a
fca9
fdc3
fe33
ff63
fdfc
00d8
ff7b
016a
03c7
00a0
00aa
0058
04be
fd6f
0448
ff46
fd38
fdfb
fe66
ffcc
fd65
0218
007d
fe41
0243
fffe
0572
0459
02f5
fcf5
fc95
ff05
0060
00e7
ff76
ff05
00f4
fd80
ffab
005e
ff84
fd0c
019e
fdf8
ffc0
00f1
fcec
fcfd
0417
0005
04f9
03a3
018e
fca5
02c3
fff3
033b
01c2
feb6
fee4
0258
fd38
008d
032d
ff56
ff9d
01b3
01ee
0274
fe95
fe6c
fcf5
031e
fdd2
0102
fc67
fcf8
fca7
01ba
fe96
ff24
fde0
01b9
05d3
00a8
0003
fedb
0016
023f
fd74
0087
005e
02de
0080
fc0f
ff9b
fcd6
012d
fe2d
00a5
0116
feef
fe46
ff24
fd0e
0330
ff4f
fe01
fe15
fd7d
024f
fe82
03d1
017e
0074
0109
ffdd
01cf
fcec
fe27
0387
017d
0305
02a0
fe95
01d7
01b6
fc60
ff2a
011a
0471
001e
0244
fe29
ffe9
0135
0280
02b5
0169
fe42
fe16
013c
fdb0
fe90
01d2
fe2a
0009
fea5
fe8f
007d
fe95
ff92
021d
fe9c
0160
ff0c
01ad
0501
0490
fc88
00e8
fe2a
0161
007a
0312
fe00
fd49
ff82
fe66
0025
03bc
ff37
ff53
fd9a
fd7c
0026
0273
fdd7
00c3
ff78
fbfa
fe07
0565
fe38
ff71
fd89
0066
0068
ffc3
ff7b
fe53
fd18
ffaf
0159
00ce
ff8d
029b
03d3
ff7b
feed
fed1
fd7e
ffe5
fd63
fe22
0179
0116
fdf4
0420
00cb
014b
0519
fd5b
0534
fd65
022b
ff44
029a
ff34
ffa9
0188
fca5
0127
011c
0040
fffe
0224
fbe6
fde7
fde1
0155
fe39
fbf6
fffa
fe2a
001b
0149
fce5
ffea
005a
0014
0090
00ea
fc76
ffb2
0274
02c4
fead
0096
027e
fc84
fecd
00bc
0430
fcf4
0205
05f5
01e8
0337
fde5
0068
fd95
fefb
fca5
03d3
fddc
fe84
ff37
fe8d
01e3
fe4d
ffb7
0189
fedd
0415
fde1
ff8f
fc0f
fc86
fe80
fe6f
ff57
fde7
0048
fd52
0007
0036
018b
fd72
ffa2
fc4e
010c
0252
fcf5
fc11
fe7c
0499
007f
0598
0011
fed1
fcbe
04bd
02be
fd13
fd56
ffde
018e
0270
00f2
02c3
002d
ff24
01e2
0221
014d
fea4
0005
00cf
ff45
fdd5
fcc7
0012
fe35
feb2
fc9c
0453
fcac
fdfa
fdb9
fdd8
02f0
fe50
fe79
fa8c
fd34
fc3a
fd81
fd4b
0294
fea0
0309
0001
0139
002f
006d
fd77
02e4
fc96
ff26
01f4
ff6b
01ca
fd2d
00ee
fd6d
014a
fefb
0244
00fe
fb96
fca3
013c
00dd
03b1
ff8e
02ff
fe0e
fce9
0006
fca9
ff91
00db
fee6
fe4c
0049
0104
040b
0200
012c
01b8
00df
ffcc
ff21
01bd
03f8
00a2
0140
0565
fd9b
0324
ff88
051a
ff9c
0179
0108
0289
fd73
ffb6
fe0d
025e
fda9
0048
fdc8
0046
0011
016a
ffc4
01e8
fe23
ffc2
ffa5
021b
ff03
fdec
fde6
fdb4
fe65
ff16
fe79
0413
fe1a
0422
ffb7
ff4b
fd60
ff17
014f
feeb
0272
fe6f
0034
fdd3
006d
01f3
0212
fc4d
01fa
fedc
ff0f
00b2
05ad
fcee
fdca
feb8
fd55
fba0
0110
0303
ff46
00b4
04cc
fe75
00b8
fdad
0153
0360
fdef
00a4
051b
007a
ffe5
ff23
fc3c
0184
023b
fffd
0012
00e9
fde1
018f
fe88
00c0
fd07
0111
01fc
02ca
013e
035c
fdec
fdc1
ffbb
02fd
fec4
fc3a
01b8
fdef
01d2
fef4
fff5
ff63
032a
fcd8
fd15
00e0
fe52
fed9
02ab
0070
fdc5
fd2a
0268
054f
fd3c
0490
fefa
0315
fed4
02c2
fcf6
fe24
ff8d
02d4
02ba
0000
fc8d
fff2
fc7e
ffbe
00f9
03b8
fcc9
02f8
fff6
007c
0234
fd9e
ffba
fe79
02a1
fdce
fcf8
04fc
005e
000a
ff7a
043f
fe98
0145
0229
fe35
febc
0110
fe15
00a1
fd61
0083
01a2
0631
04d4
0507
ffd1
005d
fba9
011a
0474
005d
fe6b
0335
013e
fc7e
fe50
fdbf
fdaa
028a
0201
fe75
009b
03cf
fd62
ff51
fbd5
ff03
0280
043c
ff56
019c
fd9b
01bd
013a
0450
0094
01aa
0317
ffe3
025d
ff62
03ac
ff67
fe6f
0235
0263
fd7d
0120
fefa
059b
fefa
0104
0325
fcff
fe31
fdef
00a9
00a7
03dd
fdfb
02a6
ffe0
ffc9
0043
0006
ff28
fda9
00ef
01bc
01fa
006c
fdf9
ff4c
01fa
fc16
046a
01c3
ff64
fd29
fe50
fe05
fe82
00d3
0198
feaf
02e2
fd26
0048
fdf2
fd5a
fc1f
0128
ffe1
fe08
003b
01d9
01f0
fd9b
0423
fd2e
ff32
01a9
04f1
ff39
fd2d
0045
002e
0101
012b
fe1a
0150
0362
ffae
ff92
04e8
fd2e
ff45
ffe1
02d8
fc64
01ae
0155
0279
fe86
fa80
ff4e
028a
0074
fdbb
fdb7
fcbf
01f0
0467
0142
0179
fe49
ff63
fe22
fbd9
051c
01b2
00b0
01f4
fb9d
016e
016c
fc54
ff73
fec1
03a7
ffea
fc62
fcab
fece
0056
fe13
ff5e
ffc0
0297
0029
fdc4
fd6a
ffba
fff0
ff4a
0131
0323
0585
fdc0
fdd8
06ca
0147
0463
fe1c
0331
fbf0
013f
fdc8
fc54
feb6
febc
00aa
015d
fcec
fd74
ffbf
0197
fe10
00ac
fed7
047c
ffd3
0364
fcd4
0327
fcbc
ff55
01f9
fdd5
035f
fe6a
0019
00bc
fd12
fc05
0355
020e
0013
fd53
fefa
fe65
ffc0
009a
0212
02c2
feca
ff7a
fdee
ff73
fce9
fcd9
ff19
fc9b
0417
fce9
fc1c
fe5f
fc68
fe1e
ff9a
04be
fe41
fdc7
fe34
fcd6
fcd9
008a
fe18
0127
00b7
fdaa
0495
ff4a
ff3f
0359
ff7a
0102
fd3a
0093
0256
ffaa
fcb6
fcdf
0397
fe4e
fee7
0188
fdc3
0114
ff85
fd40
031f
0056
0354
feaf
fd52
fecf
fdf1
fcea
fe36
0053
fd29
fe40
0390
0072
fc95
02fd
ff0c
0198
0002
fec9
012b
fff7
fd5d
00fa
03a0
02aa
ff5c
0324
fb2d
fe6e
0313
0651
012f
fdac
0275
ffa6
029c
fe72
0052
0040
ffee
fdd2
fd80
fdcb
00c1
0014
ff21
fe6a
ff82
fcd7
fc48
ff68
ffe0
0060
fe77
011a
ffca
0124
0126
02d9
ff7b
ff3e
fef6
feb3
fdc2
0000
ff92
001a
ff8f
03fb
fe6a
0177
feb1
fff1
ff6f
007b
0107
003a
fcde
05a7
0235
fcbc
02bd
022b
0205
fd34
fe75
00b9
021e
fec2
0449
0075
fcf5
018e
fc11
fe6d
ff24
03bb
fdc1
fe81
feab
020a
febc
00fa
ff31
ffe4
018a
feb0
fe81
02cd
ffa0
0214
030c
0554
fdc6
049c
ff6e
02af
ffe5
fc9e
fcc4
008d
04ba
006a
0096
0477
0009
feab
fe26
0148
02af
0226
feb2
01e9
fef2
039e
0175
fe7d
0071
01bb
02a3
ffa9
0192
0034
02b7
0219
fe80
0170
023f
fc98
fca1
01ba
0225
ff89
030d
ff93
0038
0476
fec1
0331
fdc4
fdb4
ffe6
0030
fd37
02cd
fe49
018f
0002
fee6
fea8
fb0a
0012
013c
0040
ff4b
fd7d
fe60
feeb
0280
ffe1
0356
ff27
ffcb
01fd
01a3
0008
025d
022e
fe78
009f
022a
fe25
fd68
014c
fce4
048d
fa81
07e1
06ad
fcb5
fab7
0187
fddd
015c
fce4
ffa8
0015
fd9d
0115
ff4b
fd67
01b5
0090
00dc
0318
00c4
fc8c
fde9
fe6a
fd2a
fd1c
fdc8
ffa0
fdf7
0115
ffa5
fed8
00f3
0351
013b
fcc5
ffdd
ff70
ff8f
0192
ff9c
02df
01b8
04e0
0047
fc8b
0125
0102
ff08
01eb
ff75
ffa1
fe5a
fd4e
fea6
002c
01cc
ff29
fdb3
fed7
ff9f
fe9f
0122
03a4
fe86
000c
0022
0527
fcfd
fce2
ffce
fe94
042b
feff
004c
fd64
fd5a
fca4
0287
0120
0231
0097
010e
fc11
fe00
fd92
fdb9
ffb8
ff05
00d2
fdc0
ff4e
ffaa
ff40
0014
005d
ff4d
0320
0228
ff55
027f
ffdb
0151
fd24
fe89
fe04
ff96
0284
0062
01ab
fd20
00e1
fd31
039a
ff15
005a
0019
066a
0272
fe24
031a
01fe
fecb
fd2a
01eb
ff8c
ff0e
00a9
fb32
03a0
01f9
020c
ff8b
051a
fc06
fff7
00ac
fb70
0468
fe00
fe54
fee7
00b6
016a
fc6d
fe5c
feeb
008b
fff3
01b2
0083
0121
fd7c
fee5
00f0
fcbd
0389
005e
0168
022e
001b
03e2
00a7
03dc
fe6e
fe31
ff3f
011f
0270
fc5e
fc74
01ea
ff8b
fcc1
fe31
008f
023f
0534
fe92
fe3d
03f4
fc05
03af
0079
0327
02b6
fe33
0240
fd4a
0161
03ea
00a7
0102
fe81
fcaa
fff2
fd72
01fc
02e1
0009
ff1d
0464
fcdc
fd9c
01ec
ffab
0011
05c6
fdfb
03fd
0034
0181
fe90
028b
ff92
fe07
0281
fd00
ff49
0436
006a
fe59
fdcb
0009
fd83
01df
0224
0058
026b
0339
fce3
0225
021a
00c8
0323
05ef
fc84
ffea
fa94
ff3b
ff6f
ff1f
015a
0049
0158
033c
fcdb
0148
05db
00a6
0256
fe3b
fc4c
01ac
00cb
fe15
ffc3
018b
fdc3
fce9
fd64
02bd
00a7
fe0e
040d
0533
fe70
fe62
fff8
03b5
fdc1
0413
fcec
0591
ffca
015a
fdf1
00be
fd2c
0142
fe6d
04a9
fd61
00d7
ff94
fe71
fd78
fdd3
0007
027d
028b
ff9d
fd71
025c
01ee
00dc
fc4f
012d
ff06
fdea
fe55
0230
ff91
fdfd
fd4b
038d
fe7f
01a0
fdfc
0049
ffd9
fd8c
01bc
feeb
fe75
ff05
fd6c
fdbc
ff5e
fd83
fc32
fc57
009b
fe00
ff19
041e
fe42
0259
fbbb
0166
fd8d
fbdd
fe8d
01cb
02ef
ffef
fd24
0157
fed1
0015
004f
005c
0419
00e7
01a4
04d3
0159
fcc8
032a
fc3e
fd7f
fe75
00cd
01dd
000e
0232
fe24
015a
fd09
0280
0104
0299
fcc8
fed4
fdc5
01b7
0215
fd68
fc24
0001
fbfd
00c1
0040
065c
fe72
03f1
feae
03d3
02d3
022e
03c0
fcaa
fd10
fe8a
037b
0151
020c
0084
ffc1
ff14
fffa
0484
fedc
031b
ff16
040d
fe37
fe7f
fef6
00ff
01f8
fcad
00d2
ff5b
026b
017c
fe87
fe5e
0080
0128
003d
fdd0
02c5
fe18
047a
007a
fc77
065d
fe93
01a0
00a6
0234
000e
ff99
fe7b
0216
0121
010c
008e
0246
0477
fd8d
fe48
0137
014a
054a
fc72
007b
00e0
fe53
0298
ff68
ffb5
fcc9
049f
019f
ff86
01f9
020d
0496
04fa
0472
ff56
ff56
ff7a
fbec
00d3
0014
ff12
ffbf
ffdf
0004
ff37
fff4
ff21
011c
02c6
01b8
0010
00e1
fee8
fdf2
0093
0425
0179
fd17
002d
ff43
fff5
0331
00d8
ffda
fd17
01c4
ff77
0358
feb4
00a5
01e1
0227
ffd5
ffa6
ff72
ff34
ff36
01e7
01b3
fe83
fd75
005e
ffcd
fea9
0077
fdb0
fbc3
fc95
0172
04c9
001b
00a0
0351
022c
0382
027b
0146
fc15
0439
028a
00b5
0147
02d7
ffe6
014e
fcef
0089
009e
0008
0157
01d4
022b
0182
01a6
fd40
0299
0116
fca9
fe0a
01c0
001f
ff40
fcaa
0251
00c2
fffa
fc73
0221
ff6c
0095
0351
fddf
00cb
feff
fca9
fdd0
0082
fe09
fe96
fefe
feb8
fc9d
0119
ffd6
fdbe
fe0e
00e9
ff6c
ff0f
025a
02c5
fcb2
fc73
02dd
001c
0201
fe21
fd83
007f
fd3a
fe70
fe9c
0258
ff1d
fe4f
fffe
00d9
0252
0107
0315
fd93
01b7
00d1
0243
fd31
0173
0046
011b
ff70
fe27
00dd
0195
ff24
fd60
fd19
ffe3
fd81
fbcf
ff06
fe71
ff4b
fe6f
fbc0
0458
0302
fca4
fdbd
fe4b
04f0
00e7
0260
02b2
ff30
fcfa
ff9d
0075
024c
02e0
fcc6
0390
fd30
ff7e
ff22
fd77
fe67
fccb
03ab
ff91
034f
027a
006a
0296
0020
007b
ffec
fef3
fcec
ff2f
fe7a
fe33
febf
ffba
fce7
04c1
fe2b
ffdf
ffa8
feb1
0374
fe2b
0204
011a
0085
fe3b
fd12
ff2b
0521
0045
fdf1
0340
0038
0244
ff4a
01a8
fd56
fdd3
fe9e
0033
fd97
0006
fdc3
fcc7
fefb
01ef
00fb
ff1c
0031
023d
fdc2
fd64
0093
04d2
064f
0417
018d
fcfe
ff5e
fd72
fd89
006c
014a
03b7
0067
01ad
016d
0242
038a
fda1
fda5
fddf
ff05
fef0
ffe0
fe85
fdbb
003a
021b
fe4e
fe9f
fd19
00a7
fcf2
fec3
027b
fe6d
fd0e
fc93
fe00
0173
0314
00c1
011d
fefc
057c
fe2e
0025
011c
ffcd
fc95
ffad
015f
042b
06ad
00e0
fdc0
00a6
febf
fd3b
fd9f
0113
000e
fd64
01d8
012b
008d
fd55
0076
01be
02c2
000c
0034
0172
021c
0101
02ae
ff47
00f5
fefb
005d
fd69
fd79
024a
00c1
fcfa
fdad
fffd
016a
000e
00f5
0050
021d
01df
004e
ffe1
0039
fd11
fe30
fed3
019b
fece
0285
feee
02fa
ffc3
ff2e
fde2
fe11
ff65
fdd8
0115
00ae
fc23
0088
03ef
0257
fd07
0462
0472
000d
fd70
01f2
023f
fc4e
056d
01cc
0292
fdbc
ff2b
fa17
fd14
fdd0
0287
0092
fe65
fd28
fd13
fec8
fc6b
fe48
001d
047f
002c
02c0
fff2
fd67
fff2
01db
feb5
feed
00d9
02e9
ffa4
fd3c
0228
0197
0344
fe43
ff91
00af
fcdf
022a
feb6
ff35
005f
01d2
0349
fcff
fd4c
006a
0264
0105
fe58
0229
0230
fdb4
0043
03f9
00af
0015
ff09
ffbb
0046
fedb
0195
047a
fecb
ff9b
0088
055b
ffc6
fea4
fd8e
0193
fc8f
00f5
03a5
ffac
00ed
00ef
ffcf
00e1
fd22
fb90
010a
027c
fc66
00a1
fc4d
fdb0
0176
ffff
0134
fe84
ff32
01db
008c
0217
ff49
010c
fe02
fd5c
0420
0179
0171
0028
ff20
ff19
0029
fe30
0272
fe12
01ed
fe9b
fdb8
fbf5
016f
0019
029c
fdc0
0076
fda4
fc89
01c8
ff80
01f1
0077
01de
fcc7
fef4
ff3a
fef0
fe31
fd0f
fd05
00e2
fe41
ffc8
0147
00d8
021e
0426
ffd4
fcdf
ffce
fc8f
fe38
02e3
0398
010c
fd55
0068
fe68
ffce
fd49
fe70
0184
ffac
fd91
ff00
fffe
011c
ff78
fd2e
fda9
fde9
ffc6
010f
fe38
00c1
0209
0040
0377
04db
0156
fea2
01a2
0098
0089
fdf4
fbe4
fefe
0300
feab
02fb
fd52
0045
fefb
00c9
0130
02c7
007f
fdd2
0198
0118
fe7c
fdea
01bc
006e
002b
ff59
ffc8
fdf8
03a9
ff44
fc92
ff5d
fe73
fe45
fc0e
fbb0
fc1d
ff60
0459
fe33
0079
00a5
fdb6
0058
fe66
00e6
ff69
0319
feb3
00b4
011e
0070
025a
ff45
fd8f
02c7
0235
0225
fb96
fd91
fed0
0686
fda3
005e
ff8d
0166
0285
ffb6
fcdc
0294
fee5
01c2
0125
0125
007d
010b
00ea
ff86
05a0
0166
fe0f
fe56
fe0d
ff97
01ec
028b
02c2
fcbc
fee3
01bb
fddd
ffde
fef8
fda1
fdce
ffde
005d
fff4
0108
fd45
004e
0128
0231
ff50
fde7
00bb
fd5d
0164
01fe
0054
fd78
0393
fd13
019e
fcb3
01a4
01e7
03c3
0226
0145
00e9
ff1f
feef
0192
ff68
023b
fe24
fe01
febd
fe8e
fd55
fdc6
fde5
008e
047b
fe3f
0169
0309
021f
fd3a
fea8
fd76
043a
0058
fe83
013c
fdb7
ff99
ff68
0281
fc13
06c8
fcd1
020b
015e
feaa
fd4a
ff9f
fe38
fef5
fe97
025d
0229
fd61
0295
fe05
fec4
0299
fd53
fee2
0403
ff4b
0280
fcca
ff2b
0530
0235
008a
fd7a
0194
ffc6
fb0a
0112
fd58
fffa
02f7
fdf8
fd87
0252
ff14
03b9
00db
fdce
0241
0331
ffba
00df
ffe1
0189
0008
0178
0147
007f
fe92
01bb
00b3
0028
fe15
fdbb
fcd0
00d3
0187
0067
0000
013d
fe28
fdf1
fdd5
07b7
00ee
004f
01c4
fe4d
028e
ff45
fc2b
fdfd
fde3
fe39
0192
0376
feb6
ff5c
fff1
0082
fd81
0083
fec6
0393
0188
02f2
ff80
026f
00a9
fcaf
fe7c
fef3
0268
0088
01fc
018f
0148
fdeb
0272
fcfc
0016
02cd
ff48
0077
01b2
fd4f
02e2
ffb0
fffe
00ec
ffb3
fc01
fdbe
fe20
fe57
fd8f
fe7d
003f
fe74
0052
fd7d
0141
fd88
fe93
fd13
fd4b
0031
ffe1
018a
fdf5
010f
00e1
00e7
ffed
fdea
fcc3
fc4a
ffa8
fbf1
0243
fcea
0049
fdd7
fe7c
00f7
04bc
fdfe
fd4d
fcad
fd02
ff1a
fed2
fd39
ff36
01a6
036e
0058
00ef
02ad
02f8
ff4d
ff66
fba2
0413
057c
ff81
01ce
0256
fdbe
001f
ff1b
01ab
01cd
0068
002a
0130
0054
ff88
feb2
01f9
005b
fdff
00df
fdce
fda7
0372
ffd3
fbf0
fd69
02ad
fe90
ffc2
fe4b
fe1a
05d4
0147
fd90
0321
feed
01d2
fd00
fca1
fdf6
0117
ff6d
ffb2
01d5
fc01
011b
00d5
0146
fb37
fbe8
ff36
0312
01a2
ff2c
00dc
0250
fcfc
00bb
0231
0187
fd7c
fecf
fe38
00dc
fd1e
01e6
0272
fe1a
02d6
fdb9
01d3
03a6
05b3
ff4b
0090
000d
0142
ff05
0124
fda2
fd4a
0156
fea8
01e6
0191
0024
0034
022c
fd96
fc9b
fdbe
046c
0635
fe98
00c2
fab1
fd2e
026d
0135
017d
0111
0518
05d3
051e
fdde
fe06
0207
ff17
ff39
ff0b
fcee
01bb
00ba
fd6e
00e8
0187
fe76
ff8e
0597
00d3
fd92
fe29
00a1
043b
008f
fd33
00b5
ff97
03bd
055f
00f1
fe19
0571
01d2
fd88
0413
fd27
0134
0039
0004
fbe6
fe91
ff2c
0338
02e9
fe8a
fd16
fe1e
009c
007a
fdd1
02fb
fea3
ffad
fe1a
fe26
fe06
0142
fdef
0144
ff41
fde0
fe5d
fd73
ffb0
00d1
fd51
fc1d
02a8
ffd2
fd3c
0137
fe0a
fe2d
feb0
fdc6
037d
fdc4
fc36
fc89
0090
01c8
fe83
ffff
fd2b
032e
fe20
ff4a
fbb5
ff07
fd6c
04cf
fdf5
0376
0078
fe8c
fdfd
0447
0325
01c7
fcaa
fec7
ff1b
fe91
0236
0370
011f
fef8
fdcd
00f9
fec3
fdbb
0155
fe3b
fe54
0061
0617
ff49
fd2c
ff05
ff0c
ff4c
fcff
03bd
025c
fe46
fc99
0184
0239
02ff
02c1
01f8
fddc
0388
fe2a
ff0e
fed4
ff59
fc75
0000
fe53
fd8d
01aa
fe96
ff9d
fda5
0247
045f
00c6
fd4d
fdbc
fecf
ffe6
fdb4
ff76
046b
fee5
ff69
019a
fe9e
fd6d
fecf
fdeb
042c
ffe1
0333
fcbc
03d5
ffa5
fe05
ffb5
0267
0085
ffbc
feaa
0191
fc22
00a3
01b4
014e
0446
0184
ff75
0168
fdcc
fde8
0230
0437
0037
fc60
fe18
0158
ffc1
ff80
fc90
02e1
ff86
0364
015c
003b
0170
0283
00d3
020e
fd3a
ff9e
ff29
0038
ff59
00ce
ffee
fcc2
ffe4
01cd
fe11
012c
002e
ffeb
fde5
0242
0314
ff39
009c
ff83
017f
fef2
ff8b
fe4e
fe0c
03f8
fffe
feb6
fdf8
fe64
fdd3
0519
0245
fcd6
fea4
02da
ff08
0119
fcfc
0179
01bf
024f
fec1
fec9
fd8f
0364
00c2
0250
012a
00b4
004f
02c9
016b
0279
ffed
00fe
feee
ff80
fc77
ffa4
ff78
0206
0194
fe69
070c
fce3
fdf1
fec2
fd2d
fd5f
fdfa
fc36
0014
ff16
ff4c
fd50
007a
febe
007a
0064
01de
fd3a
02b7
fdb8
01a6
fcfd
fe79
03a8
0158
014b
fedb
fee8
027d
01d6
ff03
0242
018c
03b3
ff86
fe09
034c
fe0d
0266
0528
00d1
fd24
fcdf
fd83
fd37
0139
ffa5
0392
01a8
0208
fe4d
fd0a
fd36
0391
0089
0261
00dc
fdde
ffd1
fedb
0269
fc3a
fe14
fcd5
0514
020e
fe52
0066
fe7f
028c
0196
03b5
fc67
fd92
018d
fef2
ff63
0029
fe26
fffd
034c
005c
fcd9
00f9
0034
fd35
02d7
043f
fe77
ff57
0151
01ac
fd01
fdbf
fdab
ff1a
0371
015d
fd15
00e0
037d
fdc5
fe36
018b
fdf2
fccb
fc8d
fec1
fe6c
0411
00c3
fec0
03c1
fc19
fe4e
0090
ff7a
01af
fbd8
0478
fdeb
0090
fd4e
02dd
fda7
ff6a
fd65
ffc8
039a
ff71
ff28
022f
0150
fd4b
fd0a
03d3
faa3
fe27
fd90
0397
0076
00eb
00b9
013d
fd83
ffc4
fd97
0139
fef5
0024
ffc3
ffb6
ff07
fd09
0141
036e
0213
ff3f
fd65
fe5a
0271
fd42
028b
ff76
025f
fc69
fc70
fc58
0127
0379
feaf
fe8a
fd83
01d9
002b
fd6e
fdf8
0189
0074
ff80
0093
feb6
0189
074a
fb67
fec2
02ef
fcf5
ff25
00e7
026d
fc2e
0572
0085
0183
fe10
004d
fee6
00b0
0242
0215
fda6
fe9d
0213
fe4a
00d4
ff1c
fdc6
fe06
fe2b
01be
ff34
0132
fd1d
0281
fd1c
00e3
00d2
fea6
01a9
01f9
fd41
00ba
fe0b
01ea
fc40
01ff
fe4c
01c7
0046
0203
0666
00b1
ff63
fc60
fd6c
fed0
01a2
fef4
010c
fc91
ff42
fee1
fe4b
0223
fbbb
0314
03d1
00af
fd84
00b2
ff2d
0267
034c
0513
0398
ffea
03eb
ff1d
fcdf
0183
fe91
039d
0500
038f
fe53
fd72
01ec
0335
fd09
fc74
01ec
ff0a
0061
fcbc
04ad
ffc0
0031
fe9b
0429
fcc2
02ad
0254
ffa6
ff09
00e3
013b
0368
00ad
00ef
fefa
00a7
fdde
00fc
00da
03ab
fe1e
fdf0
fe78
0281
0075
ffc2
fd1d
ffa8
038d
fdca
ffba
03da
ffc6
ff9f
01a2
fcb0
fe38
0035
042b
fe73
ff1d
0154
0131
010d
fcf2
ff35
fdce
ff61
fc60
fde7
ff82
03c7
00c8
0440
ff1e
00dc
030a
0031
00e3
fe16
008c
0270
01c7
feca
fe3f
fde0
0145
03b5
fec2
fcd1
fe86
078f
0332
fddb
01d0
ff78
02f6
01b4
ffb2
fdba
fd82
ffdd
fe35
0353
fea1
00dd
0195
012a
0228
0065
0315
0250
ffb6
0162
febe
0171
fdc6
0142
0176
0527
022c
fe0e
0246
fd0c
fcac
0285
0058
fd56
fd73
fee2
02e1
00d6
ffc1
fee7
ffb9
fd10
0135
ff49
ffab
013f
005f
fecf
0053
fe67
fe56
fe29
01e2
0221
0474
fdbf
0268
fe61
fa74
fe98
ff1f
fed6
0019
ffb0
ff7e
0008
fe43
01c0
023d
fd11
0204
fedf
fe35
ff84
ffb7
fdc6
ffba
fe9f
ff34
01ef
0136
ffb9
ff55
01c1
fefd
ff7e
02f2
fca7
fe2c
04f0
fc3d
feed
0058
fce3
fd99
00ee
fce0
0056
feb4
ff3a
02fa
fddc
0274
ff4b
00db
03bd
fefa
fe2e
0350
031d
feeb
fd0b
fe64
01c0
029c
fc81
03b3
fc92
fcf7
01ad
029e
0078
019a
ff2d
ffc0
ffb9
03ea
ff59
02ae
0199
fd63
0487
0172
fdb0
01e2
fcc1
01bd
0013
0322
ff0b
fdf7
fe4e
ffe3
02b6
01c3
0226
ffe7
ffd3
fe07
fcca
0047
033e
ff57
02b1
ff60
008a
fdcc
fe45
fea2
fd3f
ff76
fe7c
ff3e
0090
0059
0122
fffd
fd72
039f
ffaf
000d
fdf4
fffa
fcf5
fc65
ffd4
fbcf
fed1
ff89
03d7
fe82
0165
044f
01d1
fc02
ffc8
fcd8
0097
03e4
fe85
0075
03f9
0346
0653
02db
fe27
ff3c
fbe1
0264
058d
fbbf
0447
fd6d
05e4
00aa
ff96
fef8
fe2a
0249
ffb9
ff2f
015b
0176
02dd
01ad
018f
022e
0055
028c
034c
0104
fea7
0193
01db
010f
ff41
0293
0137
fea3
ff03
ff19
06fd
ff95
0257
028c
ff96
fde9
fe2c
fed5
014a
0035
fce7
04b4
fd8c
fe84
fe19
0285
fe3b
ff92
0577
01c1
02cd
0153
ffe4
008e
ffa4
fd54
ff19
fd3c
00a6
fe13
fe3f
fd14
fee3
fe41
0236
0105
023d
ffa5
fd47
00bd
02c3
ff16
024c
00ec
02f8
015e
0047
0096
fee4
02ab
025a
fc2c
0254
fc7d
071e
019e
0138
0253
fd83
fdad
fde8
01da
0112
fe9d
fe70
fca9
fe2f
fd9a
fde3
01f0
fe99
ff63
0336
010c
fdfe
ff40
00d2
ff60
feed
fe36
fe5f
fe6f
00ef
fd50
fc66
0689
0058
fcc9
00f3
fe93
02da
028c
ff73
01d8
019d
0345
fe6a
fd83
016e
01c0
feac
0226
0226
fc17
00c9
0027
ff23
ff20
01e7
001a
0232
fe20
ff2a
febe
fd25
034a
01d1
0270
02af
022d
0144
fbe5
0103
0315
00c7
0105
0358
0077
004f
0156
fc5b
ff3b
0055
01a0
0197
fe64
fef6
fd78
05ef
00ed
fe89
fe1d
00dd
feef
fd00
00fe
fe03
fc52
013d
027a
00bd
fea9
0152
ff0e
001e
fdaa
0291
00fa
fe8e
045c
fd96
01f8
0186
0299
00bf
ff86
0043
0350
020c
0034
0187
0088
00b5
021d
fd53
0150
0244
01a1
0232
0189
00ec
fef9
0290
ff12
ffdd
ff7f
0332
fe37
0336
0108
010c
fc24
fd23
012a
fe84
0381
ff6a
fe16
02cb
007e
00a4
0239
fc85
023f
fc97
feab
fff1
fce5
001e
01f0
03a0
02a8
ffb8
ff06
0015
0415
fd53
ffd8
03a1
fe48
ff1c
003a
ffe1
fd2f
fd42
0080
01f7
fd8a
0014
0019
fe4e
01f0
fdf2
0128
fe67
01ef
fef8
fdb4
019c
ff91
fc67
fb76
feec
030b
fcfc
03cb
fb51
0036
fca0
fe21
019c
03fa
fea7
04aa
00dc
02e5
fd21
fe0c
014e
0049
ff19
fe2b
fd2c
fef2
fecd
0070
fd5d
015b
0068
0212
0061
fdca
0089
ffbf
034d
0220
fc50
fd16
02a0
ff21
ff9b
0461
012e
fe0d
ffb5
0087
fd94
fbe6
febd
fc5b
02c7
fff2
001c
00a0
fdec
011a
00d8
ff95
0036
fdd6
fd6c
fcd0
0375
fd36
ff3e
01d9
ffe7
fda6
00e4
0151
02cb
fe8a
ffe8
fdc4
fad2
0067
027b
fd0f
0242
ff8a
fe1c
fe2b
ffa4
ffd9
fe88
01e9
fdca
fe9c
ffa9
fd45
fcbf
ff62
0007
0094
00b1
fee0
fcbe
fe82
0157
00e2
fe52
024b
fe97
fc58
ffe1
febe
015c
fc43
03da
0020
01cb
fe99
fcfa
ffba
ff17
029a
fced
fdee
0094
ffdd
0249
014e
032d
ff72
fe72
0004
fe34
0155
fe6f
fedd
fb86
fd26
0020
0013
01c8
01c6
015b
0002
00c8
02a1
01cf
0104
ffe0
01ae
0200
015d
0479
0261
fe66
0486
01b1
0169
019d
fd78
ff37
fce5
fecb
fe13
ff18
fda0
0081
fca0
014a
fc9a
0115
01b4
02dc
0270
fc81
02b3
0134
01a8
fc50
fdd8
fff4
ff6f
0059
01b6
fe61
ff85
fd9e
fd54
ff41
fa40
048d
0571
06df
01dc
01be
00b3
01b6
fd2f
ffbc
fd84
fea6
0503
fd7d
0436
fcb9
ffd2
018d
fe4e
fe4a
0026
019e
fddc
febe
0262
ffe9
012f
fd89
00c5
fe68
01ef
fda4
fcad
fbd3
0523
fd46
00ef
02f1
fe8a
0116
fde1
05fb
0191
009d
010f
062f
011a
0297
02f4
feb4
fef0
fc38
0066
fd44
ff9b
0062
fd49
fe46
0140
0014
ff92
030d
02cd
ff5e
02dd
fc76
fd80
018f
02b8
fb71
04e9
04e5
0018
01aa
02b8
0190
00e3
02ef
ff88
fef8
fe58
fdf3
fce4
fbb6
0481
fe6b
039e
014d
fec5
fd36
0004
032f
fefe
02be
fffa
ff24
0053
fb97
fe7e
0206
fec1
015d
00bc
fd95
0126
002d
0145
01d3
fbed
026f
019a
030d
fdb9
ff12
ffc4
027a
020e
003d
fce0
00b3
ff9d
0403
013d
ff34
00e0
02ce
0064
fc97
0211
fd03
0199
fd69
fe1b
0170
fe34
0289
ffd1
fce6
01ec
01e5
0154
ff5e
fd4a
fdf2
007d
fca3
04e0
03fa
fd5b
fe59
fd8b
ff47
fc96
00c4
013b
fd03
ff5a
fcb4
01d9
020d
02de
fdf8
fd44
0164
fd30
01ab
02e6
ffab
0071
009d
fce1
01e4
fedf
fd46
0075
fdbb
fe03
01af
0136
ffcb
fdfe
ff80
fd4c
feb1
001d
001c
00d0
000f
003a
019c
0132
0107
0099
fdb8
fff9
ff03
001d
02b4
fd0a
01f3
fdf7
01dd
fdd8
00f9
fd07
fbd7
01fb
02d5
febb
fea0
025f
0472
fff5
fd56
012f
ffd7
fef9
0158
04c2
018b
020e
ff13
fe22
fddc
ffc3
ffef
fd84
04b2
fbfb
0224
ff65
00e3
fd5d
feb9
fdf1
05bf
fcd0
fda6
02d7
01c8
024b
fc04
0111
03a9
ff2b
ffaa
fdc2
02e4
ff52
fe45
fd44
02a9
053b
fc4d
fe26
001b
fde6
fcb1
ff09
ff60
fb90
ff27
00ee
fc47
fef3
02f5
03bb
ff1c
fba7
fcb1
fe05
0404
fe3f
ff2d
019e
fcc8
fe71
ffb3
fee9
045f
ff05
fd74
ff21
0181
01a1
0379
032e
005a
ffcc
0373
000a
01b9
00fd
fe33
fe28
026c
fc2c
03f3
ff76
fcd3
03a0
04e5
017f
ffd6
00ec
fe93
fc9f
fc90
fcbc
04d5
feff
fea4
ffe4
fce3
016a
fe9e
ff3e
fe21
fd3f
01a3
005b
ff12
fdc6
029d
00ba
ffc6
fee6
016d
fe35
000a
fe50
fdcf
fdae
fe4e
fe33
fda2
01d4
ff01
fe9f
fce2
0062
fe68
023c
fe6b
0159
feb6
0099
0172
fe4c
feaa
0217
fcff
00e1
fe21
fc92
0046
fc4d
fe2c
0008
fcf6
fbb4
0477
fe8b
02ee
0209
017c
0075
0259
02c9
fe6e
01aa
01ac
01ba
fd8b
0023
fef2
0098
fd73
02e6
01bc
fd82
01e0
017a
fcb2
0173
03c3
0334
03d5
fdd9
fcf3
005a
fd3f
ff00
fef2
fe2e
002b
02b3
0002
00db
ff3f
03cd
0182
013d
024b
01db
0170
0231
005d
ff75
fcfe
fc9e
fc59
fed4
002b
011d
0296
fd83
fd1e
ff7c
01f4
ff65
007e
fedd
005d
fdf8
0106
fff0
fcec
0262
fe0b
0309
fd84
fd02
0068
0433
05aa
00ba
00b4
fea1
fe23
0500
0058
fc43
fd8e
0357
0336
ff5f
ff81
ff8e
ff55
0164
fe59
022c
fd95
01d8
fda7
fe25
fcf0
0006
fefa
03ef
0185
0247
01ea
fd1a
0258
01da
02b2
01d3
fdb9
0143
00c6
027d
0262
017b
06f7
0201
0307
fe4f
0125
008c
029b
fbef
0043
fb91
fd75
00ab
0007
00de
fd9b
ff82
febc
fefe
00d8
0276
ff02
fefa
019b
fda9
024a
0326
fdf8
ffea
ffe2
02af
046b
014b
02df
fc92
fd7a
fc9e
ffe3
037b
fb66
fd54
015c
00a4
0372
00e7
feca
ffdc
ff5a
fcdd
01fe
fcf4
0207
0186
ffb3
00bb
01e6
04b9
01e6
05bf
fd41
fc38
ff50
fef2
01d6
01f5
f934
034b
fbe7
026c
ff77
027d
fe41
ffb9
067d
fc17
ff3d
006e
fd2d
00ee
fd38
fcaf
0078
fcb0
fe56
fff4
01f2
fb6c
0597
0098
ff15
fe0d
0131
ffab
ffce
ff18
0331
0162
015f
0072
fc56
018a
02c7
fdaf
ffab
0032
0238
fe35
ff97
00fb
fd06
04c1
fdef
fcae
ff4b
015d
fede
fd57
fee3
02f2
ff1c
fe7b
fd09
ff9d
0015
0178
fd64
fcc0
029c
fe59
fe87
fd98
0431
fea8
fdc7
0390
ff08
fd98
fc79
013d
fd55
00aa
fffe
06bd
028c
0094
ffd1
fd62
0212
fd64
fd5a
013a
fe1f
fd8b
02ec
008f
001f
fe7b
fdc1
ff05
fe5a
fd04
03fb
022c
008d
ffe2
ffb3
fe95
01db
fdda
01ea
fd96
fe6e
024d
ffdb
0120
fd61
fd15
03cd
fd8a
00db
00a3
fc9a
fd48
ff0e
fe71
fd34
00fe
fe3e
fdb8
fe60
fee4
032c
ff76
00e1
012a
02dc
fee4
fe53
01d0
020f
0107
fcd1
fe10
014a
fdf9
fd96
fd0d
0319
fcea
fce4
fd97
0261
ff4b
00e3
ffc0
fcee
fed3
ffc2
ff28
ff92
0301
0207
fe78
ff2d
fd62
feef
fd1d
fc72
fd75
fda0
ffdf
fc89
0141
ffe2
fe60
fff9
fd87
fe9f
00a5
fc5b
fed1
fe26
0034
00bd
00d0
0033
0230
ff07
fe13
fd02
0474
0284
ffee
fd11
fd8b
ff85
006c
fd44
ff1d
00c1
002f
02b0
ffb6
fdab
00ba
0103
ff7e
0047
009a
fd49
fdea
fdd0
fe88
046c
00bf
fcf7
fdb0
0035
fff8
fd8a
fdd2
0480
fea0
01cd
0166
fff1
fe1f
fd5d
01c5
0063
053a
00c2
0362
ff5d
0178
0147
fe19
027d
01b0
0180
fd58
fe02
03fa
0428
fc2d
006d
fe74
fe6a
0154
fd51
0288
fda3
029f
0372
0277
0075
ff82
00f8
ffa3
fd9c
0343
0430
0151
fd65
0069
fd8b
02f4
fd4c
fd09
0308
fca1
0254
fe5d
fc9e
0139
fd48
fe9a
fc1f
fde4
0305
fe01
0334
fd6a
0259
ffcb
ff90
ff53
fe33
0115
fdf9
fcf1
0069
fe70
fd6d
fee1
fdb8
fdb9
fce9
00aa
ff00
fee5
fea6
0157
ffac
ff24
ff1a
fd0a
fd86
0144
0113
039b
ffe4
00a2
fdee
fc77
02cc
ff9f
00fc
02d7
0589
0008
fdf9
007e
004b
ff85
005b
ff8c
001e
01e6
0300
02de
0308
00ca
fd73
fca5
ff9e
00ab
0021
0271
01da
fc9d
00d6
ff6e
0064
016b
0046
0546
fd0a
0378
fc72
0735
0497
ff04
0044
fddb
057a
03d1
0426
fe4a
ff99
ff23
fe3a
fe60
fd99
fd7f
fd97
0432
fdec
fd16
005e
02a5
ff55
0297
fffc
00f1
fdf7
fec9
0209
00e3
0107
fead
fe3d
01e5
003b
fde4
ffb9
036f
fdfa
013b
ff5c
00b3
fd96
fe02
012c
fb59
ff34
00fa
024d
02c7
056c
0101
fe39
fd08
03c0
0433
0126
fca7
fd45
fd0a
fe5b
fc27
0078
fc48
012a
0117
fd8f
feab
fd7c
019b
fe49
015a
fd66
fcd6
fdcd
0354
ffb4
ffed
026d
fdb4
fd67
ffe7
fe13
012a
fd80
01ad
00a8
fd0a
ff08
01ab
fc33
037b
fd7c
01b3
fcdd
feba
ff24
ff01
02e6
0047
0149
01a6
fccb
053d
034e
fc05
004e
feaf
fd4b
fd1a
fc57
ff7a
01a0
0155
fc3c
026d
001c
019c
ff39
ffeb
0005
02a3
00c2
fec5
fe11
fcfc
fd25
02d8
fe1c
02b3
ff66
ff5c
ffd4
0135
0137
017a
fe88
ff90
0110
0128
016a
ffeb
ff3c
ffff
feb2
0145
fe23
fd2a
ff5d
0111
fe91
ff3e
061b
fff7
fdf7
00ef
fedb
fdad
0290
0023
fd62
fcaf
059a
ff91
fd96
ff23
fe2d
0172
fe75
fd7f
009c
00d6
fffe
023b
fe3f
fc39
05f7
0300
0388
019c
fdb4
ffa1
0021
fdb2
0107
fe23
fe20
ffa8
fec1
ff9b
fd1d
fdf1
049a
ffdb
0131
ffa7
ffbe
fea8
00c8
006c
0280
0122
fe68
fd1d
ffd2
ff0c
fe1a
fc7d
faf5
feb2
06d6
00fe
010e
ff98
002c
01ec
ff31
fdc0
0172
023a
0281
0668
ff38
fcf5
04d7
fcd0
fcaa
fcda
008a
ff94
0139
008b
fd16
fe65
fe46
0074
fdd6
fed8
002d
029b
016a
0107
ff8c
01ce
001d
06a6
fec4
061f
ff6e
fbca
0588
febc
fe00
ffd9
007e
ff41
fdb9
ff93
0108
00f0
ff42
026a
0482
fcf1
fd5a
fde8
018a
031a
fef1
0337
00ae
00df
0202
006d
fc27
0263
fcdc
0428
fe28
017b
ff5d
fb36
fd92
04fb
fb0f
02c8
0698
0022
fe46
fbf7
04d1
fbea
fcc5
029b
febb
00d4
fde0
00ff
0306
010e
ff34
02fe
fcb4
feb6
fe83
fde1
0205
fc74
fe95
0073
ffec
0090
0312
040e
02b8
fdfb
fd10
fef3
0233
ff91
fe44
01c6
fd2e
01bf
fd8e
ff00
fd6a
011a
fc22
0570
012a
0101
ff67
ffd5
fe39
fc8c
019d
0154
04e4
01fd
fd8e
fd67
0061
021a
0129
0506
019b
00d5
007a
fddd
001c
001a
0360
0215
01f8
fd47
004c
0416
033d
0355
0143
00cc
060f
0176
0190
fca4
fdd0
ffc3
0174
025d
0362
ff80
01f6
0099
ff1c
fe2e
feac
028c
fc81
fffc
fce9
ffa6
fcea
00ce
fe6a
0057
0022
0138
0087
01cc
ffd5
fd7c
fe7a
ff6d
019c
ffff
fedd
ff72
ffc7
01bf
fd8a
febf
fdcd
ff4a
ff07
01f4
0121
fd7a
fbf8
0396
ffdc
fd69
01d2
fd0f
0032
023e
00e5
012b
ff8d
fdb4
0358
fe48
0309
0315
feba
fcd5
fd02
fe7d
03b1
fde1
0158
fea0
035d
fd9c
0189
fe04
feac
00df
0003
fcba
0155
055d
fe6d
01e7
ff78
0060
0012
fe8b
02a5
01f4
005b
ff31
ff2d
feaa
ffa4
fd64
01c5
00ba
0006
0195
fcac
fdf8
fe83
00fe
03e9
fdde
fc4f
fff7
ff91
0163
fd5a
ffd4
febe
027a
0146
ff9f
fdd7
01d8
ff7f
fc65
fbb1
0088
fcb0
fe34
feba
0081
06b0
022e
03dd
ff66
ffcc
fe25
0141
00d8
ffe2
fe61
00d5
03b1
0030
0290
ff91
0346
fd56
fe7e
fcf6
fa63
04cf
fcee
004c
feab
00ab
0244
063f
022d
ff9e
fdcb
fce2
fe94
fffc
fd40
013c
0437
002d
0205
0002
0326
0106
ff66
0009
fe3c
fdf5
024e
049b
fcd5
fe8c
024f
00b7
0228
fd7e
ffd4
fcfb
fddb
0236
0312
0168
fd30
00d1
014f
fd0f
0228
037f
0138
fecc
ff71
0161
fcba
fe6f
031e
03f8
fdc4
0527
005e
02c4
fe99
fd7c
0018
00ba
ff59
fe58
01f7
01f1
0072
fe46
ff42
fdde
fddd
0191
fcdb
ffe7
00ac
012d
00f0
fead
ff7d
fd02
0087
03d2
fef5
fe11
0535
01de
fcc9
0243
fe72
0030
01b2
015e
0165
fecb
0381
fe70
fbec
fe3a
fc9c
fdad
