ff0c
00f0
ff31
00fb
fe52
fd82
fff3
faeb
0033
0086
ffe6
003d
01f1
01d1
fda6
017b
ff42
0184
0295
ffc5
0147
002d
fe44
f968
00d0
00db
fdd8
ffe9
fec7
fe34
ffb9
0156
06f5
0012
ffb3
011a
030a
fd87
f797
00f6
fdde
fd67
fb8d
014d
fddd
fcff
0149
ffa4
0049
ff62
01e2
0223
0179
fff3
ffc2
002c
007e
ffb1
0173
01b7
fe6d
0636
0099
ffed
009d
ff6e
feac
009f
ffee
ff59
fddc
000a
00ae
fe2e
ff14
002c
0070
fd6c
ff51
ff41
f80c
0124
fdd1
fc84
fed1
027e
0548
0168
fec4
0103
01eb
ffd7
01a0
fcf1
0093
fe71
00e2
0058
0251
0523
feec
027f
0084
ff35
ff76
01b5
fedf
ffb5
ff9e
0113
002d
013e
00c9
fff1
01c0
ff88
ff93
fca9
fd7d
0050
ff23
f523
0196
fe5c
0129
fe6e
00b0
ff5a
009a
0183
fbd0
00e8
fd71
00d1
0057
00e3
01e9
fb82
ffa8
0174
02b2
042d
fedc
04bf
fd0e
fe24
ffa9
ffa9
00ba
fedd
ff7a
fc1c
ffcb
fe6d
fdfc
0030
ff04
fee4
fef7
fed9
00aa
ff16
ff0c
ff15
006e
ff11
fec4
fd83
ff30
ffb5
ffc0
ff29
0245
fea5
fdf0
fb34
ffd4
0462
fe1c
00d6
feb5
01ed
026d
fee5
ff78
0103
ffda
01f0
ff01
00f1
0197
0186
ff98
0030
ffb3
fead
ff22
00a7
ff49
ff22
0048
00df
ff1a
ff73
0201
0032
ffc4
ffbf
0125
fd0e
fe13
02a1
fe7f
05b6
0029
0037
00c9
00d3
ff2d
fe77
ffd4
0249
01df
ff3b
ff82
ff80
017a
fdef
002f
00c3
ffa6
005c
0000
01f9
fde8
fdff
000a
fd3d
ff4f
01b6
00e9
005a
0238
ff37
002b
013c
fefd
ffdc
ffd4
0051
0158
fea5
0074
ffbb
ff6a
ff6a
ff50
fbf4
fc9f
ffe8
fcf3
0055
fe88
00d7
faab
ff78
01a3
ffc4
ff60
0151
043f
0168
ff14
00e1
fbd6
fe8c
006d
006e
0131
ff62
ff4c
fed7
feb4
0015
fc37
011c
fff0
012d
00aa
fe12
fca5
009e
fe12
fe01
ffea
ffa5
ff35
ff26
0082
fd46
fd84
fb2a
ff91
fea6
0480
ff62
fe10
fe5a
ffbd
00be
f97c
027f
fe55
fd39
fc69
ff8e
00ef
fe76
fd78
fbf6
ffe1
00e5
0094
0007
fffb
00fa
fee6
f920
fff0
ffba
fed2
fef3
01da
fc29
00e0
00cd
ff57
00aa
ff96
ffb7
ff29
fe6e
ffef
feae
fe22
ffb5
00a2
0241
fd54
fe15
0198
0254
023f
0408
ffe7
ff9e
00c0
0090
ffe9
fa78
007d
0082
0083
0089
fe44
0166
000b
0016
ff2f
fdfe
fd42
0009
fd9a
022d
fd38
fdf6
00d3
048f
ff80
fed1
ffdb
0188
0118
0119
ff49
ffd2
0074
ff03
027d
01e6
011b
0023
021a
ff8e
fd36
ff64
02c0
fe16
fdfe
00ea
fd85
fe7b
fef6
ff0f
0044
fcba
ff01
0143
ffbe
00d6
fdfc
ff1b
0002
ff8c
015d
fff5
ffda
008e
006d
fee3
017a
fecb
ff7a
fec2
0118
01d8
0056
fea8
ffd5
ffac
fce8
fd43
017c
016b
fe2f
0065
0394
fe86
ff77
fe2d
0048
feaf
ff63
fe22
ff15
0003
fe65
03c3
00fc
ffd5
01cd
fa9a
0066
031a
0042
0002
fe9b
014a
feca
ff13
0142
fee0
0083
ff5b
00a5
fd99
00a9
00da
ffd3
ffe2
0121
ff2a
ffa3
02c5
00df
0071
ff18
ff26
01de
ff69
fe84
fa91
fe6e
0082
ff61
03d4
0139
fecb
00b4
ff43
0129
fe11
ff89
fe4a
0268
0184
ff4b
fd06
fe61
0123
ffb0
0083
fda4
fc6c
0069
005c
0060
fdc5
ff00
0083
005e
01bd
fe0b
0298
fe30
ff7b
ffac
f801
fdf3
fa93
0253
021c
02e0
ff54
ffe5
021e
ffb6
01c4
fd75
03b8
0115
ffdb
ff44
0061
0364
f952
0095
ffe0
019c
05ac
0129
0092
ff96
00b0
00fa
fdff
00e1
019f
ffb7
0104
fe08
0187
0179
fcd4
fd15
02bc
015c
ff7d
00f0
0074
fee2
ffbc
0303
0236
0120
0205
fec4
ff4e
fdb3
fda3
fe0a
ffdd
fff0
ff55
fec6
ffef
ffbf
fdae
0345
035c
ff26
00ee
ffbd
001e
ffbf
ffeb
fe51
fbee
fc9a
f986
00c7
fe3f
0112
fff6
0215
04c6
0067
ffb1
fce7
01eb
ff9b
fe90
003a
fc91
0095
ffce
fe13
ff7f
ffc8
fe94
0012
04ee
fd60
040c
fff9
ff9c
ffe0
0383
fdd1
ff28
005a
0351
011b
0148
010b
ff5d
0185
0020
ff8a
fdc8
fdc4
ff2c
00b6
ee1e
0346
ffae
fd10
fea8
fe7c
fe4b
ffab
0478
fc34
00cb
fee5
01f0
00ea
023d
02bb
f861
0390
0220
fe02
0462
ffa2
0227
fd29
fbfa
008c
005e
ffdd
0155
fe9b
fcd9
fff4
ffa6
fe2c
ff41
004a
00cd
ffd8
fe06
fee4
fe4d
fc64
ffa3
0301
fe3c
fe65
fe7b
fe66
fe78
fd1e
fc6b
fdc2
ff0e
fea2
fd60
00ce
0093
fd4c
fecc
0124
042a
0138
fece
0071
013f
fe72
044d
0141
03c0
0116
ffbe
00cf
03cf
fa8b
fd99
03a2
fe62
0196
008b
ffee
035d
ffdf
001b
fb6b
0321
0272
00a0
003b
ff38
fe6f
02bc
019c
025d
009f
ffa7
ffd2
006f
0177
fd72
fd1c
ffba
febd
00a3
00b0
0185
fe73
fe1a
008b
ffdf
ffff
00d6
0165
0043
01ce
000b
fdb6
ff74
0000
0175
ffab
0173
0222
00a3
00a5
0368
00b0
0054
ffcd
0247
ffdb
fc97
fe14
fece
ff10
ffd7
00a4
f9b1
fa96
fe0a
04b8
fd69
fe52
0019
ff13
01bd
00a1
fead
ff31
004d
ff8b
0268
009c
021d
fd89
fd17
016f
0015
018f
fecd
008b
fe65
fc32
000b
0146
fe9d
002d
006b
0021
fd97
fdf6
00d3
01ca
fdc6
0129
ff33
ff83
fabe
fcc9
fea2
0216
fdf0
fef4
fe35
0064
006a
0095
ffd4
fe9f
ff9a
ffd9
018b
ff93
fcc7
fdf9
0088
fe77
0161
fdb1
fd9b
0245
02a5
0176
fffc
0096
fdfd
fe96
f732
fef3
fa7e
fd45
fc01
fcb6
fed5
feba
00e4
ff46
ffd4
ff69
0187
ffff
0041
00d7
0072
fee8
0054
02a6
00e5
ff6c
ffee
01a1
016d
fe5f
0250
fcab
fe8e
021a
fd54
fc5b
fcea
ff5e
00c7
fd4e
0148
00c1
fe45
0147
fe7a
ff34
fc99
fadd
fee3
0265
fcfe
fe11
fd20
ffd4
012c
025d
00d7
fe77
ffe1
fcf6
012e
01bb
01ff
ff19
fd88
fffc
ffe7
00bf
009b
007b
0050
fbbe
fa86
ff6d
fea5
00da
0158
ff0d
fe42
ff24
0060
02c7
080a
fefc
008d
0076
ffe3
fd0c
feb0
ff48
fde9
01f9
009e
ffc5
0050
014b
fe19
0144
ff50
fea4
ffa3
00a5
ffc7
fdec
fd7d
ff9a
fd07
fce5
fb81
ff29
feef
fce7
ff65
03f6
fed7
fe9b
fe54
006d
fe1d
feb1
fed8
0319
ffb1
0008
01ec
0080
00de
0297
fa59
fec7
02a5
ff3f
00a4
0018
0091
fdce
fcde
ff73
fcce
ff10
ff00
fda7
f987
fe88
0054
ffa4
012e
ff04
fc94
fe20
fffb
fe89
fe13
fdca
fbc3
fe98
fd26
017c
fa6e
fdc9
02af
03cf
0471
ffb1
ff84
fed5
fb3f
ff82
ff23
015a
ff09
ffe7
0030
fbdd
fd1d
0120
ffce
ff7f
0054
fee0
fc72
fe4b
00ea
011f
fd57
fee8
0146
fec1
0149
00c7
03b2
03e0
008e
0077
ffb8
0072
fc8a
003a
00fc
01cb
fff1
ff65
fff5
fe48
0392
fcd9
01cf
0123
0021
fe88
01dc
0049
fb12
ffc1
ffcc
fcc2
fef0
03a6
fe0a
ffac
0119
f850
ffff
fe61
fcc0
013f
023f
06ce
0392
ff9f
fb77
ff5b
0112
024c
01c3
feb8
00c1
00fb
0184
0166
00ba
ffdd
ff26
ff2a
ff4e
fe59
010a
001e
fdec
037a
fc17
ffb4
ff96
fe97
fe3d
018a
0215
ff04
011a
001e
013f
0127
fe1a
ff82
007d
fc4b
ff00
01f2
fc93
0671
fde6
ff36
01ed
008a
fd7d
f722
00a3
00cd
01c0
0326
fdaa
ff60
026b
ff4b
007b
0085
00a7
0140
03de
00cb
03da
ffbe
feac
fffc
015b
ff7d
fffe
00d6
011a
ffd7
011f
0093
009b
01ea
0045
ff64
00aa
019d
00e7
0070
f852
ff01
fd30
fb8b
fc83
0001
fff3
0076
009c
fe26
00f4
0171
ff02
003a
0235
fdea
fc19
fe58
ff9d
001e
ff3f
01ad
02ca
feae
ff61
01c0
00f2
feb7
00c5
0128
fec6
ff1e
00c8
fc9b
fed3
00af
ff01
0000
fecd
fde2
0245
ff6d
0008
fffe
00c7
03de
ff42
ffe9
fed6
ffe1
ff9e
f9e5
fefa
fe74
ff36
ff49
040f
00cd
00d9
016f
01d9
028d
ffd4
010c
00d0
fecf
ffe5
014d
ffd7
0003
012a
ff80
ff12
0443
fe89
0650
01fe
ff33
011d
ff96
004a
fea3
0003
fb46
004d
ff22
0027
fe9d
fd68
fd42
fd80
0532
fea4
00b2
ff35
0020
0094
ffca
03d2
008c
007c
0023
ffd1
001d
ffac
0262
fe12
fe52
0116
ffde
00d3
0136
0275
fd0d
fdde
009e
0029
ff61
ffd2
ff9a
fdf2
02c7
0213
0016
0017
ffc6
0088
0085
00d2
020d
01fb
fbde
001d
ffb7
0021
ffc9
fc61
0035
fe7c
03d5
03dc
000d
ffaf
0660
fffb
fe6c
fe35
01de
01a6
f8f7
030c
0046
fffb
fdff
ffda
ff2e
0039
ffd1
0017
00a6
fe24
0091
fc62
0365
fe43
0195
ff9f
00ea
000c
fe74
010e
ff14
fe0d
fffe
ff4c
0271
fff6
027e
ff4e
0176
0277
004b
ffe9
fbc6
ffb6
ffd8
01a1
fef3
0092
013a
0159
019a
ff8a
fea9
020e
ffdf
ff4b
0046
fec6
0099
01ea
005c
0022
ff37
01e7
ffba
f80c
01e5
fe79
fed0
fe8c
f914
fca3
0088
fe14
ffc0
00c1
00f2
0202
ff52
00fb
0088
0012
ff3d
ff33
ff32
01b5
ffde
ff5d
ff03
0160
fe70
014c
0000
017e
ffca
fe65
fdb2
fdbe
fd3b
ff54
00c5
0128
0258
fe6d
fdf3
fe73
fe9f
fc92
01d1
00c9
04eb
023a
fd8a
fec0
ff93
00c8
fe50
01b9
ffcd
fdd6
fda7
ff17
ff5a
0071
fe0c
007c
fd54
ff1c
ffc3
ff94
ff69
fffb
fd66
fe91
fc3f
fd0f
fd65
00fc
0088
feb9
fec1
00aa
042d
021e
0147
ffa6
0026
ff90
fef0
01a0
fee8
ff28
ff6b
0055
0026
0129
0026
ff56
011e
fd89
fef9
ffcd
004f
01dc
0158
0000
ff7c
fded
02f0
fcb8
ff67
0435
fe99
fe87
00a8
fe97
008e
ff2f
0083
ff66
febf
ff28
02c2
ff1e
fe91
0480
00fc
fee6
ffca
ff19
febd
fff0
0067
0149
009e
ffe7
ffe9
ffab
fdd8
ff94
ffe7
fdba
fd7c
f9a0
fdf8
011b
ff6c
fc6e
ff5c
fdbd
fe2c
00ff
ffb8
fca7
fea5
feaf
fe62
fcfc
005f
fc9d
0009
ff64
052c
0273
fe04
0106
ff73
fd23
00ca
fff6
02ba
01f9
00e1
0008
fe04
fe51
ff91
0135
0092
0045
fc6d
fc87
00d7
000b
012f
0020
ffa8
ff69
00bd
010e
fce4
03c1
fcb6
ffe9
fe4c
010d
fe10
fc1e
ff42
0143
0063
015a
fff4
ffd7
fdb9
01a6
ff91
029b
02a7
0016
0013
01aa
005a
f8fc
0005
fef5
041c
02e9
fd53
0175
00a1
01ce
08c6
0055
00b6
fba0
01fa
fec9
f809
00ee
fea9
fd4e
fd20
0015
f86c
02e1
00a3
0003
ff09
001f
015f
ff06
009f
01de
ff53
fee2
ffdc
0303
0204
01c7
ff3b
06ff
fee7
01b2
025e
fec4
fe44
fee5
ff79
00e1
faee
0184
016b
026a
ffb6
00a2
0593
00eb
00ba
03cb
f849
029b
ff15
0357
ff12
fd9f
0bd5
00ea
ffa3
024f
ffa5
03f5
00af
0000
014d
ffee
010b
00cd
0632
0479
feb6
028f
0146
012d
0067
01b1
fe58
fe99
fef6
05cd
0145
0053
ff67
010c
01d9
f8bc
fede
0035
fdc9
fff9
feb7
f581
024b
0000
0470
fd2c
018e
ffd0
0244
fec1
fa5b
fd41
fab0
fee5
ffa4
ffe4
0241
f81b
02fb
003a
01ca
fbb2
fc6e
0211
fc10
fdd9
ff0f
0018
ff69
ff81
fe2e
fc47
00d2
fe23
fca5
fdcc
004a
fe26
ffb7
fe60
01f6
fffe
ffeb
fe27
ff57
ff6b
fef8
fda6
fd69
fead
00a9
feaf
0120
fd58
fe40
fb5c
0049
0075
faea
ff11
fc54
fb4c
020c
fe8c
ffbd
fdfb
ff71
0019
fe77
fcff
0030
0277
00e4
0354
fa61
fe9f
fa8d
fd95
fefa
ff90
0070
01a7
01d8
fdc1
06d1
ffef
fdc5
fff9
003e
fca8
fcf8
fe65
fc10
fdbe
febf
006c
ffe6
00d1
0055
fafe
0025
ffd3
004f
feba
fff4
ffcf
ff0d
02c1
fe26
0199
ff8a
0048
00c0
011d
01d3
ff6e
044e
f995
febc
0211
0044
0107
022b
0124
ffb7
0227
ff81
ff7d
0050
fea9
008a
fa4e
0081
fb66
004d
ffd1
feee
fe2e
f8fb
ffd1
f899
0235
ff15
ff39
f778
fe32
002b
016d
001f
ffaa
0a12
0223
ffa1
01cb
f9aa
00b9
fe97
ff4e
008a
ffaa
ff17
fcf6
fda7
fe4a
f917
fd1e
ffc2
004a
0040
fdd9
fb68
0018
fd2c
fdb1
0181
0185
ff83
ff8d
00ad
0090
fbbe
0443
ffc9
fe41
05a6
fe9a
002d
fe15
01bf
fec7
f544
0144
fd66
fe24
fe3f
003e
ffcc
fd26
fcc3
fb72
00bc
026e
0119
0040
ffc5
03cc
009d
f667
ff59
fdbd
ff28
fd76
0396
008b
00ce
00ff
0085
0055
004d
fe5f
018d
fe21
ffab
0088
fe38
fe8f
0108
ffbe
fd79
fc6c
00dd
0114
0086
035e
0196
01c9
fe3b
02c8
ffd6
fc15
ff7f
00e1
fe55
0108
fd93
ff11
00af
fdca
0059
ff15
fd1c
fdff
faa4
0196
0080
fe9a
fff6
0171
0090
feba
ff49
0280
003a
ff1e
0002
ff2e
005a
ffb8
0312
004d
0124
ffbd
ff6a
fea8
ff0c
01e6
0326
fca2
fdfa
0110
fd90
ff1b
fb3a
000f
fa1e
fa1e
fea5
fed2
0037
0086
fd75
ffdc
fdec
0231
00f7
ffbc
ffba
001f
0257
ff60
ff23
00dd
0007
00e6
006a
018c
ff27
fe86
fe75
00d8
f985
fb91
011c
0208
ff25
ff54
0154
fec6
011f
fc41
ff52
00fb
0009
0078
fca6
ff69
fd3e
01bf
ff6c
fe84
ffec
fc6f
ffaf
001a
fdfe
ff91
ff55
fff6
ffa2
01e7
01b9
01cc
008f
0047
ff23
fc05
01b3
026e
fe16
018f
0160
fb9f
004f
016c
0038
fefd
ff3b
022c
0101
fc34
fece
f936
fd51
0206
fa2d
fb92
0201
fcfb
ff98
fdb3
ffe3
ff86
fd54
fed9
012e
01ff
fdc3
fe61
ffc0
0209
005f
0055
fc72
f9fe
fe43
fe35
fd8d
f841
fd66
fe4f
fffb
ffae
fc21
015f
fc60
0069
fe45
ff40
fd1f
fa55
ffbd
018c
024a
046b
ffe5
ffac
ff0a
021c
fd0f
03d1
042b
02f5
ffab
ffe6
0ade
f80c
ff9c
ff8a
0696
08c3
febc
fd73
01d5
00c0
021b
ff1b
024b
02b1
0090
fb8d
0274
0061
003e
fc49
fad1
0133
fcaa
fee7
feb8
ffef
fe67
00b9
00c5
ffb6
00c0
0239
feb9
ff43
fddf
033a
fcf3
0082
fda3
fc9e
fd9e
01ba
0077
fca1
ff9f
0137
ff73
0105
0098
0113
ff01
0504
00a7
fcfb
ffda
0854
0097
0464
015c
0093
02f9
01f8
fee4
fcd2
029c
ffe1
fedd
0148
ff82
01ad
0154
0026
ff35
ffcb
ffcd
00bb
0176
03da
fe3f
011b
0086
0162
008b
02f6
fd33
fdfe
fff1
0ef7
0075
0062
ff5a
ffff
ffe5
fd26
008a
0092
fcca
fdbf
ff29
eec9
0236
02a8
00ff
fecf
0066
fe9c
0095
0213
f911
fd06
fd6d
021d
0188
00b5
00d4
f612
0662
03ef
ff96
fdce
ffad
0023
fb0e
fd34
fe45
01bf
00b4
026c
fd5a
fa4f
ff58
fdeb
fd1a
0017
0067
fee0
ffb1
fe87
ffa4
fed2
fac0
fdf3
02ea
fc9d
fcbf
fcc1
fcda
fdf9
fc86
fca0
01e0
ff81
0090
fc37
01ca
fd8a
f9ba
fbe3
0182
f74b
fe0d
feb9
000b
ff2c
fec0
003c
ff07
ff8f
fee8
01b1
021e
04d6
f610
fe5c
fe92
fc08
022c
013f
ff3f
0281
0149
fe58
fd74
0629
00d1
0012
006c
fce8
f93b
fee7
fefb
fd55
fea3
00a6
fdf2
fe7e
ff9d
feb0
fdc8
ffde
ffdc
febe
0059
00e8
fa6b
0546
ff43
fe1e
fee6
fffa
0047
0031
0711
fff5
fed2
fc16
feb0
01e8
feee
0066
01cc
00bf
007f
02e5
fefa
ff86
002a
ff77
fc60
f60b
ff64
faf1
fe0e
ff61
00ae
fd78
f58d
fe0f
01e9
fb6d
fe62
fe41
0050
fe27
0239
0093
ffaf
fce0
0087
01b6
ff41
0314
f9d8
fed5
0254
fda0
ff42
00c5
ffda
fcf2
f663
fe4f
fee5
f304
ffd0
0030
ff8e
fe95
faad
fe40
00ee
fd45
0083
00c2
fed1
00ef
fc3f
004b
005b
fc5a
fdfa
ff32
002a
ffb9
019c
0317
ff76
fd80
01b1
023c
fef7
fc6c
0027
015e
ff8f
fd28
fdf0
fa57
0619
0270
018d
ff82
010f
026f
ff00
f532
fe40
fa67
fb7b
fa59
ff8b
05cf
fc73
024f
0000
fe8b
fe56
fd88
00bb
006e
ff1c
00cd
ffcf
fde3
0011
fd88
ff0e
fd88
ffa7
0013
fcfd
023e
fc8e
ff6f
0087
0494
fb98
fbab
ff2b
ff7d
fd3b
02e0
000b
ffaf
00fb
fd7c
0181
003f
f9e5
fc24
0012
f486
ff03
fe77
0053
005c
0080
ff1a
0049
02d8
fe7b
fd9c
02d4
ff1f
ff21
fe5a
01bd
ff73
0059
ffa3
fe82
fedc
fd88
ffb2
012d
ff79
029d
0027
ff84
ff62
f925
01f8
00ca
007d
fe99
ff5f
027b
00ac
fd96
ffdf
fff7
00c3
00ea
0101
fff8
fea4
028e
ff3f
ffab
0084
ffc8
008a
ff76
ff88
fb8b
fe6e
fefa
fe4f
fc5e
fac0
ff42
ff8d
f9cc
01cb
0367
074b
fdf2
fb30
ff6f
0091
fec5
01d4
ffb5
f833
023b
ff58
ff99
ff15
00f0
ff2b
00c1
ffe3
ffec
00bd
ff3d
fead
fde0
fddd
018e
01a2
fdf5
ff02
fb8e
f868
fd04
0123
0020
037b
fd92
fb54
0058
0045
ffae
fd1f
0096
ffe7
ff13
f968
01d1
f757
fae8
02cc
00d8
f91c
ff27
fa84
fe2f
fbac
fad6
00e2
0004
fb10
fe8b
00dc
fa10
fcd5
0158
032d
0088
fea0
027e
fa75
fd8c
fe1d
0081
f52d
ff79
fcf3
fda8
ffd6
00ff
010c
01fe
015c
0019
fef7
01a7
fbd0
ff1b
010a
00ac
ff87
ffb3
fec0
ffdf
016c
fdcb
0329
018f
005f
ff13
02af
03e6
f885
ff42
ff51
0001
fee0
0208
0007
ffd4
0142
f825
0096
ffb7
ffee
0024
fee6
09d0
019a
fdee
fba7
fe46
fdef
048e
fed2
fdb6
fef1
0148
00a6
0285
00fb
ffe3
ff27
fff2
0009
fe85
fff5
0207
00a1
0220
016e
ffe1
00c2
fd29
fe87
00cd
0270
ff98
0011
0324
0161
00ae
0163
fe37
020e
faa0
01c9
020a
02ea
084f
ff60
008a
fca4
0101
feba
f6ba
0112
ffba
00d9
020b
fc96
ffa4
02ad
fee0
0207
005a
00ae
02ee
02a5
0065
01aa
01a9
0151
ff5f
0145
ff75
fe84
ff0f
02a8
0016
010e
ffb4
0056
ffc0
02d5
ff7e
00ad
0244
fe53
002b
f65a
0193
ff68
fc88
fdfe
001a
0076
015d
ff52
faf7
feaf
0077
fc0f
0188
012e
fdd2
f858
0092
001c
0051
fd05
01d9
0288
fd43
fe3d
0123
00d6
000b
0176
fec1
fc60
ffc0
0003
fade
ff63
ff8b
fd13
0000
ff5f
fda1
ffde
fcf3
fe15
022d
fe68
00fa
fe06
0067
fe27
005a
ffbe
fc1e
ffd4
fcbb
fdd8
002c
00c0
fdea
0104
0119
fb89
02aa
ff19
0034
fef0
fe19
fc90
0181
fd2e
ff33
018e
0000
022a
fd6e
fe60
04cb
007a
007f
007d
00db
0126
ffcf
ffb3
fa3d
fdd2
fd40
ff80
ff0f
fc2b
fd6f
feaf
020a
0133
011a
ff2d
feef
0048
008b
04cb
009d
ffe1
0086
ff07
0064
002f
ff1f
00a5
0162
003d
ffb2
001c
ff68
0136
00d5
fd75
ff9d
fedc
fe24
019e
ff1a
fe98
0192
fea3
feea
0025
fe1c
0002
ff7b
ffa5
0110
ff87
fc76
ffd7
002b
007f
fff1
fdf8
fd84
0087
05c1
03f7
0148
ff3f
09cf
ff58
fef5
fdf0
0004
ff67
f5d7
0239
fee0
ff2a
fbe1
ffae
0294
fe87
fe03
ff66
0003
fe8b
fca5
fe23
0194
fd26
00f7
ff35
ffc7
ff54
fe01
009b
0224
ff96
00dc
fefa
0095
02c4
018a
0198
01f5
01ec
fe33
0043
f890
ff73
fffd
02fe
014a
ffa1
05f7
022f
006f
fe61
fefa
004c
0057
ff0c
fed2
fbf0
01e6
046d
01cb
00ce
ff86
0276
013b
f714
012d
fc9e
fd77
fec3
fa63
0064
fed9
ffc1
fff2
fe93
ff50
ff28
fe26
fed2
00ff
0005
00d7
fdb1
ffc3
fd62
01b0
fe68
fdec
fffc
fdda
0516
ff02
01b8
ff6f
0445
ffa6
fd7c
fe52
009f
0066
017a
0113
0009
fdd6
ff39
0004
ff1b
0012
0023
03b5
01d6
0057
ff11
ff47
01a5
ffec
01ab
fe65
fe77
feae
fd9f
fff9
fe7f
ff49
fecc
00a7
0030
fdf5
ff57
ff78
fe27
fcd6
ffe2
ff1f
fd16
fe21
00c5
fff8
fe24
ffea
0031
04e0
03bc
00b4
ffa2
ff9b
009a
feeb
00a0
fe66
ffb0
ffdc
ffb4
009f
0003
01b0
ffdd
00cf
ffe9
00ab
001a
fc9c
0063
00bd
fff6
001d
fe7f
0309
fd83
ffc1
01c9
fee1
fe78
02c1
0435
ff43
ff3d
fed9
00d9
0014
ff51
0329
ffe9
fef5
0160
00ed
ffdc
002d
0104
ffc0
fc99
ffd6
0291
0174
005c
00f4
fef6
ff33
0021
ff1a
ffc8
fb84
f9a9
0053
00b8
00a7
fe12
fd1a
fcea
ff0d
0133
001f
fba8
0004
00d4
fe5d
fb97
013a
fc17
fe47
fc96
0553
fe92
fbec
fe84
fe58
fc24
fef9
ff24
00dd
0002
ff3e
00b4
fdc6
fd82
ffa1
0070
fffe
007c
fe4f
fa8d
00a1
ff13
fee9
fdfd
fe01
ff30
00f0
0048
fd7d
ff0d
fbd8
0068
0077
fd56
fd65
fc7b
009b
012b
0020
0254
fff7
009a
fc6b
0284
ff20
ff3b
0132
feb2
ffb2
0105
ff52
fcac
ff77
ff4e
016b
fea8
fd59
0250
004e
00d1
0461
007c
019e
fd38
005b
02d5
f9b8
02a4
009a
0002
00e3
fe0d
fd09
0670
0018
0293
fed8
ffd9
00b0
007e
010e
ff83
fde6
fea5
0012
00a0
007d
fef3
fe85
fc33
ff78
ff55
00cc
fd9c
fe6e
fdb0
ffd0
ff4f
fb79
00b2
015c
fe8d
fe98
0035
0690
ff2a
0068
ff64
f9d6
ff8f
fdae
ff9d
ff4d
fd59
0353
00d6
016e
ffaf
ff7f
02e7
fe50
003b
0249
ff8d
0261
ff7a
02a4
00c9
038d
00ae
ffc9
fece
0132
01e4
ff80
004b
ff55
0295
0084
ffca
ffd6
002f
0059
fc16
ff38
0229
0082
002c
ff86
fbbe
015c
ffd7
03a0
ff4a
0160
ff23
0048
fe0f
fc25
fe91
fd75
fe80
0061
fef2
0200
0064
feae
fe3f
01b9
fe2f
fde7
fff9
fd04
fcd4
01fb
0199
fd9a
0233
ffba
fe4d
004b
ff86
fcee
ff49
fee5
ff4a
ffc9
fee2
01f4
0075
0124
ffa1
fe82
0138
010e
018b
fcd8
fff2
fdff
005c
0027
fdd7
fe3c
ff22
012c
025e
012a
0183
fc11
01d9
0200
ff5f
ffd2
021d
fef5
fdab
ffd0
fe5a
01ca
01cb
0078
ff3b
fe19
ff09
fcf4
fec3
fef8
fee9
fef8
01a6
fea0
0158
034a
012e
ffd5
feaf
00bd
ff96
fe34
fef9
fdac
fc5a
fe63
001b
ffb4
003b
fdd2
ffca
0034
fdb8
ffca
febe
000e
00b3
0152
01bd
0111
fffe
ff79
0054
0087
ff52
fcdb
001e
014d
fead
fffb
ff95
fed6
0036
0398
01c0
ffcc
00d9
0042
00b1
0028
ff9c
0056
ff4a
0078
0023
0085
ff93
ff27
fc74
fda3
0143
f86e
01e0
fea7
fe01
fa0a
ffcb
ffc0
fda4
0024
017b
05aa
013a
0081
0120
fef2
ffc9
fedf
ffcd
0128
01b8
ff32
ffc0
01c9
ff86
fd46
011a
001c
01ea
01b1
00d6
fe10
00d3
fc41
0060
0061
feca
ff4f
fc26
003f
0326
fea2
068f
00a4
005f
04ed
ff6b
ffb1
ffd9
0013
fd28
fad7
ffdd
fd6d
fe4c
fec2
00ae
ff36
00e0
fd73
fd7e
ff45
00d3
009b
00d5
ff02
0005
fefc
f983
ff08
009b
fdd5
013c
03f1
fdcd
00c9
fdb3
ffd4
00b4
0106
00fd
00ae
0114
00ad
0267
fedc
ffaa
0173
fd5f
0000
fea2
ff15
fec3
0140
02cf
ff61
0278
fd46
ffd0
00b7
fe37
ff36
ffe9
fda8
00f4
ff0e
ff48
002b
fdfd
00ac
0157
ff8f
0104
fb0e
0265
0156
ff67
013a
02ca
ff5b
fe4a
feb5
fdfe
ffc4
feba
fe89
011f
00d6
021b
035d
fe02
0141
ffd5
feae
ff2c
fd87
01de
0204
fd20
ffbb
0285
ffbb
003e
ff98
00b4
fc99
0021
ff66
ffc6
ffd9
0227
ff5d
0160
fee9
01b0
0124
ffc9
0026
009f
ff57
0157
0002
ff4b
ff27
0067
ff70
fd81
fe92
0040
fea9
fd59
fbe0
fd63
0150
00c4
ff28
026c
0086
fcae
0165
fe13
ff4d
003a
fe25
fee0
fd10
011e
fe99
0283
ff6f
ffaf
ff1d
fd88
ff4e
003a
ff2b
ffae
0037
ff22
ffa0
00c0
007b
00f7
ff74
ff64
fdc1
fca2
0086
006b
fdab
ff7d
fe9c
fbac
fef8
ffa9
fed6
fe74
fdc4
fe1e
0069
fc3b
00e6
ff4e
01e4
00be
fa3c
01d4
00ad
00d1
ffe7
ff27
fe6c
ffc0
fd2d
fe2a
0026
019e
fce2
fe93
feb6
00b7
0070
ff3a
fd9a
fc4c
fd3b
ff40
fc4a
fa30
fe56
fe81
0074
0017
fed3
fd4e
fc94
00b5
ff4b
016f
feb0
fcdd
0100
0152
021e
0470
fef7
01a5
ff04
02dd
fdf0
0052
00c9
fe86
ffa8
febf
03b8
fa14
fe1b
0015
02f6
01af
fecc
01aa
00ae
010a
fe4b
ff44
02ab
ff36
00ae
ffab
fe1f
0166
00a2
0095
ff4a
feb7
fc51
066b
fe9d
00f8
0039
01c2
0369
0204
01c4
01d5
0001
fe93
ff53
fefd
fd7e
00ce
feb7
fbd8
fe06
ffa7
ff44
fc6f
0012
fdf6
ffb3
0124
fd5c
fff5
ffd2
ffb9
fff6
fd82
02d8
fdec
0052
005e
fd9a
feaa
ff32
fbfd
fe3e
00df
ff1d
0207
feb7
ff89
fe4a
0302
0103
fc74
ff7c
ff61
0078
fdd0
0074
ff68
0201
021a
ff13
0001
ffbe
02a9
fef1
ff05
fdcc
06a8
017c
01ae
ffc1
fefd
ffb7
fce0
ffd5
fdb8
fe34
fece
fe44
f473
0210
00d9
02d0
ff93
002d
fda5
ff68
003d
fc26
00b7
fd2c
0083
022e
ff1b
011b
feaf
025c
015c
0009
fc78
fff4
fef6
fa87
fc35
fd73
ffb9
ff1d
fd97
fdf5
fd48
0002
ff08
fc41
0137
ffb6
ffde
ff48
fff6
ffec
fe7e
fe22
fe6d
034f
ff77
ff15
0026
fcfc
fd7e
fb20
ffaa
0195
fca4
ff45
fd8f
025e
00fb
ff62
006e
ff7e
0113
0155
007b
0031
01be
0061
fbfe
ff68
01d0
0161
023f
00d4
015d
fa72
fe07
fec3
fe90
030b
00c3
fe5e
026f
fdd5
0091
0047
00ac
0167
ff6e
014c
00d0
0000
ff4a
fe40
057c
0059
039d
ff59
ff91
fdd6
00d9
ff8c
0074
00ae
0147
fefb
02dd
fecb
052e
ffae
01f4
00fb
019a
ffbc
ff92
fedd
0034
000f
fd2c
00ed
00d7
fe93
01ee
0304
02c8
0053
00ed
ff54
0074
ff97
0081
fe92
fe31
fff2
fd3a
ffe0
011e
00e7
fb15
fbf0
fec9
fe62
fd0d
ff18
fdb0
fecc
ff6a
0180
0174
fff4
fdd1
ff34
01bf
0186
004c
fc9d
ff70
fe46
fecb
009b
004c
002d
fd1f
fb6d
ff87
fdd0
ffe0
0039
0026
00e9
0047
fc37
ff35
fda6
001e
015d
ffa4
fde5
fc92
fd23
00ee
fdce
fe1c
fdc3
ffa4
ff98
00ff
0181
0215
feab
00e1
0097
0121
fe3b
fc63
fe1b
0166
0049
fd67
ff75
fcca
026c
0138
01c7
00e9
007d
ff8b
fe98
f843
ff29
fc17
fd03
01f6
016c
0250
fd6d
fe23
00ea
0032
ff5e
fd24
ffa3
007a
ffdc
00cd
01b4
0118
ff28
fbca
ff75
fef6
fecf
0041
fd5e
fffb
fa74
ffa1
00cd
fdfd
fc1d
fc19
ff62
002a
fc74
00b3
fcb7
00d0
004d
fccd
015d
00f2
fd28
0075
fe3e
f911
0013
fe00
000c
0086
00f4
febc
fee2
faeb
fec4
fd65
ffc0
014d
00a4
00b7
0041
fe68
0053
fff7
fe62
00ed
fe6a
fff7
0225
fdb8
02e1
0138
00db
ff0c
fd78
00a6
fe3c
f784
007e
fec5
002f
014f
fe36
0179
fddb
ff2f
0148
002f
ff6b
0018
00a5
0114
feff
038c
ffc6
006f
fcfd
fcb3
fc03
ff9b
ffa3
fd24
fd8a
fca5
ffcc
ffd8
fcde
01a4
fe85
018f
ff28
febd
fe22
ffbb
ff46
fe30
feae
ffda
0206
01d0
0020
00f6
0016
0203
004c
037a
0101
001c
0031
ff77
ff1e
00ef
018d
ff21
0105
0002
fbc8
f9e3
fdab
00df
ff58
ff41
fb77
fca0
fff7
fddf
fe78
fc46
ffa4
007e
fdac
faed
010c
feb7
ff52
0196
fd8c
037a
fecb
ff85
ff49
fc66
fe68
ff67
fef7
fd6e
ffb9
00ca
fa6a
fc35
ffaa
ffc6
011f
0100
0118
fbd1
fe54
ff4f
fda9
f6cd
ff0b
fb95
feeb
ffa9
01a0
fe7c
0081
03d2
fd82
0002
00e9
fe6a
001e
0040
0070
0068
ffb1
0015
fe81
0170
fe77
0037
0103
00ec
ff0b
fed6
ff1a
fa3f
fe70
0003
fd9c
fb92
0107
010c
0086
fff2
f93c
002f
fe4c
ff47
010c
fdfc
0234
01c9
fe9e
fff5
ff07
ff76
001a
fd28
fe38
ffc6
0063
00f3
0192
028d
001b
ffe4
0038
ffb5
ff1f
fc33
012f
0163
ffcd
0511
ffb8
ffbe
fc5a
fda7
ffc7
fe12
ff71
ff58
0083
ffd0
00d4
fda2
ff13
011c
fd36
0000
0001
ffdb
034f
feab
fddb
fe5d
ffe5
013d
f884
034b
ffc0
fffa
0081
fe34
008e
fe70
fd8c
00c7
0199
ff46
0110
fff5
04a4
00f9
fee9
fffd
ff3a
0000
fdc9
ff0f
0073
ff7a
0047
0037
0096
000a
fde1
01ac
ff68
fe34
023c
fd4b
fff9
fb56
fe39
fe45
fe21
0161
002e
ff1c
007c
fea7
fb22
01bf
ff8e
fde1
00fd
ffa4
ffe8
00f5
fcc3
fd7e
0191
fe36
00e1
0024
fc48
fe46
ffc6
feff
008f
0029
fe7e
fcdf
019d
0179
fd9d
00c1
0167
ffac
00a8
ff2d
fcf9
fddd
fd51
fd1c
034a
ff2b
ffa3
fe86
0031
fe6d
fda0
031f
ff52
0010
fe67
fe47
009d
0311
01e6
0275
00ad
fec6
036a
ffc9
0187
0156
0034
fe0a
014e
ff8a
007c
0251
ff89
fe5e
018e
fde5
013b
0076
0090
fed2
003c
020d
ff5f
028f
fcfe
fea2
0082
ff49
001c
012f
020a
008c
0051
0319
018c
038b
0148
0029
fff3
0388
ffd3
0001
00d5
ff01
ffe9
0154
ffd9
ff20
0027
fffc
0080
00af
fedf
ff0e
fb97
fdcb
01f1
ff07
ff02
ff38
ff1c
ffa8
014f
00ad
00b8
0012
fdf3
0098
00b7
01d3
fff9
02a7
fd96
0147
01c8
ffa8
fee9
fe13
018a
fff2
02db
0313
007f
0095
05e2
0044
007b
fe6c
00b3
fd1e
fa39
01c8
005d
ff8f
fdcf
fea9
022c
ff1f
ff6e
0055
ffa1
fffe
001a
ffae
ff3b
0054
0082
ff31
ff0b
fee3
fdd4
ff20
0094
fe49
ff9e
fffb
fec2
00e6
0079
00c5
011b
ffde
fe1b
0032
fb24
000a
fe70
ff5e
ff2f
015c
0437
0236
ff4a
ff46
ff72
ff99
febf
0114
fd9f
fb7f
00cd
0117
024e
ff94
ff5c
ff5e
fdfa
fa8f
0127
ffc0
fdb5
02dc
fe10
fe5b
ffa0
fce1
ff6b
ff89
ffd5
0132
ff63
0088
ffe6
ff34
0212
008f
0023
fd6b
ff45
01ba
fe9b
002f
fdb3
011e
ff7f
008d
00d0
fd8c
ff80
fd92
0023
ff53
0046
ffc9
0052
01ac
ff64
fe70
001b
013c
0048
0170
02c4
021e
ffb0
002f
007f
0256
fe69
00fd
feca
fdf5
0071
fdc3
fe7c
ffa2
ff2b
00a3
0105
feaf
ffd2
fe76
0053
ffb4
fe05
0210
0008
fc31
008a
01e5
00a9
ff6a
ffda
feda
034b
fbfd
ff82
ffb8
ffaf
ffda
ff92
0108
00ff
fe96
005d
fffd
00e8
00f5
ff10
0099
ff9e
00f2
ffcc
000c
fdd4
ffb4
01cb
0121
ffda
00cb
00f3
0120
00ba
012d
0076
0051
0475
018f
fec2
ff5e
ff2b
0007
ff3e
fdcc
01bb
0156
ff7c
023c
014c
00fd
fefa
015b
007c
ff0d
0110
0076
ffe1
0021
fed7
016a
01a3
feb3
00c8
007d
fdb9
fb23
0058
ff72
0031
0349
ff17
fd4a
feff
fefc
ffd8
fe0c
00fd
0194
ff19
fd60
014c
0183
008e
fd9f
01c1
0377
fd79
0053
ff91
fef7
0434
fe03
00b0
fe8c
ff1a
024a
fed8
ff28
0039
fea1
0109
0148
ff59
fd9c
000e
fff0
ff21
fe91
feda
fecf
01d2
003b
ffdd
fa5f
ff8f
00f8
fcea
ffb4
fd5f
000f
01d0
fec7
ff5e
fe57
fdc9
feeb
0291
0110
fec2
fdaa
ff1a
012b
fd75
ff7b
ff3e
ff8a
0029
00b7
ffcd
00c0
ff66
fc11
fd15
fdec
ffa8
ff50
fdb3
00cb
0198
fccb
ff16
fd9a
ff11
0071
ffd3
fda2
03b2
fdd6
0295
ffdb
fe82
fff8
00ae
fd6f
000a
ff15
015b
0166
fe93
ff19
ffe0
03fb
fb1a
0008
fed4
fe52
fba4
ff1c
feab
fd57
033a
feca
0080
01db
fcbf
fecf
ffe4
01fe
0013
fcee
ffe2
02a5
ff16
fffe
fe21
ffc8
008e
ff07
fc23
ff7f
fe2b
fded
fdfa
0110
010e
ff8c
01ab
0190
0301
ff35
01fb
008b
ff21
00e3
ffe5
0151
ff31
00b3
0113
ffa0
fe41
016a
fe31
003d
ffb5
fde9
0032
fe74
ffd7
fce1
0147
024f
fb96
04eb
ff4b
ffb5
06db
fca7
0061
ffa2
ff81
039f
ff17
ff21
fc2d
fea8
00e4
ff61
00a8
0307
fec7
fd83
0167
fce5
ff4c
fd33
ff3f
ffd3
0110
fdd7
0090
fdd1
0147
ff14
fd92
ff84
feef
fd88
ffc1
ffdf
fd92
ff3a
fec0
ff95
ff1b
0357
0225
fe58
00d2
ff01
fda7
fe12
ff2e
fec9
ffc9
fb4d
06f6
0350
04ff
019e
007d
ff74
ff7a
008b
0044
00cb
019e
fe61
ff15
0064
fe8d
ff9c
013b
ff46
0638
fb83
01eb
ff00
ff2d
ff0e
0047
0328
0612
fdb0
018e
ff13
fdf7
fe38
fdcf
01a2
01dd
fc9d
001e
fe78
fdff
00e0
ff09
fdd9
ff40
ffc6
018d
002d
ffa8
fd96
ffae
030c
00d5
ff0e
0019
fe02
ff26
fd4d
012f
016f
001f
fe8e
fe56
fee7
0078
fbdb
f80e
fe52
0289
fdb1
ffce
0319
0012
fe1a
0461
0002
fdad
001e
fea8
0078
ffb7
fd94
01a6
02e6
f8fc
ff28
ff2f
00d3
022c
fe4e
00fc
00fc
fd5b
0144
0073
fab3
0228
fcba
ffef
ff73
ff82
fde7
fe9e
02f9
fde7
0088
fef8
0018
ff19
ff7a
0082
fef5
00b1
0012
fd0b
fe72
ffaf
014e
ffbb
ffc7
0150
fdf7
fef5
ffc8
fe34
fe07
0154
fdd8
0011
fe7d
0083
0071
ffaf
feef
ffa2
ffa1
ff99
ff41
00b3
0139
015e
001c
01c0
fde8
02e7
fde5
02a8
012e
fe57
fe60
fff8
0222
fc58
ff4c
ff5f
0235
fc0d
ff75
01b8
0086
fd37
fcd7
084a
0172
000a
ff8a
03d6
0138
01a4
fc81
ffa5
0035
ff6c
00c0
0008
0028
ffc6
fe88
fefc
fed8
fefd
0167
ffb5
009c
fb9b
fdc6
0260
0011
ffa2
00cc
003c
006c
fff7
0037
ffb9
0062
fb27
0057
0031
011b
01bc
02a8
fe41
005c
004e
0139
0213
ff22
ff1d
fe33
feec
ffe9
ffc8
0090
034c
00b2
ffa8
fd6b
ffab
ff48
ffbc
003f
00eb
fdc8
fe37
fcb0
0460
00e5
010e
0028
0148
fc9e
015d
0085
0126
fe9f
fd93
0064
01df
fe7c
ff62
fede
ffc5
0155
ff87
fff8
fc83
009f
0031
fa97
01ec
0063
ff2f
0028
00ba
0133
fe15
fe97
fc57
00fb
0262
0123
fef6
0093
ff76
ffdf
ff9a
018d
ff18
0135
0062
00ba
00f1
ffce
0154
029f
028b
00e3
00c2
009c
0024
fe4b
010e
015c
fe45
ff00
f978
0168
feb1
fd3b
0023
fe00
00cc
0218
fe9b
00ea
016e
ff82
020a
fe0c
fedb
0034
ffda
01ae
01b6
ff03
fe7f
02cb
0264
02d6
fee9
ff51
040a
ff95
00d4
fd3e
0089
ff4c
fe78
fed9
fed8
027a
003d
fe50
ff55
02f4
ff72
0251
01fc
0002
fef5
01ff
0007
fea5
03d1
fdc5
ffb2
fd7f
016b
0126
fc95
fa09
fd84
0212
fef7
0077
0165
ff2c
00a3
ffb3
00c3
fd21
ff72
ff66
01a8
fe2d
005f
fee8
000f
01b5
fe9c
0003
00d7
02c5
0004
ffe4
f8a3
0044
ff80
007f
fdda
ff37
fff2
ff90
fec2
fbfc
0150
fe67
fead
feeb
01e5
fd28
00a2
f70d
fffb
01d7
ff96
010c
ffbf
047f
fece
0133
fda8
ffcb
ff9e
0208
f94d
fc1d
fc71
0a02
fd5b
fe8e
fe56
fd4b
0018
ff64
0213
fbcb
03a3
017a
0301
0140
011d
fc82
00bb
00ac
fdda
fe90
fff9
0086
01a5
00e7
0177
ffdd
0050
000d
ff53
ffc0
fe00
fc15
0079
fdeb
fef7
ff16
027e
fdad
ff7d
fe6d
031b
0005
010a
03fa
ff4f
0004
ffb0
fec2
023a
ff3a
ff02
ff8a
0095
012c
004e
fc5c
00ca
fda6
fedd
ff11
0240
ffbf
00a1
00a8
00cd
00de
0807
0062
000f
fffe
ff5d
fdd8
fe11
ffb7
fbdd
0164
ff9c
ff89
00fd
0508
030b
ff50
04e6
0165
ff22
fc50
fdb9
053c
fde5
fe0a
005a
fff5
0135
ffe3
fe59
074b
00f2
ff00
ff4f
0003
fe91
0011
fdab
fd25
fd6a
fea0
02aa
00ad
0129
fdf9
fc06
fc20
fea2
fbc5
0028
0278
0232
01a9
ff1b
05ce
fdbb
fdc1
feca
ff83
fe48
ffce
017f
037f
ff7e
fee3
ff5d
0285
fe61
0011
fcaa
fb7b
fde1
04be
fdff
fe58
ff23
002c
fe4e
00ab
000a
ff9d
ff3d
01db
fde2
014b
fc22
07ae
ff1f
0356
fede
02db
fde9
fef6
fe84
ff56
131e
00b9
002f
0082
ff0d
ff4f
fffe
0084
f7ff
fe65
0068
0003
0088
ffd0
019f
ff20
fe7e
0104
ff7e
fddc
fe03
fde6
020a
fd74
ffd9
fdb7
ff97
ff98
00ff
007c
ff6a
ff1a
fdc6
fd3f
ffea
0262
0060
0215
00b3
0197
ff54
019e
0375
00e7
ffae
0016
fe95
fea4
0232
f888
ffec
01cc
0050
0051
01f6
ff7c
ffb6
fd74
fe64
015c
fe3a
ff90
fdac
fd6a
ff00
ffc9
fd91
ff49
0035
ff0a
fefd
febe
ffbb
ffde
00d2
004f
ffb4
ffc1
0124
fcc0
fd96
00ac
fed7
004c
0059
ff9c
003f
00e9
0146
00af
01c1
0254
00bf
fef9
ff62
0302
00f4
fea7
014a
01b1
0105
00d1
ff61
fafd
ff76
02fe
fccf
ff93
01e4
010d
febe
fdfd
003c
0171
fd56
01db
03f2
0042
007f
ffc7
ff23
fe8c
ff81
0025
0157
ff2f
0014
01ee
fd4d
ffcc
ffaa
fe96
fed7
005a
fc3c
fca0
fe1f
01cc
fc09
ff45
0334
fd81
ff21
ff9b
0377
ff13
011e
01b0
ff63
ffae
ff8c
feb8
fef6
02fa
03ae
0060
0061
ff91
ff14
fecd
0076
ff06
fe55
ffbb
fbd5
008c
0050
003a
0488
015d
00c5
ff94
feba
fe46
feae
02a9
fe62
fc23
022a
00fb
0183
ff8a
059b
fffb
006b
faa9
fe46
00d5
017a
fe33
fe18
ffc7
018f
fe4e
00f7
ffd1
fd15
021d
fe38
fe33
f8ec
0054
0059
0247
fff2
ffc6
fe6d
fe90
fd5f
0058
007e
fee7
fdc6
00d4
fdee
fee6
ffe7
fe6e
ff4d
009a
0181
014c
008a
00e5
013a
01a0
ff76
fecb
0189
01e5
ffee
0097
fe2b
fd8b
febb
0038
fe58
008b
fd9a
fda4
01f5
021f
009e
003a
fec8
fd7e
008d
ff84
ff91
ff8b
031f
fffd
fe17
fed1
fe39
fcd9
ff34
01c0
018e
0121
0096
0282
fed6
021f
00f3
ff4f
04f5
fff4
0028
fd74
024b
fdc6
fd17
007e
0003
0000
fdbb
fdf3
ff21
fe79
01dc
00fb
03ff
011f
fed6
00fd
ffc3
00a9
fdae
fcae
feea
01db
01c1
ff9a
feb8
fc41
fc85
018f
fd53
fdab
0110
ff3a
ff0c
010a
01cd
fecf
fcb0
fec6
fefb
00b3
001b
003d
0065
01f4
fd5a
001a
015a
005d
0161
fdf8
fd06
022c
fe40
fd0b
00cc
01ed
0166
fd4a
fedd
fc9d
009f
fec0
0121
fbfb
fd43
ffb5
007d
fae6
fe9a
0056
fe55
fd87
fe6b
014f
ff4a
0055
fee9
fde5
fdce
0319
02f8
f859
ffe0
050d
01f7
fe35
0423
fe92
01ef
ff8c
053b
fdaf
0248
0096
01d5
0027
04f2
fefd
ff15
0028
ff44
fdcc
fecb
0321
01bc
fe72
fe58
0111
027f
fcbb
022c
03ec
0065
005e
ff6b
fda8
ff20
ff95
0153
fa48
0049
0173
0243
0104
ff6b
00fa
0138
01f5
01b3
ff28
014a
ff2f
fddc
ffd5
ff62
fe06
ffea
00d4
fef5
fe27
0034
ff65
01e2
fe67
01d8
f89a
fffc
ff56
075d
fda4
0185
ffb3
00a3
ff72
fe74
0091
fab4
fd9b
fda4
fc49
fc8e
01d9
ffc7
fd22
009b
fda4
0399
fc17
ff98
02bb
fccf
fe19
0008
0025
ffcf
fbb0
fe9b
00b3
ff8c
00a0
ff62
fe0c
fdac
017c
ff1e
ffd0
0251
fe18
01ee
0028
0173
fc1c
fea6
fb57
ff7d
fd18
fe3e
fc1c
fc8e
fdcd
fcb6
0483
fe1b
fd5d
fdd5
0229
ff28
ffb4
fe81
ffa8
013c
fe7d
0161
fee9
fe60
0035
fc80
0495
fe3d
03b7
fec9
0105
006a
fd67
fa06
03c5
0005
ff42
ffe5
fe25
0029
ff39
fd13
035a
00a0
05c1
02d8
fe13
ff82
0298
00a8
ffe1
036e
0000
ffbe
fd6e
ff18
0178
fe90
0044
f7df
fe47
009c
fd18
ff1b
0054
0172
00dc
feaa
01c3
fd8c
fd8d
05f2
0097
ffd5
fe3d
ffdd
fed6
fee6
ff49
ff35
ffa2
01c1
fe3d
ff7e
fe91
fe9e
fe7b
fe26
fe2e
06eb
00e2
ff6f
ff64
010a
ff90
fc9d
0009
000a
00b9
014c
fc1e
fe12
fdb8
0063
fd80
00ea
0041
feeb
fdb4
feca
010e
fcb0
fe76
0135
ffe5
ff2c
0117
ffb9
0027
01f9
fdba
0103
0057
ff0e
fca2
01d3
fde6
ff97
00d9
ff38
0216
fda8
0215
fc2f
ff4f
0034
fccf
fefe
ff83
0203
0070
02de
fdc2
ffab
028e
ff37
0136
0035
ff6b
002c
000c
ff91
fe0b
0054
fdf1
ff0b
0375
fd99
fe49
008d
fffc
ff25
fdf4
ff6f
0134
fee3
fcc3
fc02
ffae
ff2f
01db
f58c
fe1a
fd5c
fdc9
ff8f
fd75
fed6
0456
fc6b
fd69
ff0b
fe1f
01e1
014c
fea5
fec0
00b0
0058
fade
ff25
004e
fd8c
ff30
fe8a
004f
0128
021e
ff33
feff
0218
0478
fd0e
0001
044f
01df
02fc
0278
ff9d
004e
fe2d
00e9
ffa4
fed0
0029
fd65
fe38
ffb3
fcdd
0176
012a
ffc0
fe45
029b
fde0
fee3
0064
feaf
fcc3
fe46
fc0f
fcc0
fe8c
03fb
0125
ff62
fd54
fd6a
0221
ff0f
fa60
004d
ff5a
ffba
fe58
ff36
fee8
fd30
00cb
ff3c
ff3d
f98d
0050
ff1e
fbdb
fe58
ff86
ff63
fe55
0015
0025
00ff
fecf
fe8b
fe96
00ac
ff8e
0039
ff0d
fee0
fdbd
0472
006d
0116
ff39
021e
0150
ffda
0090
02a4
ffe9
feb0
ff35
ff57
fda5
005c
fe07
ff38
fffe
00c4
ffca
0a51
0044
017d
fc45
0099
fde4
ff2b
fa11
ff58
fd70
0313
fd77
007f
fd11
ff1e
fbf7
ffa4
0083
0108
fd05
01de
01c9
fcd7
fd63
ffb2
fe25
0539
ffd1
0212
fc55
036f
fc8f
00bd
fd8d
fff3
00d6
01cf
fbdb
0103
fd21
0294
0043
04aa
fefc
0016
00d8
0050
0205
fd08
fe7a
ff03
fdb7
ff19
0042
0202
051f
0090
fea7
ff31
028f
026c
fcf9
0082
fd27
ffd3
0241
fe73
fe74
02b5
020b
fed0
fec9
00c2
fdb3
fcbf
ffa6
ff3d
005b
005b
00ba
0204
0038
008f
004d
fecd
0128
ffde
fed4
00be
01c4
021c
023a
fe54
fa7a
fedd
023b
ffff
0468
ff96
0102
0155
0091
008b
fa3c
ff33
fcb2
ff25
00ba
038e
02ec
fb60
05a8
0073
f63a
fdef
018f
f87d
fb11
fd98
000f
ffd7
0122
022a
feb9
016f
feb7
f939
01c1
0011
ffa7
fee6
00df
002f
01e1
ffa7
01b3
ffda
fb87
0181
ff6c
fe44
019f
ff7b
ff79
fe60
006a
ffa5
ff1d
004a
fb0c
0043
001c
0015
0006
0244
041d
ffd5
01dd
009b
fc96
ff93
0060
feae
ff23
fecd
016a
ff93
fee7
ff08
03bf
007f
0018
00cd
fee3
fa25
03df
0077
fb1f
058c
0008
fe46
fcd4
0384
fbd7
fe1b
03fe
fc43
ff20
04e6
0154
046e
fe3c
006e
020a
02c0
ff0f
fd69
007e
ff13
fbfe
0070
fda6
02bd
0000
01f1
fc89
ff53
f8c2
005a
fd1d
fff9
00fa
003f
0055
fee8
ff20
ffc5
ff6b
00ee
0213
025b
fc2f
00a7
fda0
ff67
02da
febe
ff8c
0733
fe34
0490
feda
fffa
057e
fe42
ffe0
ff59
0266
0232
fc64
0171
01c5
ffb5
00ea
00d0
034a
08d7
f92b
00aa
0121
fecd
feba
0002
021a
0720
fdc5
ffba
0167
fd84
fffa
fb97
013a
02ce
f879
fef1
0054
01f4
0149
fe97
01be
fe94
ffd5
00a8
ff53
ff73
fecd
006c
00ef
0341
ff03
fee5
ffce
ffe7
ffd8
0014
0034
fed2
ffe5
ffbd
0124
feeb
fcc1
f5bc
01a0
017b
00e8
fe06
020b
ff61
00c8
0475
0063
ff20
ff43
ff8b
01b0
ffb1
0070
02d9
ffad
f6de
fe13
ff1e
fc1c
036e
00d2
ff50
fe36
fdef
0098
fdee
0540
00d9
0020
ff9c
feea
ffd4
ffc6
00ea
0144
ff17
ffdc
019a
fed7
fe97
fdf0
fea5
fc7d
ff89
000d
fbb3
fe9a
fecb
0102
ffa5
0352
0249
0065
ffaa
fed4
fe33
facc
0043
fd3b
01cd
0161
fcc5
faa1
ff90
ffb7
ff6b
fe6d
008b
002d
ffd3
025b
00e4
fce9
0260
004f
01d4
ffbb
00e2
004c
fedb
00a4
0061
ff26
fec2
0073
0010
fef9
ff9a
fdf3
ffa1
fde9
fbb3
0040
08c1
fe02
00b8
009d
001b
010e
ff7e
ffdf
0019
fdbd
03f4
faf2
ff97
0357
ffd4
fd8d
0193
01dc
0072
fe91
0013
fc7f
fa97
023c
ff39
fc69
000b
03a2
ffb3
009e
ff29
00f5
0051
011d
f7ff
03c9
ff01
fb89
0136
0077
faa5
fc8a
0115
ff0c
0094
fe4c
fe72
001c
fce3
fef7
0177
ff95
02b6
000f
0193
000b
fdc6
fffd
ffda
fd36
003e
ff23
00a9
ff31
0398
fee0
0191
feb1
0036
05bd
ff79
0167
021a
fdd5
ff7d
fff1
003b
01a6
001e
ff5f
0027
00d9
0071
ffb2
fe1e
00d8
010d
ff40
02df
0086
fef6
053b
fff0
ffd1
fcec
0002
fcec
fdfa
fffd
002f
0053
010e
fe8b
0154
05c3
ff3d
fdc8
ff7d
0036
fc62
0127
000f
ff87
ff83
01b4
fe3e
fdc4
02e8
ff6d
fee3
00c3
02c7
ff5e
0134
fb91
fcfd
011c
018b
0015
fdbf
0014
0456
ff3a
fde8
0399
fe9f
ff33
fc8d
fe96
03f6
ffbe
fd41
fff7
0060
ffc1
00c9
04e9
ff21
0028
0122
0462
008c
fe04
fcb5
0006
fde3
fff3
fed1
ff6b
0120
fd91
fc3a
ff5f
074d
000f
01d2
014c
ff9a
0013
fffb
ff16
ff64
0044
023c
00c3
fe42
026f
ff53
febe
fb99
fc5f
fd8e
fb7b
0223
0140
fb00
fef6
fd40
022c
ff79
fd4c
001e
00b7
fd97
00fe
fc1f
ff90
fe25
fda9
00cc
0071
ff05
01c7
0148
fd1b
0063
0246
08eb
0177
013c
fde7
00ea
005f
0527
00f4
026d
fde9
fbde
0189
f94c
fe7f
06f7
0107
01e1
fe00
fecc
feb3
01b4
fe8d
fd57
fe82
02d0
033f
008e
fa66
081f
0001
f851
0090
01a3
0285
fd80
00dc
00b0
febf
ff43
03ff
015f
00ce
ffc5
01b7
ffc1
0014
0108
02c8
0362
ff72
0076
014d
046d
0065
0000
0064
0171
0266
0044
fe51
fa91
fb01
0273
0012
0174
fe93
f6ed
fec9
fd75
0072
ffcf
0507
0709
ffd6
fefe
00b8
02a9
fe72
ff1a
fd7f
fdb5
fe83
0089
001c
fc6c
feb1
01aa
000f
023b
fedb
f916
01c7
085c
0259
ff85
0b2d
023b
018e
fefc
0022
00df
fe6d
fe1a
f5a7
028e
fd04
ffe2
02ef
06f0
016d
0038
08a7
042b
ff95
0063
010a
ffbc
00b3
ff61
fd2b
0157
003e
fc0b
fe74
0361
ffce
fbce
007e
01b0
feb8
fefa
fdcc
fb67
fc00
038e
fee8
0261
ff99
f917
fe2e
01b5
fecb
017b
006c
0467
fdac
fb00
fe33
010d
fd93
0218
fa8a
f8da
ffe9
0293
ff32
0203
fe5a
0252
ff24
01f4
ff9e
0210
fb37
f792
fde4
fb25
fa1a
fd41
fc9c
fe5e
fd7f
fde2
fd65
03fb
ff1b
040c
fdf4
ff85
fb15
01df
fe2b
f8f8
01e9
0367
02df
017f
015b
01c8
fffb
00a6
0014
02b8
ffc6
00d9
0036
007e
fa94
ff39
0271
060a
ff88
ff53
ffb8
fc47
0076
feb3
ff53
fda8
ffea
01f3
0229
fbff
ffbf
0477
fdfb
0312
0063
fe04
ffe8
ff66
fd5a
00ef
ffb7
0782
ff20
fd99
0062
0084
ffaa
fbb4
02aa
004a
ff52
fe49
fea2
ffb1
00e7
0088
01ce
05b2
ffc1
fc16
0077
fbd1
01a7
058d
fb4d
0099
fce7
fcc4
ff3f
fb5f
fa52
fae0
fbb8
fd33
fe5e
fee7
0045
0091
fcb0
0329
01e6
0112
00d2
ffa6
ffad
f39b
fef6
fc74
005f
0379
0027
fc49
0180
01fa
02d7
feca
0208
0343
ff4b
0104
018b
ff04
02be
ff0a
01bc
0270
00e4
fe48
00ad
ff4f
005c
ff4b
fd17
0060
002a
fee1
0163
fcea
ff46
017e
fdf2
06f8
00a6
fd32
0134
fbc9
1059
039b
0016
0300
fe32
fcc5
019b
ffb3
fe50
fe4e
fda2
ffa6
0115
00a5
f775
0125
fe53
fc80
f833
0019
ffd2
fab1
0000
00fb
0043
ff44
0197
0239
002f
007e
fd02
0051
feb7
fda9
01f4
fdb1
ffed
fe9c
fea0
01ec
ff77
0050
fdc3
0123
fb2e
0009
ffb6
02e6
0c45
fe08
01b3
07ee
ff28
ffaa
fe7a
0187
fdf9
ff17
018d
02e2
fb1c
fe9a
091d
fa31
ff45
ffd8
0005
00d6
fecb
fd51
fd65
0115
01d8
013f
fe71
00b3
f932
0037
fef3
016e
f876
012f
0133
0aa8
ffd7
0040
ff1f
0245
fd2e
0169
00f4
0097
ffcf
fb63
02d8
fe61
ffbe
0053
fe69
025b
0522
fed9
0018
021d
0132
003d
ff65
fca0
0156
fd36
fe9d
00cd
fe2a
0375
0137
015c
fce4
01b7
fd75
000e
fea1
ffef
020d
04ae
ffee
fda0
fd28
0988
ff09
0454
fffd
00d9
011b
fd5f
fe72
02cd
ffb2
feb0
0074
0367
02c5
005a
ff2d
0529
ffec
00f0
0649
fe34
ff74
fd25
ffad
01b8
0034
00cc
fd98
fe8e
fd47
fc47
ffd0
0404
00b8
029e
0370
0185
01eb
008e
ff3a
015f
f853
ff77
00d0
fe76
00a2
fcfe
fdfc
fb96
fca4
0116
fda9
010f
00d0
ff68
fd4c
0078
ffeb
fd98
fca3
fecb
fe92
0116
0161
fe75
00bf
ff29
fef7
ffdf
001f
00b1
0135
fefa
00f6
fec9
0176
0135
02bf
01f0
00ec
00f2
ff2d
feae
008e
008d
005c
fbe5
fe5c
fe1a
fe21
fd93
021a
016d
fba5
fea5
fe7f
012a
fe51
fe8c
0081
0025
fc73
01f4
0383
fc91
ff91
0589
0016
0109
03fc
feef
0242
0205
0078
fc34
02f7
0096
003e
fe5f
053f
fd44
ff40
0128
ff66
0253
0041
016f
0256
0085
fd39
00e4
0288
00ee
01d6
02dd
0008
feba
fe02
022e
0080
0003
fde4
fa8d
0123
0041
ffbc
0084
02f9
049b
0202
01ff
ff14
ffea
ffd7
0117
ff31
0064
fdae
00b5
016f
0012
fc29
ffe6
0058
0155
fddb
fa4d
05a8
0072
00d9
fd23
0449
001d
01a4
ff78
fb18
ff11
feec
fedf
fa48
ff52
f8b3
0116
fa73
051f
ff8c
fc96
03ce
007f
03f9
01ef
fec5
0102
fc6b
fd61
00d0
0199
00d4
fab6
fcfd
02f0
01aa
fdbf
01c4
ffd8
fbea
01e6
018e
fe7b
fddb
0215
018d
0181
fdcc
f995
ff74
0129
fdd8
fab6
0131
ff95
f89d
f98c
fb90
0239
fe72
ff73
fd78
0113
0161
03da
fde0
0197
feb4
ffc4
0061
00c3
fd74
0411
f757
007d
fd34
0022
fdbb
ff15
fea5
fd20
f91f
0048
fe7f
fff7
ff3d
011c
0246
fe56
00e1
0394
0005
ff52
00a8
0026
fe6a
022f
0134
0073
f060
0006
008e
00bb
ff25
029d
feb1
ffec
fa67
fed9
001e
fe90
ff21
001c
018f
fd33
ff29
ffe5
010e
fe0b
07e7
0244
ffa5
fdfc
fe30
011e
ffc6
00b5
fc89
ff5f
0175
ffe6
fdfa
fe42
ffe4
00a5
fbf6
fd52
06e9
ff79
ffb7
0277
02c1
007f
fe48
00c5
0084
0075
0206
fabf
ffa6
ffdc
feec
fb95
00f8
feab
003e
029a
fd5e
0007
fc54
fcfe
fd88
ffa7
fe7d
fe0b
fd5d
ff61
ff55
fe1f
0106
fe65
fec9
ffe0
01b3
0081
ff5b
00b7
004e
fb24
fefa
fd90
fe02
0198
02c6
f9f9
033a
0248
fffb
0036
017e
ff2e
008d
051c
ff79
0156
00a8
fc86
0101
ffdf
fdf2
fbdb
0054
fe72
007d
015d
fe2f
008b
ffc9
fd7e
ff53
fe66
ff48
fe97
fdb2
01a0
f8f1
fb10
ffab
0036
0636
0137
001a
0025
fe02
fe8a
fc04
02ad
fd2b
fdf6
ff9d
fe11
ff89
ff99
fb5b
ff60
ffef
fd86
fc33
02e4
fd6b
fc2d
00eb
ff1c
fa81
ff3a
fdfe
002e
fe49
ff9d
04cf
fbc9
ff64
0575
0196
0018
0443
ffea
fef8
fedd
fff9
ff44
fe82
0162
fd90
018a
0002
ffcc
0aa8
fe76
00c5
0106
03f5
006e
fe8d
00b2
fe6b
ffc5
009d
00d5
fd4f
00c0
043c
059c
ff68
f93b
fe21
00ac
ff78
fc4b
fefc
00e8
01a2
ffcf
fe4e
0078
fc6a
00dd
fef5
0037
fab0
ffa4
ff6f
00c7
fe8f
01a4
003a
0010
0104
fe7c
0079
ffee
007e
fe0d
02d6
fe7c
ff1c
fe78
fed0
00ea
008b
fe77
009d
00d3
0130
01d1
00c8
ff45
01e1
fc57
fe29
007c
001e
fd44
004e
fff1
fded
01cd
0080
ffe7
0425
0114
fe3d
0045
0114
ffed
ff7c
0004
00bc
00b9
03b0
010b
00dc
fd5b
0019
fe6a
fd51
ff03
003c
feae
025b
0186
fcff
0363
fede
feea
0531
00f9
0129
fd79
ff28
0125
ffcf
000a
fc62
01cd
0230
fd7d
01fb
ff68
0117
019c
ffc6
fe81
ff91
fe84
0068
00a8
fb00
fd9f
00e4
fe0a
fdfb
fe77
001b
0591
0107
ff1b
fd13
fde0
fd73
fc8f
000a
ff21
0023
00bc
fe26
ff30
02d1
02e7
fe2b
0235
ff1f
ff29
fbc3
fee6
ff13
fd9c
0026
01ac
03de
ff75
ff7d
fc42
000f
0000
fff7
009c
003b
fe98
ffc8
007f
feae
fa11
fd34
0340
0083
fde0
fed8
fffe
0128
fcc4
015a
fb88
ffdd
fff9
003b
fe02
0135
ffdb
ff71
ffb7
008e
00f1
ff39
fe6b
ff96
fc42
fd94
0019
fecb
0098
00bf
ff7d
01c5
ff27
fc1f
020d
fe7b
fea5
ff2e
ffd6
004b
fefb
ffc8
ff42
00bd
00d9
0168
fe2f
0028
01ad
0094
0326
fead
fcc1
fd9f
ffb9
fed1
fb07
01d7
0090
ffcd
00f0
0000
0041
0229
022f
006a
fee5
008a
01f4
fe8e
002f
ff3b
00c4
002a
0469
ff89
fd27
ff08
ff31
feab
f85b
fce5
fb63
fe52
00ae
0654
fe24
fd6b
fe5c
0159
ff26
00a3
0163
f9db
fe14
0399
ffe3
02da
f82f
fe6b
0070
01bb
ff89
0090
0194
0318
0108
00be
0103
0133
0020
fe07
fcc3
ff4c
fb1a
0014
0170
0000
fe97
0187
0043
000b
0134
00f3
ff0f
0149
ff32
005c
fc83
01e0
fc1a
fd4c
fe5e
fcf4
fd7c
00bc
fc9e
03f1
fda7
ff5c
013b
fd73
0022
0094
033f
0176
fe4a
ff36
feae
ffa0
fdf4
02bc
03a5
02c5
05d6
0155
feaf
fe58
ff66
ff75
ff3d
044f
0047
ffbd
fcaa
00ac
ff06
fc78
ff7b
0264
f9fb
ff18
0150
0292
fd7e
01dc
022c
008e
ffd0
fb6f
ff50
0086
fd10
00f2
00cf
02c5
fed2
ff84
0247
fff6
fd5b
004b
01b3
fdd9
0273
fe67
fe29
fe88
fe19
fe91
0117
ffec
01ca
ff96
fee6
fd87
fdec
0350
ffb4
00c2
010e
fda7
ffbb
ffdd
fcef
fe8c
fed6
fa0e
fecc
00ff
022e
0321
fe8b
ffd5
fdc0
fd83
0048
ff69
02c3
fe6b
ff68
ff85
fb75
fe1c
022b
0204
ffb5
ff0d
fea6
feb6
ff93
ff8a
01a4
ff9b
01fd
015c
00ea
feda
ffc6
fec1
feb0
004b
fd95
00f5
ff96
00a2
fe55
fd2b
0517
01e7
02ae
feaa
0137
ff95
f96a
00d1
ff74
ff52
ff62
0168
fdca
005d
037f
01d7
fe6e
010c
feb8
019d
feee
ff21
00a2
ff91
032e
00c3
ffd4
fe3d
ff20
0099
fe1d
0006
fe55
ff4d
febd
fd93
fb8b
015d
fbf1
fffd
02a4
0347
febf
fe17
fc71
ffc5
0043
01f2
fdb3
fed3
fe36
fd8d
ffd5
01ae
0204
0083
ff1b
011d
ffd4
fa8b
fde7
0078
fd74
0134
ffc4
015c
fe92
018e
fef2
0223
004e
facf
04a1
005e
00fc
002d
006c
fed8
fde4
00ae
feed
021b
ffad
ff4a
ffa5
fc15
0342
00aa
fdfe
02dd
00fe
ff6a
fd05
ffab
031f
fee5
fd8f
fd95
006c
00df
feb6
ffcf
0086
ffa9
0305
0131
fce8
fdbc
fefc
0103
fd62
000c
fddf
ffa2
0023
ff3c
ffb4
ffca
0213
fff9
ff1f
ff62
00f5
002b
fbb3
0052
0135
ff55
0015
00c0
fec2
023c
fee4
fd8b
fdec
00b4
01f3
0144
fedd
fe51
ffe9
0388
ff63
fec3
fd40
ffdc
fe14
0108
ffac
01e3
fe08
0258
fd07
ffc7
feb7
00e0
febc
0278
033b
ff9c
015c
00f3
fdae
fe68
fbcf
ff6a
00a1
0053
fe63
ff57
001c
0073
feed
ff07
fb0d
feb9
0014
008c
ff5d
00fc
ff15
ffa0
fe20
0403
fb8f
ff52
000d
0384
ff14
00fa
fdc5
ffd8
fa23
ffd4
013e
fe27
ff7c
fe26
fb5b
ffec
0014
ffc3
ff00
032a
fdf4
0084
0070
ff52
fea3
0188
fe1b
ff8c
fe6e
fe7b
ff13
fbff
ffeb
ff70
fd9b
fb17
fecb
ff80
ff20
ff54
fe15
01df
fe9d
fb8b
ff3a
ffd5
fffe
0014
0014
0044
fe5c
fde9
ff8a
ffc1
039b
ffe4
022e
0462
0040
ff84
003e
0231
ff40
fd96
0165
0044
ffcd
01ce
ffd6
fd22
fd1f
feb0
0136
fffd
fca2
fd8e
00c8
fe43
ff42
01aa
fde3
fe0c
fe7d
fe8c
0050
ffdb
01d8
00d5
05ad
ffa7
f977
00a7
ff9d
0352
feca
002f
ffeb
ff2d
0312
02cc
01c0
006c
ff91
00ec
03e0
001b
fcb1
0123
ffbd
00ff
ffa8
0195
02d5
00dc
ff35
024a
00c6
016f
002f
fdef
0106
ff17
ff58
ffa9
002d
fd11
fbe7
ff27
ff61
01d7
00aa
0326
045c
008a
fe6c
019e
0098
fee6
032e
ff1a
013e
fd66
0180
ffb4
00b8
ff8e
01e4
01e7
fee9
fcdf
f86d
ff2d
0132
fdcc
02cf
0606
01c0
fefe
011e
ff37
ffda
ffb3
01ad
fa4f
023a
fbcd
00db
00ac
f9ea
fe3b
0345
0203
01c1
0358
ff7e
013a
fefc
0075
0115
05fb
0116
fe26
fdee
ff96
fefd
ffe6
ffeb
ff30
ff19
fed8
0079
fff3
fefb
feec
fd1d
0044
fea0
fbf4
fd4f
ff4f
fc6b
fe58
0146
fe4b
0192
f764
fde2
fef3
fc07
00ce
0311
fe17
fe87
013b
0144
ff99
fedb
fe35
ff1d
0075
00d5
ffd5
02ff
fe78
fefb
0115
fe37
fc9e
fdc9
ffbf
ff04
ff06
feba
014c
fe9c
fef2
ff74
0022
0086
0056
fb0b
ff2a
ff00
fe64
ffd3
01a8
013e
00c4
ffc9
f3e2
fee2
ffa2
0048
0045
0074
ff02
ff21
0172
0329
00af
01f6
fee7
0057
ff8b
0051
fe83
015e
ffba
fe1f
026f
002a
0005
ff06
ff31
fe1f
fc96
0002
fffc
fdbb
feed
00ac
ff9d
fe80
ffc6
0135
fc36
ff99
0178
0151
0050
fff7
0266
00a3
001a
fe74
ff7f
0189
ffb5
052c
0030
0166
fe93
fe51
fea1
ff72
01ac
ff67
fdc3
ff8f
fd45
ff86
ffdc
0044
fcf0
ff3f
004d
ff2a
ff86
ffd9
ff17
ffa0
003d
ffa8
02ac
0177
ff9d
fec7
fcd2
0285
ff58
03df
fea1
024e
ff28
fb47
0056
ffcf
ffdc
ffb0
fffa
00df
00b2
0110
01b0
fd2c
00f0
01de
0582
0079
fcd5
00a7
010a
0278
0071
fe85
fcdc
ff1c
ff6c
01da
ff9f
ff92
0012
fe90
fb55
0115
fb8b
fd0f
ffd9
ff22
fefb
00ee
fe2c
004f
fe77
fee9
0147
fb8b
feda
ff09
0026
0145
0094
fedd
fcd3
ffe0
00f3
fee8
fac6
ff68
fd2e
fc63
ffb3
ff3f
ffc8
fc65
ffcb
00e3
0160
ffee
004f
06d4
00a8
fe6d
012f
fed4
018a
ffcb
ff41
00f7
ff70
0019
fe76
0038
fdff
0333
febb
ffa2
04a9
00c2
fef0
00d6
001e
00e8
ff61
00b1
ffd1
013b
fdd1
02a3
fe99
0086
fe6b
fd3c
ff0d
04da
ff4c
00cd
fd90
fdfc
fed9
ff20
0049
011b
0021
0091
fbd6
01bc
ffec
0060
003b
0037
fffb
042c
ff60
00b2
ff8b
0151
fed5
fda5
0055
ff74
fe2d
ffbd
ff40
feb7
fed2
ff0b
0067
01be
fb00
00d4
0122
fe91
fe6b
fceb
ff5f
ff3b
0104
fd35
ffb4
ffd8
ff62
ffba
01ef
ffa5
024c
026f
fed9
009e
031f
fecb
ff35
ffa5
ff6c
ffa8
fd91
017c
fff5
fe1d
05df
0072
ffea
fdd2
ff82
024a
fff9
fd97
0067
01e8
0085
00a5
ffa4
fe59
ff9a
0284
036d
ff21
010c
fe31
fe78
ffa7
fe7c
00c5
fcc7
ffae
0030
ff02
ffdc
02a5
ffdf
ff04
026a
0035
0093
fffb
ffe1
ff4a
00a3
0182
005e
ff46
fe53
feb2
fef2
fe52
0202
fe10
0192
ff22
0060
fef3
ffe6
0032
fedd
0095
fe4d
feab
ff3a
019b
ffa2
ff8c
0093
fdef
fef6
fea5
ffd3
004a
0079
ffff
0338
feef
fe7c
fb83
01a1
fe77
fedc
0215
0094
01c4
0114
fe7c
fff5
ffea
fdbb
ff1e
ff7e
0429
027d
ff01
fbfe
00fb
01a4
0025
fea3
0047
fe89
fec0
fde1
00ab
034e
00c7
00a5
f8cf
fbc8
0105
019c
ff91
012b
0104
fed0
01ba
03ed
fee2
fd72
0013
01b2
011c
007c
fe73
fe1a
ffcb
01a3
006e
0074
00b0
ff6a
ffc5
ffc7
fead
0129
0102
ff37
00d8
ffc1
0288
001c
feaf
fe3b
0086
016f
0307
ffdc
ff7b
ff6c
0013
00e5
0017
ff28
007c
0039
ff48
fe32
ffce
fe7e
0023
ffed
0039
ff2b
03c7
004b
ff40
fe30
fe7d
0119
fecb
fcf3
029d
075a
feb3
fea3
ff2c
fb54
0062
00c8
ff1a
fcd4
fe35
fb3e
02f0
fb19
ff09
fda3
0420
0193
feef
0435
fdea
ff61
ff8c
ffc4
02a2
0082
fec7
00ac
fede
ffe9
001a
02c3
ffec
0013
ff8d
fdce
010a
fef1
00a0
ffa5
00f6
0081
ff55
fda9
ff3a
00d0
feff
ff2d
046d
fec3
fd56
f9a7
00fd
fd55
ffd4
00f2
021d
fd56
01d8
00dd
00d8
0074
ff25
fdf8
00ad
0269
fde9
feb8
02d0
fcb3
009a
030b
fc68
ffe9
0006
012d
00ee
fe38
0088
0006
02cb
ffa3
fedb
02ff
01ea
0350
fe04
023e
fd2c
ff2e
ffc8
fef6
fd3f
00e2
fe96
fbfc
ff7b
fd6d
fd94
0072
0069
fe41
ffda
021f
01d9
ff87
fcd5
fe84
0056
0075
00f3
fd73
0018
007b
fe48
0415
ff76
ff03
fd8b
fff4
ffbd
fdd9
fd45
fc9b
007c
ff21
ffa5
ffae
0184
fdd1
fbb3
fd0e
0023
052b
0112
00d1
fd53
0221
fed6
fe5c
0290
0261
0060
fff0
0326
0122
fd5b
fe51
011c
0231
fe66
00be
0143
fe6d
feb8
fe77
00e5
fe94
0139
fdb3
fe93
fedd
feb1
02d6
014f
ffd3
0032
0090
00b9
00d0
ff7e
ff05
0017
0040
00fb
000d
0091
0035
fe83
01fb
fc95
0104
009d
fe72
ffa0
fe3e
ff54
01b4
0067
ff5c
0076
0081
0392
0179
fdb7
fe36
0143
000d
01ee
0056
fe59
fce6
ff2f
ffd0
008a
fcf4
fe53
0044
002c
fc4b
fc32
fb0b
ff12
0187
ff8d
00db
0105
001c
fdd7
00a6
01d7
fe1b
002a
ff1d
ff95
ff2a
003a
fe05
00b9
0145
0121
011f
ff7c
fca4
fe3e
fecd
fedd
008c
ff30
ff17
fe38
fe24
ff54
ff79
0122
0630
0081
00a0
fda0
00d8
ffc6
0207
00af
ff6c
01ce
002a
00f9
fe6c
0022
fe63
067d
ff32
0039
0225
005b
fe06
fd41
0162
ff33
ff53
002d
fe0f
ffea
0077
fea7
ff9d
ffde
00ae
003b
feb1
04ac
ffbe
ff5a
fe72
fff9
ff4c
0010
ff97
001e
fec3
ff4d
fcc4
023e
feb0
00dc
01a1
ff79
fe8f
fcb9
fe19
008b
fed1
fffc
017c
fe8e
fe97
ff40
0048
0138
011a
0000
0074
0131
fea2
fee0
fe88
00ee
ffcd
012c
fecb
0098
0033
ff3e
ff51
fe2c
fcdd
000d
fed9
00c1
0165
fe6a
fee3
0236
fff9
ff89
fab2
0089
ff86
fbcd
006e
018f
ff13
01b7
0076
fed5
02ce
fedd
ffeb
00f4
ff90
002a
ffd7
fe82
ff69
fe81
020f
023c
fe01
ff77
fff9
028f
0388
008c
ff1d
ff37
fdc0
0071
0045
0119
0111
030f
0229
0076
fff7
0101
0022
004e
0241
ff48
fe96
ff1c
0240
ffcd
0128
00fa
0074
fe1f
fe85
0282
fd7a
0031
0073
043c
0207
fbb3
fe84
0462
ff27
fe81
0181
ff8c
00ba
ff05
ff6d
001f
010a
fecf
0113
fecd
ff7a
fe8c
fec9
00e4
0059
fee9
ff9e
034d
fd7f
010b
014f
0171
fe8d
ff4e
fe42
fffe
fed4
00bf
fce9
0228
05cb
026f
0245
fed1
00a8
fcce
013e
0142
fdc7
00b4
0064
fecc
ff3d
ff5e
0006
017f
fa69
fe38
fe5b
010e
fe69
01de
01ef
fe60
00a3
fe8f
0275
fd76
ff4c
ffc4
fd26
0024
02cb
002a
0064
fb3f
0101
ff15
fe54
fd70
017e
fd84
fe52
023d
0081
00ab
ff9d
01b8
0028
fe9a
ff51
0058
0084
fc75
fe9f
02ef
019c
01d0
01dd
024c
fe5f
fd99
fcdc
010c
ffe6
fe07
00ba
002f
ff95
ffd5
01c1
fe85
ff1a
ff6a
fe67
fdb8
00cc
ff12
ffcc
02ae
ffb4
ff49
fe0a
fb6b
005d
005f
fe6a
013f
fe7a
00d5
ffaf
0112
ff1a
02ba
0303
00cb
ff7e
fc94
01cb
fcd9
0000
037c
00c5
fbf6
fd59
0080
ffe8
ff69
fff9
fece
027f
0525
fe28
feb3
ffef
001a
020e
01bd
ff5f
0106
feb3
015b
fe64
0094
ff76
fdc5
02af
ffa2
fee5
fc89
f981
fb1f
0061
00d9
fefa
0269
0038
00eb
0115
059a
fde0
00a9
fdce
fc90
fd9a
fe81
0049
006c
022e
feaf
ffa8
ff07
ff15
ff11
02f0
0677
fdd0
000d
ffcf
feff
ffd0
fee7
fead
f9c3
0099
0004
0093
ffa9
f8bf
00c4
0397
0257
ff48
04e8
003b
fc4a
ff94
fd2c
ffed
00e7
04bc
00ac
00d0
fe19
ff70
0074
ff18
ffbf
ff98
fea4
026a
fed7
005d
01b8
0081
fc50
00ea
ff5f
fffc
fe75
0289
ff7d
010f
ffc5
00b5
feb7
ff39
00f1
0010
ffef
0166
ffff
00b4
00b1
fe84
fddc
ff87
005e
00d3
058f
010e
ff76
ffd5
012f
ff2d
ff5f
0031
ff54
fff7
fd15
fbba
0130
fe9e
0154
fd1c
febb
000e
ff70
00b1
005b
fe97
ff5c
00b5
028e
ff65
0038
ff9e
ffce
00cb
02fb
00a4
ff6f
006d
fde7
ff30
ff58
05bd
0078
00a7
ffff
ffaf
fbea
fed4
031e
ffe8
fcf4
002c
fff8
feb6
0455
fd96
ff9c
fcac
ff33
ff80
fd8e
008f
ff72
ff34
024b
ff22
011b
fe0a
ffd4
003a
ffa4
0022
03f4
ffe1
fe37
0059
f65b
0033
fd05
00ba
ff77
0156
0129
ff8d
feff
010a
ff51
fe09
0080
fd40
ff80
ff42
fea8
024f
0022
00e2
fd5a
ff4a
00a3
fec3
016d
0010
0071
ff61
ff43
ff39
0182
fe0f
01a9
0164
00c8
ffbd
0247
019c
ff1c
ffed
0690
fe3d
00b0
0007
0136
0262
fdc8
fed0
0101
00d0
0247
01e8
fe6e
fedf
0072
0085
0054
0105
ffe9
fef9
004c
ffe3
fe13
fea3
fc40
007b
ff59
fecb
001c
044a
0022
0059
033e
ffed
fe2f
000f
0032
ff9a
02bc
00fb
00cd
fe84
012a
ffcc
02ba
fe67
0676
007d
fd3f
ffeb
00e0
0252
01f2
fe19
0043
04eb
0133
0062
003d
ffd7
046d
ffbd
0189
ff22
00bc
014d
fe38
011d
026b
ff15
fc5a
fde9
01af
fed1
0210
0127
fef9
fe8f
0182
fd3d
ff51
0341
00c8
015f
fcdc
ff22
ff64
fd32
ff93
0202
fdb5
0191
ff6a
feac
0000
ff06
0003
0148
ff87
02a3
ff92
ff60
ffa4
fd5f
0093
02fb
fed1
0181
0429
ff27
fff1
fe7e
04e2
ffe5
023d
ffe7
ff7c
03d6
00ae
00fa
0016
fec6
0095
0026
ffa0
fdef
feef
feac
ff60
0149
0285
fe23
0002
ff9c
00b2
fa67
022b
01ca
fffc
fd3d
00b5
fe22
006c
00ef
00e7
ff26
fe79
fd0b
0303
013b
fee9
fefb
00a2
01c5
ff5d
ff8e
00c9
0217
0266
00df
ff38
00fd
fec4
fddf
02c6
01e8
fbec
02f5
01ac
f5c9
0012
ffc4
03fb
fef4
ff3a
004c
0190
ffe6
fe03
fd3c
03c5
022a
0226
01c2
fe6a
0047
010a
014d
028a
fe68
ffea
020e
0104
01ac
ffb5
ff69
02e9
f8a4
01f0
ff10
0474
ff58
ffd1
00e6
ff79
0337
febe
04aa
fe87
ff4d
fe3f
fdc1
0172
0133
ff2c
ff0c
fb95
ffed
ff3c
0131
fd29
01a9
0042
fed2
03db
016f
fdbd
fcfe
0196
ff5b
0313
0223
fd9e
fdea
ff52
0047
0132
0331
0316
ff26
ff0a
fe53
fe45
fe0d
00b4
00c5
fe62
007c
00ad
ffb0
ffe4
053f
00e3
ffba
fe98
00d3
ff25
01f9
ff78
ffc5
02b4
fe0c
fd28
ff64
ff53
0071
00be
001b
0211
fe3e
ffdd
0095
013c
ff4c
0269
01e5
000c
ff59
fd6b
00e8
ff3d
fef7
0411
008a
f593
0031
ff3a
ff03
fd60
007e
ffd0
0255
0557
ffca
004c
ff5c
ffab
006a
ffdd
ff82
0009
0061
0091
0122
fedf
ff66
0052
002c
fffb
fded
fd59
fed6
fbda
fea1
01eb
ffd0
03cc
fff0
009c
ff8c
053a
fbe2
0243
fe5f
fad7
00fb
fcdc
ff46
00c3
0289
027e
019c
feff
0140
ffbe
ff22
0329
fe14
015d
fef8
fad2
ffa3
ffe9
fef4
fd39
0256
0025
ff5f
fe94
fc76
02c5
0115
035b
003c
0287
02d2
fd6a
0064
ff25
014f
024a
ff86
00bf
00b8
0122
fff0
fcd8
ffda
0038
00d4
00b3
021c
01fc
ff0f
0102
fcf1
fc39
0147
fe34
fec7
f73b
01f2
fee5
0157
0066
0134
0049
ffc4
008c
021f
ff7e
0189
ff20
0129
0690
fff6
001c
014e
0001
ff72
02c9
fed9
00d3
02da
00d7
ff95
fed2
012c
ff6b
ff5c
02b3
fdb8
008b
00f2
0108
fef6
ffc9
006a
ffb3
00bb
00a5
ffe0
005c
0011
0165
00cf
ff6e
fde0
fb6a
00b7
013d
fdcb
fda5
ffae
fe08
0018
0141
0628
013c
001e
fdf7
0005
fda6
00a6
029c
002d
ff6f
fe78
0075
00e9
03f7
fcf4
ff16
ffb8
00cf
0109
fbec
019a
02a0
01b1
0279
ffc1
fe28
fdae
fe9a
ff8d
0001
ffaa
05fc
ff84
fe0c
00aa
fa26
ff18
fde5
0384
01c9
008e
0313
014c
ff1a
00b2
fe86
00d4
0181
fea6
ff8e
fd22
ffe7
01c1
0174
0112
fab1
fea9
ffb8
ff68
feff
feb4
fea0
ff04
047c
ffdb
01f1
fd4b
02eb
0187
0061
0014
03a5
00ac
00a0
ff7e
0321
fe8d
029a
0092
fe39
006d
ff05
fe5d
00cf
ff88
02f9
00e6
fea0
febc
fd2b
fe4a
024a
fc3c
034f
fd41
ff80
ff97
fc82
0136
ffd1
007a
ff59
fee8
ff48
0657
fe34
ff1a
ff2f
fe41
02d8
023b
fcea
ffb5
01bc
00d2
0363
0021
0035
ffc5
02e6
fe5d
0899
0026
fe9e
fe2c
0275
013f
0291
fe2a
0174
07cb
01f9
0095
fdfb
fec9
04ca
007d
fed8
0154
fdb2
0084
0046
0249
05a1
009b
fc0f
00e9
00d6
0000
0250
0141
001b
fee2
0543
ff19
0382
0165
fde9
0131
fefb
0050
fe05
fe2c
ff3f
01bc
ff1c
0017
00f6
fea4
0041
fe86
00fb
ff34
017e
0150
036a
005c
00d5
fdb3
0053
0168
008d
0264
0404
ff40
003a
fea5
04b7
ff91
035e
ffa4
fdb0
02b4
fede
fea1
ffcd
fe9c
ff3d
ffba
fccb
fd7a
ffea
00e4
ff99
00a9
ffc7
fee1
0292
ff62
00c4
ff8a
0037
0092
00c7
fdc4
00da
fe68
0042
003e
fbb3
ff2c
fd2a
fdbb
0074
ff72
ff8f
ffde
0114
00c0
fe73
ff07
ff67
0125
0053
0057
fe6c
ffe7
0099
ff96
014b
0010
ffe2
007a
ff5d
fdd1
0126
025c
0117
fe9a
fcc8
fe9a
fe66
0118
fd89
fef7
005f
fff4
ff32
ff91
0147
0037
02be
fef0
fe94
fde3
005a
010b
0085
0178
fffb
0003
018f
fcc9
fefc
ffa0
ff02
0043
fbd2
00a8
ff6d
02ea
ff1d
fe17
ffa9
ff0c
ff50
fd7b
0104
00a3
0028
fedb
00cf
00a2
0108
fdeb
fb50
00f0
ff5b
fe7f
fef7
fe6a
fe5e
fd6d
0173
ffe4
ff08
020c
fe71
0169
01ef
021f
00ab
ff41
002a
0113
0315
ff7e
fe3b
fe4f
0069
ff46
ff53
0082
0215
0064
004d
00ea
0058
0101
feb0
0085
fea7
0228
ff58
ff6f
011a
ffdc
ffb3
018b
0037
01f2
ff80
00cd
0002
007e
ffef
ffa9
0082
ff1e
0248
027c
002b
fe43
ff5a
00fc
0237
0086
010f
0043
fbe8
0298
0010
fdc0
ff11
00a1
feea
006d
ff53
ff2a
ffb2
0062
009d
0018
fef0
fea8
ff50
0067
024d
03f5
fc78
022b
ff4f
0212
0239
fefc
fc76
0278
fd12
fe52
01a6
ff3f
027d
00e9
007b
ff94
02f5
fdda
009a
fd55
001a
002d
00b7
fec3
016c
002a
0043
fe1d
fe44
0173
fde0
fd22
02d2
fcca
0022
ff11
00ea
ffa1
ff6f
0071
01d6
0153
ff6d
fe52
0059
ffbe
00c1
00d2
ffc0
00da
fd03
019f
0430
ffbf
0141
00bf
0130
0086
ff32
fffd
ffae
0102
0044
feea
ffde
0004
feb0
0100
00cd
ff54
ffcb
fdc4
0018
0206
019a
0159
fc1f
01ad
0114
febe
fff0
0094
0000
fe7a
01c3
0064
0092
fcb0
feb6
0008
01ff
ff48
0070
0121
0000
fdee
fe86
fef6
0028
014a
fefc
00cd
fe86
010e
ff02
fd78
0384
fe45
00ef
ff23
0116
0303
0092
00c3
fe9d
00cb
008b
ff21
ffa3
fd71
ff5d
ffb2
fc71
00b3
00d1
0257
008e
fecc
0029
00d2
ff0a
fe47
00d2
01c2
fea3
ffac
003e
ff34
00bd
fed4
ff56
fefe
fed7
fed4
01ea
0097
fd39
fd2f
003a
0047
00dd
011d
fe2c
002c
ffd8
0150
0042
004e
016b
ffc3
fea1
0092
0001
00c8
0390
ff4f
ff39
0228
fffe
ff7b
fea3
00b8
00a1
fe24
fee4
01e9
ff60
0109
fcef
0129
0050
ff51
013a
ffb3
0172
01fe
ffe8
ff13
ffca
fdbd
ff48
fe03
fe57
0166
fc7b
ffc8
044e
feff
ff8c
fe26
ffab
ff50
fea8
ff45
02ec
0184
fee6
010d
ff3e
fde0
0004
ff3e
ffb3
0013
012f
0019
0134
0104
ffb5
0299
fff5
ff47
fd21
fb7c
01e8
ff2b
0050
ff50
ff52
febb
fe3c
ffec
0159
007b
ffc4
00c9
ffd5
0429
ffd1
ffcd
0168
ff51
028f
0384
fdf8
ff18
000d
0058
017b
ffef
fec4
fe91
0217
feee
0230
fece
0047
fdb3
ffe7
0243
0149
fe3b
ff7d
02bd
fdae
fee0
ff74
ff86
041a
ff25
ffd1
01f9
fab6
ff37
015b
02ad
02f3
017e
fe69
00c5
001c
ff54
0078
00f9
fe6a
0066
005a
0107
0315
ffff
ff87
fe20
fe57
ff90
0090
00cf
ffbf
037c
ff37
00f1
0036
fe9a
0096
ff3d
01d6
fff1
ff4f
004c
0496
002a
0072
fede
fd8b
ff6e
fd90
012a
0270
00d1
ff75
fbc8
00fd
0132
ffce
ff25
0149
0267
fefc
fd0d
ff5a
ff9b
0007
ffb3
fe95
fd28
ff5d
003a
ff24
0063
fe03
003a
017a
fe4b
00da
03c3
feea
fee9
0083
feb6
fdc6
0057
ff0b
fe52
0366
0206
fd97
00ef
fa37
fd63
feb6
ff68
fe57
ff8d
fefe
fe26
ff46
00ee
0062
0077
fff1
0067
0006
ff7c
ff39
006b
fc88
fdc6
0161
f67b
00c3
008a
fec6
00b1
ff60
fcb7
0123
fe7b
0287
fee5
0234
0587
fea6
ffe7
fb59
0133
ffdd
0328
0310
fb4c
ff72
0113
00b0
ff37
fd92
029f
ffc4
fa47
ff76
ff5e
01b9
ffab
0386
02ba
fe68
014e
ff88
0013
fdbb
ff43
01ce
fe43
ffbf
02ba
fe49
ffe1
fab2
ffea
014d
0325
ff38
0160
fe8b
ff8e
02d6
01ac
00f9
fcf9
feca
0093
fadd
fec8
fed7
ff1c
00ef
0034
0081
01d6
04b8
0196
0122
fd70
01ab
0138
ffbe
fff3
0007
fe45
ff37
fe81
0051
05e7
000b
ff1c
0370
fdca
fe7c
ffad
fdb6
007c
ff48
fe83
fe94
0044
fede
ff7f
008c
fe08
fd79
015d
016d
ff7e
0122
ff68
00be
03c2
00b0
00c2
fff2
02e0
fe98
fe70
ff0c
009c
020d
fbd7
0158
fee8
ff8c
ffb8
fdc2
003d
0482
fd8f
0268
ff20
0021
ff63
ff84
ffea
feeb
008d
0177
fea2
ff56
005a
00a5
000b
0164
fe70
ffd7
f3c8
fd86
ff3c
02af
00d3
fe7d
ff48
0128
0267
0568
0000
02b3
fe33
02b3
feea
00af
0171
fe5b
015c
02e4
febc
feb0
003e
00af
0218
00b7
feb4
0172
02a4
ff9a
00ad
fe6e
ff5e
fe8e
ff3f
006d
0221
01a7
f548
00dc
0306
03f9
ff80
00f4
002e
0022
ff03
fbb6
ffcb
0161
01b4
0001
ffd1
ff2b
ff14
fc33
0170
026f
fe98
ff1c
025a
fea0
ffe5
0183
00d8
fc60
0001
005d
00ca
03c4
04a2
0111
fdea
fe72
fef3
fd86
00a0
fee3
010c
008b
ffc8
00d4
0033
0099
ffa9
ffc5
fe92
011a
036b
04f0
0035
01bc
025e
fe9c
fc3b
ff6d
00d6
ff9c
ffd9
fd1d
fbb2
ff87
ff0b
022a
0096
fea7
01a1
0034
ffea
ffc4
fdf5
00c2
00c9
0054
ff5f
ffbb
fff4
0146
00b7
00b5
0247
fe84
0029
fdb6
fe4b
027a
0652
005a
01d8
0029
fff1
0088
0156
fede
00ea
fe30
00a5
00ca
0034
033b
fccc
ff36
fe36
fe7e
fee6
fe9f
0022
00da
0027
ffa0
015d
01d9
fe7d
ffba
0040
ffe1
0015
ff38
fe9a
fd53
fe1c
faa8
fec0
fe68
051a
fd6a
0031
fd0c
ff9f
fdf9
fe22
ff05
fe96
000e
fde6
00d5
014c
ff63
020a
fe0a
ff7a
ff9c
ff57
021d
ff0f
01be
ff1e
ffc5
0080
fe37
ff1c
03d5
fba9
0244
ff9c
fe76
0115
fe76
ffc6
ff78
0185
05ed
fe6d
02b4
0226
ff76
028b
ffef
009d
037e
015b
022d
00e8
fe05
ff33
003e
05a4
ff73
fd16
007b
fbbc
ff3c
ff04
ff7d
fb59
fe1d
ff6d
012d
fe99
feb7
00e0
00bc
0169
ffbe
ff2c
feba
fd23
fd0e
ff87
02ad
017c
0136
004f
025b
ff8d
ffa1
0036
0b20
001b
feff
fe10
ff4c
0137
ff11
fef7
fd83
01d8
03c3
00e9
0028
ff39
fe13
fe9c
0450
ff1c
ff32
0208
feba
02e0
ff70
fed7
fe8a
fd73
012f
00b1
00cd
03f4
fef3
feaa
fffb
fde3
016d
ffaa
fec8
ff83
00fa
0090
0441
fe3b
00ce
ff47
0183
0312
ff41
001d
009b
fed1
0107
ffeb
007e
ffe9
fdbc
0160
0077
fc81
0156
02a8
021c
02a4
fe21
fe1e
009e
0013
01ad
feee
0166
ffa8
0167
02fb
0119
00bb
fe3e
008a
fe20
fe6c
fd82
fe36
008b
fd6d
ffbe
0180
ffb9
ff64
fec8
00b2
fd49
f519
0113
000a
0312
fefe
0148
00ff
000e
ff71
fc0e
ff20
0113
fe81
fcb4
ff3f
feff
fec3
009c
0208
fd64
fd19
ffa9
004d
02f4
00e0
00e5
015c
fea2
ff11
ffdc
016a
f837
0292
ff90
edab
ff0e
fd41
ffa2
fed2
0065
fd24
ffc5
006a
0047
fcf4
008c
0505
00ea
00b0
fd9d
00f7
010d
0313
0663
fbca
fe8f
00ac
0125
002a
fe06
014a
0176
f4bc
018c
0014
0026
fea9
ffd7
0179
fb91
ffdc
00c2
03c9
0038
ffac
005e
fd1e
001d
0142
fbba
fe79
00f7
fffb
fef6
0586
ff63
015b
ffe5
0007
000c
021a
fefd
fd5b
ff0a
016a
02f1
01c9
fece
fb69
0102
008c
fd35
0348
04df
ff15
feac
fd30
01e4
01fe
fe22
fd8b
ff3f
fe9d
00d0
007c
0212
06a8
0234
ffee
fe20
01aa
ff73
fe11
fefa
ffeb
fe97
fec9
fc42
ffc4
02d7
025d
fef0
006c
fe2e
012e
00eb
ff95
0039
fdc5
018c
01ee
ffc3
0328
ff82
feed
0104
fecb
fd54
01d9
01a5
ff39
fe77
0019
ff52
ffcb
007c
003c
fe06
fd02
0243
00ee
ff64
005a
ff44
0094
ff59
ff17
fe7e
feae
fdae
fd12
024f
fd7f
ff88
ffb7
fe24
fc3c
fded
fc27
02dc
fe23
fcec
ffc4
ffbd
fe68
0068
fcc9
04c8
fffc
0327
ffbd
018b
00e3
ff3c
fd18
04f1
fdf6
00e3
fec1
0274
ff22
ff50
fd7c
03e7
02d0
fe8e
01af
ff16
0180
01ec
00d5
ff0c
00b5
00b7
f419
011e
ffc5
fd17
0037
0168
0351
029e
ff48
fee6
00e5
0166
fbd6
ff18
fe15
ffc0
0086
f679
00fa
ffe6
0074
0118
01fb
00bb
015b
023a
fcf0
009f
0161
ff90
02b1
00dd
0367
ff8b
ffc0
0092
ff09
fe8d
ff55
0175
00a2
fef1
ffe1
fe27
0000
057b
ff9b
0196
fed3
01ef
0174
fd12
0008
039c
02fa
fd9a
ff04
0183
036b
0064
00aa
0065
fadd
ff09
005e
024f
fe42
ff2f
0069
027a
01da
025c
fcee
0072
00f1
fe0f
ff6e
01f1
fc28
fea9
ffd2
027a
fe8d
ffa7
ff26
fe8d
fe37
00a8
07d1
0231
01a9
fef6
0033
01b6
016e
fd46
0228
0301
ff57
004e
00c1
0036
fa45
ff4b
fd56
ffbf
01c0
ff7b
0000
01b9
ffd6
001a
0077
ffbc
fde7
0047
016e
008e
fec1
fe4e
ff5f
fa2f
0041
0286
fe68
fe96
0769
fe24
012e
023f
0052
ff34
ff51
0308
00fe
ff34
febf
fe8a
fe51
0118
0093
fff6
ff0e
04eb
fd9a
002e
00ee
00b7
ff5f
ff30
ff26
fd06
0038
00fb
fb5f
0189
ff98
fd03
ffc8
0043
fde3
00f2
ff79
fedc
fe16
03f2
03e9
fe5a
01c6
fff5
ff10
02db
0298
02b2
01f6
fdd4
fed7
fd99
ffd6
000f
f84d
03ff
faaa
feee
fed6
fcd3
0217
008d
01c1
fff1
fe5e
fdfe
04ed
03db
feda
fe58
fd7f
01f2
0059
fb3d
ffeb
032c
022c
ff92
021d
014f
00d6
0012
ff60
10ae
0111
ff18
fc8c
fe55
feda
ff7a
fefc
ffc1
0d3e
0254
fec7
01f2
fdb4
0033
0071
fdc5
fe60
fc6f
003d
0046
039e
ff19
fbbf
ff1c
ff10
ff99
037a
019d
0326
fe50
ffb1
00fc
ff99
0194
ffba
ff46
0081
0238
019b
fe57
005e
0014
fd77
02a4
ff1c
fd2f
feb9
fe92
fdb5
ff04
ff7f
01c1
0114
ffb7
ff0c
ff38
facd
fea7
fea9
0039
00d8
ff0f
fe07
0249
fede
ff1b
004a
0209
024e
0203
018d
ff68
fe0d
feb6
fe36
ff95
fe76
fbaf
fc07
fe59
013a
0068
ff04
ff95
0135
ff10
0054
fc29
fdd2
fd08
fe1a
026d
fe98
00c0
fdd5
0136
fd42
fd51
ff79
ffb3
fff6
ff42
fff9
0117
016b
0168
00db
fe90
fd26
ffd4
0153
0177
014d
008a
00b6
ffbd
0047
fdcc
001d
fe0f
0437
fd88
f62e
0131
00b4
ffd1
fe55
fcc8
fd66
fe46
0148
ffea
fef9
fd6e
0069
006a
008d
006f
0165
ffd3
00a1
002d
fd65
008a
003d
001f
0009
fdb8
014c
ffa0
f8de
fecb
fed4
fc86
ff33
ffb8
020b
fd9f
ff0c
00f1
ff8b
ffd3
0063
0030
fdad
ffbf
ffbe
00c8
010a
0484
0096
02b8
02db
0010
0014
ffb8
007e
feb0
fe71
017b
ff51
ffe9
0077
02d8
00a3
005b
fec3
0025
0113
fc78
0040
01d7
00fa
ff15
ff0b
02a1
0238
0033
ff9a
ff78
0145
fff0
0028
010e
0574
0025
ff8f
fe15
0187
fd9d
ffcf
0126
0076
fdbc
ff32
fee9
0132
0097
01a7
00f5
ffc3
fcde
0025
ffeb
ffe8
ff5f
ff8f
000f
02b0
0099
000b
febb
011d
016d
fe92
fda4
fde1
01ba
ff9d
0063
fe2d
feed
ff46
ff99
ffb7
fd3c
ff26
ffaf
004e
fe7d
0024
fdea
fef1
000f
feae
0070
04db
fca3
ff5d
009a
ffa5
fd84
ffc7
fdd9
0369
00cf
fc87
036e
ffb0
fdaf
01e4
002c
ff44
fdb8
ffb3
01c5
fdd1
0450
008b
002b
ffff
0038
fd15
0063
fe14
ffdc
021e
ff1e
fe32
fec4
fecc
000e
0270
0104
007d
ff9a
021e
0352
0088
01e7
00f1
01ce
fa7e
ff38
00b2
fc1b
0037
0051
0115
01a0
0029
ff27
0080
010c
fc9c
feea
000b
0093
00ec
fc94
fb8d
fec6
ff4f
fdee
025a
ffac
ffa4
ff4e
fe48
030c
019f
016e
0133
008f
01eb
0061
00bf
00c3
0024
fec4
0065
005a
01ff
02c6
fb7c
ff92
fea8
0151
ff9b
feb3
0092
ff2e
fc8c
fa47
0059
024e
0383
ff29
005b
0004
0081
0025
ff0f
029c
fdc7
fed8
021d
001c
fd44
00df
0053
002c
ff4c
fe72
fcbb
ff05
fdaa
fc5d
0037
febf
fecb
fd8d
007c
ff67
fd46
0096
ffa9
fe01
fdd1
fffe
03bf
fec6
ffdb
ff97
003e
0171
014d
fd07
00ce
ffbf
fe24
ff7d
ff07
fcc7
fbac
005a
ff49
fff5
ff90
0071
000f
ff7d
0050
fea3
0117
0144
0056
ffe2
01d7
00e5
0197
ff71
ffd2
fde1
025c
0430
fea6
ff98
04fa
fd37
01ba
015a
014a
0035
0085
ff20
021f
ff26
fe34
0143
feac
ffa8
011d
00b6
ff04
019b
fee9
005c
027b
fe86
01ea
fd7f
ff15
fc16
ffcb
ff4a
fe6f
fe3d
feb7
fea8
0088
015f
000d
ff9a
ff0b
fc45
fe5c
0158
01f6
ff47
001b
016c
0129
006a
000a
fecd
00d1
fff9
ffbf
fbe6
f6af
0054
faf4
ff9e
fe16
feba
0124
ff16
0400
ff82
00d0
00dd
fdf1
ff79
0318
0133
fef0
ff11
ff2d
0321
0306
fe5d
ffb1
0088
ff88
ff5d
ffc4
01e2
fea5
ffd0
ff8d
0657
ff88
00df
fb9e
fdf3
0123
0046
fe81
0108
07c9
fbd1
ffee
004e
0213
0343
ff04
fe10
fe3d
fddd
01b6
00d4
0379
fecf
fe2f
feb7
ff97
ff72
011f
00dd
03f3
fe44
0079
00a2
00b4
01b0
ffb6
fee9
fd8e
0049
00c1
fc3a
011c
00d6
0018
fffc
00b1
fec4
ff96
00ce
ff9e
febe
fe91
fde1
0124
0382
0020
0261
fe91
fd24
ff6e
fe97
02be
027b
ff04
ffcc
fc79
fcb0
ff9b
0028
0012
01a3
0179
ffb4
fd47
fcef
0008
ff1b
fde2
0000
fe9f
ffc6
0074
ff69
ff40
ff78
0008
fedf
ff76
ff51
083e
fdd9
fed6
0403
ff7b
001b
00c2
fe5e
ffa0
0236
feec
ff34
ff9e
f7d3
ff7a
0087
00d0
0001
0162
fe96
fe25
ffc8
01e9
009b
00af
0084
ff04
0092
008b
fe68
ffdf
0126
fd7d
01d1
fc41
00f7
0196
fdf4
0111
0070
fe97
01d2
ff30
0315
fe7c
fef6
060b
ffb1
fefa
fd69
009e
0145
095d
ff27
fc03
ff22
00b8
00db
ffc1
ff0b
0102
fe5f
fca9
0007
00f8
04d0
007e
0157
fce9
0193
0185
fef5
ff83
feea
ff70
01b3
00fc
0109
ff99
ff6e
000a
fd8f
ff8c
01c6
ff3c
034a
ffeb
ff00
fdc2
022f
fef1
ffd9
fcc4
ffbb
00cb
fe14
00d4
00c7
ffb7
0144
008d
feeb
ffb1
01ac
0174
0182
ff8f
00e6
ffe3
03b0
0067
0067
0144
fe07
ffe1
ffe0
0250
ff5e
0070
00e0
0000
019d
0304
0011
01c6
fda1
fc38
ff94
0051
0011
025a
003e
ff73
00d5
ff6c
fe98
fffd
fe5f
00c2
feae
00ff
ff79
fee9
fd44
01a8
feca
feae
fff5
ff5b
0305
fea1
0128
fe60
00a3
02ca
fd60
00c1
fdb8
fe35
fd75
fdda
012d
0034
ffc7
fedc
ffef
01e0
0102
fe75
fcf4
0090
fdcb
004c
02ca
fe46
ffbd
fb12
fec7
ff01
0259
fd8d
fd05
fea4
ffcc
03b3
0029
ff9f
0121
feec
02d4
ff80
fe88
ff37
fe14
ff1e
ffc4
0050
ffb1
0240
000e
00c3
fe8a
feb2
002f
feff
0188
ffc4
ffff
0235
004f
ff52
010d
ffe4
0091
fb5f
ff2c
008f
fc6b
ffbb
fe34
0219
0117
fe0f
025f
fe3f
016f
0215
febe
02f9
ff14
ffc4
ffc1
ff78
fe9a
ff07
fdb9
00cd
0114
fe51
ff3c
fe45
feea
0038
0108
00ff
036e
013c
ff87
fe81
fe02
01aa
ff5b
ff8f
ff6a
ff8e
0159
fee2
fe9d
ff00
0043
ff2f
006d
fec9
ffaf
0175
028d
fffb
ff61
0060
ff0a
fe33
fcf9
fe61
fda9
fece
fe1c
ff90
00c8
00e5
0116
0197
fe75
ff61
fe6b
fe6c
ffca
000b
ff4d
ff8b
feb2
0056
ff97
00e3
01b5
0134
fd5c
ff60
fe4d
fe69
febb
016a
0080
0450
0012
0016
01a3
0137
010f
0200
ff9a
00a7
fef8
ffac
0095
0034
fe11
fb5b
fe89
ff8a
00ce
001a
00d3
0011
ffa0
0162
fd7a
0088
0172
fe33
00e8
00d3
0067
ff3e
fd99
fdd4
fe33
fed8
ffa4
ff4e
fe52
0251
fe78
00be
fb0f
ffea
fea5
01bb
ffab
fff9
014d
fea4
ffa0
0177
fdba
0107
fea9
0009
ff27
00a8
ffdc
ff85
01d8
0147
ff96
01af
fe58
feb4
01bf
fca8
007f
ff58
fe8e
0032
fbb5
010a
ff6d
01f0
03f4
ff60
0157
014b
0185
020b
00bf
012e
0401
ffac
0122
ff70
fec9
0005
ff6e
ffaa
fd02
fef5
000f
fddf
027f
fddc
ff46
fe30
fe3f
fe0f
0143
fb7f
ff9a
fef4
00ac
008b
0057
ffb3
ff3e
fcad
ff48
ff6d
ff35
013f
0020
ff2f
0113
0000
fe7c
ff2a
036f
ff78
0067
fdd5
ff5b
0079
ff0c
00aa
ff81
01b7
00a6
ffeb
ffc5
fec8
fc45
fee0
015a
fd6a
fea3
0144
fd9d
fe19
fd24
0221
fd6c
fff1
012b
01e6
015d
052a
ff69
fd3d
fced
0151
ff84
fdb7
fdd9
ff61
ffd6
fdda
fff2
ff54
00b0
01b4
0154
013b
ffab
004e
0027
fd85
0051
ffb0
0091
0053
fc36
00e2
0199
fee8
01ed
ff76
ffa0
ffb8
fccb
ff55
ff4a
0092
ff56
ff08
ffb6
feb3
007a
04bf
fe23
ff74
fdd8
ff0a
ff4d
fdd0
ff8a
fdea
ffe9
ff6f
0021
00e3
fda0
fdd9
fc1d
0111
ffa0
fb3a
0155
00c4
01e8
ffbf
fea9
02bc
ff92
ff26
fc1f
00b1
01b1
ff8f
fb31
ff08
ff1f
0043
00e8
0177
fddc
fee6
0057
0266
01bf
ff65
0117
ffcb
ffb1
fe4c
fcf8
0081
ff32
0151
ffd7
f5b4
003c
ffa9
fe9b
0091
013e
ff9c
fe62
ffbb
ff99
fe5f
fe0e
02ba
fe4a
ff96
febd
026f
00a6
0663
fead
fd45
00a9
ffc1
0002
0211
ffc4
01cc
feae
f90b
01ba
0077
fd30
003d
ff55
fe14
0202
01aa
0054
00ea
feac
fe72
01d4
fe93
fffa
000f
fd9e
00b3
041b
ff9e
002b
0165
04f9
0087
ff93
0072
0011
00ae
008d
ff3e
ff30
011b
fe83
028c
ff67
fbf6
00b1
fd37
fcf9
02cc
00a3
febe
fe69
0075
0198
003b
0392
0156
00a5
ff58
ffe8
feb7
fe10
032e
ffe9
0088
0181
00fe
0059
fdbb
fd8c
ffb2
f8a5
fce5
fee9
ff69
02a6
025a
ffbe
00e6
0239
010c
0071
ff96
ff4d
0184
ffbd
0303
fd40
028a
fe69
0122
006a
fe48
005b
000e
0370
fd0f
ff24
fdc6
fd38
fed3
004d
fefb
fb0b
fced
ffb6
006e
fef9
0069
000a
feaf
ff4e
00c8
0000
ff86
fb98
ffa4
fff8
ff05
ffc3
ff21
ffb8
fc0e
fe25
fc77
032f
ff35
fb61
0102
0048
fed8
fb52
fe7e
0206
0082
0497
0137
02a6
ff61
fdbf
fc49
ff87
0315
0105
0191
0126
002c
fe4e
ff55
00e1
fdf9
011c
006d
00b8
00a8
0237
fe98
0108
fe50
00d7
fb92
0082
009a
f97d
ff2a
0220
03dd
007a
ff73
0346
fee2
0160
ff3e
008e
03b4
fe73
ff0b
fc52
ffb0
fe2e
ffe1
0012
013c
ff61
fdba
0013
fdd8
0220
02c5
fe2a
0040
04f1
032a
004b
ffc1
017c
0120
002d
0250
fea1
007f
00dc
002b
fe2e
fe76
0461
000d
ffe9
fd3c
0026
ff47
f9e5
0046
0200
01f3
ffba
fd59
00c2
0049
fec0
013c
fdc0
fbca
fe00
00fb
0239
010b
fdf3
fff0
0039
ff66
005b
fec3
ff24
ff48
fd60
0012
fffb
feef
008b
006a
fdcb
ff20
fe7f
00b5
fde8
003e
ffde
04e0
0082
0047
00a2
007f
0005
ff1a
fdcd
0187
ffdb
0120
ffc3
ff75
fdb5
fb8c
000a
fdcb
0042
ffdf
ff84
ff37
fec9
001b
fc75
ffca
0178
fe5f
0052
0142
ff82
ff46
fac5
fca6
fe6f
0021
053d
fec6
ff95
0468
fef7
ffcc
fbd3
0070
fe0e
00da
ffdb
ff59
fe76
fea6
fff0
013f
fe29
ff72
fe86
fcf6
01a7
ff06
000b
0149
0092
0023
ff93
0096
f858
fe1d
fff3
fdd0
fe79
fefd
ffc4
01aa
fbd4
fef9
00c1
00dc
fc73
fffe
0220
0234
021b
0085
000b
0078
021e
01e3
0055
fe04
0019
ffc1
fecd
00b3
ff95
fbd4
012f
fc90
014f
ffda
0031
ff9b
00ad
ff64
02a9
fe49
0065
0158
00f8
0017
fe90
ff37
0038
fe98
ff2a
00ee
0080
0140
fe30
023b
fe4b
fe44
fe03
ff3a
07d8
005c
fff8
fe15
fecf
ff7b
fe90
01a0
0090
038d
ff73
fee2
00f3
fe0b
fa01
fe8c
0006
ff52
fbbb
006d
ffbd
02c2
fa44
feca
fe66
ff6f
ff7a
02b0
014d
046b
ffce
ffac
fb65
0007
ff8d
fe88
00e2
03d7
0109
0005
fddb
ffe0
0161
ff31
ffeb
fe6b
fec9
ff0b
ff48
ff26
fd5d
ff7f
fedb
0135
fb71
fe50
00ed
ff1a
feea
fca2
ff3b
fecc
fb99
feb2
0059
ffbb
fe8c
0046
006c
02ab
0132
02af
ffdd
ff52
fdb4
fee9
ffed
fe47
006b
fdd3
ff4e
0129
ff9d
fee6
0077
fe88
fca7
00ce
fe05
fe16
fbbc
feb7
023a
fef0
ff6b
febd
ff9a
ffbe
fd78
01e8
fec2
0169
ff5c
feea
ffbe
0165
0195
0215
fd76
fe00
0037
014e
0112
008f
009b
00c9
fe7f
ff60
fd2a
fe1c
0180
00ab
ff2c
fb4c
0050
020c
fec9
fee5
ff02
fe4a
feaf
fff1
feac
fe48
fe6f
01c7
fe52
00bb
fddb
0066
fcf6
031d
fede
fd8d
0194
0021
ffb8
0227
ffc2
0205
fdfa
f89c
ffc1
fe32
fdf3
00dd
013f
0211
005b
ffbe
007a
02b2
ff9a
ff2f
ffe1
00e3
00e7
ff03
ffe9
00e6
0477
0153
015c
011f
0530
ffed
ff8e
005c
001c
fef2
0308
ffb5
0067
00cf
0210
0028
ffb2
fd8d
fd7b
fcc3
fd2f
fe68
fffe
fff6
026b
0088
016a
01a0
045f
ff76
ffe6
011d
ffb6
ff9d
fe83
02be
0078
ff78
fdda
0074
fe8f
fdc5
00dc
fee7
fcb6
fdb5
0037
fedf
0292
021e
01f1
012f
0050
01dc
ff88
01a6
ff4c
0085
fe0e
fdf8
0030
01ec
fded
0091
01c4
fe2a
ff1b
fd68
036d
fe86
001f
00b2
feb1
ff8a
ff29
01d7
fc8e
fe72
fffc
0089
ffd4
0067
fe6d
0054
00ba
ff67
0020
026b
fccf
fe1b
ff40
ffe7
fed1
ff24
fe44
fdf8
01be
fd57
019e
fbbc
fcad
02c1
fee1
ff1b
f9c9
ffee
00e3
ffd1
01ec
0179
0009
0121
ff0d
00d8
ff09
0168
ffcb
00a7
0091
ff55
fb05
fff1
fed6
fcd7
0227
00ed
ff48
0139
0290
ff60
00df
fd81
0147
ff46
0099
ff5e
fcde
0080
0034
0633
ff16
ff56
017d
ff97
ffe8
ff2f
fe07
00ee
ff5f
007d
ffdc
fda9
006b
fff3
fde1
ff92
ffd5
ff36
fe06
ffc0
01df
01a4
0189
00fb
0245
01c0
00b7
0119
015d
0051
ff33
ffc0
feb0
020a
00c2
ffcd
0047
fe58
fdf5
fe80
0045
fc0e
fe9f
fba5
fa29
016e
0143
02fa
0001
feda
ff65
0069
0131
ffba
ff43
fd25
fe49
014b
0118
fc35
ff3c
feff
fedb
fd3a
febb
fea0
ff22
fe09
fc70
00c9
fe6d
ff35
00cf
007c
fd56
ff3c
00b0
fe51
fe2a
0027
ff7a
0288
fe92
ff30
fe72
0024
007a
00ef
fec8
01b2
fd1e
feb1
ff75
006b
feee
fefe
ffe3
fdcc
ff6e
ffb5
00d2
fef3
ff44
0068
fcb9
0070
0054
ffa7
006d
01ca
004e
ff7b
fda5
fe1a
ffc0
015d
04f1
feae
ff8b
0264
fe61
0178
fe05
00ee
0067
0106
0005
0147
fed2
00f3
0159
fecb
fe89
00bc
fe8c
0086
0169
ff53
0006
00d9
ffb9
00c3
fdf0
fe39
fa2a
ff6d
fed0
fe61
fe8c
ff30
ff7b
0499
fe3d
fefe
fe9a
fec7
fa6e
0067
0130
0250
0054
020b
003a
00a2
00fb
0106
fe4b
ff40
ff88
0006
fe07
fbd3
0122
fcd5
ffcb
fedd
016d
008b
00a9
0074
00a9
fece
0236
fced
ffa9
0181
00ae
ffee
fda2
0030
0036
fd26
00f6
003b
0120
0057
011c
ff72
ffb8
fe2e
fea1
fe90
02dc
0017
01e0
fce6
fe7f
00ed
ff46
0019
015f
0561
fc7e
0127
fe4b
ffc3
fde2
009d
ffb1
fe7a
ffa0
0090
0166
044d
fb44
fd01
fd36
fdcb
feda
00af
00a6
033a
ff20
ff31
fd50
ff5b
ff2a
fe4e
fd8c
ffbf
0109
ffed
ff12
ff9f
003d
ff95
fedd
fee5
0060
0011
0058
ffd1
fff4
fff1
ff79
0131
fe83
ffb5
0172
fed4
ff7d
0058
ff95
038d
fe69
ff76
ffa8
fd34
fcf1
ffa2
ff3e
004f
ff18
0278
00ef
ffef
fd51
00a0
ff81
ff3a
0199
ff9c
0038
fe78
0152
0088
fff1
0092
fe05
0049
01b6
01dc
ff19
ffae
0251
fe54
008d
0119
fecc
fc81
fe27
0272
ffe6
fd02
0245
008a
0098
00f9
ff7c
00a0
ffac
fffc
fd44
fed6
00fb
fc74
00ed
fec6
022e
001b
ff28
02b7
021b
fef3
0066
0132
0985
026d
ffbc
fd55
0008
fb49
015d
ff8d
033a
ffc1
fc75
0062
0221
feac
018d
ffbb
fe84
00bb
fff3
0196
0095
00bb
010c
ff5f
ff66
ffc5
ffbf
ffe2
010a
ff68
00c4
00bd
0133
fea6
01f3
ff41
00dd
fe85
018e
fff7
0145
01de
fd8c
fff1
011f
027b
00fb
ff32
0164
ffcc
ffa7
007d
fed3
001e
ff46
ff28
071d
0072
fc47
ff8e
01d4
fc37
0123
ff7d
fb4b
ffbb
0065
0019
0103
01a2
029c
0290
00c4
02da
fe93
0150
ff84
00d0
febd
feef
ff64
0007
ff63
fee5
018c
fe15
fffd
0062
040f
fe8f
ffd0
0112
fd54
00b8
0030
ffb0
fff2
003b
0152
0046
01be
003d
fd1f
002c
fde5
01bc
ffb2
ffcf
fcae
06ae
ff88
00b0
0109
0090
fe62
ff9f
fe97
fd2d
ff80
00d9
ff78
fe2c
fee4
ff9d
fbe2
ff4a
ffd4
0161
018a
0148
0293
fe41
00d4
fdab
ff18
01c7
0137
0013
fee4
fd25
fcb6
fe2f
0103
00e3
03e5
fd86
0219
fec2
fee2
0197
fce5
ffd5
fae9
0029
0141
ff01
fe38
0156
0017
fec0
01fe
0287
ffdd
fe50
06d9
00e7
00d2
fdee
ff99
fca1
fe50
fe3a
ff7f
ff9d
fe5d
fffc
03d1
ff8c
000a
feb8
fca3
0308
0110
0062
ff5c
0000
0058
ffda
fe5c
ff10
0036
0034
0134
ffa3
ffd3
fded
fdfa
ff4c
0054
ff7d
093b
fed9
0320
0333
0366
02a9
ffa8
ff70
006d
fed0
00a6
ff77
015c
feaf
feb1
003b
00c7
00df
fd09
f87e
fd5a
fe0f
003c
ff44
016e
fc4d
00c6
fea9
fd3b
fe41
01f7
01d5
fd8a
00a4
ff2f
ff9e
003e
fffe
ff53
ff18
02c0
027c
061a
0204
01f2
0129
ff97
00d9
001d
ff91
ff25
ff1b
ffea
017d
0051
ff45
fab1
fd8a
feda
0048
ff14
ffbe
0141
00dc
fca3
ffbd
00bc
ffa3
020b
fd89
0369
0155
026e
fdeb
ffbe
fe46
fd82
0154
ffc3
fffe
034b
01cc
0571
ffba
ff35
fde8
0114
fefa
00da
01ae
fec8
0124
0208
fc23
0113
ff8c
ff97
0261
0022
00b4
01fb
0069
fed1
012a
00a5
00e2
000a
0066
ff98
0042
ffd7
00bb
0193
0084
019e
0016
ff46
032a
fd94
ff6f
fddb
faf1
fe03
0106
018b
fb4e
ffec
0090
00b8
fe09
010a
ffc8
fd64
fe41
008c
fe2e
0237
ffb8
ff37
ff52
0120
ff66
016f
0157
fbcd
004c
0335
0192
0015
fe28
ff78
00b0
fe8b
01ab
ff1f
fb72
00d7
00b6
fef3
fe90
0299
ff0d
ff1b
ff63
fde1
0261
002e
fe34
fe4f
02ef
fec1
ff80
ff30
ff87
ff79
00aa
ffee
0294
ffb3
009e
0043
fdce
ff7d
0195
ffdf
007e
0042
ffc7
00f2
ff24
0006
ff09
fd6a
0065
fe92
fc7a
feb2
fdf8
fee1
ffab
034c
f866
007d
0008
fedc
fcbe
0125
01e6
02b4
ffb9
ff7d
fdc3
0038
0062
017f
00de
fcc6
ff59
009a
002e
fc36
0050
ffec
0131
fe00
0048
fe67
ff2b
fe9d
fe28
feba
00b7
fea9
0057
fff6
fdf2
fb33
fd51
fe6a
0084
00ee
005a
ffc0
015b
fe3a
fcdb
002f
ffae
ff45
fce7
ff98
feee
fcf8
ff9f
fb4f
01d9
fe16
ff3b
fe2e
00f1
000c
0120
fef1
ffe9
fd99
fd8f
00df
ffc2
fdee
fd4a
008d
004e
01c2
009a
0047
00df
fdd6
fe66
ff1b
0016
fc7a
ff7c
0199
ffe4
fff1
015d
fc42
fe30
fea8
ff92
0248
003f
009f
014e
ffb6
ff9c
ffbc
fe8f
fd8b
fe2c
00ed
fe1a
02e6
fea6
018a
0076
fea5
0199
00af
fde3
fe84
ff29
01f6
fe1f
0282
ff97
fef5
fedc
022f
fca3
fed5
ff6b
faa7
ff69
02cb
00cb
01c9
017e
ff93
ffb1
ff09
ff89
fefc
ff81
fe35
fee7
ff8a
ffec
fdb1
feee
fa38
fd4f
fdb2
01e4
0121
ff19
ffcf
0076
00da
000d
0197
fffa
002f
01d1
f97f
fee7
ff14
0095
00fc
fe35
0039
0045
0026
0121
f930
ff72
fdb1
0064
0266
fe02
f978
feda
01c5
00d3
006f
fdeb
f990
01b3
ff0a
ff95
ffbc
fed4
0169
016b
ffc4
fd80
fc4b
ff0a
ffca
febf
fd38
004a
fff1
feb3
ffa7
ffe6
fe61
0079
0167
0049
0139
fff8
00e5
0129
fcdd
ffab
fab1
fd47
014a
fe8a
00f4
ff3b
ffad
feca
ffcf
017c
ffd2
fff2
fe34
fe44
fe53
01f0
fc49
00a4
fea9
003f
ff26
0193
ffcf
02b6
0029
fd80
fdd3
fe39
ff29
0102
fca9
ff8b
febb
00c8
00c7
fe15
0103
fea5
0068
ff91
02e1
00f4
fefd
0168
fd9d
fef7
fbaf
fe2d
00aa
ff5d
023a
f9e3
0313
002a
0152
0261
ff64
01af
00c4
ff12
00ba
fecc
fca7
fffb
ff1b
ff9c
fbef
fd4d
0099
febf
0891
018a
014d
ff91
ff80
ffc2
fe6a
0029
fed0
ff08
fe12
00b2
0009
0057
0000
ff40
f696
00a8
f826
014d
ffc5
fdfb
ff2c
ffc0
feac
ff2c
00b5
ff2f
05ac
fe9e
fec7
fe86
fe8e
fe28
0094
0118
022b
fe20
0368
fe81
04ed
032d
0248
feb0
fd5f
0294
00ac
fff0
01a2
fee4
0066
ffe6
007f
fef4
feb7
fe09
fd6a
ff5a
fe2a
0173
0247
fa38
00cc
fed2
008e
fe5d
006f
014c
ff80
fda3
ff4d
feb6
0045
008b
01c1
ff93
ffed
011c
0e17
016c
ff98
015a
00c2
00cb
0020
ffe9
00b9
fe81
fe20
0179
0007
fee5
ff68
ff82
fd28
0062
ff5c
0090
0085
0140
ffd2
ffc7
000f
ffab
06f2
fba5
0924
0035
fe88
ff3b
fd1a
0079
fb24
ff92
ffeb
00c2
0167
fdf1
0e3e
ff76
00bc
0287
ff71
ff69
ffdb
ffa5
0097
017f
006a
fd2b
012b
fe4e
ffae
ff3e
fe91
fe6c
fe2c
fd4a
fc6c
004e
ff62
ff46
fd6f
002b
fe58
010b
0117
00e2
ffa6
fff8
ff95
ff38
0256
02b2
fd07
ff00
0085
fed5
fc70
006f
feef
fda9
05b0
fed0
ffac
00e0
ffe5
02ed
fb53
feb0
fe70
0018
02c2
feae
fddf
ff53
00a9
0071
0356
025d
ffe4
ffea
0343
0184
ff18
fff3
00e7
00f0
ff5c
fcba
fea3
fd49
0169
0040
feed
0083
00af
ff27
fe97
fe39
fc06
fe7e
fdb4
ff0f
fef8
fded
fa7f
ff8b
02cd
00f6
0236
0119
ff0a
fe68
00da
002d
fe74
ffef
ff9d
0393
ff27
ffb1
ff1f
ff9f
ff59
fd6a
fe8d
ff8a
fde7
ff00
ff66
fa15
fc22
002b
fee8
fd75
0097
fb19
015e
0117
fe60
fdce
fe30
ff22
0073
fe0a
ffdf
ff23
0152
ffc4
fd5f
ff91
fd66
fe00
00dd
fceb
fd78
ff5c
ff16
01ba
03e2
fcc1
fef4
003d
0031
0085
00d0
fede
fd84
ff30
ff1e
ff8c
0050
fc53
fd65
004d
ff88
fd40
002e
014a
fc7f
ff3a
0022
006a
fc1f
fd9b
0096
ff1c
feb6
ff19
fa4b
0057
fede
0052
ff89
fe16
0009
ffcb
fe4f
00f4
ff54
fdcf
004c
ff59
fd56
fd6d
fe5b
ff75
01ff
fe42
007c
01be
fc3d
ff5c
020f
ffc6
0005
fbcc
04e6
0174
02d7
0081
fe24
ffc3
fdda
00fc
fffd
fe7b
fe7f
fe1a
00b5
ff81
00da
feec
febb
fea6
01cb
018d
0012
00be
fe96
006d
ffcc
ff18
ffa6
0154
000f
00fa
fe67
ffaa
0078
fed6
0011
03ce
007a
fe80
ffb1
ff3f
fcc3
032e
fdaf
00ab
00cd
00b6
034c
fefd
ffb3
fee7
00c9
007c
0018
fff6
ff24
fe81
fd8a
ff07
0042
fcbb
fa5e
ffd0
ff77
00eb
ff59
008a
0025
0271
ff28
0131
feba
0061
fb52
ffda
ff92
fc8a
001f
ff50
fead
01a0
0159
00dc
ff61
029a
fd7f
fd2f
ffd8
fe40
fc22
fd47
020e
0315
0052
0011
fea2
0023
ffdd
0007
00fc
003a
0011
0052
0241
007b
ff86
ff6c
feb6
ffe2
ffc4
ffe5
fefb
0057
fee6
ff2d
ff5e
02bc
ffb2
ffa8
fefd
fee8
00de
ff92
019c
0054
f9b9
fd65
0084
0077
0150
fed6
fda0
ff0b
ff44
0185
00c8
00c5
ffb2
008a
fe25
f8c0
009f
00d3
007b
016a
fee1
ffb9
0165
0240
001e
fe9f
fea3
fe2f
012f
ffc4
0139
0197
0056
004f
00d8
fea2
001b
fba3
ff77
02bb
ff90
02bc
0170
0177
fdaa
fbf1
fefd
029c
fdf0
0014
feac
fd3d
01ce
025b
fec0
fe49
0300
01a3
0179
ffee
013d
ff2d
01ac
00d8
00c5
fea5
fc47
fda7
ff7e
ffec
ff6b
fc44
047f
ffc2
011c
00d7
fdf8
000b
00bb
fbb0
0159
00a2
fd98
00d0
fead
0138
0188
fbfa
f985
007c
0171
ff4a
fe2e
0234
0174
0043
ffdc
0098
0115
ff60
ff8a
ffb4
00ce
00e7
0146
003e
fc77
ffa2
026e
fe0b
fe67
fa3d
0104
ff39
0159
01e9
01ba
0130
fe8e
0042
ff39
fefc
0101
ffae
fce5
03d9
009b
034e
00a1
0087
fddd
fbb8
01e8
feae
0026
0273
fe7b
01e6
002a
fdd5
fe53
00ef
ff1f
02a2
028a
0148
ff1b
fef3
0722
005a
ffd9
00b9
fffb
0116
00f6
0168
0220
00c3
fc3d
fcbb
009b
0122
0067
01c8
ff6f
01bf
fed2
0066
ff45
00c0
ffaa
ff68
0019
fdd7
02e7
ffd5
02f0
02a8
feab
ff6b
ff35
01fb
fd5f
fffb
ffce
0029
ff96
fec1
05de
ff88
ff0e
00d3
ff5e
fff3
ffd2
fe93
ffc4
0089
00b6
0142
00ea
ff5e
ff14
003d
ff94
fff3
feb6
ff2f
fd2b
015b
fcc1
0031
ff76
ffda
0178
0214
0135
009f
0054
ff10
ffe4
fd8a
ffa4
fa5f
0164
ff0f
02ac
0018
fe55
ff82
0062
0328
0185
0007
ff10
0000
01bd
0362
013e
00fc
ff87
ff6f
013d
ff3a
ff4f
ff69
00b7
025a
0055
02f3
034b
fed9
031d
feff
0200
0158
023e
ffae
fed6
febb
fead
010a
035a
0048
0072
ffb5
0008
02bf
fedc
016a
00f9
ff2f
002e
ffd6
ff17
fef1
fd7a
fe10
00eb
fff8
0175
018d
0054
ff0c
02fd
00ed
ff71
00ff
ff4e
007c
ff13
0043
ff16
0117
ffdd
012d
ff8f
ffe0
fff8
ffb3
ff99
fa58
0114
02b0
fd48
0024
ff54
ffe8
ffdb
0040
0070
0435
fddf
00e3
007d
ff9e
011d
00aa
0105
0149
ff67
ff29
002b
fe4e
ffa3
fe63
022e
ff12
00c5
00c0
031d
fde3
fe4e
ff49
037b
0029
012f
ffd5
fe86
ff15
fffa
00e2
0110
01d5
fc74
feba
018a
febc
ffb7
0043
00d2
019d
feaf
003c
fb57
ff34
00e9
0054
00b3
0046
011c
0077
00eb
ffb6
fef3
fee2
0189
fe0c
000d
0066
01a8
0070
ff5e
018e
025c
033d
fbd2
ffda
ffcd
fef7
ff4b
ff69
fe3d
00bd
feff
ff7a
01fd
fc4d
020c
01a4
fc3a
fc46
0508
0220
ff30
02c2
00e2
0086
fe8a
00c6
ff97
005b
ffb8
01f5
00a1
fd89
025f
fe49
ff75
ff02
0281
022c
0038
05b1
0052
ff6a
ffc8
00d0
06f7
02fd
fe85
fefb
fee4
fc0f
fec2
00dd
0170
fc7b
0112
00b7
0265
ff91
fe5e
0054
fe03
fed1
fe3e
0026
ffd4
ffa6
0365
fed8
0101
0303
0130
ff64
fe46
ff6d
013c
ffe4
ffa6
fc93
00b7
ff76
011d
feed
ff52
ff95
ffec
0160
035d
003d
01d5
0345
ff2f
fd8e
01ff
fee9
00a0
002f
f9c1
ffc3
ffcf
003a
050f
0097
0457
ffee
0005
fcb9
fe61
ff5e
fbd5
0111
ffca
020c
0006
00f4
00e3
01cc
001e
0236
007e
009a
01b3
00b9
0115
ff07
00e8
00e5
ffe8
fff4
feda
fd57
fe1a
ffcf
0358
01c2
0094
00df
fcc5
feff
0469
fe67
0020
fd0e
fd6d
ff8a
006e
fed6
fbe5
fe85
0003
02d1
fd55
002f
fca9
04ee
0322
00e7
00bf
fe29
fe01
00db
0217
fd64
fc81
fe8c
0016
ff9a
ffd4
ffae
fe7e
0000
017e
ffd0
fffd
019d
feda
fdad
0095
fd90
ffb6
0168
0281
026a
ffae
fedb
fa53
fd14
fe26
fdc8
0333
fd85
0101
fe8e
fe95
0182
fe5a
020f
fdcc
fffb
0190
ff03
fc0e
019c
02c5
fede
faeb
028f
ffe5
fe17
0782
0199
fef9
fe6a
ff5e
fedc
ffe9
006a
fe26
00a8
016e
fe0a
00f3
fe0e
fe2f
ffb9
f807
0183
06d4
01c9
ff1f
015a
005e
ffbe
00e8
0021
0086
febf
027c
0005
ffeb
fb18
fe8a
0099
019b
fd9b
0951
0776
ffb2
044d
04be
03ba
fdeb
fdfb
ffb0
f3e5
fffc
000e
004e
ff79
ff06
ff9f
0183
0374
ff5f
f67d
fde5
febc
0040
ff30
0384
1267
fe9f
fe1b
01c7
fe5f
0242
ffe1
fc2e
0248
fecb
fc96
fff0
ffa5
0178
ff6f
019a
0415
fe02
0000
016e
0188
01b7
fe98
0180
ffc5
0058
ff9c
fecb
015b
ff66
001c
fce1
fd64
ff36
0057
fefb
feb1
0115
00d2
fdba
003a
005b
00a8
08e7
fec4
fc46
fea8
0027
fd2e
ffd9
fdf7
fb49
002a
00c6
ff41
00a3
03ef
fe7d
0019
0078
fd2c
004d
008d
0042
029c
00f8
01a6
0157
fd47
fee5
ffe0
fe4d
ff45
ff81
011d
feee
0182
0122
00ca
026b
00e9
feab
004b
0002
fe3a
ff33
fff4
ffd3
0114
011e
00ac
003e
0186
ff8b
00a1
003e
0092
ff7b
ffeb
ff95
fbc4
feaf
0194
ff5e
fca3
0163
ffc9
fee3
fdc8
00c2
ffff
022f
01b5
0061
fe46
0235
fdda
ff7d
019d
fdef
fd9b
0303
00f4
00b3
feb2
fdb4
029b
feb2
0432
fe73
f89a
011f
021d
01d0
fddd
0177
00d1
fef8
012d
fd3a
0189
0329
fc50
ff5d
fe54
00ac
0005
0399
ff8f
fda4
00ea
009b
031f
ffa0
0013
febb
ff80
ff2d
034d
ff2e
0028
ffc1
0069
fe37
fede
010a
ff19
feb7
0126
ffbb
f888
fd08
fe18
01b9
ffc8
00c4
055e
fdbb
0055
fd31
fd7b
0171
017c
01ed
0027
0118
fd82
016d
0056
0289
0107
fd1a
02da
0167
0095
fdd7
008b
018c
00bb
0302
0294
fddd
fe34
00ee
fe3e
0032
ffd1
fde0
0051
00ba
ffb9
fdf3
fc4e
0120
00c0
fe38
0357
fe37
01b8
fc29
fce2
00c0
0014
fb82
ffbd
ff68
ffd7
ffa0
ff46
027c
01db
fe34
ff7d
ff49
ffa4
00c9
00bc
fe5a
0209
fc45
0034
ff25
feb8
fb10
fd87
02b1
003c
025e
03cb
ff04
04d2
fcf1
fde2
fdf2
fe4c
fb0d
ffc3
ffa9
0274
0057
fecd
038c
fc94
fe7b
ffaa
00e1
013d
0017
00c6
ffe6
020b
ffc9
ff78
015a
fd68
005a
fd7b
ff2f
00f6
00c9
028b
00ec
0305
ff1b
fe3f
fea1
fe2a
fef8
0081
008f
015e
ff92
fce4
019c
fe01
fe17
fef1
0304
fe46
fcbb
ff69
f912
fd4b
ff4d
ff6b
ff0f
005a
0100
ff1b
f946
fe79
fe03
ffde
0396
00a9
fcdf
febd
05d2
ff26
ffca
ff2d
ff0a
ffeb
ff1f
ff07
012a
0157
ff1c
0168
05f1
0037
ff25
0184
0216
fe00
ff9d
0028
fe23
01a7
ff07
fe1c
0091
001d
ff1e
ff1d
0439
ff66
ffb9
fe7d
ffda
fe72
faa7
0295
fefa
0308
00de
feb2
00c8
fd16
004c
fe85
fdbf
fe7b
001e
0077
0185
0290
ffca
ff02
0093
fee8
ff9f
fdd1
00ed
fe4d
0390
022d
ff78
ffd9
00ed
ff01
ff3f
ff31
ff8c
ff64
fd19
fe72
fd8b
fcb0
fcc1
fc21
ff52
fed6
fdea
fc24
00e0
03a1
fa04
fb08
ffa5
0038
fd70
02f6
0364
fe47
fc92
fb92
000c
fde9
fe7a
01d4
033a
00d9
f85c
006a
0039
0032
fe83
fec4
0007
fd3b
fc22
fe64
ff5a
0377
fd4d
01fe
feda
fb71
fed7
022f
00e2
fb5a
fe68
fe31
0007
0461
fec0
fb06
0223
ff4c
02fd
fe96
0298
ffa5
fd7e
008c
f9aa
ff5a
ffb5
006b
fa9d
0265
fcd6
fb26
ff2e
fd57
00e2
0099
0194
ff9f
fdd0
0051
fd4d
feac
fd33
ff11
02bc
01f8
01c5
fb25
ffb9
fbbb
ffc0
010e
03cf
015c
ffc9
ff57
025b
ffcf
0010
ff72
fe54
fef3
ff13
01b8
fe6b
fec3
009e
fe7a
fd2a
068a
ff1f
fefb
ff51
027b
fd93
0036
ffc1
fd33
fd55
ff76
ff37
ff7a
0300
024d
0032
fc7d
fde8
fde2
ff69
f9c4
00d0
003d
00f1
fdf6
029f
fc1c
0231
fe41
fe71
feaa
00c3
ff38
ffb8
ff52
0001
002a
ff12
015f
0029
ff41
fce5
0135
ff9f
fe5c
0153
fd92
fc04
010e
fe71
f59a
fe77
fa6e
fdaf
018e
0188
feb5
0193
0453
ff99
00a3
ff98
0064
007a
fd47
fe25
fbfd
ff27
0018
fe65
ffeb
fcfd
00b8
fff8
0063
fe52
fd49
0168
fff3
027e
fe00
fe24
fcce
00e9
0032
ff0f
0359
ffd1
fc91
005b
0020
0096
0053
fdef
fd4f
ff41
fe00
fcd3
fcdd
fee0
006d
fac2
0158
018c
ffde
ff1e
fe77
00c9
00ca
ff28
fd62
fed4
01fb
fc2f
fb02
009c
fe16
01fa
001b
fe14
fc59
ffee
fe29
fe9d
02c2
003d
0493
0423
fecd
0299
00f9
ffa1
fe56
fee7
fe69
ffb3
ffcf
03df
f9ec
0105
010e
01d4
01c8
ffe1
fcf2
fe89
002d
feca
fc86
ff74
ff23
0098
0014
fe82
021f
fe4c
fe33
02f2
ff17
03d7
ffe6
fde9
044f
fe98
fecb
024c
feca
004c
000b
0144
fadb
01e5
0056
fee9
0152
0160
ff93
ff33
2639
ff8b
006f
00a9
ff79
ffcb
fbd3
fec8
0124
ffe5
fecb
0112
f1c7
0312
fe2f
0421
f87c
0047
0068
ff4c
0074
00a8
fc1d
0309
ffd9
007d
0123
0119
ff21
011e
febe
ff39
fc6a
ff4f
fe33
0318
fe44
03c2
ffa1
fca3
ff16
000a
fd36
002a
fe89
016b
0012
00de
fef7
fd51
ff54
ff75
0101
0302
fc1e
05a8
ff61
ff8e
009e
fe12
0426
0152
ff43
0481
fe7e
f87a
fc2e
005d
0081
009a
ff31
f890
faaf
ff53
fdbf
ffec
fe5b
fbbf
fff3
fc36
fee5
001f
fb89
fdfd
ffb5
00fa
fcbf
03f4
ff7e
0126
ffeb
0042
0322
ff66
feed
011a
ffc6
0218
fe85
fe3e
0079
fb73
01ab
0066
fe7a
feb3
007b
0086
0005
fd90
0061
00fc
0117
0026
ffa4
01d9
fe5d
ffb2
0232
0114
01df
feda
005a
002e
fda0
01e7
0160
fed4
01e2
f9fe
0163
fec9
0337
fe60
04c2
01cd
01d0
ff13
fffc
01a8
028b
fb65
fdc8
0131
fdd0
00aa
0081
ff6b
feb8
0188
0033
fa15
ff7d
fe2d
ff06
014f
016c
03fe
ff01
006f
fc44
ff53
02e2
ff51
fff7
fdc0
0108
0097
0247
ff1c
0030
01e8
feff
ff0e
fced
ff71
0120
fcfe
ff4c
0034
fecf
0588
019c
ff21
ff03
fe71
ff32
00ad
ff1a
fd12
0339
017c
ffb0
fd99
ffe3
ff14
02b4
0143
017c
ff7c
ff3a
027c
0313
ffb8
fd35
ff53
ffcb
ffa9
01b8
fe59
fffb
00d7
ffe0
0037
0223
00d6
fffc
003c
0052
001f
fcd6
001f
ff45
fac9
feb1
001f
0188
fed3
0097
00c9
ff28
0253
fc5a
0072
fe9c
fe80
0052
01a7
f44d
fe08
ff92
005f
0151
fd70
feec
00bb
0354
fd9e
fd09
0052
ff13
fdab
016a
05b7
01a3
f852
0119
ff2d
fea2
fde5
fb70
fdf9
02fc
018e
fe57
0137
fd99
fe19
f981
015f
0290
fe37
00da
fbea
fe7e
fffc
02ba
006e
fd3a
00a2
016d
01a1
0088
01a1
00f8
058f
ff31
fd07
fee2
ffea
fe7c
ff41
01b7
fa7c
fe85
02a8
ff00
0126
ffe0
ff31
fec8
02ef
fd36
ffbd
fe60
fd6e
0199
fe51
00fe
0acf
fca3
f666
fd49
0077
ff6a
ffc2
00ea
ff72
0135
fec6
ff15
fe3d
ff9d
011a
0364
016f
01df
ff60
0013
f9a8
fc18
ffb8
fdca
f938
fc9a
020e
00f6
018c
02f8
002b
fff2
ffd2
00f3
01ae
ffb5
ff62
fe5f
012b
0930
00ee
038a
feb6
011c
fa2c
f64f
ff9c
0176
ff97
0238
fccb
ff46
0392
fdbe
ff24
0011
fe9f
0176
fff4
ffaf
ff01
0005
fe96
0340
fe8b
ffa1
016b
fdf6
00ac
ffe8
001f
0071
fe03
fd06
01bc
f819
0040
fd74
ff1c
0379
ffd7
ffa6
00c5
0206
feee
ffe5
ffcd
0014
faf9
0166
00e1
017c
fed5
00b2
ff8b
0273
02c4
00bb
ff0e
011a
0047
fcc4
0159
006e
0149
01c2
fdf8
0013
fdab
ff53
00b9
0015
fefc
01f3
01f9
011a
ff24
ff6c
fe49
fc9f
026d
fe5b
fd6c
ff60
fc36
0065
fd2c
0074
ff92
0183
0107
ff25
01a4
fe9f
ffd9
008d
00e4
fcb7
ff80
fe62
00aa
ffcd
fed4
0189
000f
0381
042b
ffe8
fefc
003d
0107
03ba
0207
0172
fe37
000a
fece
ff94
ff14
0175
ff50
02f8
00f8
fcf4
0322
0062
028c
fe8d
00d9
01dd
ffd4
fe94
0075
fce0
ffe3
0c63
ff9a
000d
0188
0339
ff00
0045
ffa5
fcf1
ffe2
0206
ff3a
041c
011e
0166
0040
ff4b
f9ed
01b4
0437
0195
00d2
fe70
ff2f
0074
ff4e
00f6
ff8a
ff9b
ffe7
010f
ff57
ffd4
0058
006b
fe7f
0194
0026
0127
0070
f64a
ff1b
0154
00f7
00cb
fec3
001e
01c6
01a4
0046
02fc
fe6f
08a0
0182
ffa7
005c
0184
feea
00e3
fe55
fd65
01df
fe85
0020
ffa4
0259
ffe5
fcff
ffca
fe4e
fe1d
feec
ffc2
006a
0230
008d
008d
ff01
009a
00b8
01a3
0105
fe84
fd48
fd17
0019
ff64
ffb1
03ac
030c
033b
003e
fd00
fca2
fe40
ff27
03e4
0073
fe54
fc95
fde4
029a
013b
feba
0064
f9ce
fd39
fd45
ff17
0186
ffa5
fe7e
00a5
ff40
01aa
0089
ffff
fe6b
ffab
0133
fa89
01b4
0172
fee8
ff9c
032e
ff12
fecc
014f
00fd
fcf9
ffa7
00c4
ff01
ffd3
0079
0255
fe9d
0202
fdc3
011c
ffe4
006f
ffe4
fe41
ff2f
fd4e
fddb
ff0b
027b
0020
feee
026e
fd6b
0109
0042
00ec
055f
fd7a
fe76
0111
fec3
fd04
feaa
002e
033e
004f
02fb
fedf
fc56
012d
017f
ff4f
fec0
ff7a
fe31
ff1a
01e1
ff27
02c9
feea
fe0d
01b5
fcdd
00f0
fd7e
ff5c
fd96
014c
ffff
008c
00cf
ff21
ff8c
0002
ffe7
fe6e
0039
ff39
026c
002c
fe59
030c
fdc9
ff85
fff5
fe20
fffc
0241
006b
fdce
0137
0035
030b
00a9
01ff
ffc1
fd9c
fd61
fd01
ffe7
feb1
ffca
00dd
00e5
001b
022b
ff66
033d
ff75
011f
04e5
ffc6
ff81
fff4
fef6
00a4
ffcb
ff35
0091
fed6
fda6
fdcc
fe34
00dd
036b
fef0
00d1
0153
01a1
ff10
03ba
ffcf
0008
febf
fe90
010f
fe92
ff19
ff50
ffcb
ff16
0245
ff34
feaa
0436
04bd
050e
ff71
0022
fdcc
0023
0098
ff7c
feb2
fe27
ff6c
fe47
fe4a
ff47
015e
0357
0066
0364
ff13
00f4
020d
fe71
fded
fdbe
fd17
feda
00bf
02f4
0146
005f
fefd
ff1a
fd49
ff5a
ff88
03aa
00cc
fe0d
fda9
005b
004d
0096
012c
00a8
01bd
0158
0115
0162
0091
0191
ff1b
fb89
0229
fe66
fdb3
fdf1
ffbc
fe09
ff8a
fe92
027e
ff42
006e
040c
ff73
0215
ff0a
feb0
ffa4
00cd
ffa0
050d
0261
0469
ff9e
fec3
0173
ffa6
ffdd
021a
ffbb
ffeb
ff85
0097
01fb
00aa
fbee
fff8
ffda
00ac
fe4d
0396
0556
ff67
026b
fd69
03f4
fc53
fff2
00a6
f51f
fec0
0054
00cf
fee6
0083
ff70
ff54
00ac
ff3b
fa30
00c2
feff
ff72
fe92
01a5
0951
ff32
fe0c
00d8
fe13
fca4
0097
fe7b
02f5
ff92
fd3c
fd74
ff81
0049
ffb7
0099
0177
f999
fdb3
009d
ff05
fffa
ff83
fff8
ffb9
0032
ffee
fd32
0131
01b3
ffaf
fe7c
ff1c
01a3
ff6d
00ba
0016
00de
0080
ff02
fe45
00b5
ff0f
ff70
fec6
ffc4
ffee
0035
ffa7
ffb5
fe8c
ffeb
ff8a
ffa8
fe40
ff6a
02dc
f8b4
fecc
011c
fe10
ff26
0117
ffa1
ff71
ff77
015d
fdaf
fd63
ff14
ff6b
fefd
009b
ffc2
00e8
020f
00c5
008a
00e4
00dc
0081
0112
006e
009f
ffe2
ff79
0171
ff2a
ffe1
ffad
fdba
0287
007f
01a4
ff36
01a1
02ba
00b1
007e
fef6
fc5d
fe4a
019b
016a
fdbf
00d1
00b5
024a
fed3
01ca
fed7
005d
0000
ff96
fda4
fe37
fd23
fe1b
0190
0080
015c
ff56
00e0
01dd
fd88
fe64
00c1
ffa4
011f
ffcb
fb02
ffa8
016f
003c
fd50
00be
fede
00b9
011b
03a9
0046
007a
ffa5
fee2
fe36
ffbd
0015
0000
ff5d
fa57
018c
014d
ffe2
ff4f
00d4
0116
ff3a
ff96
0092
ff67
005c
fe92
00d2
0027
ff97
0067
fea9
ffa7
02d1
ffd7
fae5
0278
fe0a
ff49
ff00
ff51
027b
fff4
ffd3
0022
fd2a
feb2
01b9
0247
fde0
0031
fe91
020d
002f
ff6b
ffa4
feef
00df
008f
ffa9
02df
0141
03e3
00d5
0042
02d0
ffe3
fe9c
01b0
ff35
0028
00a9
ff09
01ed
00aa
0000
ff73
fd46
fed1
fee2
00aa
0042
fec7
fff1
02b2
febf
00aa
ffcd
fcf9
0187
fdb4
ff46
018d
ff4e
06fc
0060
004c
01c1
fdd8
fdc3
fe89
0121
fb27
00b5
ff6b
ff07
ffb1
fedd
0166
ff39
00de
0030
0113
0245
fd6b
0210
0137
002c
fec6
fe06
fdd8
ffed
fc07
00a3
020b
fe64
03e6
fc78
009b
02a6
0051
fea8
ff83
01c0
ff9a
0107
fef5
0073
016c
fe9b
fe1c
fdc2
fbe9
004c
0051
00f8
ffa6
ff01
009f
ff8f
005d
fed6
0001
fce7
ff2f
028c
feb3
fe5d
004e
0061
ff16
ffa4
03be
ff1d
fc3f
ff97
fb7f
0444
ff8f
0061
fe35
006a
fdda
00f8
ffda
009a
fe4a
0078
fe35
0076
0706
ffa5
05f7
fde1
ff12
00cd
0072
ff4b
ffa2
fe56
fe6b
013e
ff91
ff43
0589
0081
ff95
0143
ff88
fe3b
ff54
fe28
fe9b
0129
044a
fea7
0457
00be
ff59
005e
0487
00fd
fdc0
fe49
fb29
000d
fed1
021f
00a2
010c
fecb
fe7d
0275
024d
ff50
fbca
04e7
fe0d
ffcd
0153
ffa0
0061
ff15
ff96
003f
ff14
fffc
fdea
fcee
febe
0134
ffc4
fed0
011d
01e5
00c5
090d
fdc6
fdde
ff40
fc8f
003c
fffa
fd5d
f479
ff5e
fe60
fe4f
ff47
fd25
031f
039f
027e
fd6a
ffa1
ff41
0090
01d4
fbea
fde7
fa40
fdd3
0058
ffa7
ff32
01d3
00a6
014b
fd5f
000e
ffb5
fecf
fe9e
fe3b
fd99
fcd0
fdcd
00e5
00d5
ffb7
ffa5
ff29
0262
fca6
fdce
0136
ff1c
fe8f
fd73
ffc9
02fc
0300
0204
00b3
0249
fd9a
01b2
fe21
01d4
0120
fec3
0025
febd
ffbd
ff0a
00b4
f9bb
0043
f47b
ff5f
0048
ffd2
ffbe
00bd
feeb
ff7a
0046
ff42
ff90
0092
00a2
ff74
013d
0316
06fc
004e
ff3a
ff8d
fef3
ff03
ff4b
0097
011b
ff84
0194
ff2c
003c
ffa9
00ab
fea7
fe9f
008f
fcca
0028
fdd3
00ce
fbcd
010b
fd8b
00d5
0198
fe75
feea
00ba
0063
fe50
ff69
ff8a
0051
00e3
feca
0287
00da
fd15
fe20
fd5b
fe5f
fd42
fc17
fe38
ffdd
fd55
0232
0103
01ca
ff1b
ffca
00fe
ff8b
fe53
0240
01a5
0091
0007
f5d2
005a
fed7
0054
fe54
012c
ff57
ffd4
fe21
feb3
fdf2
0206
ff29
00a4
ff65
fd25
0054
0074
01ae
feac
0120
0570
ffe2
ff5b
017f
0155
f386
fc13
f54b
fe38
ff5b
0125
00f3
ffea
05c6
0178
ffd4
004f
ff18
00b7
f428
008e
fd13
fc50
fd8a
feaf
ffdc
ff6a
fd7e
02c8
fec7
fd1d
ffed
ff79
00f7
0084
fe9d
fe80
01a4
fe92
00ca
fd39
fecb
0068
0089
00c4
fe99
fff8
fd27
ff0e
0115
ffd9
ffba
feb7
01ec
00ac
ff52
ffa6
ff5b
fd9a
0347
0057
fe3b
fc0c
f7b6
ffae
ffa4
002e
008e
02eb
02df
0019
03a3
fdd7
0029
ffac
fe3a
ff45
fefc
ff5c
00ec
ff8f
013e
001d
fd4f
ff99
0052
fefd
ff04
ff4c
ff5e
fe45
01be
0062
fe15
00ef
ff30
0093
fea5
fe96
016c
fecd
ff6c
002e
ffa9
fff2
fe7d
fe75
01e7
0168
fd60
0139
f964
fd04
0248
01dc
fe46
fefb
ff85
00f0
ff15
ffdf
ff35
0037
fe47
fe07
ffc3
fda1
0101
ff7f
0029
ffe8
00a0
f552
0313
ff78
0563
fcc0
fefb
04e9
fe7f
00fa
0311
fdcb
0181
fe82
003a
003e
00f3
ff2e
fdb1
fff7
0163
0018
fecf
fdfe
ff89
fe7a
012a
01ab
0126
02b1
feb6
ff8b
00c8
ff2f
ff8b
ff38
fe7c
fe4c
fe90
ffc7
00d4
0036
0432
fcd0
07e0
fdb7
fe5a
004f
00ce
0396
038a
0004
01fe
fd5a
fc87
ffc7
fd54
0082
00c1
ff49
06e6
fff8
0161
fe4b
fd70
ffc6
fad0
ffcb
fdef
fd25
00d6
ff2b
ffe6
0044
0449
0137
05cf
ff78
000b
01cf
fe8e
007b
0166
fdcd
fe50
fe77
0295
fd6d
fc3f
fe4b
fcf9
01a4
0150
0105
fe9c
ffef
01ce
fefc
005d
0124
0056
00e1
ff35
0026
ffd4
ff3d
ff14
00ba
fd6d
00ac
fe31
ff4c
fda7
fa56
00d4
0032
023a
00de
fc09
ffe3
ffe1
0023
ffca
03a0
0170
ffa2
fe17
0190
0178
ffa1
0226
fd55
ff43
00ab
00b8
002c
ff3b
fe55
fe1f
0072
fc8f
ffc1
ff7d
ffbc
ffbb
0047
ff7f
ff89
0463
fefa
fe76
ffd0
0089
ff49
ff7b
0092
00ee
006f
fe74
0266
028a
fe01
0075
fd3c
fedd
ffa5
fe42
fff5
ff94
fe81
0239
0194
0284
01f4
fdc4
ff8b
0356
ff9f
fe0d
0170
fe7c
fdfe
fe52
ffba
fffc
01ba
0012
fe42
ffec
02a4
00f2
fff2
03f6
ff2a
ff8e
00d0
0005
00cc
0056
feb8
0084
00b1
fd35
0112
0077
ff86
01f4
007b
0005
0012
0186
ff5b
02d1
febe
fe4b
00e6
ff0c
ff70
01b9
ff82
fca7
fe84
ff39
fdba
febc
ffe7
01e9
f961
00bb
ffc7
00ea
0137
ff6c
ff04
00c4
008c
fd5c
fdd5
00ca
002b
ff9c
ff7e
fdc9
024b
f9ea
0040
ff8a
006f
fe93
fde3
fd74
ff97
fe74
fe50
ffc7
0048
ff17
fdc3
fe6e
01cb
fe90
0009
fc26
fe41
fe78
03ba
ffe6
ff7d
0174
03bd
021f
ff45
01b8
ff85
fd3e
ffc7
fe50
018c
019b
feea
feb3
029c
fd61
fc68
fd2e
fee5
0004
fef0
ffea
ff6c
fba2
fee7
013f
fed8
fea3
01a5
ffd7
ff01
fd91
fe9e
0053
01d6
ffa8
ff85
ffdc
008d
ff0d
0224
00d3
005a
ff9d
fe46
00b2
0302
03c7
0078
fe42
ff83
fb5d
fdb5
ff20
fda9
feb3
fdf7
00ad
00c6
0222
0226
00bc
00cb
ffaf
0041
0032
ffce
ffa2
fe1d
fe75
04b5
ff8a
01d8
fdaa
ff0a
fe5a
f85f
fea1
0093
001e
0030
ff08
0300
0172
fe97
ff62
02d5
fd46
0022
fef1
ffc4
ff2f
003d
f9d8
040b
feeb
ffc8
ffa8
ffbb
00a1
ff34
ff08
0005
0044
fefa
ff68
fee0
0045
ff00
003b
00c5
01b4
feca
ffeb
ffe2
ffce
00dc
00e0
0170
fe79
0146
ff9c
ff00
fe4e
012f
0121
ffd4
06db
01f2
ff04
011c
0071
ff41
fa8a
00f0
ff5b
ffa1
fdcf
ff46
fd92
feba
fe3c
ff62
ff5f
0221
00b8
fff9
ff9e
00c3
ff8d
fd69
fd98
ff40
0171
fe0e
fd8c
0199
007e
ffd8
fd58
0220
febb
fee7
0014
feec
0020
02b5
fe70
fdd0
fbd1
00e1
ff19
fd09
003e
0017
fa7b
00c1
fda6
fddb
fee7
fe75
0086
0043
fc6a
00b4
0102
ff00
ff7e
00a4
fe3c
023d
031b
040e
0113
00a0
0208
fdcc
fedc
ffd3
ff32
0170
fe69
ffed
ff05
ff5b
ff54
078f
fe74
ff97
0154
ffd2
ffab
00ad
00a4
fe2f
ff56
0011
0020
ffbb
ff08
006e
fec6
010d
046d
01c6
ff45
fea2
00f4
0016
fe89
01ed
ff6d
00d4
00dd
003c
ff82
007e
ff3b
fe8b
00ce
0058
fe7a
00a4
002f
00d5
0015
f8eb
feca
00eb
00ff
00d2
00c2
01ed
ff90
0201
fedf
03d5
01a7
ff5f
ff7f
00b9
0034
ff4c
fca9
012a
ffec
0047
012b
fe8c
003b
0030
ff8d
ffe1
fc1f
0117
ffa3
fdb9
ff1b
ff4e
fcd9
ffd5
0038
011f
fe01
0147
002a
0020
ffb1
ffc2
0544
fdc7
0041
00e0
ffa4
01ab
fdba
00ca
011c
fde6
fcfa
fe54
ff58
0289
00d9
fff1
00c2
ff40
0154
feff
fded
00d2
001e
fd06
fe8b
014d
0289
00ba
ffd9
fe79
ff8f
0356
03eb
0111
fe98
ff25
ffd1
fc34
0014
00c2
fe0e
ff55
00b2
fd8a
fd2c
0537
0546
fe8b
fe6f
0004
ff76
01d8
fecf
ffb4
fe8d
ff5f
fef6
ff57
ffc1
fed2
fc48
fef6
fcf4
021f
016b
ff8c
ff8f
feee
0080
fffd
f491
feba
005a
fa9d
01cb
ff72
ff46
fe72
fd19
0264
0093
fd2b
fe7b
febb
016a
ff46
0286
00e8
001a
02c9
ff2a
fdff
0117
fda3
ff73
019d
00af
fdcb
0084
0000
fcfe
064f
ff92
f97a
fdf0
fe42
fe9f
000a
fe7f
ffea
fce5
0189
ffed
ff31
ff42
fd8e
0202
0136
068a
003d
ffd4
0105
0021
01d9
fee2
011b
fd8d
008e
ffb2
006f
ffa6
fdc7
0029
fe27
0250
04bb
0106
fe5d
02c2
01bf
002e
02d7
0050
0147
01ec
016b
0072
0305
00d4
ffb3
fe6d
fff2
fdde
0288
fff2
01ac
fff2
ffc7
0210
029f
ffcf
0087
fafd
ffb1
0018
0286
fe6e
ff2d
003f
fdb4
ffbd
00ce
00a3
0104
0288
fca8
fce9
027b
feaf
016e
fd0a
003c
fbfa
fc51
0209
0130
ff84
ffef
fd3b
fc6b
022b
04db
01df
005d
ff65
ff16
ffdc
fd6c
ff72
0063
01ed
024a
ff65
ff7d
0015
ff68
0717
0414
fcba
ffa4
0004
ffbd
ffbd
fdb3
0395
0159
00c6
ff55
0044
fef9
01c6
fefc
01b3
fde0
fe17
ff06
ff3e
fd05
0130
00b1
02fb
00af
ffa3
02c0
fe8a
fd82
0084
fcb9
ff56
0033
fe8d
ff5a
0016
ff07
fc00
ffda
0863
00a5
00c5
ff8e
ffa8
fe44
ff7b
01de
02f3
fa6e
fe9a
01a6
003c
fe06
fe7f
01c5
00fc
004c
ff41
ffae
02d7
001b
002a
fe8a
0136
0144
fdda
ff64
0198
00d1
016f
fe43
ffa7
fea3
0080
fea0
ff5c
ff60
ffd0
00ad
005a
ffae
0091
fff1
003b
fe43
fc91
ffbb
068f
017b
fe1d
00c8
fde7
fded
026e
011c
0385
016e
0106
0046
fff0
ff98
fe4e
fd4e
fca7
00bc
ff37
ff8e
fe41
00b6
fea0
fedc
0132
0003
0456
002e
ffd5
014f
fd0a
fe21
0450
fc9c
fe06
00a0
010e
fe97
0014
0258
0a56
fe2b
ffba
fed9
ff44
005b
01c0
f94b
0368
03d1
009c
002b
ffa6
00f2
fed1
029a
fddf
fe42
014e
00ad
ff36
fe31
fe2b
fdaf
000b
043d
007c
0091
008d
ff3a
ffc4
00b3
fda7
ffbb
00ba
ffc9
00be
fd9e
027c
ff5e
05c6
ff53
fd30
024b
ff7b
019f
fe70
fed5
0287
01d2
0073
023a
fdf4
0096
0158
025f
0090
fbfe
0125
00b8
ff92
feb9
00d6
fcd0
01f0
0779
0141
fe5a
fffc
01bc
fd4a
0232
0176
fed9
ff65
fe84
fed0
ffe9
ffc7
02c0
0158
01a2
028f
fd22
0154
00da
031a
ff4b
0398
0114
02c2
00aa
fec0
0109
fff9
00f7
01ce
fff7
fffb
ff60
035f
fe01
005c
fe86
0462
ff55
fbe8
fdcd
009b
fc1d
00e1
fff0
027c
ff40
021a
00c0
fecf
fd3e
fe11
00bc
00f1
0267
ffc6
fed1
fffc
002f
fdca
01e4
fbd7
0116
ff4a
fe07
fcf0
fdee
00bb
02bd
03a2
004d
ff3b
ff38
02af
febc
0101
fe75
0492
039e
00c9
01c8
ffca
ff28
00b1
ffc2
f86d
fea3
00a5
fbeb
fe3c
014d
ffec
01ba
002e
00d0
001a
007b
fe6b
feb7
fdbb
019e
0486
0168
ffb2
fd5c
002b
0089
feee
038d
ffc4
fdd8
001f
0101
0082
ff75
000b
0391
01f0
00b9
0103
002e
0279
0022
01b4
02c3
fccf
007a
ffa4
fe23
ffbf
fdc4
fd8f
fa5c
0179
fe54
fef0
fd48
0190
004b
0067
05c2
fee9
ff3c
00c9
00dd
0036
fdee
016d
ff59
fc24
ff12
fe51
00b3
00d4
fef4
0046
fd17
0025
01c1
ff17
0133
0097
0376
ff5d
fd0f
ffca
031d
01ea
ffb0
014a
018b
fbb8
ff5e
00ae
fd69
0146
fe84
009c
fef1
00a0
016a
0082
fffe
0211
fe26
f3ad
fea2
0329
01f1
0097
f963
fefb
fec2
0052
fe57
01c9
01dd
fe5a
f92b
005f
052e
feba
ff12
feff
ff7b
01c6
00e6
ffd0
fe67
00ef
0150
fb69
0183
016e
05ce
0066
fefe
ff1e
fe5a
ffc0
023e
feac
fb2c
fe02
0080
0109
002f
0088
065c
ff2d
fce6
005c
0025
003d
0251
0142
01b8
ffdf
ff45
fe92
fe32
0252
fdba
01a0
00fe
001f
fe91
0187
fe27
0174
002b
0069
029c
fe48
fe70
020f
0354
0404
013f
02f3
fe23
0062
0056
fe13
fe9a
ffa6
ffe2
fea7
024c
0034
fbdf
0000
0220
fcda
00ac
0034
0560
0040
fb9c
0181
fdd0
01af
fe6a
0055
0059
ffa9
00be
fbc2
0014
00fb
0283
f810
fdb3
ff42
0059
0138
0087
0131
fe99
f9f7
0562
fd34
fdc0
00ee
00b4
ffdd
024a
021c
002d
0345
0043
0165
01cc
ff84
00e3
fbeb
fd4b
00bb
003d
f998
fec8
015e
fde9
fda6
0290
fdad
fb2f
fd91
fe81
ffbb
ff4b
fd38
fc23
0031
0740
ff58
fda6
0025
fb4a
fdee
016f
00e9
0078
ff04
ffd2
071c
fde5
fb56
f5c0
0275
06bf
fdfe
fdc9
0033
fe6b
f9fc
feb6
0178
005d
fd01
fe0a
0241
fddd
0000
0201
02ca
03c9
ff2e
016e
ffdc
fdc4
ff56
00c8
001c
0042
0147
00ae
00b3
fed4
fef7
ffef
ff93
fecf
ff7a
00cc
0566
0145
00e4
fea0
ff63
fe41
0033
0024
fe28
fe3a
0315
fe63
0125
fefe
000b
002d
02cd
0137
fb3a
02cf
ff57
fe30
00a0
ff3a
fb2f
ffa6
0000
0183
ff3d
ff1b
0331
febb
fd83
0042
fe42
ff45
00a8
fba6
03d4
0084
0002
fe02
0114
fa90
0188
fee6
03d6
016b
ff9c
01fc
fc25
fff5
ffee
fe80
fdd6
009e
ff8a
fd01
fe64
0145
011e
ff58
004a
fe86
fe8c
0067
01f6
02c5
fd0f
f653
0012
ffcb
feac
fe70
00cb
ff91
0096
01a3
0430
0105
ff50
ff91
fedd
036b
ff95
fdec
fec9
02e7
0058
00a1
019c
ffc9
007a
fe34
026c
ff25
0064
ff7c
ff08
01fc
016a
fb8d
fc50
01ba
fbf7
031a
fce0
0073
0094
0073
fea1
0252
ff0e
0028
0079
fffc
ff59
03ba
0127
fe8d
fecc
0197
fc65
ff4c
fe2c
fdf8
0002
01c9
ff37
013b
fdc9
ffc1
ff33
ff2b
fd70
01b6
fe38
0032
ff85
01e0
ffb2
ff93
044e
fdd2
00be
fd5d
03e4
ff47
fcc1
fffa
0109
0135
ff3e
0030
007c
02e1
fec4
014b
0138
ffb6
fa0b
fd52
ff82
feb1
02ab
fda2
f8e6
fc3b
fd26
fc35
fca3
023f
fd62
fc71
ffb8
feb0
00a6
ff6b
fad8
0097
fea9
ff71
ff6c
fee5
ff43
fe68
fea3
00b0
ff6a
007c
0020
ffb9
f6e2
fe00
ffd8
0116
ffee
fe64
ffc6
ff3f
005f
fece
0089
0079
04a2
fdca
00b7
00f6
fe89
ffd1
00fb
003f
fd0f
0210
ff94
fc73
0008
01cf
fc3f
0097
fe16
ffb7
0042
0280
0037
ff1d
f98d
01d8
fd94
fdc9
ff43
fee7
0477
00ff
fe6c
0766
0240
008e
ffc4
0128
0083
ffb4
011c
ffa4
ff35
fd49
fe72
00d5
024a
ff57
ffd9
feaa
00c2
01f6
ffd8
fdfe
003c
fd0d
f8d1
00f7
0030
0102
fe05
fe69
00a8
fee0
fd00
03d8
0092
ffed
0033
0146
00a0
fef6
0178
fe74
fce9
fdc1
fb9e
01c3
fed0
feb1
ffc2
fc60
fdce
00c5
fee3
fe6a
ff61
014c
0031
febc
0310
0259
ff51
ff30
fffd
0096
fc2c
011b
0403
ff25
014a
ff76
00b7
ffe5
01fd
02c7
0773
0266
0027
f889
02b5
011b
ff96
0186
0250
fe79
ff21
006c
fe94
ff63
00e6
00f5
ff36
0184
ff5f
018e
ff80
ff97
ffd7
0111
01b4
004a
00db
017a
01a3
ff6a
fc7e
f8c2
fdc8
0320
01f3
00b4
ff7e
fe61
feeb
034b
02a0
fde6
fe7a
feee
0271
ff8d
01b8
0051
fdba
0164
0096
000e
0057
02bc
fdbc
fe36
03bd
01a2
00aa
fe8f
ff9b
fe76
0001
028d
fd10
fdb7
0095
fe5f
fc42
ffac
ff9c
01e3
00ad
0126
011e
00f3
03e2
0229
ff78
01a2
ff8d
ff84
0094
018c
005e
015b
fff2
0105
fe9f
fe8e
01f7
00dd
00d1
0109
00d5
014e
ff6a
ff72
ffb3
009e
009e
fe5d
025c
01d1
0096
015c
ff99
036e
ffe0
009a
fbec
0102
0179
02d6
01b6
00e2
005a
ff1d
fd7c
026d
fd60
fd33
0207
0021
012a
fff7
00b7
03f4
02a3
fe07
fff0
02d4
feb4
ffc4
fd89
0225
fe20
fd7e
fd5f
00e4
008a
015e
fe43
fee7
fa88
fed9
feef
ff86
fe29
ff22
ffe0
0179
fd56
00c7
ff31
ff0b
ff66
fc83
fec0
ff20
fe4a
00b5
0110
ff6f
04e9
fe23
fda5
ff03
035f
01bf
ffdc
fee6
ffc0
fea8
fc93
fdca
fe0a
0111
0166
0201
011d
fe5a
0193
feb6
fe26
005b
00f9
0073
feb3
fe08
0142
ffde
ffb9
ff6e
ffbc
014e
ff3f
0189
ffb8
00de
fe40
fe1a
ff0d
fe7f
0572
0280
0134
01ba
ffb3
ffae
fed0
fddb
0002
fee3
00a6
fe56
0152
035d
00ec
ff2f
01a3
0074
fb9e
0162
fb30
fed6
ff8e
0335
fe95
000a
0116
0111
fd97
fd56
017f
ff9b
ff43
0151
fef1
02b4
01ec
ff99
025a
fdfc
fdc4
fed6
0235
febf
0055
ffcb
0716
02e1
0055
003b
fe24
fc9e
fc83
00fe
fdbd
fe65
01ab
fe1e
010d
fee7
fea2
ff2b
00b3
01cc
00c0
ff2d
0190
065d
fe5d
fed1
fe21
fe7a
006a
ffb1
000d
fdf2
001c
01c2
ff13
fde7
fe55
00a5
ff30
01f1
00a5
fed4
ffca
ff87
004b
fe20
0329
ff6c
0243
fdff
fff8
ffae
019f
fefe
017c
febe
fdc0
0163
fe01
0124
fe7c
0376
fd4f
016e
fd2d
fff0
ff3b
013f
ffc7
00ff
fedd
01c4
fda0
ff12
010a
0083
fe86
017a
fec6
0231
fce9
fd47
013d
0240
ffed
03a2
ff45
fdf9
ff48
febd
0036
0025
ff16
002f
00cb
02dd
fea0
ff21
0268
fdb0
00c0
feb9
011d
ff96
fd9c
ff1a
ffd0
00d3
ff44
ffd6
ff85
0106
0069
011f
fe40
fff4
fe7e
fe3d
ff55
006d
fe76
fea3
fb8e
fd42
ff06
fd83
fe65
0052
ffb9
0195
00b2
fd48
ff17
0070
fadb
008a
004b
00dc
0095
0045
fe17
feae
ffc4
016a
02c3
009e
0074
fde8
f78c
ff6c
0119
fbb3
fe2d
00f8
0186
fe51
ff66
00f3
00e5
fff1
fe88
ffb5
0092
00ec
019b
009c
01f6
01d9
01de
02ae
fe75
fbfb
fde4
00fb
0052
ff73
ff62
0023
0044
001e
fc46
00d1
fef2
0186
fd75
fe95
0071
0021
02c7
0203
01c1
fc70
feea
0139
ffd2
025d
ff3d
0014
ff62
fc5f
fea6
ff8c
fec8
0026
005a
ff2a
fff1
0458
01b3
fef8
fe9a
018b
fff2
fd91
fd29
01a2
fe2d
ff29
fcb0
0363
0071
ff61
fe3f
fcf3
0048
0014
0023
fffc
003e
fff5
01a9
ff61
ff82
ff09
fdd0
fff3
feac
ff4a
0039
0221
0239
fee3
fc3f
fdfe
014e
005a
feb4
ff3c
fb3c
fca7
0122
0250
fef3
fe6c
fc50
febd
ff01
00b1
01ad
01fa
00e1
ff0c
015c
ff57
f98a
00c2
feb0
036c
0154
007d
fed9
