604c
ffad
3ea2
00ef
ce04
ff8b
cf03
ff74
a2fd
ff9f
63fd
0084
ef54
ff83
7d26
00d8
6979
ff87
c0d5
006d
ce00
ff8d
8aa2
0069
9d97
ffb3
52d1
ff82
7f43
ffb8
e95f
000b
d2d3
ff77
8911
000e
c7cf
002c
d433
ffcc
cda4
0001
74f3
ffb0
8f75
ffd9
02fb
ff90
c05e
ff7f
9214
ff9f
3355
ff78
06c1
ff8c
1f85
ff68
6425
001f
26f1
ff62
ea01
0016
