9747
0004
384c
0006
2abd
0009
f284
0006
891d
0002
e856
ffff
1951
0007
b84a
0002
e66f
0004
d62b
0001
f737
0005
8dab
0005
39ab
0001
1da0
0006
0bd1
ffff
a19d
ffff
bbf0
0004
1384
0000
2072
0001
3dff
0001
456f
ffff
056d
0007
b9fd
ffff
3465
0004
65cc
0006
643c
0003
7ffe
fffe
9bde
0004
e49d
0004
44fb
0003
f3ba
0002
b9a5
0003
45ff
0003
d2dd
0003
b197
0003
a603
0003
0ee3
0005
1280
0003
8b33
0003
408f
0006
8848
0001
49b1
0002
9e6c
0001
77fa
0005
2a11
0002
32d9
000b
6a66
0006
daca
0001
551e
000b
38f0
0004
7faf
0003
fee1
0003
fa7f
000b
07f7
0002
9491
0008
c996
0002
d708
0001
6232
0002
fe86
0003
9588
0000
c0e0
0005
e8ea
0003
ca55
0003
6bc7
0007
afd9
ffff
6030
0002
cbff
0001
f564
000b
66d8
0003
9056
0003
2f28
0000
5166
0001
0e07
0002
0095
0002
c94a
0003
791b
0005
ce60
0001
4d7c
0002
ee4f
0005
052a
000c
bc23
0000
daba
0003
3926
0003
3317
0001
cd9b
0001
bc62
ffff
beb5
0000
bf06
000a
9821
0002
1b92
0003
2cda
0004
2065
0004
daac
0002
c6ed
0004
5045
0002
0805
0001
7cbe
0000
090f
0004
b9ce
0000
ade4
0004
6ede
0001
5b13
0002
7f6e
0005
ebf9
0005
711e
0000
f93a
0002
856f
0002
6f04
0003
b578
0000
28d6
0003
0b2d
0002
c6e2
0003
ade0
0001
94a9
0008
31aa
0003
d757
0000
3628
0006
fcfc
0002
9ac4
0003
53fd
0003
dd5c
0001
e4ef
0002
1ed3
0002
7db9
0002
cb34
0003
bb16
0008
b195
0009
e82d
0002
5f58
fffe
2256
0004
cd81
0001
867e
0004
30e9
ffff
cff6
0002
e401
0009
db34
0001
783c
0000
6aaa
0006
4831
ffff
c679
0001
0c5f
0001
fb7e
0005
bb4d
0000
d0e4
0003
a375
0004
8f50
ffff
eaad
0005
1bbe
0003
3698
0003
1b88
0000
cd1a
0001
fd86
0003
17ae
0004
2b37
0002
bc55
ffff
a5f5
0001
a967
000b
5feb
0005
2b9c
000b
7344
0002
7022
0001
30e3
0002
6eeb
0006
2c8c
0004
8071
0009
4099
0003
3072
0003
6adb
0002
f8e0
0000
d124
0009
b143
0002
2e18
0004
bde1
0003
8eac
0004
f538
0000
6e66
0003
bffd
0000
d5dc
0003
a7d8
ffff
9251
0000
3bd4
0000
9c9c
0003
be4b
0000
6dcd
0003
f483
0001
d47c
0004
1243
0004
b8f2
0000
232f
0003
ede5
000c
b3c5
0005
1398
0001
a931
0004
e16b
0005
9ecb
0006
c335
0001
f717
0003
eb0f
0001
593b
0002
c20d
0005
738b
0001
d4c5
0000
f9ff
0005
7186
0003
65fd
0001
c773
0005
803c
0006
20fa
0003
1f7c
0003
e9c5
0001
174b
0009
3232
0004
3941
000c
73e5
0001
ce48
0007
7708
0002
9e25
0004
e7a3
0004
8fd2
0008
c9de
0002
6843
0005
e065
0002
4a93
0002
6a7d
0001
8b66
0005
3f01
0002
69ca
0004
0ed6
0004
b56c
0003
60cd
0004
8f1d
0004
32d0
0002
84b8
0009
7d53
0002
b2b2
0002
b553
000b
3e44
000e
f3f6
0001
f60b
fffe
c2d5
000f
0000
0000
5bb8
0003
4bbb
0000
a28e
0005
072b
0004
ba27
0001
8a9f
0005
56a7
0003
4860
0003
f395
0006
d3c1
ffff
be10
0008
e834
fffd
d413
0004
e815
0003
9674
0003
5dfc
0005
be8d
0001
b21a
0002
7531
ffff
a218
0009
c1cb
0000
e275
ffff
d377
0002
a199
0002
0ac8
0001
6c13
ffff
16fd
0003
214e
0007
6b9a
0003
2dc8
0006
ccca
0001
87f5
0003
d794
0000
202f
0003
4a67
0003
1748
0002
6066
0007
dd18
0002
ef1a
0001
dfee
ffff
c2fe
0005
50ad
0006
d9c5
0005
8a2b
0000
3510
0006
7a58
0005
bc2d
0002
85ec
0004
1035
0001
a460
0004
0716
0006
1ac1
0003
fad6
0000
9bd5
0004
f37c
0007
bb73
0002
12ef
0004
8411
0006
7437
0001
6b44
0001
ff3a
000e
aaec
0002
a6ec
0003
7c20
0001
728d
0008
78c6
fffb
a6ed
0001
fc11
0000
aa8a
0004
b175
0002
ebf9
0004
ca5e
0002
afd3
0002
77cc
000d
448e
0000
5dca
0002
8dcc
0002
662b
0002
73b5
0007
80c3
000f
6347
0003
34b4
0006
476e
0006
200e
000b
b0a1
0004
a5ac
0001
3d9b
0002
5c23
0004
c89f
0001
b33e
0005
09d4
0008
f19a
0001
0366
0004
8c8c
0002
ae6e
0001
b088
0003
118f
0004
032a
0006
6020
0000
9104
0001
a03e
0004
f647
0001
507f
0003
8b75
0004
ae05
0006
7d84
0008
d4ab
0003
c88f
0005
b22d
0007
2118
0004
05f8
0003
ae48
0003
b886
0002
d07c
0006
3987
0002
0033
0007
b9cf
0006
33fe
fffe
f980
0003
0075
0009
bf58
0006
d9ea
0009
0b09
0001
c4a4
0001
e4d6
0003
42a7
0001
5251
0005
d77e
0009
0445
0006
e7c2
fffe
0cc3
0003
7140
0003
ef4a
ffff
0f46
0005
60cd
000a
bb28
0002
77aa
0002
cf34
0002
480f
0002
59ec
0004
0223
0002
6923
0004
e581
0000
1172
0002
be22
fffa
547c
0006
9679
0003
61af
0003
b6c5
0000
b71d
0006
e627
0004
7145
000b
ed2f
0003
5cc5
0002
5b81
0009
f03d
0005
6653
0003
c53a
0001
b6ea
0003
baef
0008
b176
0001
1032
0003
76cd
0003
ef0e
0006
4be2
0003
a660
0005
1b4d
0004
02eb
0007
0b66
fffe
1559
0004
bbc9
0004
fa84
0005
76c4
fffd
4af5
0004
6dfa
0004
d5be
0002
d50d
0002
036d
0004
ce9c
0001
834b
000a
31e4
0004
dfb7
0002
f721
0006
ec2e
0002
d916
0001
1fae
0003
1166
0005
cf05
0002
106b
0001
9889
0002
46d0
0006
de88
0003
b575
0004
d507
0006
9bc8
0002
ca36
0002
d6fb
0002
bf53
0002
4daa
0006
4dae
ffff
29e8
0007
1da0
0005
5379
0003
3972
000a
f3d6
0000
e802
0002
cc9c
000c
5cf9
0002
b266
fffe
4d68
0003
8ca1
ffff
a215
0002
4e23
0003
c8a1
0002
c55d
0001
4431
0007
e587
0002
30f9
0003
cfda
0001
0891
0005
b381
000a
17f9
0004
4f23
0005
b7e3
0003
10b0
0005
e389
0004
4f77
0003
f4a4
0005
ed6b
0001
a4df
0004
7f4a
fffe
7c6f
000b
3413
0006
0e34
0007
f2f1
0003
b293
0002
9f92
0003
e078
0003
34da
0002
5a1d
0003
6989
0004
fdb6
0002
61c3
0004
148c
000a
a5bb
0002
d487
0003
a71d
000a
a9fa
0002
6d17
0002
1c2e
fffd
d64c
0003
b6be
fffd
17e5
0001
b3fc
fffe
0e70
0001
154d
000a
510a
0002
b654
0005
ef06
0005
b648
0005
56af
0002
0dc0
0003
ef4e
0000
fdd7
fffe
0c81
ffff
2849
0006
a97e
0003
0502
0004
3cdc
0001
2245
0002
e416
0002
01e7
0006
0d00
0004
a2b6
ffff
77f0
0004
58b4
0004
ee25
0000
6852
0002
09a9
0002
9ef0
0005
dbd5
0002
37ec
0009
aeec
000b
bce7
0001
f0b4
0004
0b50
0002
ef56
0000
6c0e
0003
e652
ffff
cd27
0001
ee19
0005
ca7c
0003
4494
0009
b3ad
0005
12d3
0005
c47b
0002
e887
0001
ecc9
0004
116a
0006
624b
0006
7117
0001
c300
0003
47b2
0004
a12f
ffff
f9df
0004
ca96
0004
73b2
0002
3175
0004
2fee
0002
52e4
0006
a291
0001
38e0
0002
8d78
0007
4b1c
0003
5e2e
0000
f6db
0004
58bc
0003
c6f5
0004
1d1a
0004
8317
0004
a6ed
0000
2269
000c
3be4
0001
c7e3
0001
ebaf
0001
625e
0004
687f
0002
b29a
0002
4dff
0008
3ba6
0008
d547
0000
715e
0004
d64c
0004
c949
0007
296d
0007
881c
0003
3de0
0003
70f1
0002
4313
0002
2da2
0005
b15f
0002
77c4
0002
7516
ffff
756e
0003
c8ff
0006
5045
0002
9461
0000
1733
0002
a3c4
0004
b933
0001
c980
0004
726f
0006
14f3
ffff
a119
0004
2400
0007
b6d8
0002
d54e
0004
b5b9
0003
d6b8
0004
aee6
0001
4aa7
0004
e019
0007
e158
0001
8e25
0002
93d9
0000
6a9c
0002
0a68
0004
c047
0002
2caf
0002
74f9
0001
3435
0003
c17a
0002
7a9c
0007
2a54
000b
97a2
0004
a1f4
0003
094f
0000
427e
0007
5cbb
0004
2a14
0004
b77b
0002
575d
0005
18f5
0002
460b
ffff
0447
0004
ca51
0006
c1c3
0006
eaca
0008
aa51
0006
2508
0003
fa69
0001
4984
0002
e080
0007
0ccb
0002
99ba
0000
c8c2
0005
0fa4
0006
50d0
0001
aa1d
0006
a184
0005
0042
0005
f1f6
0002
484f
0001
253b
0001
0372
0001
0029
0005
b54f
0002
aeac
0003
d5e4
0000
602d
0002
d23e
0002
f4d1
000a
8871
0008
d95f
0000
23e7
0002
9754
0004
4d86
0002
042c
0006
30c0
000c
657f
0003
bc2e
0001
bb76
0007
fd67
0003
18aa
0003
af14
0002
e105
0001
338c
0004
e349
0002
f13f
0001
418b
0002
a4c8
0004
25f8
000a
3888
0003
9878
0003
2ee6
0001
514f
0004
563b
0002
9e57
0002
ab59
0003
ddce
0004
6ffd
0001
5098
0004
e535
0002
07f8
0007
dc23
0003
f341
000b
6266
0002
992f
0005
fb3c
0004
4d5c
0000
0695
0005
e0ad
0005
77ca
0001
6ee0
0004
0aa0
ffff
4bba
0003
f708
0006
89cd
0007
24e0
0006
80ab
0000
56ff
0004
fd4d
ffff
7831
0008
ae19
0005
fc64
0000
acea
0006
2a02
0005
1f38
0004
f051
0003
2346
0005
c2c5
0000
dc55
0003
3091
0002
7574
0002
8547
0004
be2f
0005
c7b5
fffe
4c13
0008
225b
0004
bf24
000c
74a2
0006
080d
0002
05fd
0000
01f7
0003
d326
0004
7f89
0009
e48d
0000
086f
0004
69b8
0003
2ad1
0004
b42c
0002
1d7d
0004
2b91
0005
95e4
0003
18ce
0003
9a06
0000
eb00
0004
d7ec
0001
70d2
0002
72fe
0002
e203
0003
16b6
0003
3219
0004
e49a
0008
7af7
0002
eaae
0001
76be
0003
0d41
0005
45ee
0003
1849
0002
e51f
ffff
50ca
0003
4d6a
0007
6577
0004
7b04
0006
dd6e
0001
2650
0001
ad38
0006
77f7
0003
b38c
0003
4d05
0000
442f
0007
e62c
0004
b96f
0007
1e70
0000
b1b4
0002
1807
0005
80e7
0003
9ae7
0000
407a
0004
78bb
0002
ee93
0003
894b
000d
ea6a
0005
72af
0004
531f
0003
527c
0005
86b4
0004
7068
ffff
3542
0001
5108
0002
97ad
0001
82f6
0006
1f53
0004
21dd
0003
1fc3
0005
8460
0005
3431
0003
88a9
0003
94b9
0001
1aa9
0004
0676
fffb
1ea7
0003
28a8
0002
ac03
0003
49d9
0003
a665
0002
3007
0005
c29d
0004
b6c4
0003
2d31
0001
0a35
0006
5bb5
0004
5f37
0002
e7b9
0000
0e62
0003
a11d
ffff
b381
0002
be3a
0003
dfce
0002
104b
0004
d9e0
0005
c065
0004
4d67
0002
4747
ffff
b680
0003
0be2
0002
c3d9
0002
e178
0000
24d9
0010
ad9d
ffff
7cb3
0008
c980
0002
38da
0003
5f16
000f
a67c
0005
4ca0
0003
8b07
0001
bba9
0004
bfcd
0001
6a65
0005
8328
0002
fce1
0001
9ff7
0004
3359
0003
3cdd
0002
9a11
0003
142e
0003
ec53
ffff
5d79
0001
5145
0006
2569
0005
72b9
0001
daa0
000d
946e
0006
82bc
0002
2780
0003
ebcc
0003
163b
000a
a740
0003
381f
ffff
97f2
0007
a7e0
0005
7ff3
0005
ce7e
0001
d99a
0001
818f
0005
b33d
0006
34f1
0003
95d8
0007
78df
0002
5e9b
0003
2329
0002
2ecf
0003
4caa
0002
d27f
0002
54dd
0005
8c19
0005
5708
0007
58d8
0002
0f06
0006
73d7
0003
9a52
0001
18fc
000a
b720
0001
40e2
0006
38ec
0000
6d00
ffff
66e5
0002
bdf9
0003
4d7f
0002
5629
0008
7582
0002
8ba5
0005
8e13
0001
6463
0002
d6a6
0006
5619
0002
c517
0001
b250
0003
4fb9
0004
1356
0003
cf2e
0004
9575
0002
e3a3
0002
2e2f
000d
5bbe
0000
4bed
0009
34a3
0005
47af
0003
7361
0003
25a9
0002
a5e6
0001
a683
0002
9898
0004
fede
0009
486e
0001
2df1
0001
72fd
0003
e6ef
0000
6984
0009
b4d7
000b
bc69
0002
8778
0002
3787
000e
a113
0003
e9a2
0004
d5c3
0006
5608
0004
91cd
0004
9b5d
0004
c851
0003
58ff
0002
7a25
0002
a689
0004
cd92
0000
6093
000c
81ac
0003
4a31
000d
9318
0002
a037
000d
a000
0007
dbb5
0002
621e
ffff
1f62
0005
20b0
000b
f4ed
0001
071c
0000
108c
0009
9627
0004
3b7e
0004
55a0
0006
b2b8
0007
5432
fffe
e24a
0007
c835
0002
4e17
0003
945c
0006
c8db
0001
f7d4
0002
9924
0000
e474
0006
761c
0008
8107
0004
dde7
0007
caac
0002
2bcb
0002
82b2
0009
035c
0006
a7fd
ffff
9a18
0001
129a
0004
d335
0003
b0bd
0004
18bd
0006
55b4
0004
c974
000a
6167
fffb
b98c
0006
f03f
0003
efe2
0000
efc8
0005
7910
0001
1ca3
0002
5b28
0003
d597
0004
8556
0003
b640
0001
decb
0003
f05c
0005
da92
0001
1c19
0004
7040
fffe
fde0
000c
cc5d
0002
8f61
0002
942f
0003
8b59
0005
ffe8
fffe
5097
0004
98b9
0001
cb63
0001
51db
0003
fbcc
0004
bd20
0009
f565
0007
2501
0003
11d9
ffff
cecb
0001
36bc
0003
6e20
0005
ab59
0002
049d
0001
0fec
0001
46d8
0004
10b9
0000
c799
0003
93dd
0003
e979
0004
1a09
0002
3dc0
0003
ec84
0004
d59f
fffb
017c
0001
e731
0001
3e26
0003
eca0
0009
8507
0004
f0f0
0005
4b48
ffff
b364
0000
2250
0002
aea2
0006
