6bf8
0000
946a
0002
d158
fffc
773a
0068
5473
ff3d
d73c
fff6
91ba
ffff
f932
000d
98d2
0000
dd56
0009
cd0d
ffeb
b8d6
0013
61eb
fffa
5004
0015
f734
fff9
0002
fff9
67f9
fffd
25b3
fff7
aa4c
fff4
1cc9
0026
086d
0007
def2
fffa
ac1b
fff4
b971
ffec
56fb
fffc
2e3b
fff7
a31e
fffc
d5d1
ff82
8540
fff2
c010
fedd
2b4f
fff8
c826
fffa
da17
0003
452e
fffe
e1ba
fffd
b366
fff7
00b1
0005
dd04
fffa
acc4
0016
1ec1
fff1
db96
fffb
6b40
0002
abab
fff0
2ad9
fffb
8611
0030
6108
0004
96b0
fff9
c57d
fffd
aaef
fff1
a351
0005
ada7
0003
40ea
fff4
7009
ffcd
47c1
ffda
9bee
fef5
b5c8
fff6
eb58
fffb
5135
fffb
e68d
fffd
3c86
fffe
8be6
fffa
4412
fffe
446b
000a
ae9a
0009
2718
ffef
9cd7
fffd
b933
0006
e602
fff7
2417
fff9
83b2
0034
44f6
0001
ae9b
fff6
d1ba
fffb
14c5
fffd
42b2
ffff
a173
fffe
49f8
ffff
47f5
ffd7
3098
fffd
1dab
ff30
2775
0000
d4cb
fffb
94b5
fffd
6e5b
0005
d1d5
fffa
0a80
fffa
877c
0003
345d
0003
0aad
0001
13f4
fff6
01d0
000b
ba6b
0004
05ca
fff9
3aba
fffa
dcfd
000f
29a4
fffc
9724
fff8
54ee
0003
026a
0001
5802
0002
be61
fff9
3f9d
fffb
60a2
ffca
f60d
0027
da2a
ff35
9802
0003
8cc8
0002
8e1d
fff5
c291
0009
cfda
fff7
dbd2
fffa
3de3
0000
9e23
0009
c3d2
ffff
b27e
fff7
28a9
0004
1b12
0003
f9af
fffc
73d7
fff4
3fad
0015
a66f
fff8
a8d9
fff6
d1c6
0003
8654
ffff
f441
0005
