fffb
ff1a
0080
00a7
fee7
fe3e
0123
ff4a
fd9e
ff0b
fee8
002b
ffb1
028d
0018
fe64
ffcf
ff30
0061
ffd6
0119
fe86
fff1
fe19
feee
ffdc
01ac
0088
fdee
009e
fe4f
ff8a
ff85
fe3d
fef0
ff4b
ff2c
0071
fec9
042d
fea2
ffd2
ff69
fee7
02ac
fe75
00f4
0135
ffd6
ffe9
ffc4
ff63
feb7
fe97
ffa0
ff41
ffe6
01f6
fefa
ff95
003c
ff91
00ee
fff1
006f
007e
ff45
0035
0069
00b7
ffcc
00d3
ffaa
ffa8
fdf4
fe89
0251
005c
0011
ff5b
fe7d
ff97
00db
fec7
007d
01d4
005f
ffc9
0490
fed1
00b5
00ae
ffe5
ff79
fec5
fe43
ff6c
fef6
0107
fec2
0029
0103
ffe3
ffd5
ff92
0120
0535
ffad
010c
fe46
fe32
023b
ff9b
0033
ff02
0074
ffc5
00bd
feca
fe92
fd80
0109
fff5
fff4
ff68
00f4
ffa2
fdfa
ff75
0082
029e
fffb
ff78
01cc
ffe8
00d7
ff22
0020
0091
fe28
ffd0
0166
00a1
0096
00e5
fdcb
fdcb
fe51
00a3
ffdb
ff8f
00a3
fd37
004e
fdde
fe8d
022c
0079
ff52
fef2
fff4
00cd
ff4e
fff1
030c
0117
ff6d
ffe5
ff2a
ffa1
004e
ffa9
fd48
ff7d
ff71
fead
00fd
ff76
fd02
ffb7
ff91
007c
ff1b
fd9e
0357
00b9
fda8
fff6
ff3a
0020
fef1
004f
ffa1
ffc5
fc4e
008c
ff1e
01aa
ffd1
000d
00d8
010b
ff42
0048
01b6
01ce
013e
015f
fe88
feeb
ff3a
ffe2
ffe2
01dc
ff41
011c
0236
007c
fe2d
01a5
ffe5
ffb8
fee5
000e
ff3c
003c
0049
00aa
ff04
ff63
ff46
fffe
ff19
ff1d
fd3a
0053
ff6f
fd95
025f
0205
ff6a
fffd
fdf2
0043
00ae
fe97
004d
ff89
0151
00c3
fee3
fee1
ffa3
ff4c
ff7f
0081
fe5e
0042
039c
0002
006b
fe4d
001d
000d
00e9
0132
0028
00d5
fec9
007b
fe64
0071
0064
fd16
0054
00ef
016c
01c3
fe4d
002b
fed7
ff94
006b
012e
ffe1
ff5a
0164
ff5b
0187
0046
ffe4
febf
ff0b
fd85
ff66
ff69
fe43
ff6e
fe5d
ffee
0092
fff9
fd2d
0035
fdf3
00d2
fe86
0078
0130
00ce
ffd0
00c8
fd65
ff97
00ea
00e7
fe41
fe7e
ffe7
fe20
02ae
ffd0
fbce
0107
008d
0022
feb4
ffc9
ffd8
000a
fde7
0234
fdd9
0342
00ae
0014
fe24
feb1
009e
00c7
0016
ffbf
ffdf
ffe2
01e6
fdc4
fee4
00d9
00e7
ff96
ff94
ffbd
0248
ffd8
fccc
00fb
fe6e
fec5
02b3
02f7
ff6a
02cf
fbfd
ffff
ff80
ff0c
ff7a
ff9c
0012
02d8
fd2a
006f
00b2
fedb
ffdd
00dc
00b4
0061
ff62
fea2
fe86
01a3
017b
00bf
02dd
ffde
ff40
0011
003f
00a6
0082
ffb7
ff4a
fe32
01bf
00d0
03fe
ffba
ff5a
0006
00f0
02cb
0305
024b
006e
ffbd
ffda
00b9
00a4
ff93
ff31
febe
0058
02ed
ff8d
ffa2
01db
fdf3
fed5
01cb
00ef
ff11
feef
fed9
003a
ff98
0105
fdf8
fc97
ff20
fe98
0083
0243
ff95
006b
003d
fefe
002f
fed7
ffba
ff8e
00c6
ffc5
000e
ff63
ff7f
0165
002a
02a0
ffe6
004c
fec8
003c
00c2
ff93
feda
0257
ff81
fded
0159
004e
014e
ff0b
00a8
000b
fd01
fdce
fe8d
00cc
015c
ffd1
ffb7
fdbc
0057
028c
ffc6
ff3e
0197
ff28
ff56
005e
fecb
000a
ff1f
004b
ff86
ff06
fefb
016f
ffae
fe32
ffd7
01c5
fee1
0120
02cb
fe45
0184
fc7b
016f
feaa
ffe3
fed7
003f
0005
ff4d
ffe0
000f
0057
ff67
ffda
00c4
fed7
fe36
0008
febf
0210
ff6e
0071
ffee
0071
ff08
026e
fe55
0079
ff37
017f
0021
026a
002c
ffee
ffd5
ffef
026d
0073
ff6d
00ef
ff19
0153
ff9f
feb8
ff91
008f
fe7a
ffed
00ac
0063
ff70
013f
0195
0121
fec7
00eb
ffce
fd96
006c
00ea
fdd6
fef8
0170
0087
015a
00ea
ff2c
ff1e
fefd
fe64
00e0
0158
fe16
0082
ff59
00ad
ff47
0052
ff11
0042
00df
0000
ff78
01ba
fc9e
00a0
00e5
fd54
fde3
00ee
ff1f
feb5
ffb3
ff59
015d
029a
ffa1
fb33
0005
fec4
0001
fb9f
00b2
ffa7
fed9
0012
0085
fe0d
0029
ff58
01ff
0136
00c0
ff08
ffec
ff03
fe59
00f0
0098
003c
fdc9
015b
ff66
ff4d
ff3b
00a5
0079
002b
0269
fdf2
00d3
00f8
ffbd
0057
ff91
fd30
0065
00c5
00f0
ff77
ff3f
005e
0017
00f0
ff16
ff5c
0084
0128
007c
fffe
0003
fe99
016d
fe4f
0137
fddc
00e5
ff9c
fd4d
ffde
ff12
ffa8
003b
0279
0016
fd86
fef8
ffcb
ff9f
0000
005a
0194
ff37
00d8
00b8
011e
0080
ff1f
fe77
0031
ffba
00bc
fff7
ff49
fea4
00e0
ff38
01b2
00c5
00c7
ff3f
ff7f
ff55
fe54
0078
fe94
005a
0055
0169
ff65
fffb
ff37
ff34
00a8
fe92
0116
ff22
ff31
004d
fd67
01d3
fea7
ff9d
001a
ff4f
ff9f
014e
fcb8
ff11
0143
ffaa
0081
00eb
00ce
fd2c
01c4
ff77
fdf0
0000
ffb5
fcfe
ff3d
0081
0099
fec5
fe1a
0085
0113
00b4
fdba
fea1
ff34
0055
0253
feb8
01db
0258
01fd
0157
ff73
ff6f
0003
ff4a
ffc9
0071
fe90
fe5d
01b3
0080
000a
0142
ff6b
fed1
ffbe
ff85
0144
ffd3
0148
01e0
0056
01ab
ff06
01ae
ff21
fff6
0067
0017
0008
01ab
0079
0009
ff54
ff96
ff63
fa7b
ffe4
feaa
030e
0129
005a
ffcb
002d
ffba
ff58
fe38
0046
0098
ffde
fd4f
fadb
ff97
fd5d
fec8
0148
002c
fe10
ff48
ffed
ff14
0090
ff0b
fef5
00ce
fde2
ffcf
000c
ff26
0016
fee9
feeb
faca
ff68
ff07
fdb2
ffc6
0031
fd82
ffec
ffa8
fd64
0023
fe9c
ffe8
ff3a
00c0
ff10
00a1
0084
ffd1
0099
febe
fdaa
ff7b
fd19
fdd9
ff7f
012a
ff9d
007f
ffc2
fedd
fe5d
ff00
ff6f
ff3a
013d
ffd4
fd65
018b
fec0
0050
fe44
ffe9
012e
00b7
00ae
0107
fee1
fecf
012d
fff7
fd69
ff9a
002b
fe82
fefe
001a
fee4
ffdf
fef9
fe2f
ffea
fe5b
ffc5
ffa9
0280
fdbe
005c
00d2
ff27
fffa
fd50
0113
fd2f
00c9
0296
004b
001e
00ae
0240
012c
fec6
fe9f
00d2
0146
ff35
feae
fe5f
010e
ff22
023c
ff73
ff89
010d
fdb6
fe75
0010
ff97
ffad
ff67
023c
0051
0017
fffd
ff71
00b8
01a4
ff3d
043b
ffb0
fc6a
ff29
fe29
024e
00cc
009d
ffec
00a5
fccb
fd27
0011
fe95
fe63
ffa7
fead
0098
fe6e
fe62
010f
ffae
00cd
006f
0055
ffb4
0018
006a
ff5a
00a5
00a1
005b
ffde
0082
00a5
0196
febe
fa7f
fefc
0179
ff55
00ac
ff3b
00c0
ff84
00dd
ff32
ffcd
0057
00df
ff91
fe9d
02b9
0135
ff09
ff7a
fe43
003e
ff54
0146
0064
0138
ffef
ff6e
ff4a
fe5a
00e9
fe24
fff6
0063
0123
00d5
ff1f
ff40
ff59
0116
010e
001b
0049
004c
00c0
feab
fef8
00d1
ff9f
fd9f
ffa5
0093
00a7
0107
004f
0076
ff12
ff90
fe67
0107
00e7
002d
00c0
ffcf
feb1
012a
0063
0070
fd68
00bc
01af
00b4
fe95
fe9e
fdb5
008d
ff78
0140
fcb1
00e6
ff58
0084
ff43
0064
ff26
0011
facb
fdf9
0061
01ac
ff78
fe3a
ff86
fee7
0013
04b7
fe78
fd3c
fe52
ff9e
018a
000d
0115
0016
005d
ff94
fdf7
02a9
fdfa
ff8a
003a
ffcf
fe3a
ffe9
0006
ff96
fde4
0026
0191
fe4e
0224
fe1b
fecd
ffb6
fe37
001b
fdd1
010b
0152
fe5f
fe58
fe2e
0252
ffcc
0128
ff96
ff20
fe7a
fd68
011c
0177
0062
fea5
0132
fea7
038b
ff2b
ffe9
034b
fea0
ff6a
0a1c
fef6
0124
fe8b
ff66
fe83
ff28
fed9
fe58
02f8
0186
ff00
ff0e
fe35
ff64
00b7
01b3
013f
0256
ff7d
0145
00d1
fe24
0187
fee5
ff87
fdc4
fef7
ffef
00e3
fd70
0030
f7d3
028a
ffa6
0222
fdf6
026b
ff9b
fd6d
00a6
01ee
0045
ff15
00f6
feac
ffc4
02f0
00ff
006e
ff8c
ff04
fed3
ffbc
019b
01a8
024a
ffa0
fc0c
fe24
01b5
ff36
feeb
000f
fcd0
0072
fc6b
ffb3
00ea
02a1
ff64
ffe1
ff4a
ffb4
fef5
0050
0172
007a
0287
fef8
006d
002f
0170
ffa3
ff0c
0067
0033
fc61
0054
ffc9
fe06
0011
ff13
ff46
ff0e
fbd1
ff66
002e
fe8d
ffbe
ff84
00b6
0062
ff1f
027f
fed4
fb45
feb2
fc46
0121
ff93
ff67
fef7
fde6
00e4
ff14
005e
ffaa
002f
feb8
00bc
fc3a
fd50
fff6
fde2
00cc
ff03
fe98
02b2
0002
fe61
feb8
ffbf
fe36
ff2c
0098
fef0
ffee
0105
00f9
feff
ff0d
ff79
ffeb
0098
fe65
fc6d
ffaf
fee1
0003
ff96
00ca
01b3
00fb
febd
feee
005f
febf
017d
006b
ff50
ffe1
ff50
fde9
007c
01a1
fec8
011a
008f
ff97
00ac
00f2
00a7
fd85
ff69
007d
ff11
001b
fe83
ff78
fe89
ff06
fdc7
0091
0588
fde7
0146
000b
00db
0006
ffea
01c4
0250
00ad
feff
04ba
fe5e
fdaa
023b
0362
0088
002b
fffc
fd89
ff79
0077
fe70
0232
003e
fec2
fd8e
ff49
ffa3
fe6b
fc57
00c5
ffac
018b
ff79
ffca
0148
0049
fe7a
0280
0140
fd11
0041
00b5
fef9
fc0e
feed
feb1
0381
ffbe
fc8b
0108
ffe7
03a0
fe1a
fdf5
ff5a
00c4
fd38
0925
feec
0385
ffc9
013a
fe15
fefa
0078
02aa
01c7
fdc3
00b4
ffdd
0114
ff5c
fcb3
fe84
00ca
ff96
007a
025f
0322
0121
fc9d
0218
ff1c
0190
040b
00e3
00b7
02f7
fc79
ff3f
febc
0033
ff08
037c
0026
02f3
fd9a
03e2
ffc8
0024
fff3
014f
0294
00b5
ffd5
feae
fe51
01a6
0125
00f8
014a
ff77
fe62
00b6
ffcf
002e
ff28
ff78
ff21
ff82
0066
fef6
0276
ff78
002e
fe26
0422
ff98
011f
02a2
01cd
ff6d
010e
0017
fdab
ff9a
feb1
ff8a
ffee
00be
ffda
00cb
0216
fecb
fdfc
ffe7
010d
ff20
ff68
016c
ff09
004a
ffae
fc5b
fe65
febb
0051
ff71
0039
fe60
ffef
fec1
ff08
ffd9
ffa9
fed5
0019
0074
0049
0037
ffc3
fd80
01c9
001d
ff24
ffc6
019a
fef9
ff68
ffbd
fed2
ffb5
046d
000b
fe6c
01a6
ff28
00de
007c
01bc
025e
fee3
fdfc
fde3
016f
ffe9
006d
fe52
fda9
fe45
02db
fe65
0035
ff94
ffe7
fe41
fff8
fea4
0081
fe4b
006a
fdae
fec0
ff88
fd3f
000f
fee6
015d
fffe
feae
00d1
07ea
fa26
00cd
fe75
ffd1
ff74
ffa9
feda
00a6
00d2
ff1e
ffcb
00ca
00f0
009f
00bd
ff74
00c0
fd9e
0073
00a3
022a
ff7c
03eb
ff61
fd8c
ff9e
0343
fd02
ffae
fde2
01f7
0110
00d8
0026
fe3c
02f0
0132
0571
01e8
0248
ff02
feb9
01e4
fe75
ffd1
feb8
0091
fca7
0065
0216
029f
fe9c
fffa
0096
ff3e
01ad
ff7b
ff33
fe7a
0003
fed1
fd3f
0001
044a
ff04
0066
ff93
ff0b
ff1d
fe9e
ff14
ffb0
fef3
fee9
0143
0052
00b4
0173
00e2
0163
fb49
01dd
00ed
ff0c
ff5b
feef
ff48
01da
ff4c
fdf4
ff2e
ffa0
0003
fd60
01c6
ff35
042f
ff81
fb32
03b6
fe89
026f
fcce
ffad
ff29
fd77
00c6
ffd4
fe3f
fcfa
01ba
04d7
ffbf
0128
fea3
0121
fec1
0155
ffbd
000b
00ac
ffeb
013c
0025
0053
ff5b
0018
0080
0012
01fd
feb9
01a7
005c
02e3
fff1
0256
fa71
ffe3
007e
0026
ff59
fcf5
fed5
ff07
fd7e
fd95
003c
013d
0002
09d2
ff5d
ff6a
fa79
ff8c
00ed
0052
fd5f
00e2
ff40
fd50
fe8b
fef7
ff88
01d1
0269
0195
fedf
fbe0
ff37
ff8e
00f0
0020
01a9
fedf
0051
006a
ff65
004d
0005
ff2e
018d
febc
0053
0439
fd9d
fe89
002d
feaf
00e3
ff83
ff4b
ff35
fd08
fffb
fde4
0160
ffee
fe23
ff86
036e
ff34
01d5
ff73
fe16
018a
fe59
ffe2
fee4
01f4
0012
fe92
034b
fd71
ff4c
0070
0184
00aa
00a7
fe4e
fe58
0051
026e
0018
0067
01c0
002f
ff42
fffd
fed0
009e
ff7a
fc0f
fe98
0156
00a2
ff78
ff88
000a
007a
01b0
0040
ff28
fc46
0053
fdfa
fff9
0095
012e
0222
0266
ffc5
0032
0061
fe3e
000e
fdea
0088
fea6
0058
fd85
fffa
0177
ff74
fe63
ff06
007a
0192
feaf
fff9
029a
00a7
0323
0221
fecc
fed4
ff44
ffb1
feb7
ff70
0039
fd34
ff0e
fe26
00aa
0059
fd91
ff88
005a
ffe7
fffc
000e
007b
002f
0117
ff92
f9b9
0106
fe6d
ff50
fe71
fce4
00ba
ff93
ffac
010d
0171
fdfb
01b6
0087
ffd1
fffe
00a1
fea6
0189
ffb5
ffcf
fff6
ff2a
0071
fecc
ff78
006a
0021
fe4e
ffea
fdaa
ff96
fd44
0068
004b
fe8a
ff81
fe55
026d
fe6f
ff09
fb38
0136
00f2
fdc0
0056
fefc
ff00
00e3
fe4e
fc5d
ff42
ff2c
0056
0286
ffd7
f881
00ff
fd1e
fc94
00ba
0236
0152
fe1c
0111
ff6f
0052
fe58
03ad
011f
022e
0310
000c
fe87
feb3
0129
fc93
ff3e
fda2
014b
fe5c
ffed
0018
fec2
ffbd
ff8d
fe85
fff2
f8dd
00b6
ffdc
01ca
fefb
ffbd
ff62
0111
ff4f
029c
00dd
fd93
fecc
0099
fe51
001a
0053
00d5
01ac
ff45
fea1
ffd9
013a
ff24
fc6e
fed4
ffe7
ff6f
0432
fe9f
01b6
009d
fd8b
ffc8
fdc4
00fb
fe63
ffce
0081
ff82
007a
00aa
fe95
01cb
030d
0101
ff22
fe97
fa57
00d7
fe03
0324
fe45
ffb5
ff4f
0179
fa21
faf8
ff86
fd8b
fe41
ff2a
fb85
006f
ff95
fdfb
ff01
0149
0012
0113
ffa2
ff0f
ff4d
ff1b
ffa3
012e
0322
ffc4
014a
0116
ff78
0391
ffd2
fba9
011e
020f
0144
036c
007e
fcf4
fe7d
00e5
0007
fffd
fff1
ffab
fff9
fc2a
00ef
005b
feb8
0019
fde8
fe9f
ffd3
008e
ff70
0060
fd3b
0034
ff9b
fe0e
031a
ffa5
0175
0187
ff5f
ff6d
ffc1
ff28
fe3a
0327
0223
007d
ffdd
ff73
feb2
fe58
000e
001b
008f
fefc
ffe5
0145
0148
00c1
0130
ff9a
fcee
0104
0151
ffdf
0161
00ca
0034
fdc8
fed5
ff54
0017
0196
fd52
00d7
ff6c
07d1
ff1f
ff2b
fd79
ff5b
ff71
009f
ffa6
01be
ffd2
018b
008d
fd96
00ea
ff8f
fcc8
fef1
ffa2
0242
fe98
ff12
fe88
fd97
ffb1
fd4c
fead
feee
ff1c
ffb1
0093
005c
ffde
ffaa
ffe2
0153
fefe
fe97
ff87
0026
ff1d
fed9
ffab
0075
004f
02a5
fe4b
ff38
ff7f
03d1
007c
fe6c
ffdb
00c9
fe30
009b
ff0a
fcd1
01a2
fed7
feb1
ff0f
00b3
ffef
0011
fe6d
fe83
fde6
fcd3
0005
01ea
003a
fede
ffda
ff0f
007e
ff47
fe6a
010e
0015
ff85
fee5
00cc
0042
ff76
005c
0019
009a
ffbb
ff8a
ff7e
0268
fe79
ff17
006f
ffc8
0024
fc3f
ffc3
0295
fe8a
004e
fde2
fdab
0180
fd7c
00ed
fe3d
ff3b
ff59
0002
ff17
ff9e
03e8
ffe7
003d
fec6
fd41
feca
ffe6
fefe
f896
ff3c
005c
0010
fff4
fccd
0055
00b5
0103
ff74
ffa7
fdb9
fe3f
0026
0076
008c
fe6a
ff05
fdad
fee8
029c
ffe4
fef3
0038
ffe8
fe9d
fc48
fef6
fe01
007f
ff80
0274
fda8
01eb
ffc7
004c
fd3b
0034
fd63
ffb5
000e
ffa1
ffce
ffd2
010a
ffdf
ffd6
0040
fe5b
ff14
fd3f
ffca
ffcb
0056
ffd0
ff5c
ffb6
ff87
fe58
00fe
fffc
0009
ffb5
ffa4
fd93
fe26
fd3a
fe29
fee2
ff60
0110
012a
011d
fe41
0142
ff84
ffc2
0034
febd
fcc7
fdba
fe0c
ff3d
001a
0039
fef5
ffd9
fe53
fd76
00fe
fdef
00ee
0016
fee2
ff25
ff7b
ffcc
0190
ffde
fe82
ffd0
ff4e
ffbb
0083
fdc5
fdf1
fce9
0006
0045
ffe4
fe11
00de
ffab
011f
ffb5
fef1
01ec
ff9d
01a4
0093
fece
0101
fee4
feb5
0049
02c5
febd
000d
fe7a
ffe9
0333
fff1
ffba
feac
ff72
0089
ffa4
0049
ff28
fec6
007a
fe36
fe49
ff80
0229
0110
0053
00c2
ffd1
00de
0138
012b
ff6b
ff7b
004c
0411
fdf3
feaa
0102
ff53
fc34
014f
00b6
fea3
00cf
001b
0010
ffb0
ff21
0002
fe7b
ff76
fe9c
fed1
fe7a
ff9c
ff6b
008e
fe2f
ff65
fe6a
0103
ff80
ffc7
fedd
00f4
0066
ffb3
01e1
fced
ff74
ffbe
ff14
0080
fc7f
0154
fdd6
02af
fef0
00cf
fef9
0006
fd27
0355
01dc
0081
ffbf
fed7
00f7
ffec
00d7
019d
ffe2
fe46
0010
009e
fd06
00cb
fe00
009e
01e1
fd4a
0217
017d
fcda
ff95
fe89
012a
0095
01ee
0047
ff9e
ff23
028e
fdc5
ff82
0041
0068
ff38
00cd
ff7d
026e
fd76
0080
ff00
ffa0
ff95
014b
fee5
febe
ff03
fe28
000e
01a2
0095
0095
fcd6
00af
feaa
0033
ff1a
fee1
001f
0014
005a
ff43
012b
01ce
fe51
ffd0
fff5
fed0
ff40
feff
0146
0245
0040
0146
0065
0010
fd83
00ce
ffba
ffd7
ffef
fcea
fefa
00e9
fc8d
005f
fff4
ffba
00ba
fffa
fea9
0593
fe50
00e8
0004
fc71
0312
000a
ff67
0148
feca
ffea
0062
fece
00db
00f0
ff3a
ffbb
01ff
0120
ffb1
010c
fea9
ffaf
0234
0026
feb7
ff04
0075
ff25
ff67
ff52
ffa0
fec0
fe97
fef1
ff18
0154
ff49
010d
ff93
0056
ff5b
0124
fd6a
fedc
fe6d
fff8
ffb3
fecf
0147
00a5
01c4
fe18
ffa8
0110
fe9e
fea6
0296
000c
001d
ffe6
00a5
fe75
ff6c
fef2
fd6b
ff2d
fee3
0002
ff2d
00e2
0075
0018
fe78
003b
ffd8
fefd
ff35
ffe6
004b
fe8d
ffa0
ff3a
0020
ffcf
ff2e
ffcd
ffb0
00e7
012e
fdfa
ffb1
ff8f
ff9c
0030
00ba
009a
0052
ff65
0190
ff5e
fe9d
fe54
009c
00ad
fbdf
fee8
0082
0168
0046
050d
005b
ff59
ffef
004f
0224
fe73
feb1
fe81
007a
febe
fea6
007c
017c
fe78
ff56
fff3
0066
01c9
fe8e
fe6f
fec5
fe5f
ff44
fdc4
ffb4
0012
fcec
000c
ffd8
ff96
0133
fe17
fe34
00a6
fe85
fee9
0073
fffa
fe84
00cc
fedb
003b
ff81
ff23
0383
fe22
fe49
ffab
ff77
0177
ff8c
fe09
fff2
fec3
00e9
fd87
ff83
00de
fc40
fff7
fcbe
01f9
ff6f
027c
fd10
fe80
fe9c
ff50
005c
ffae
004f
fd4b
ff00
0205
fe77
00a8
feba
0070
ffc5
000e
0167
ff7f
ffbf
fecf
01c8
008b
0014
ff3e
005d
00bf
fe0e
035f
fe7b
0161
00a9
01cf
ffc5
ff22
01fa
0021
005f
0156
01c2
fe36
005c
ffdf
fe59
fe65
005d
00f0
ff26
0772
ffda
ffa9
047d
fcd2
ff90
ff41
008d
fe93
fff2
fe28
fea1
0048
ff43
01ad
fe02
ff82
fed2
fd45
fff6
0087
014d
00dd
0077
ff40
0151
ffc5
fef7
ff8c
ff19
00f8
0125
fddc
fff4
0112
01b5
002d
00e2
fedc
ffa1
ff4d
ffef
fea2
fb9d
0108
feba
029f
fedf
00e1
ff7c
0143
fea2
00b3
ff7c
ffd3
fed3
fef8
006f
ff23
ff4a
ff1c
00b5
034d
ff51
00b3
00bf
01ee
fe1e
006e
fdd7
0020
fef7
040e
00a3
00ea
fe2c
ffbc
00c2
ffd2
ffc6
fe69
0014
ffbf
ff7c
00c2
0076
ff2f
000c
00f3
00d0
003b
feae
fe3f
fe9e
00ca
fd29
ff18
ff2f
0067
fcf6
0089
ff54
0093
004d
ffcc
ffb0
ffe9
fe38
fe3c
016e
ff87
0053
ff0f
0088
ff89
011c
ff7b
01d6
0080
fd95
0231
0074
018f
fdc3
ff5b
0012
007a
ff6f
ff7a
fffc
0074
fe11
ff65
fec9
ffcf
fedc
042d
0047
00b0
007f
0093
002a
ffa8
ffaa
ffe0
ffea
fe44
fdbf
ffef
ff5e
fdc0
01fc
ffca
fe4b
ff96
feeb
0073
feb0
fff5
ff15
00be
ff8e
0000
ffe2
0194
ff28
0039
fe99
ffa0
001a
fef9
f8c8
012a
fe5a
ffae
01af
00c8
feec
ff6c
fe22
00dd
fd72
ffb5
fffd
009b
0063
00e3
ff81
014e
010e
fe20
fec1
fc93
ff64
009c
0245
fda6
ff7e
0036
ffc2
01e5
ff2a
fe74
fef0
ff4a
ff05
0158
010e
fe12
fef0
018d
ffe1
0071
fcbc
00db
00f1
017b
001c
ff4e
ff79
ffa1
00a6
fe29
ffd3
fc23
00ab
ff44
fe7b
009b
fd3d
ff67
0034
fd61
ffa4
ff2b
ff33
0080
01bf
fe68
feed
fffb
feb7
0127
ffa6
0192
0043
ff16
feb6
0026
003e
fedd
fe61
0206
ff06
ff23
ff80
0159
ff90
fdf1
ffd2
ff9b
ffb8
04d2
feec
0204
0066
fe46
fe8a
ff55
ff5c
fddf
feed
015b
00e8
00c1
ffaf
005d
00db
01b7
00cb
ff25
ff3e
fe3b
0242
fe45
015e
ffa8
ffe4
ff21
0089
fbab
0126
00ee
ff5b
feef
fe4c
fbfb
0085
001b
036c
00c9
0046
00f5
fe27
005f
ff38
0088
ff2a
0167
028b
02f8
ff4c
ffb3
0012
ff02
fcaf
002d
fbc1
00b2
ffb5
0069
00e8
008c
013a
fdde
011e
ffe5
001a
01ae
fff1
00bf
01c9
00f3
fff2
fe66
0155
ff6f
feda
001d
013a
fec7
01bd
fe1c
002e
ff9d
ff38
008a
003d
ff87
0128
fee4
0065
02b9
013e
fd62
0155
0229
ff0e
fff3
0009
feea
ffd6
fe33
ff65
feec
fe8e
00c2
ff68
0088
0041
0066
0081
fe6c
0057
00f0
ffb1
0123
ff8e
00c4
008d
00ad
01f1
00c8
feea
fef0
fe38
ff9d
fe20
fe6d
feaa
ffeb
00a3
ff8a
01d5
feed
fef5
ff85
000e
00ed
0135
fe60
ffa9
ffb5
ff27
fffe
0065
ff06
fd39
0094
000b
fe74
fcef
fead
ff9b
fefe
fffb
fe70
fee8
02da
ff42
019f
008e
fe90
025a
ff0e
00fb
fee2
ffaa
0190
ffd1
ff4e
ff53
ffeb
fecf
fe09
0011
fc4f
ff1b
0069
0062
fdba
00af
fe7e
ff32
feec
009c
ff65
014f
00c3
0029
ffb2
00d9
ff25
fe68
ff96
0157
017d
0123
ff72
fde2
fed2
023d
ff36
ffb5
0056
ff73
000b
fd4a
0009
ff55
016d
00b1
0069
fee7
fe60
012c
018a
ff35
ff3c
001b
fedd
0056
000f
00a9
01e8
01ee
fff4
0256
0071
0225
004d
ffee
00c8
00d5
ff2b
ffe9
00a7
fecc
fd3b
00b1
0262
ff69
00ff
0061
022a
ff4a
feba
0195
feb1
ffae
ff0d
0008
0235
0034
feed
fff7
00c0
0016
ff19
0252
000c
0056
00d4
fd89
ff14
feff
fec1
ff26
00aa
ff03
ff80
004e
043b
fd8d
ff7b
01d8
02dc
ff8b
ff39
0077
ff03
ff75
fe67
03d0
001d
02d0
0058
ff76
ff21
0054
fee0
fc9c
0029
ff63
fe17
ffe2
fd88
ff31
ff3f
fef0
ff97
0099
fde8
006f
ff39
fc4f
00c6
0035
ff76
fe9d
ffd1
fe1c
001e
fc4f
ff58
fea5
0388
004d
ffd8
0106
fb5f
013e
ffde
010e
01f6
00cf
ff9a
fd3b
fdd2
fff5
feff
0049
001c
0044
023c
001a
fe26
fe20
ff08
ff48
fdad
fea0
ff28
ffd0
ff75
0072
0030
fe5d
fda1
fecc
0145
ff1b
ffea
fe81
ffad
fdc5
03be
0263
0106
fd3b
fe06
00f1
fd81
004e
feea
ffcd
ff19
ffd0
fe93
005c
ff19
0270
fe1e
ff61
0084
016e
ff0f
01fd
008c
00c8
0096
0024
fef1
ffe1
0116
00f5
0038
fe28
ff07
fdcb
0034
ff55
fe96
011b
ff60
0165
0064
ff39
0025
ff28
02fc
ffdc
03b9
01d4
ff84
0058
ff7e
ffb2
0053
ff4d
ff6a
fdf0
ff8d
0081
fed2
fffd
0093
fedd
ff83
fec0
005d
fd64
00ae
001a
ff22
ffd6
003d
0254
fe9a
ffcf
0056
00d6
0128
ff65
006e
fd1e
fe74
ffcd
fe97
fde9
0068
fc74
0052
fdf3
ffc5
0087
ffba
0071
00f7
fe20
03ba
fff9
00ca
ff55
fe2c
fe73
fded
ffbb
0078
0008
ff93
004f
ff23
ffbf
0012
ff0f
00f6
005b
02ff
0019
fcfc
fe9b
fe8d
fd7f
ff65
ffba
ff0a
ff04
0121
00eb
fe4d
fc82
ffac
feb5
ffc7
ffa8
fee6
ff8e
0314
fea4
005e
00a5
006b
fed7
01b2
ff4f
fddf
008d
0046
00a3
008d
01b9
fe35
ff7d
fed0
ff5a
ffea
ff68
ff11
00e4
001e
00f7
fdd5
0067
ffc9
066e
ff2e
ff9b
fe90
fdb9
0413
0276
ffed
010b
fffd
ffc0
01e7
01cb
0282
ff20
ff79
ffb0
0188
ff70
ffb9
fe0b
fe06
0117
ff81
012c
fe9c
fe8d
006a
0083
fed5
ffeb
fd07
fb14
0009
ff88
ff50
0025
fe9f
ff62
ff23
feff
fe0b
00eb
00e8
ffcd
ff82
ffcd
006c
00f1
fda5
0242
ff83
ffb2
fdb2
01b3
ffed
ff13
0139
fffb
ffbb
ff10
0019
fd91
0123
003c
00f5
0062
ff4e
fe5f
fe14
fdec
fed2
00cd
ffd3
ff61
0024
fee7
ff4d
0172
fee5
0179
ff15
ff4a
ff74
ff8a
feef
ff99
00fe
fe82
ff02
0023
0068
fed6
00a2
ff56
00de
026b
ffd7
0078
fee8
002a
0057
fe0f
0045
ff8d
0039
ff84
ffa3
00e2
ffed
007b
003e
00ed
008a
0044
ffd1
ff2e
ffc4
003e
ff03
0047
0053
0044
ffce
009d
fed7
01fb
fde5
0229
fe92
01c1
00f4
007a
fe66
fe3f
00d9
0132
011a
feec
ff52
00c3
ff32
0234
ff64
fdc4
fe47
fef0
ff8e
0066
0045
01b1
ffed
0002
021f
ff6f
feed
fff7
0287
fe37
0047
ffaa
ff64
ff10
ff8b
ffe9
ff17
fff2
ff96
fcb1
0136
01b1
0131
ff66
0013
0043
ff93
ffe1
0015
ff65
0055
02b6
01b8
005a
ff07
0078
fda8
00ef
fecb
ff37
0000
0036
007e
fe62
ff88
ff45
0072
feaf
ff9f
fbc7
ff59
00c1
ff13
fedc
00ea
01f4
fcfe
00cf
0037
fd18
fc6c
007e
002a
0270
fcc3
004e
ffbd
00a2
ffc5
0040
00c7
fe2e
0037
0175
ffef
fdbe
00d2
ffe3
ffe5
0049
ffe1
fef2
0118
0068
0036
ff04
0014
0227
ff31
0109
ff59
ff8d
ff75
fcdf
ffb4
0101
ff5b
0017
0042
00f7
ff63
0160
006d
030d
0304
fed8
0184
fc54
035d
007d
fe26
fee9
fe64
fe8d
ffb3
04a1
ffd1
fea6
0051
ffb2
006c
0110
ff02
01ca
fe07
01f1
ffe6
00e2
ff33
feee
fe26
0038
009e
fee3
feff
00c1
ff21
ffa5
0109
01a2
005b
0082
ff0e
0066
ffe3
fe74
ff4f
ff32
00cd
0028
fe4e
ffe6
fe9d
0014
fe34
0072
fe68
0013
ffa6
ff39
ff60
014a
01f7
fe6f
ff39
fdf0
0053
ff73
01b4
ff55
ffd7
0086
0277
005a
ff44
fe33
0294
ffc2
0092
ff84
fead
fe26
ff66
ffab
fffe
008a
0141
fe74
ff6c
0012
0084
fe02
ffe3
ff4d
0064
ff15
0210
00ec
ff9d
fdf3
fe99
00cb
0055
008e
fb9a
fef7
004c
fedf
0088
012d
fe92
012b
0037
ff34
ff7d
fff4
fe45
0112
fef5
00e5
03a6
00f7
017b
009f
0157
fe2f
feba
0146
ffc2
018a
ff8e
01e1
0010
ffd1
fe3b
ff15
fddf
ffe6
ff4f
013b
ff30
ffe1
001f
01ae
01b7
fe0d
00da
ffea
ff49
ff0c
ffab
fa13
026b
fecc
fdd9
ff88
01be
fe17
0045
0073
fede
00ed
fe03
00d4
fdbe
fea5
ffa9
ffb7
fe22
0020
fefe
005b
fdda
ffa5
ff89
fd87
fc5f
0036
ff4d
ffef
028d
fd85
ffc2
feb5
0064
ff84
0051
018b
0018
029d
fe96
014a
fdc9
ff18
fef6
fe13
fc52
fed0
ffae
ff98
feae
00e7
ff3f
feb1
008c
fe4a
0118
0094
04f9
fdd4
fedf
0015
0024
fe61
003b
0063
ffb5
0055
001e
00e3
fe8a
0013
00ae
fef8
0629
ffc0
ff18
014f
fe44
fe96
ff5f
fe41
fec1
ff6c
ffba
004d
ff5b
0278
fe72
ffc4
ff61
0214
ffff
fe60
004c
0025
fee3
00e5
fee5
ff5b
ff29
0076
fe18
ff55
008a
ff0e
00cb
fef3
fe52
feea
00f0
0190
022b
ffa6
ff89
001a
fe7c
0035
0117
ff7c
0057
fe74
ff55
00a6
015e
0049
ff09
0121
0026
ff33
fd6c
00fa
fd7b
ff0a
fe2a
019c
0223
00f3
ff98
006e
fe3f
fe9c
fed2
fe7c
fef1
ff00
fe25
00e3
fda0
0068
0210
0259
007c
00dc
ff12
ffba
fe8b
025d
0328
0124
01be
00ea
fef8
0020
fff2
ff09
ff53
fb91
fe32
ff32
ff84
0066
feb6
ffc8
02f4
ffb8
fd5d
ff54
fe29
0081
fdbb
007a
006d
00d6
ffce
0144
0043
ff58
ffe9
00ad
ff15
0182
ff3f
00b4
ff8a
ff2d
0035
ff39
0031
00ea
ffae
0115
ff2f
ff00
fef0
fcff
ff36
fecc
005f
00a9
0210
ff25
fe75
000c
fe85
ffab
febd
ffb4
003f
0089
0123
ff80
ff5f
00aa
ffd0
01d9
01d6
021d
0081
00fd
fe21
014f
00b0
0027
ff72
0019
006b
fa0c
fcb0
fe0b
ffd8
005f
fd12
0292
fe8e
feeb
ffeb
0009
ff45
0197
0016
fd07
fc3a
004e
ff84
008f
fe11
fd10
ff68
ff4f
ffb7
008f
035a
fc37
0030
ff39
fe18
ff74
0269
ff33
00e4
ffb9
fe72
021b
ff8c
00d4
0122
ff62
ff12
00c2
001c
ff3f
fe2e
fdb4
ff7b
fe10
fd3e
ffb6
fe38
ff26
0168
0084
fcd9
01a3
0061
fff2
fe85
00bb
0417
00c0
fed8
00ae
fdac
fddb
feaf
00db
0212
009d
fec1
ffff
ffac
0043
00ca
ffd1
fe7c
fcfb
ff39
026d
fe11
015a
ff81
ff5c
fdeb
fec7
ff3c
febe
0090
0181
fe78
fffb
fe20
0032
febd
0174
012e
001f
ff76
026f
0165
002d
00be
ff01
fdd2
fd37
fe55
feeb
fef1
0018
fd7e
fa2e
fecb
ffde
ff39
fe31
0323
ff0a
ff99
02bc
0227
ffa8
fde3
ff45
ff29
0081
0110
004a
00b4
feb2
0139
01f9
fea2
fff4
0243
0098
ffe6
fce6
00af
02ec
ffba
fdc4
ff3c
fce8
0448
fc85
0032
000f
01c8
fef2
01a3
0111
fe26
fec7
0016
023d
ffd5
0982
ffe5
ff7b
015f
ffb1
ff96
fdb2
00d1
0043
fd3c
fff5
fdbc
feea
fdbb
fe9e
007a
00cf
fd38
ff85
fec5
fce3
004e
febb
ffef
ff14
0187
0090
01eb
fba9
feac
fbd1
fed0
ff05
fe7c
ff3d
feba
02f2
0018
0095
ffde
ff2e
fe15
0154
01d5
fe9a
0098
ff6e
feed
001a
ff48
0382
ff24
fd28
ff82
fef8
fdb4
006b
ff36
fe7d
ffe8
0035
00af
ff21
fd57
ff1e
01ba
00c0
005c
fdb6
027e
fd47
02d8
00cc
ff4f
0041
01e6
fefe
fe2b
00ae
fcb5
0092
ff05
ffa3
fdcf
00db
ff64
015b
0104
fe9d
036f
00ca
0390
02b7
0320
00d4
00d4
ff8d
fd67
0090
01e3
ff4f
0181
fcb1
fc36
ff45
fe7d
014e
ffd8
0131
0057
ffd1
ffa8
ff9f
00e4
0042
058b
ff53
0367
004d
016f
ffa5
012d
0333
fc7a
00d3
0117
ff1d
0273
fd69
fe7a
ff21
0077
fdc8
00b0
ff51
fee2
0004
ff72
ff78
018e
00a8
00a6
01d2
ff7c
00ec
0089
02c1
fba6
ff15
ffdf
fde6
fef4
fe07
fcad
00b7
00c7
fb34
ff71
fd6d
ff7c
ffda
0037
ff76
01f6
fce3
03b0
01b3
fef3
fdcf
ffb6
ffcd
02e4
00a7
02a6
fff5
fe4d
ff4d
ff13
ffb9
020f
fd7f
00e4
024d
009a
0170
ff6e
0124
03bf
fce2
00bf
fdfe
fee9
0036
015c
0319
fefa
fce0
ff46
fd82
02c5
00df
023e
fe86
0139
fed3
ff82
ff7c
02d3
fd8d
05e4
0047
fde1
0022
ff97
005b
0190
026b
fcff
029e
ffce
0074
ff4a
fed3
ff78
ffa5
fe0c
0000
fdb8
0151
fde4
030c
ff90
0095
fddc
ff5e
0835
0377
006b
0120
fe64
ffe9
01b2
004a
ff34
0016
fe88
0056
fe59
013a
feec
01e0
ffb4
ff48
00b9
013e
fdae
ffca
00e9
ff97
fdbe
ff0e
fd57
fcce
ff15
ff47
fdc4
005c
ffd7
fe65
feb8
feec
fd68
ffce
ffbd
003e
fe2f
0082
0016
00a4
fedc
ffbc
ffec
ff97
fa8e
0223
0092
fed7
fe67
ffad
fd72
0031
0169
fc84
01e6
ffb6
ff26
ff78
fed2
ffc8
fd83
fdd0
ff59
0006
006b
0039
fed2
fd35
fc68
0405
feed
fffc
fdc7
fe35
ff2b
fe70
ff19
001b
0091
fee6
0034
0014
febb
fe0c
ff2b
ff62
00e6
0052
ffbf
fdb4
02c9
fc4d
fe67
fd9c
ff64
ffb3
ff77
00f7
ffa8
0008
00c1
ff10
feac
01a1
ff3f
fe20
ff3a
fe68
02cb
fff4
ff8f
ff40
0028
1948
008f
fffa
ff92
02e0
fb62
029c
fe68
01f9
0126
010c
fefc
feef
048e
00f3
0150
ffe4
fe7e
0062
fe8f
00bb
feb6
fd74
fe9e
fe99
feef
00ac
005f
019f
fe24
003f
fef4
ffb2
0137
0034
ff50
ffaf
ff01
fecb
006c
00c1
01c3
011e
fcf7
ff6a
ff4d
fcbb
0188
0475
feb4
ff29
0258
ff58
fdd2
ff97
ff2f
0151
02c1
fd48
01c2
0117
fd9c
011c
ffa3
0019
003d
fcbc
ff29
ffe2
00de
ff1e
fd1a
ff8d
00aa
0102
0407
fb4f
013e
ff89
0005
ff37
014d
ff52
ff62
004e
025c
fd17
fe2e
0407
ffd3
00e5
fc74
feef
fd6b
006e
013d
ffb5
ffe9
feb4
0034
023a
ffd5
fe3b
0212
fb0e
003a
ff02
fe50
fea0
016f
0076
01f6
fe46
feae
fde4
fcc9
029f
fe1a
fec9
0277
f82f
fe20
0100
fe72
ff5a
0047
007d
0243
fe87
02b5
fd8f
fc99
ffae
0058
fd42
0383
0080
fc9d
fc97
0167
fe65
fe70
0458
ffb7
012b
fe1a
fff0
00a8
029b
ff86
022c
fe2f
025d
fedd
014e
ff35
ff46
ff09
024c
fee5
0077
0299
fe4a
ff5b
fea3
003c
0002
00f2
0235
ff2b
002d
ffea
ff0c
005d
ff80
ffa0
0068
0008
002b
ff66
011e
fe29
00ab
fe42
ffea
fff0
fffe
ffd1
fe6e
02e7
fcc1
fe57
fdf6
fec0
ffb8
ff8a
fe5f
0115
00c6
00b1
0217
fffe
fff6
01d9
019e
02b5
feba
febf
ff67
fe69
ff64
ff00
febd
018a
0167
0214
fe72
0109
009e
016c
fcbd
0086
fcb5
00bc
ff1f
fdb3
0373
00ad
0018
fe47
ff4e
ff6b
ff1e
fe17
feb1
0169
0199
ffcc
00ce
fea4
0003
fe8a
ff30
015f
00b6
fe94
ffdb
00ae
010d
0551
0049
fdea
ffcd
fe91
feed
ffab
ff78
002b
0035
fe40
feee
feca
0064
0086
ffb5
ff10
027c
fbd4
006c
fd25
0133
0428
fbee
fd32
0062
fe89
fe5e
022b
fc2d
0110
feb1
ff9c
00eb
0268
fd87
019c
ff19
fec3
02ae
fc9d
0042
fe35
ffcf
ff6d
006f
015b
0080
fd37
ff10
fc90
006a
fedc
fddd
ff43
007e
fd00
000d
03ea
fd4f
0107
ff0a
fff8
ff8c
0262
0114
0008
02d0
fe0b
0139
ff10
ffca
0027
fbf4
fe74
fe1d
00a5
ff3d
fd8a
fd52
fbf5
ff81
0136
fcae
0212
015e
0023
00fb
004a
ffb7
fffc
fe49
0028
ffa1
01ab
00cf
0045
ff52
fea8
005d
01de
ffbe
fe86
ff95
fcee
ff77
00b0
ff13
ffd4
fe1a
0101
fed4
fb67
0133
00a1
01d0
ffca
ff87
fef9
01ad
ff75
0145
fed7
fd7b
ff2f
fe67
fe42
ff49
fd5e
0065
feb5
0009
0060
ff50
0238
fe70
fd05
fcb1
069a
0179
03aa
fedf
0029
00ed
fe32
00b2
fec3
fe55
015e
ff87
013d
00e1
0091
0170
0156
0095
015c
0083
fce2
ff3e
fda4
ff7d
fd9b
0174
ffc1
0035
ff90
fef6
fcdc
fa97
fe9c
fdac
fcd1
fe74
fc8b
000e
fe60
fd80
022b
0161
fff6
0090
ffb2
ff97
0156
00a0
0783
02d1
023f
00b3
fe7d
0060
00cf
0203
01c4
f9ff
0021
fec4
0246
054d
fe0f
fd66
03c0
ffc0
ff4c
ff17
ffd6
ff72
fff7
fc72
fed7
0181
feac
00c5
fe8a
fef0
ff72
fe54
0267
ff55
fea0
009c
fecd
fe3b
01e9
fe20
00ad
013f
0098
00c4
ffb8
ffed
ff6c
ff6e
fd8e
fddf
0155
fff0
ffc7
fe33
ff60
ff28
0180
ff92
00a8
ffe8
0223
01b1
ff5f
fde4
ff37
0292
003e
00be
00c2
00a0
0205
fed7
0162
008f
01ee
013d
fe8e
febf
0008
00e6
ff20
fee6
fefc
ff44
fdc3
00ca
fef1
0135
00c4
0041
0143
fdcd
00be
ff8e
006b
fe9b
0018
005e
fe43
ff7a
ffbb
ff85
febf
0338
0060
fe9c
012e
ff8d
ff9a
ffbc
fee6
ffb0
015b
0036
fe8e
ff5e
016a
00ab
ffbf
ffa1
00d6
ffc6
ff73
0173
ffbb
feff
ff4b
ff4b
fd96
ff22
0001
ff67
0072
007e
fe2b
01a6
02b9
fee3
ffa4
ff45
ff6e
0031
ff36
0127
fdca
fdba
fe18
0087
0043
0010
fed9
010f
fe31
020d
ffcd
ff10
0074
ff4f
ff9f
042d
fc93
016d
ffb1
ffe5
000e
ffbc
ffa9
ffae
fff3
ff07
ff05
fff2
ff40
009c
ff8a
0034
008b
000d
ff7c
0074
fef0
021c
ff9d
fe7d
ff38
fea9
ff02
ff9b
fe25
0094
ff24
f9d0
fc84
ff50
feb8
fdf6
fd38
ff44
00e2
fccf
021a
0032
fe21
ff2d
fd56
0012
ff3b
0075
ff7e
ff7b
001c
ff40
fede
ff58
0081
00d7
ffaf
feae
ff7a
040d
028c
fdc3
ffd3
fdad
0170
fde9
fec8
ff66
fe81
000a
012c
feee
005c
fee4
ffbe
fd31
00af
ff1e
ffaa
00ee
ff10
ffeb
febb
01e0
0067
00ac
fff5
fe48
fe8f
fe85
fe0c
ff7a
0076
0191
fde4
ffd0
fee9
fc8f
ff9d
ff88
fef7
fee2
016a
024a
fe92
fef5
fee9
fdc5
ff6c
feaa
ff52
ff5c
ff5e
ffd9
010f
003a
ff83
ff72
fe8f
0075
fdd8
ffcd
01d3
ff18
0126
0042
ff7f
01a0
0025
febd
ffd5
fe0b
fecb
0086
ff37
ffde
011c
0026
ff5b
ff4f
fde3
001e
012e
0185
fdf2
fed9
fef6
ffa7
fe96
ff3c
ff39
026d
01e4
feb7
febf
01fa
ff5a
0183
ffb1
0172
ff43
00a6
005a
0090
0083
ff31
0090
0090
fe1d
034b
024a
00ea
016c
ff92
ff06
ff4c
00a6
ff9e
ff8a
fff0
fcf9
0025
fe08
08c3
fe81
0129
009b
0058
019b
009d
ff69
0157
01b5
006e
03be
ff41
ffb6
00f0
ffa9
fec8
0024
0021
ff55
006d
0244
0033
fd1a
0064
00fb
fecc
001a
ff1a
0005
fdcf
0079
fff5
00c6
fe47
01ad
fe0d
ff1f
ffa7
fd8d
0048
0361
ff1a
ffc1
01b2
ff2b
ffc9
ffed
0205
0036
fbf7
fee6
fe32
ff47
ffef
ff72
fec9
ff29
fe4d
017f
02a2
ff87
ff19
0010
fd33
0237
0105
ff4a
00c3
fe37
0000
ff4e
0183
fdc3
fe77
ffd6
042f
ff55
0079
007f
02c8
01a0
fd6c
013b
ff9d
0151
009c
ff63
01d3
fe21
fd42
ffd0
ffdd
015c
ffc3
ff45
0070
01bf
fdf2
ff86
feca
0154
fef2
0021
00a8
fe11
fffb
ffee
003a
0087
00ff
fe1a
ff7a
0031
ff80
fea2
ff10
fea3
ffea
0074
feea
00a2
00ae
0022
fc9b
004f
ffd7
ff3c
ffd1
01f4
025b
0403
0023
ffb7
0068
0053
fd6d
ff87
fffc
fdf5
00fc
fda0
ffbb
ffbf
01bd
fec1
ff26
0001
01c4
ff7c
ffde
01a6
ff07
ff43
ffbe
fc42
03a1
003a
018b
0036
0057
fee1
ff3a
fe70
0022
fe2a
006e
006f
00f5
00c0
00cb
0161
002a
febc
0226
ff8a
007c
fd1a
004e
ff81
ffdd
ff3b
0049
ffaa
02d9
012e
fd7f
0343
fe29
ff6b
008f
00ad
0178
ff2a
fdc6
ff00
ff01
0197
000c
ffdf
fbf4
fee0
0064
fdf9
0061
ffce
feb8
0031
ffde
ff06
ffe4
00f8
0001
0012
fee0
fff4
fe65
ff61
ff4c
00f0
fe73
0031
0140
fe46
fc01
febb
fe91
ffb4
ffe3
ff12
ff6d
fef5
0123
00df
fec0
ff49
ff5d
fe83
0114
0062
0143
ff0b
fe5b
0000
0092
ff87
026a
009f
fe9a
fdd8
01c9
fd0f
000d
ff71
013d
ff2d
ff54
fe93
fef5
01b7
ff9f
0158
ffaa
fffd
ff5e
ff2d
0128
fd7b
fe91
febf
fead
fff1
00a3
017d
0115
fdf0
012d
00f3
fff1
0084
ff16
ff3d
ff56
ff0c
fe03
ffc6
ff73
ff41
fe11
0000
fdf8
ff98
0106
002d
002d
003f
ff13
ffc8
00ac
ff30
fed4
0030
ffde
ff42
fc58
ff2a
00e0
ff90
0040
ffbc
00b4
fe9f
fc57
fe4b
ff1b
ff22
00f8
fdc7
fffc
00a2
0119
00b9
fbd2
016e
fdbc
02da
fea8
fe6c
fdfe
fe76
0095
016e
ffde
fe37
ffca
fef6
ff12
fdd4
fe8d
fe64
002c
00bb
0028
00b1
006f
007c
00d0
fefc
0032
00fb
fde7
00fb
ff2f
ffcf
fea8
00fc
0080
0113
ffcf
feed
fcb7
ffaa
008e
ffba
010a
0086
ff7c
ff7e
fd66
ff53
ffe6
ffde
fee7
011c
ffce
0032
fcb9
feaf
fe24
fee0
019c
fdf4
0014
0044
fefb
0026
fe79
fe48
fd33
ff4c
fedf
feb9
ffd1
0114
009d
fff5
028c
fdb9
017a
fedf
00b5
02a5
fe5d
0025
0134
fd0a
ffaf
004e
fe26
fef4
fee1
ff05
fe24
0042
0028
ffb6
fc1b
007e
feb5
ff61
fec3
0008
0032
0034
0003
ff90
00fc
fee3
fda0
fdb6
ff35
0077
021b
fe52
ffef
0562
fd13
fff6
ffb3
ff7b
0143
013a
ff31
006e
fe24
0257
ffb1
0057
fe15
0014
00e0
ff83
00aa
fe99
fed3
ff58
fded
ff4d
fff6
0013
027d
0117
000a
ff74
ff7b
ff05
ff3f
0061
fd71
ffa7
febe
fe8d
008f
031b
001e
ffa5
ff08
05af
ffd9
fe62
00e9
fe12
01cc
0220
0103
ff8b
002f
ff23
ffba
ffe0
00a8
ff05
ff3e
0110
002f
0054
002b
fecd
0082
ff32
fff6
019a
ff30
ff2f
fdd5
ff6a
fdbd
010d
ff87
0248
ffce
ff23
fe80
fff7
ffd3
fdc7
ff01
033e
ff9a
0126
007a
fffa
fe8b
009f
02d8
014c
ff1c
ff18
025b
0088
fe0f
00b9
ff2f
ffa3
ffd4
ff0c
ffa9
ff0c
fe95
00b5
ffb5
0076
ffc6
fef7
fd65
01df
ff05
0167
011f
0434
0038
ff9b
ff58
02fd
fd84
006c
00a5
0061
00d5
ffa8
fced
0136
00fc
ff4e
ffa8
ff4b
ff4d
0042
fe5a
fcc6
fe5b
002a
ff57
fe1f
fe85
0013
0210
003b
feb3
00af
0246
feb5
0326
003c
007e
0079
fdf0
ffb3
ff73
007e
006d
ff62
fecf
fefb
ffa2
01d3
016c
0080
fff1
ff03
fdc6
fe06
fde1
ffd9
0021
ffc5
007f
00de
0031
ffce
01e9
fe55
fe6f
ff6f
fe39
00dc
0233
00f6
002f
fe3f
fef5
0021
0032
fdab
ff31
ff51
ff8f
00d1
ff61
016e
ff1d
ff3b
fff1
03a0
0108
037b
fdd5
00df
00a6
ff00
fdd5
00ea
fe83
0014
fef4
009b
ffe7
008e
ff96
001d
0098
0179
0116
fd4f
00b8
002c
011e
ff34
00d6
fff4
003e
ff50
00bd
fd32
fe07
fee9
fdb5
fe88
fe9c
fd65
0091
fde6
0082
01ee
022c
000a
fe57
ff16
fe6d
fde2
ffe0
02e6
0295
ff61
004a
fed4
ffe5
008d
0206
0107
fa76
01a2
008e
0370
ffe6
feb7
fe49
01f5
0065
fef3
fea2
fe65
ff19
fee4
fa15
fff3
029c
fd95
006c
fe69
fecc
ff29
01e0
0000
0211
fec3
ff2f
fe3b
ff90
ffa1
ff2b
0019
0023
01b3
ff9c
ff53
0083
ff5d
0268
ff30
ff26
000c
019c
ff71
ffa5
0000
008a
ff39
0068
0037
feec
ff3b
ff63
0149
fe74
ffa2
0102
008b
ff84
fef4
0053
005d
00ea
018c
00fe
0132
fef2
01e6
002c
005c
0100
ff95
fe99
ff6a
ffd3
0039
0035
00d1
ffc2
01b9
01be
0103
ff26
0055
ff87
027a
febc
fed7
0162
ff0f
ff6d
fe8c
fd9d
fe96
fe74
ff23
fef0
ff4e
0097
ff62
ff1b
ff6c
010c
0108
ff9b
ffd3
013a
ff8d
0011
fea4
018b
005f
0001
fde4
fee5
0089
010e
fe50
fdf7
fe74
fde6
00a1
0071
feca
ff3c
ff8f
006e
febe
00b7
ff00
0114
00d2
ffca
ffb1
ff1c
ffce
fd8c
ff4d
ffb9
00b8
0136
ff27
fde2
0173
01bc
00bf
ff86
fe71
ffe6
01bc
ffdf
fe64
0089
fe76
ffd4
0038
0019
0014
00bc
0030
016e
001a
ff22
fd75
ff68
0074
00d1
0049
0162
01f6
0006
003e
000a
013a
00ec
ff88
ff91
ff8c
fe4d
00d0
fdc1
fe46
014c
005e
00d7
00dc
00f3
ff9a
ffa4
0179
fea2
ff9b
0189
ff68
ffa8
0032
0062
fde5
fefa
005d
ff90
ffb1
ffa8
ffbf
0035
ff20
fe39
ffed
fe82
006d
ff2b
ffc8
ff5b
fdb8
000e
0320
feb0
fe49
012e
0159
fefb
01a5
0083
00b0
fe87
fefe
ff76
00ea
fda0
00b7
ff87
ffce
ff8d
febf
ffcd
ffd1
feec
0098
007a
fe58
fdda
ff2d
fed3
0012
0030
fd42
009f
fe66
fd9a
0055
00bd
ff05
fec3
015d
ffec
01a4
fc20
0000
fe16
0082
01bd
ff72
ff6b
ff66
001e
ff85
0079
ff1c
ff12
0082
00a1
feb9
fe9a
ffe5
004b
ffa4
ffc4
feed
00d5
ff30
ff0a
003c
ffb6
ff7f
002d
0025
ff65
fe8d
0048
ff5f
0048
feae
0033
ffa7
00aa
001e
fcae
ffe5
fe5c
0101
0051
ff08
ff34
ff07
ffdb
fd63
00a1
ff9c
ffba
fda4
ff80
ff60
ff8d
0067
0298
fd85
ffc5
ff14
ffc3
0189
015f
0186
0038
ff44
009b
fef9
fe9b
01be
018e
01c0
ffc6
0047
fdbf
feb7
ff4b
008e
0180
fe40
fff6
ffa4
ff48
ffb3
ff44
0140
ffe3
01ee
006b
0039
ffaa
ff04
006e
ff9b
ff38
ff0a
ffc1
ff5a
01f3
fed7
ff7d
ffa0
ffa0
0132
0017
ffae
fbed
0036
007d
fe16
ff3f
00e3
ff1e
ff06
01c1
fede
00df
0340
fee5
ff53
fe42
023c
0047
0086
febe
0218
fd28
0040
fe70
fdf2
0135
00e9
00c0
0137
fe84
002e
005f
ffb4
fdc3
0010
ff46
00db
0194
feef
0046
0020
ffc4
fdf1
fed0
01cb
ff59
00f5
ff8e
02a6
ff9d
fd98
0044
fe26
fe6c
0011
0085
fe3d
ff3a
004f
ff79
ff2f
fca3
ffe7
feed
01ae
fea7
ffd9
ff56
ff52
ff3d
febe
001f
0127
fda2
ffb3
ff51
ff05
0015
0063
008e
01a2
00ce
fdef
0141
fdbf
ff07
ff8d
ffbb
001f
0055
ff9f
fed4
0159
020a
ffd7
02a5
0093
feae
ff6c
ff40
fff7
ffa4
ff1a
0028
007d
0040
fe50
0135
0049
001c
ffcc
ff3b
feb4
0097
fecd
000d
fe75
0154
feba
01a9
0036
ff6c
017e
ffd3
ff98
ff60
fe22
fdb0
0061
fe98
fe52
00cb
fede
0075
fee3
ff8a
ff26
ffd1
ffd0
fffa
ff3a
01a2
013b
ff34
fde6
00da
ff94
0044
ffcd
018b
0027
ffec
ff5a
ff14
003e
ff7d
00c5
fe47
0263
0295
ff66
0188
0110
ff3e
feab
fe72
ff07
00a3
ffb8
fff6
ffbd
fe3b
ffbe
0246
fea9
ff4a
ff5d
0098
0008
fee6
fde5
ff53
0067
fed5
ff7a
fde2
00a1
fef9
0001
ff64
0043
ffcc
ff89
00a1
fc50
ff24
fe18
fd1d
ffce
0019
0047
0107
ff32
00ce
ffe4
ffe8
ffbe
0001
ff91
00be
ff96
ff83
00f8
007b
0041
ff9f
ff6f
ff09
00b3
00f9
ff31
00f9
ff64
0105
003c
ffd8
fda8
ffe3
fe66
ff1c
0164
0051
ff5f
ff33
ff44
0110
ff49
0049
00f0
ff46
ff01
0023
0012
0018
fe13
00e8
fe78
fe2d
ff55
ffe4
009c
ff43
017d
fd52
fee6
fff9
0042
ff26
fe3e
fffb
fedd
ffec
ffb5
ff2f
fef8
ff40
ff6d
010c
fed6
ffec
fd9b
fef7
004b
ff58
ff93
0075
0143
0172
fe23
fea3
ff3f
ff50
fe33
009a
00f5
000b
ff27
fdfc
0076
ffef
fff0
ff12
ffa8
fe4e
00e0
00ec
fd75
01e9
fe7f
0068
fe56
0037
ffc4
ff38
feb1
ff79
fd6b
fffc
fff9
ff07
002d
010d
fefc
ff98
ff28
ff63
ffd3
0289
fef1
ff76
011e
0062
0000
00fa
fe34
fee6
ffa3
00e7
fe1e
0053
fed0
02e3
ff56
01f8
ff98
0144
0120
fff0
00ca
0144
ffc3
fefb
fe8c
ffff
fe8f
ffe5
ffcc
016d
fdea
ffbb
001a
fe62
01b8
0023
ffcb
ffd3
fd26
fe48
fdab
0028
00fe
febf
00fd
ffd7
ff69
00d5
ff7d
0114
ff26
ff7d
ff78
0065
0013
fe45
fec4
0101
ffa6
ff1b
fe14
fffc
fd80
ff05
0042
feee
ff96
0004
0059
ffd1
ff48
fe58
001e
ff22
ff90
ff2a
ffac
ffd5
ffab
ffb8
fecc
00f8
0038
0133
ff4b
0066
ff4b
ffe7
00d0
fdd5
0068
ff24
0031
018a
ff5e
0007
fe13
00fe
0050
ffd5
fe4c
0044
04e6
0049
012c
0091
fe91
ff4c
001d
0076
0028
ffb5
0056
ff64
ff6f
002f
ff16
ff5f
00b9
fdee
ffa8
ff97
00be
014b
fe75
ffc8
fe6f
0147
0005
fff8
fea6
ffaa
00b7
007f
0213
01b5
fe72
0210
ffb4
009e
ffe6
ffdd
ff84
0115
ffda
0051
0010
0079
0001
01ff
0077
fef4
fe8b
ff0b
feb4
005b
feb6
0035
fdb2
ff61
fe41
ff5e
0249
0001
0086
002e
014f
000d
00e7
0029
0263
ff71
0477
0078
fffa
0067
0080
fdf9
0050
fe07
fe31
ffde
fe7f
fdf9
ffff
ff87
febe
fffa
fe6f
ffcb
fe0a
fea5
ff3d
feef
ff73
000e
0026
ff29
0128
ffcb
ff44
ff96
fead
ff8b
00d7
0073
ff6b
fe23
fff9
ff10
00f7
00ff
004a
00ac
fefd
0027
fe3f
ff5f
ff1e
fec2
0173
ff1b
ff3c
0009
ff28
005d
fed1
00b0
ffab
fed6
008c
fe6f
ffd3
ff6a
ffb1
ff68
ff13
00e2
fe60
ff15
ff25
0058
ff6b
ffe7
feb4
ff7a
fdff
fedf
01b3
fed0
04b8
002e
00af
017b
fe26
ff08
fec9
fed1
00c9
ff97
01ca
ff8c
0085
0159
ffe6
ff52
ffda
007b
ff46
ffc0
0025
fea0
0039
0076
ffb5
001a
ff3e
ff79
ff71
fffa
0123
00e2
ff16
ff15
ffdb
0064
008c
00b0
0178
004f
ff93
ffdf
001d
008f
ff7b
ffec
ff32
007a
fe41
ff29
ff7a
0099
0024
003a
fe3b
fdfb
fe16
ff2b
0070
0095
01ef
00d3
01fd
00e6
fe9b
00ff
0078
0087
00f0
feb0
ffc0
feba
0096
ff01
0022
0106
0056
016f
012b
ff9f
fef6
ff60
fe53
01ea
0568
00ef
006e
0050
fdff
fefa
002b
0156
fd01
fe40
fe81
00e7
ffbb
fd10
fe3c
00c5
00f0
00cc
fe90
0237
01a8
fec4
fe6e
0139
005d
0060
003a
00e6
00f5
ff20
ffef
00b6
0003
014f
0042
00c9
fec3
ff10
fe2b
00ff
febc
ff8b
006b
00d9
0145
ff2c
fec2
ff5f
fe0c
ff47
006c
0148
00bd
ffd9
ff41
ff81
ff27
ffa6
0013
ffbe
0123
0043
ffd7
00cd
004c
0016
0003
ff9e
0098
009d
0044
00f5
ffdd
020d
0306
0141
0003
00f5
ffad
ff65
ffaa
fffa
016f
fe6e
ff15
0158
02a3
ff98
03bb
00c5
015e
ffcc
ff97
ff70
0400
001e
006d
00cd
ffd2
ff46
ff40
ffa9
fec4
fe77
00e6
fdfd
ff18
fe9c
ff49
ff61
ffd9
ffc8
007c
ff6f
fef5
ff81
0179
ff31
ffbd
01cf
fe77
0133
fecb
feca
ff9e
ffbc
fdd2
ff39
ff31
fe99
ffe5
ffc0
0048
0089
fee5
010e
000a
ff33
fe49
ff2b
001d
ffab
ff21
ff1d
fd4b
fe45
ffdf
006f
000a
ffa1
ffb0
fd6a
0140
01b9
0084
ff90
fe36
fe6b
0274
fec0
0163
00c0
feba
ffa5
ff6b
fed3
005b
0058
fdf5
fff7
ffb9
ffe7
ff53
0045
ff42
0186
fecd
ff35
ff6b
0013
01b6
ffca
0028
0030
ff13
fe4a
0051
ff36
fe76
ff9b
fe61
01a4
ffe9
ff38
00fc
0067
fffd
0083
024f
ff54
fe3d
ff50
ff7b
ff29
ff8c
ff8f
fe36
0086
005a
fe21
00c7
ffad
feb4
014c
fe52
fe0b
fec4
fddf
0056
020d
0091
ff87
fdb2
ffa0
001a
fe22
ff7e
ffaa
00a3
ffa8
007e
009f
ff3c
fe32
feba
fe5f
00ac
015e
00a2
fe44
fe4e
013d
fee9
0038
002e
fee0
015c
0037
fc63
fe8c
fe22
ffad
fe88
0108
fd43
000c
feab
fe23
0024
012e
feaa
fee6
0000
ff78
ff56
fdc0
ff39
fdbe
fd44
0041
fd81
ff0b
011e
ff7d
0064
0076
ffa6
ff55
0025
ff1b
017c
fe34
ffc0
ffdf
fd52
ff8c
001c
00f9
fe45
fe4b
ffeb
ff16
fec3
004e
005b
ff36
ff20
001d
fee5
ff4f
ff5e
002b
013d
ffb5
0073
fd84
00ce
fee4
fe97
fff0
fee2
fdd8
0107
fe96
fec0
00cd
ff9c
ff55
fe6c
ff27
01a3
00dc
01a5
0318
ff13
fef9
0010
ff74
021e
0439
00c0
0093
00b8
feed
fe99
ffeb
015d
ff51
01b0
fe7e
ff00
ff71
ff19
fe49
0288
0026
ffbf
ff72
00cc
ff2c
0103
0041
fee5
fefd
ffde
ff5d
0055
001b
fe3a
00b5
ff26
fe31
006e
fff8
ffdc
009e
feb6
ff69
fe7e
ff7e
ffbe
ff4d
fefc
ff5e
004f
005c
ff6d
fee5
00a5
fe2c
00bd
00a1
fef5
0459
005d
feb8
01c0
feaa
01f0
ffd4
ffd8
ff83
0244
fde9
fe17
fea5
fec1
0093
00e7
ff52
ffb6
ff2e
0075
0115
ffe3
fd94
0050
ffe7
ffeb
ffc7
fe1c
008a
ff41
ff29
ff19
fd8c
00b2
fd7c
004e
00fa
0003
0130
fd9a
fdc7
ffb8
fe9d
0010
ff8e
fe13
fd84
0069
00d2
ff8a
fda5
0015
fd63
00bc
ff3f
fd25
fe43
fd7f
0101
fec8
ff7c
017e
feab
ffac
ff8f
fedb
ff7f
ffa4
0056
009c
00bc
fbf2
0079
fe34
0153
ff0f
feb0
014e
0022
fffa
ffe9
0144
005e
0030
003b
00a7
ff44
ffb2
ff55
fff9
00c1
fd29
ffc6
fe84
fefe
ffcc
00e9
fd3a
000e
ff0b
01c5
00a4
0137
fe3f
0010
008c
ff68
ffc3
0078
ffac
fe94
fefa
00f0
0054
ff05
fcb8
ffb0
ff51
fe53
fe1f
ffe4
007a
ff1d
ffe1
fff6
ffab
ff43
014c
010c
001c
0123
010a
fec7
027b
00e1
ff23
ff5a
ff77
0247
018a
00c5
fe4d
ff85
ffba
ff04
0064
fde0
0107
00f8
fefe
01d6
fff9
fec0
fd8e
feea
ff00
ffd4
0056
00ac
ff0d
0056
002f
028a
ffc3
fef7
ff43
ffb9
0100
ff10
fff3
ff9d
00e3
0006
00a6
feb6
ffcb
ffb3
ff70
fecf
010a
003a
000e
0069
fcc9
ff04
ff15
fd98
0015
ffa0
0060
0010
ff74
ffd7
ffb5
0017
ff1a
006c
ff75
00f6
ff31
ffa0
012c
ffde
00cc
fdb9
00b3
ff0e
ff6d
0064
ffd2
0187
fea5
00af
ffd2
005c
fc04
ff2d
ff0a
fe87
0095
0022
fe31
ff7b
ff53
016d
fd6b
0117
0058
ffc1
ff55
fe6c
000c
ff49
ff54
0241
fec0
ff02
007c
0067
fef8
002b
feee
ff1c
fe4e
0008
ff51
00ba
fd3c
00d9
fd98
fef6
fe74
ff71
00d1
fffb
ff25
00c3
ff99
ffd7
fe9c
ff06
0090
ffe1
ff72
0192
ff1c
00dc
fdf2
009f
fee2
ff27
ff23
00be
0144
ffb6
fddf
fe22
0057
0147
0154
fedd
00a5
fd16
ff45
001a
fe10
03c6
ff87
ffcb
0054
0024
ffd5
fe95
0018
0070
fc4c
fee9
ff6d
ff01
000d
0134
ffb6
fe3d
ff8f
ffb1
0049
0002
fe96
ffce
0235
fddc
fff8
0050
fd85
febc
0034
00e8
ff8e
ff7c
ff9f
0343
004b
008d
ff86
017c
0334
fcc4
0167
002e
00cf
ff87
ff51
0003
ff35
0075
0007
0235
fdc7
fe3b
ffa0
ff8b
ff0a
0066
01f3
ffd9
fd7c
fed6
fc18
ff4d
0019
0225
01ca
004f
0011
004f
ff3f
00f4
0064
00d7
ff37
0171
feda
fedc
ffd8
016f
fef1
00a2
fdff
018f
fdf6
ff32
0008
fe82
ffc4
0093
ffc5
0137
fcef
fdf5
ff8d
ffc5
fef0
ff65
fe24
002b
fe7f
0047
fefe
0018
01ca
0061
fea6
feab
ff9e
fe4c
0004
fcbd
ff0d
fe10
003c
01b8
fd18
ff52
ff47
005b
0055
ffd6
fe62
00e3
00f8
0053
ffc4
ff95
fdd6
ff21
ff63
001c
0149
fee9
0144
009a
01e1
ff67
fef5
019a
0060
fd6e
ffe8
fe8b
ffcd
feec
fe02
ff94
fd6b
00c6
0002
fed3
007a
0043
00ec
0041
02d8
ffd4
ffe1
003b
ff45
0039
ffb4
ffd9
00a8
0160
0122
ffdb
ff04
011c
ffb5
0037
ffad
fe92
ff8e
ffe8
0087
0177
ff33
0270
ff3d
ff70
ff85
feb7
0180
ff65
ff8e
028e
0043
00cd
00fd
00b3
018f
fe8a
0523
fec3
00ab
ffb1
014a
ff7d
fdd8
fd39
ff54
ff37
fe7c
fe17
0000
ff1f
00dd
fff1
feea
008c
fdeb
ff9c
0050
ff24
ffbf
0034
ff4a
003b
fdbb
ff49
ffea
fe17
ffe4
0022
0014
ffdf
fe92
fd03
ffc8
ff80
0120
0483
0153
01e6
fec4
0199
ffe9
fef0
ff6e
0066
01ca
fd85
02d9
fdb8
007a
feb4
fdeb
fe17
02c8
ff34
009e
fe5b
ff7f
0074
fe65
013a
feb3
0175
fe79
fedd
fd9d
0042
fff4
ff5e
fe2d
00b3
ffdf
ffba
0274
fe07
ff3b
ff82
ffb0
0044
00b7
fe39
fe73
fecf
0245
fe00
0245
005f
0127
0140
ff8f
fedd
ff94
0076
ff44
ff15
fee9
ff9b
ff01
ff1d
ffa3
ff27
fea5
fe2b
ffe5
0117
0121
00e1
ffb6
ff2e
003b
fe8e
0092
007f
004a
ffab
0017
fe41
ff72
0068
0095
ff6e
0037
0039
015c
ff51
0022
fffd
01c4
00c8
fc7b
ff9f
ffb4
fee4
02dd
fff2
0379
ffca
02dd
008e
ffec
0099
ffbe
0039
ff20
ff1e
ffb3
fee7
0054
feeb
fe78
0159
fe6f
01c5
00c9
ff52
00b0
ffba
feed
02d8
0004
0139
fea0
0020
ffa0
fdf5
ff6d
0004
ff25
fd14
fe6c
ff62
ff52
fe03
fe9b
ff50
0278
ff8b
fdbc
01db
ff45
ff91
ffa1
ff67
feb3
0068
00ff
003f
ff69
ff6d
00bd
ffdd
0190
0090
00e1
ffc9
ffe5
feb1
ff44
ff16
01ac
00bf
0063
0094
0003
ff06
ff51
ff1f
ff29
ff64
0147
00c0
00cf
ffb8
004d
fe15
0158
0044
0004
ff39
fdfc
00fa
0056
0096
0081
0029
fedf
fe9e
fff5
00de
002e
0101
01ab
ff72
0283
016c
002e
0019
ff3f
ff6d
0038
fe0e
0043
ff97
0070
0082
0117
ffe1
0121
0324
00f1
fd68
ffd5
ffd0
030e
0097
ff7f
014d
ff1a
ff86
ffee
fd83
fe4f
00fe
0279
ff52
ffbd
ff66
012d
fee8
010d
fff3
ffa6
ffc4
00c7
ff0f
0177
ffdd
ffa8
0108
0154
00ac
fe7a
007b
001c
ff7b
ff31
fd41
fde5
fec5
00c6
006f
ffb8
ff89
fe28
02b8
01e4
ffd5
0006
fe88
ffb3
ff0b
feae
ff21
fe65
ff63
ff41
00f6
fff5
ffcd
ffcd
0042
fded
0140
003a
ff94
ff55
ff04
fff6
ff73
fee9
0060
fefa
ffec
fea9
ff8c
0018
fe83
003b
0188
ff9b
feee
ff6d
0059
ffd9
00e9
ff6a
ff25
016a
fe4e
0061
fef1
001c
00be
fdc4
ff06
0039
ffe9
fec6
ff7f
ff52
fbf9
fe79
ffd1
0032
002e
ffa6
0022
0191
fec4
fe23
012f
fe6d
feb3
fe81
0036
ff91
ff40
002c
fe87
0059
ff58
fec2
0049
fd67
0123
ff3f
fec1
0024
01c3
023b
ffce
ff10
0189
ffff
ff70
fff0
ffc6
fff8
0028
00bc
ff48
015a
fea0
ff3a
fcf9
027b
fc6a
0046
ff21
fe4a
fff3
ff92
0026
00bb
ff40
0106
fe06
fdae
fe70
ff1c
0013
ff14
00e0
fd6a
fcb6
fe62
fc72
ff4a
00aa
fdbf
fef1
0149
022b
fdb9
fedc
ff00
ff23
ff35
0070
fdad
ffa6
ff1b
0144
fe45
0008
0025
ffe3
0012
03f8
016a
ffda
00a5
fff8
feec
ff28
0045
0134
fdac
fdaa
fe8a
fe25
ff39
0044
ff84
ff95
0049
007c
ff16
0058
feed
0030
fee9
0143
ff73
fe46
fff9
0066
fe95
ff8c
ff3a
0187
0152
fe04
ff70
0021
fffc
00dc
fe96
002e
ff57
ff4c
01bf
00cc
ffb5
00b8
ff4f
0020
01b5
00f6
0037
00c8
00c5
ff44
ff09
00cc
013b
ffae
fecf
ff6e
ffd8
fff6
feb7
0486
fe16
01a8
0156
fee0
0039
ff3c
ff9b
00cf
00e4
ff34
0184
fec2
feed
ff57
fe4d
00b8
ff64
fedb
ffb6
ff0e
004a
00be
fe89
fe0e
0071
ffe7
ff8a
00ab
0005
fe1d
000a
feec
fe05
fe9a
0066
fdc2
ffd4
00fd
fec2
0199
02d5
fefc
ffde
00f5
0240
ffbd
00b0
000d
00ad
fda4
ff60
0051
fe4e
ffec
0154
0014
fec6
ffef
fff3
0180
fff5
ff64
0071
0030
0065
0000
fef2
0075
feae
0081
ff79
00ff
ff6f
ff4d
ffdc
01bf
ff8e
01e9
fe09
ffe2
00b4
ff3d
00c6
0024
fff6
0049
0044
00d6
fe49
fd4c
00fe
0102
011e
ff1f
fdd9
ff2c
000f
000f
fe2a
ff5e
004c
fe4e
ff45
ffb1
feb9
0050
ffa6
000d
001d
00ef
fdeb
0044
fea5
ff68
fefc
feba
0082
ff60
003d
ff3b
018a
010c
00d0
fe98
ffcd
ff92
ff39
fad9
0351
01bf
ffcd
ff22
ff58
feb1
0078
006d
fdff
0007
fe12
01a0
0039
01b7
ff52
01de
fea4
005a
fe9d
00f8
ff03
ffee
fe8d
0016
fe76
0041
fcd1
0256
ffb8
0036
fe8f
fe7f
feba
0079
ff3e
00f8
ffbd
0054
004d
ff9e
ffc7
ff7a
00a6
ff6c
ff3e
00a7
ff43
003a
fedd
0087
003a
ff7a
ff6e
006e
009d
0222
0097
fe6f
01fa
ff6c
fe81
00e1
0044
016a
fef3
fc50
fef4
feeb
0099
ff7c
ffc9
fd27
0076
0246
ff35
fedc
ffbd
feec
0192
fe95
ff6e
0086
0073
0133
0055
fe64
0015
ffc2
002b
006c
002b
ff37
ffb7
01c6
fd0f
fe55
ff48
fef8
009f
ff5a
ff6f
001b
0030
0019
002c
0070
ff6f
ffc6
0013
00c0
ff85
0097
ff98
00be
0029
fef5
ff1e
fe4d
002e
000d
fe99
0061
ff27
00bb
ff77
008e
fcf7
ff23
fde5
ff77
00f1
ff8c
0039
0151
ff8b
00c0
feeb
0003
00ed
ff9d
ff0d
0041
00a0
fe8d
0101
010f
fff3
ff48
0108
0015
fe64
0030
002c
fed2
fe97
fee0
ffe8
fead
fe5c
ff5b
ff9a
ff02
fe32
ffe7
0001
fe99
ff46
ff3f
feaf
0043
fde4
ff95
0129
0068
0024
fed6
ffc0
00af
ff03
feb8
ffa0
0036
fdee
0053
ff6d
ffe4
fde8
0176
0089
ffc9
ff04
ffa9
01db
fd09
ffcc
ff66
fe8f
ffa7
fe0b
fe5b
ff2f
00e9
013b
010d
003b
fee4
fc97
ff8f
0049
ff19
ffb2
fe68
ff76
ff46
ff48
ffdc
0052
018e
ffb0
ff12
0110
ffed
0037
ff04
fd32
fdcb
0071
ffd8
ff25
ffdf
fff5
fe60
0007
0056
ff9b
00f8
00a4
0173
00d6
fd5a
ff5d
fefd
fe51
ff4a
fe02
ff76
ffe2
fc99
011a
fea9
ffc1
0170
fe2a
ff8d
0172
ffe0
fda3
fe8f
fd34
fb3b
0049
fe62
00d4
00c4
0058
0206
ffa0
00ae
0002
ff72
ff54
ffe1
01f8
fd23
ffe4
005a
fe63
ffc0
fefe
fe4a
feba
ffac
ff2d
fec3
ff80
ff87
00be
ffcd
ff8e
fd8d
ff39
fec9
ff7f
ffef
ff2d
00a5
ff31
ff67
ffe3
ff08
009b
0069
006a
01a3
01de
fe9a
022f
fd37
fed5
fe6c
ffcb
00d4
ff48
ffbc
fef5
ffa0
002d
0062
ffe5
0177
ff12
ffdf
009d
0048
fe93
ffe6
fed9
fd02
0053
ffb9
ff77
00b7
00d8
0071
003a
023f
0007
ffba
ff17
ff15
00d7
fd3d
fe43
0160
0214
ff4e
ffb0
ff64
02b3
ffc3
00f6
03d3
ffd5
0162
0076
008a
ffc7
0114
0166
ff71
fe90
014f
ffef
fe76
fe98
00b8
0072
009d
fed4
0006
fed4
0083
00a9
000e
fed7
ff5f
0051
ff61
0066
fdad
00ff
ffb3
0025
002e
00c4
0015
ffb4
006c
019d
fffc
03d1
ff67
00a3
fff3
0091
0293
fddf
ff1d
feab
fffd
ff2f
ff93
ff70
ff28
fead
0091
fe82
0093
002f
ffd7
ffe8
0017
ff2f
ffdc
0001
feee
ff66
00ab
ffc3
0072
00fb
003b
ff57
ffc7
fe85
fdb2
0023
0146
00bf
00b8
ffda
ff1f
ffbe
012b
005f
ffdd
001b
ffe4
001e
fdf8
00ae
ff88
ffa8
ffe8
fd8d
feff
0014
0117
0095
0121
00e1
026e
007d
00ab
ff8d
0027
fe0b
fe9b
fe93
0007
ffed
ffc7
ff5c
ff70
fe64
ff27
020f
021e
01fe
0021
00e6
ff3a
fef8
fe48
fe4f
0070
00ad
ff55
0203
000e
003d
0145
ffef
005a
0012
fec9
ff70
02f5
ff03
00ca
ff7a
ff45
001e
ff0b
fec4
fda9
fe2c
ffe2
01f2
0009
00c2
ff27
004b
fdb8
014d
00aa
019c
fee9
0002
010e
fff8
fde7
009f
ff7f
0071
fff9
0234
fe80
ff34
fff4
01cd
00fd
fd6b
ffc4
ff89
ffa7
00b8
fff2
0128
0047
022f
ff75
fec5
00e6
fff5
fe2d
019a
ff60
0113
fe1b
0012
ff27
0070
0076
ff5c
01b5
01bc
ff14
ffad
fe92
feda
ffa5
feae
00fc
fe9e
008f
ff2f
ffc9
ff6a
005e
ff42
fcd3
feca
004c
007e
ff5d
ffcd
0036
01e7
0171
ff44
003d
ffc4
fe1e
feb1
fc4c
ff99
0098
fe97
005a
ffa3
fe12
01e7
fe91
fee8
00f9
0099
ff22
ff4a
ff96
fe79
fd44
0561
005b
010c
00c1
ff99
0080
ff64
ff70
feb1
fea8
fff6
0030
00e3
00ab
ff20
ff42
ff83
009f
00c8
ff73
ff49
fedf
ff54
000e
fe6c
ffc5
ffc2
fea6
0028
0141
ff7d
00aa
01d9
0121
ffd9
004f
003d
ff23
ff42
fefc
fec5
0189
ff72
f909
0021
0057
ff2c
fe68
ff5c
00cb
ffb6
007e
0030
feeb
ffbf
fffc
013f
0006
00a2
00bd
ffbd
ffd1
013a
008b
ff8e
00de
ff42
0031
fdbb
fe26
00d7
0149
ff9c
0065
000c
013d
0004
ff05
ffff
0001
0126
ff26
00f6
0219
ff30
0033
0021
ffea
fd59
fdfe
01e5
009a
0015
0214
ffc8
fe08
fe61
ffe6
ff0f
fe41
0030
ff2b
ffe4
02d2
fcb7
01ec
fffc
01f4
012f
ffcf
ffe8
01da
016f
0062
ff7a
ff39
005e
fff5
0062
ff5f
ffc4
01fc
fdf7
fe8a
ff5d
ffbf
0045
fdfd
fef0
0131
ff8c
fcba
ff7e
01a8
ffe6
0209
fd86
020c
fff4
ffa0
018f
00eb
007e
0145
ffcd
0028
ff03
010f
0067
0120
ffd9
005f
00f6
feb4
fe11
0002
000b
0112
ff51
ff39
01b2
fe9c
ffc0
fee4
fdb7
ff97
00a2
fef2
ff3b
0011
ffe8
ffc2
01c2
ff56
0000
0270
ffb2
ffa5
ff2e
ff26
ffba
ff40
0060
00b8
ff05
0236
01d7
01db
038a
fdcf
ffca
ffbc
ff92
ffc5
fede
0142
ff60
00a4
00f0
ffa3
001d
0008
006c
000c
00bf
0154
ff72
ff91
0110
0060
0054
ff44
ffba
fff2
002b
ff9f
ff82
fe54
0061
ff43
fedc
00fa
004b
0186
00e0
ffcf
023a
00b1
fee1
fe4c
ff6c
00c5
01e9
fdd4
026f
00d4
0114
01b1
009d
ff71
fff8
004e
008c
00b5
ff80
ff30
ff9b
fded
0116
00da
fe0c
00da
feb4
007c
ffaa
fe9a
00f4
01ec
0158
0063
fcfa
ffe7
ff96
00e1
00ac
007d
fe90
013f
ff43
ff52
ff4e
0080
ff41
0178
fff5
00fa
0115
fefa
0100
ffa1
ff63
0039
ff5c
ffb5
0195
00f0
0041
0145
fe2b
ff94
018e
00b4
ff23
ff2e
0076
fe6c
0030
ff98
ffb8
01e2
003a
ff8e
ffcd
001b
fd8a
fb5d
fe92
fed4
fe90
ff4e
003b
ffd9
ff60
ffac
ffcc
006e
0273
000e
ffb3
0012
0160
ff78
0090
fff0
00b1
005e
ff5a
0013
ffce
0050
ff07
0164
ff26
014c
0002
ff72
ff21
00ae
0053
fdb9
fef4
ff93
0085
ffa0
01ba
00e4
018e
0047
ff48
fdbd
ff8c
015c
01d9
ffe8
0257
02e9
0053
00b2
0011
0012
01d1
0183
0093
fe8e
ff37
ffeb
0100
0102
027b
ff8f
ffd7
fdd9
ff4a
ff53
ff46
008e
0005
00ee
01b7
0108
0306
febf
fed2
00bd
ff21
fef2
fc9f
ffe3
02b0
ffb4
0196
ff31
ffdd
ffe3
ffd8
ffc2
0174
ff6b
0001
009c
012e
0053
0066
0057
ffe2
ffe5
fff8
00e4
fceb
01a7
00c6
ff68
0077
ff14
01be
000e
0191
019c
fea9
fd01
ffd5
004f
ffdc
fead
ff5a
ffc8
0187
ff9f
fea4
ff81
ff14
0098
fe5d
0234
004e
00f2
ff99
0021
00b5
fd6a
ff40
0020
ff23
ff08
fed8
fffc
ff9d
0114
0032
00bf
00fe
ff85
01a0
fe9e
ffbe
fef0
00ad
ff3e
ffd5
ff67
ff54
0181
fefe
fec8
ff4d
ffce
ffa4
ff0d
0257
0121
ff85
005e
ff43
ff27
feef
0025
ff9c
00e9
ff8c
ffc4
012d
fed9
ff5e
fd10
0056
014b
014e
0025
0138
0097
fe93
ffca
ff51
0002
ff23
ff33
fef8
ffbb
ffea
01e6
ff92
0020
ff93
fe56
ffa6
feaf
00aa
feee
0114
ffa1
ff9d
ffd5
ffc0
014c
0085
ffc0
ff5d
000f
ff76
001d
ff2d
0028
ff9b
008b
ff8a
00f0
fef5
0225
0039
fe6f
0202
0041
0000
fe90
002d
ff34
ff89
fefd
fff4
01b4
fefb
0122
00a3
003e
007f
009b
00fa
0038
0149
005b
00b6
fe69
fdcd
fe73
0071
007f
ffd2
0021
0084
007b
0139
ff7c
001b
ff39
0143
0196
fff2
ffa4
fe9d
0194
006d
ff33
ff35
ffc3
ff63
00b4
00ff
00da
0423
0198
00b1
008d
006f
0024
fe27
0053
fffd
0079
ffef
0038
fe8f
0184
feb6
0080
010d
ff6d
0043
015c
0020
ff76
0191
ff43
fefc
007a
01e7
000c
ffb5
fff0
0311
01da
0133
fe02
0028
fdda
ffa9
ffa1
ffbb
0175
fe8b
013f
fdc8
ffa3
ff4d
0164
0012
feec
0076
ffc2
0362
ffc4
fedf
ffd1
000c
fec3
0021
0084
fe9e
0018
ffce
fded
01f4
ff4d
007b
0081
fecc
ff99
0014
fed5
0045
ffc9
ff7f
fe5e
fdcc
0060
00aa
feec
005b
00c6
0054
00f2
ffe2
00f4
ff93
ff8a
fe26
fec3
0079
012b
0024
005f
0214
fd69
ffd3
0091
ff8f
fdf4
ff0a
ff1d
00b0
0049
0179
00b3
006a
023b
009e
fef4
feda
01e0
ff55
ff3d
00bf
019c
fff1
ff89
ff30
00b9
008e
00de
fddd
00a2
ffe9
ff15
008a
fff5
fe93
ff9c
00cd
0017
0036
ff12
006a
ff7e
fdb2
010d
ffa3
000d
00b4
00b4
00b5
00cf
ff5f
01ae
ffcb
008f
ff8a
ff9b
ffde
0020
feea
ffbf
fddc
fff6
009d
009b
ff1b
0207
ff76
0055
ffa5
0083
ffb8
ffff
ff37
ffd6
0038
0020
0039
ffff
0011
ff3c
00e6
ff50
fe53
01e2
fecf
ff4a
0050
008e
ffd7
0053
fe4c
0067
fe96
00c6
ff77
ffae
00e0
0031
0098
0000
fff2
00df
fbce
fdec
fd94
fcf8
ff72
fe94
fe2b
ffea
fd97
00dd
ff80
ff69
fe48
fef0
000e
fc4d
0045
fedd
00b7
021d
feea
003c
002e
0097
fdfe
fe38
ffe4
ff90
fff2
00dd
01d6
fec0
ff9c
fd6f
002c
0399
00f6
fe98
018d
fd76
00a9
00a1
0051
0054
000d
0103
02bb
fe0a
00db
ff9b
fecf
ffa8
0001
ffd6
ffc2
ff77
0061
00f0
ff30
0175
0020
ff94
00b4
00cc
0124
fe7e
ffa5
feac
007a
ff51
0053
ff59
009a
00d5
ff5c
fdc0
0100
fe31
01b5
ffc2
fede
01d3
0081
fef7
015c
ffd5
ff66
00c0
ffa1
0070
0017
fdec
00a4
fafe
fe21
fc7b
fd99
0080
ff61
ffb6
0072
00d4
0085
00c2
01a5
027f
00f5
0169
00d1
ffbc
ffbb
01da
0021
fe2f
010f
fd94
01c7
011f
ffdc
fdcc
0018
00ae
0095
02a6
0064
fee4
ff86
00e5
ff97
0079
ff01
ff52
01ba
ffb2
0091
ffd1
ffd7
0170
ff34
0045
001e
001c
ff1e
ffb1
004f
004d
ff44
0030
fdd3
01b2
ff05
0076
febc
ff70
ff00
019b
ff8c
fec1
fef8
033a
ffea
015f
ff1d
0092
fe0f
ffbc
00d4
ffa7
fe43
ff72
007a
00bc
fe9d
01a6
0119
fc64
fe8f
ffa7
00e5
fe86
fe66
ffa3
ff04
ffdc
0015
0078
ff58
0138
fea5
019b
0085
ff7f
026d
00ce
ffdb
fe50
ff8e
fc3c
ff43
febf
febc
fff1
0021
feb9
010a
ffdd
0010
fe3c
ff81
00ef
ffde
fef0
0053
fbc0
ff9f
01df
fed4
00cf
ff34
ff4c
ffe1
fec9
fe0e
ffd4
01eb
ffcd
ff1e
fec8
0130
ff8d
ff4e
fced
006b
0226
fffd
fed1
010d
046b
00e6
fd79
ff5d
0152
ff7f
01d6
013d
fde4
0084
fd58
ff77
01ae
006a
ff4f
fe96
fee2
004d
feb0
ffb7
ffa5
0019
0038
ffd6
0034
ff71
fd0c
ffb6
fdf2
ff39
0043
012d
0046
ff56
016c
ff8b
019e
0053
ff9b
fee8
02fc
0177
0196
0039
ff54
0017
022b
017a
ffce
001b
0152
ff98
0055
0012
fc87
0034
ffb4
ff83
f878
fd3b
00b0
ff97
ff30
fe83
00ed
fefa
0190
04d9
ff97
006e
fff5
000a
0090
028d
004e
0187
ff09
00f6
ff11
ff93
0025
0015
ffd7
0279
feb6
000f
003e
fdc5
0049
000f
000b
ff52
ff71
ffd8
00ba
01ad
00b1
026b
018d
ff8d
ff30
0113
000c
fd1a
007f
014a
0157
000a
009f
00dc
fe53
fe39
ff0d
0055
fec2
00b1
0093
ffa8
ff93
fede
0271
023c
00c3
014e
fff6
00a5
0065
015c
016a
ff8d
0003
0220
0059
0087
0015
0010
027e
015c
ffe9
00fe
ffb0
ffce
fc1a
feb2
00d1
fee5
fa9b
fe0a
011a
003a
02b7
002c
01c1
01b8
01d7
029f
ffa9
000b
018b
ff9e
ff1d
ff31
0231
000a
ff5d
ff79
0091
0018
fed6
feaa
005d
0012
0017
ff28
01a2
021b
0161
0005
fcd2
001d
016e
ffb4
fe40
ff71
ffd0
002c
0150
0089
feb1
fc94
006e
ff8a
0000
ffe7
ffc6
ffc2
fe6c
0138
01a5
fe0d
00ad
01da
00c6
01d0
fe12
0050
02a1
0043
ff95
ff99
0151
ffbe
001e
fe0a
00b2
00a4
ffeb
0129
00ce
fd7a
001a
ffe5
0081
000a
feed
ff09
003a
fe26
00ad
0106
01bc
feff
ff0c
ffa4
0203
0011
0123
0000
ffea
ff69
00bc
0041
0027
ff81
fdd6
ff49
0157
ff9b
fcd4
ff4d
ffaa
0097
0178
00b8
fdd0
fe65
ff71
fe30
0129
0062
fef7
0081
ff4e
013a
0082
ffb3
00ac
fdf1
fe18
ff33
fe0c
00b5
ffe9
01f0
018e
fbd7
fee3
ffef
00ce
0099
ff1b
fedc
0165
002e
ff22
0029
fe62
fe7e
0002
001a
ff45
ffe8
00cc
00b5
0121
0155
0133
00cd
ff6b
ffa0
00a4
0063
019a
0083
fca1
0152
ffb8
ff37
fe62
0072
ff4c
01bd
feec
0022
0152
ff7d
fea5
ffdc
fef4
ff29
f987
0045
fe70
008a
fffa
0152
0069
000b
ff91
feec
0195
036a
00c5
ff6a
0026
026a
008e
0222
020d
0122
0034
002c
ff7d
0010
00ec
fe96
0088
009d
005c
ff78
ffb2
0015
00cf
ff4c
fe2f
fe5d
008d
0166
01fb
02df
fe3c
0139
0075
0067
00ab
0039
0114
022f
ff86
0135
019d
01c3
ff55
0008
0009
0173
0181
01db
ff6a
fda4
ff30
00a9
01fe
0254
fc21
0055
ff99
fdb2
0094
00fd
01af
ff8a
fed7
ff28
0121
01c5
fe20
ff1e
fed6
004a
0163
fd20
ffb5
03c7
ff7b
fffb
ffc7
0128
0061
fc74
ff6e
0186
ff6b
0090
ff6f
01d9
0071
0295
008f
fc85
ffe2
ffae
ffeb
fe62
019e
018a
0003
fecc
fed6
02d1
0718
0102
00f7
ff60
fc5a
021b
00fb
00d0
002e
ffb2
ff65
ff46
ffcc
ff78
002d
fe2c
ffc9
feda
0480
feec
0031
fe4b
fe65
ffee
019d
fe8e
00c3
01d5
ffca
001d
ff1a
007e
fe8d
ffdd
ff74
fea8
ffd5
0048
fffa
ffd7
feba
fed0
ff60
0182
fd4c
ff32
0142
ffd5
fee5
fed4
00e6
ffad
fdbd
03d2
00cd
fead
febf
feca
0072
fed2
ff51
ffe9
006a
fef7
fcc3
005f
ffdb
fee5
fdc4
0070
0175
007a
ff5d
0174
00f9
ff87
0119
ffc6
0023
fe6d
fe84
ffa6
0037
012b
ffc4
0288
ffb2
0039
fd61
fee0
fead
00ad
fde2
015a
006c
ffd0
fe7e
006a
00c9
fee6
feaf
fd47
ffc0
ffe0
ff0c
fef7
fef3
ff65
01a4
fe0c
006e
ff20
00dd
013a
ff6d
00e0
003d
ff5c
ff19
ff4b
00d5
00b0
ff72
ff17
00c5
feaf
0109
fef7
0094
00e2
014c
0172
ff4b
0240
00d6
fd78
fdcd
fdce
ffa9
0006
00b3
ff6b
0040
ff7b
ff2e
0197
010b
fec0
001f
0031
0100
009e
feb5
feae
01d0
0169
fe6c
fe3f
002b
ffc4
0054
fea9
00a4
0349
013f
016b
ffcd
00a1
013b
fe51
00c1
000a
0043
01e5
024f
fff6
02e6
ff21
000e
ff41
ffd7
ffef
007a
fe49
fd40
01ad
ff39
fe79
0141
00f2
ffb5
fec2
00b5
0133
ff15
02d9
fe39
ffcb
fe2b
0015
ffe3
fff1
ffa1
0067
00e9
00a1
0026
ff16
01e1
006b
00c3
0165
0271
056f
ff57
0094
ff3e
0075
ffa5
fed3
001f
fc2a
00e8
0049
0130
00c0
fe85
035f
023b
fcc9
fe3a
00cf
00ae
002c
ffc7
ff59
fe4f
fab5
0092
0050
003a
fff7
00c0
00b8
0222
00b6
ffe6
ff9c
0247
fef0
ffc2
ffad
00bf
0167
00c2
04f8
01b0
00bb
ffef
ffae
fd1c
0084
018a
011b
00bf
00f0
fdc9
01b3
00fe
ff62
ffe3
ffbc
01b5
fef7
ffbc
004e
009f
fe2a
ff31
fe67
0039
005d
00d2
fd7d
00ca
ff4d
0112
00e5
0270
fe06
0136
0091
0099
012a
ffc5
0048
ffd7
ff6f
009e
ff45
ffe0
0061
01ed
ffe4
0277
ffa2
ff3d
ffba
02f5
ffff
02be
0000
ff1a
fea4
0045
fd42
0102
ff9e
fffb
ff27
009b
001b
00e0
ffc5
ff3b
fe52
fe64
009b
fe2f
ff3d
0178
ff7b
01b6
00d5
0000
00bf
fd05
fe97
019e
fdc2
ff6b
ff00
ff2e
ff98
01b3
ff69
00bf
ff21
00f8
fe72
ff84
0038
0063
ffdc
fdf7
fe43
fffe
ffe4
fe7e
fbe8
ffb6
ff2f
0005
002c
0128
ffd5
015a
ffbe
fd1a
fe88
00cb
ff0d
fc76
fded
fea9
0027
fe53
ff0d
ffd8
fea8
0192
fd61
ff50
ff7c
0065
ff47
01fc
ff88
fdbc
ff6c
fe6d
009d
087b
001b
fe9c
01bc
fca5
0089
fe99
ff06
0285
010d
0047
0395
fefd
01d1
0026
ff7e
fecb
ffa0
014a
fed7
ffba
0053
00a9
ff76
012c
ffe8
005d
01e1
0085
ff76
fe56
ff95
00ee
004c
ff4d
00a6
fe5c
01bf
0099
00a0
fe2a
0024
fd66
0215
ff40
ff9f
005f
ffe0
ffc4
021a
0084
017e
0117
0451
fecf
0254
fc2d
003e
fd44
003a
fbb2
fe4f
0011
ff28
fd40
fed2
006c
ff63
ffc5
ffc0
ffbc
fe93
00b5
ffa5
ffc2
ffb6
ffd5
006a
fe81
00c8
fc6c
00c9
0144
0045
ff13
ffe9
01bc
00a4
031e
006a
003e
00a3
fe88
ff82
fed2
ff54
0095
012c
002d
0085
00a5
ff98
ffd8
fe2c
0035
00dc
ff2d
fe22
011c
006f
0065
fd82
ff54
fecc
0010
fe5e
0097
ffcc
ff93
ff09
0181
fd14
fedf
0149
0330
00ce
00e1
fdea
fe6f
ffec
01af
fe35
0197
febf
fe0f
0122
fdd6
fe47
0026
00f8
fb9e
ff0f
fecf
ff65
fe72
fe3e
ffee
fe50
003a
0283
01a3
ffb2
ffa2
ff53
00a0
ff98
ffbd
020a
fff4
ff04
fd59
ffe8
ff17
fe92
fe23
fd4c
fe8c
ff71
fdcf
012a
01ca
006f
ffc6
fdf7
0079
ffe0
feb9
ff5d
fc49
0063
0070
ff09
017d
ffba
ff41
0158
ff2d
fd52
0031
fecf
000a
ffc8
fe03
02e0
007b
ff47
fdd6
00ea
0131
000e
fd54
0022
05b8
0188
fb88
fde7
004b
ff6f
01ce
010e
0097
00f3
fc83
fe6b
003f
006d
fedf
fe67
fed1
fe10
fe5f
0034
ff39
0126
fe98
00af
011f
fff5
fe05
ff1a
ffb5
fff1
00b1
024a
00e7
ff89
0156
0055
0182
ffc6
fea3
ff86
037a
002b
010f
0004
fe77
0119
00bc
0117
0001
008b
0174
00b2
0239
fff9
fdbf
fe5f
fea6
ff7b
fa11
0124
00b0
ff7d
fe3b
ffd5
002c
fead
ffb2
fff8
012b
004d
ffb4
feeb
ff8e
0168
0031
ff36
00ed
00b2
0037
00ed
0052
0238
019d
0446
019c
ff82
0082
ffb5
fffd
0087
0025
00a3
ff48
0026
fec6
005d
fea3
0166
022b
0114
003c
0062
ffe4
feb9
032c
0113
00ed
00e5
fd48
0012
fe82
ff46
0084
0182
00bd
ffc8
0101
0123
fe78
ffc7
ff59
00f2
002c
014d
fdc3
ff66
015c
00b2
fff9
ff21
0091
0076
0067
0048
005e
01dc
0208
0073
0106
fffd
ff0f
0085
fef8
ffd2
fe8c
0040
fc34
ff84
fefe
00d0
015a
fcf8
00fd
ffd3
fecb
0106
fe1f
00ca
00aa
fefc
00a6
ff4d
00a2
008f
0244
feb4
ffac
ff30
feef
ff4c
ff2b
ffc2
fe56
ff45
0340
03fd
0144
ffcb
fe8c
ff71
ffff
000b
fe82
ff22
ff5f
ff13
0007
01fc
fee8
fee7
0124
00c2
010e
001c
002f
fef2
0017
00d4
ffeb
fe96
fe8b
ffcf
0040
fd47
fe0a
004b
0229
fff6
ff1a
ff47
00f8
ff25
ff16
fffc
ffbd
00d9
ff62
012c
ff6d
00a0
feb0
ff7f
004a
00b7
0018
ffc4
ffbe
ffc1
0023
ffc9
ffe6
fe69
015d
fef1
001c
ff21
ff47
00c7
006a
ff2e
ff4f
001d
ffea
01f4
0014
ffb2
00ce
fecc
fdff
fdba
fee8
ff1b
fe48
0121
0292
00ff
ff4c
ff6f
015a
01e4
0244
0049
0155
0032
fe58
0145
0077
ffd2
00f5
00f4
ff7a
008a
ffac
0011
ff40
fe99
0005
004a
fe5b
011e
fedc
0070
0183
01c9
ff90
007b
fe31
003b
00f0
00ca
005b
ff26
00cd
0087
01ad
011d
0106
0008
ff97
0062
fe7e
ffb4
0096
ff02
fdf5
016c
019e
001c
fddb
00d4
ff0a
0094
ff28
ff98
011a
ffbf
ff59
fec0
0031
0087
fbf6
028b
0191
0036
0088
00f7
0059
006b
fe8d
00ca
0174
0237
ff80
fecb
ffab
01bf
fffc
00a9
0131
ffe1
0068
004e
001b
ffff
ff0d
0013
0001
ff46
0003
0028
0055
005b
0038
001a
fe48
fed3
ffb0
01ac
0184
01d4
fdb4
0260
00c6
ffee
02e5
003c
00b8
0246
00bc
00b0
00df
0039
ffe3
fff0
00a2
0107
015b
ffa6
ffea
ff32
feb7
00cc
017e
012f
fd39
00c8
fed1
ff15
01ca
0016
ff7f
ff3d
ff1e
ff56
0199
ff34
023d
fccf
ffa1
0065
007e
fe91
ffbf
01b3
ffc0
018f
0018
0154
000f
ff03
ffcb
0114
ff9a
0011
ff6f
0130
ff4d
ffd7
0184
ffdd
fecc
0093
005d
fdb7
014f
00de
ff87
ff51
008e
0212
048e
0194
fe67
ff9c
fd57
ffd0
00cc
00e5
ff1e
0006
0059
00c0
ff7e
fefe
fe92
fdf2
ffdb
0121
0345
ff44
0247
febd
fd53
ff5b
037c
fed4
ff94
0123
fea9
ffa7
fff3
0071
00fa
fff0
ffcd
0005
ffe8
fdcd
0250
0054
ff37
feff
ff28
fe61
feea
00b2
000d
feeb
feaf
feff
00c7
ff21
fed6
0186
fee7
fe98
0092
fff1
0000
ff86
ffdc
feb9
009f
ffae
fd29
0003
0096
fff3
fdd4
002d
01f7
ffe9
0046
00d7
0115
fe1d
0104
0010
00b6
fff5
0253
fe89
0308
0157
02c2
01fc
0022
0066
fec0
ff38
fe7b
0001
febe
016c
0007
feb4
fe49
0004
01b2
00e8
ff85
ff76
003c
0020
ffe5
ffc0
ff99
fed5
00d7
ffc6
ff01
ff21
ff4e
0114
fffc
ff65
00d3
ff04
fddc
ffb8
01b0
ff95
00a8
001d
008d
fea1
ffdc
0026
0067
ffd7
ffac
0036
ff5c
0089
0095
fed1
feea
fe6e
ff16
0033
0122
ff85
ffdd
ff67
0094
0136
ff0f
0152
ff09
ffc6
ffa5
fff5
fed9
fea8
ffe5
ffab
ffb7
fee8
000c
0047
fff7
ffd3
ffa7
ff06
0186
0111
00ef
0060
ffed
fe34
ffad
00ab
ff30
ff99
00a8
0115
01c0
fec6
0082
0062
ffba
00dc
011e
ff58
fec7
0101
fe77
ff99
01bf
ffda
fe4f
fece
fd44
00e8
ff5a
005d
fe7b
fe93
fe8b
ffe9
0033
0039
fe25
ffba
00ac
fe78
02ce
fef5
0199
0064
0077
00f7
025a
0410
ff5c
004d
ffa9
0031
fea5
fe69
0022
fe6d
fcdb
004c
0005
00c4
ff85
0110
003c
fff8
fd37
0109
ff4c
00e9
0178
00bd
feee
fd14
01e2
004b
ffbe
ffbc
0056
01b3
006f
0000
ff0d
0021
0103
ff64
0065
0012
001b
001f
fdf9
02b0
012d
011a
ff75
ffc1
fe06
ff59
00d3
016d
ff4b
ff34
fe88
0151
ff06
ff9a
ffd0
0089
00b7
ff83
003d
005d
00a8
ff46
fe12
fd4b
ffcd
012c
008c
fe81
0163
ff32
0120
00c2
0064
ff36
001c
0023
005d
ff86
0165
ffab
0028
fe2a
fef4
001d
ff36
0130
fe86
00b3
00e7
0045
ffb4
fff8
024a
0034
01a3
fff0
002a
ff1f
0000
fde8
ff42
00fc
0087
fe63
017c
ffc7
005a
0011
004d
0126
00ee
0067
ff77
ffed
ff44
016f
ffe4
fff3
ff0b
00a3
ffb8
ffed
02de
01c0
0061
ffc1
0021
ff46
ff71
ff7e
ffa8
ff48
0024
ff46
0056
ffcc
ff8a
ffc6
fd9a
ffca
0081
02b3
00f8
fdaa
0197
014a
0139
0117
00cd
0034
00db
fea9
fe7c
ffee
fe7b
010f
fea8
ffa2
01a6
013b
ffce
fe82
ffb3
00a5
010a
ff09
ff61
ff6f
fea3
007c
02a6
ffe2
ff60
0043
ffb0
ff65
01af
003d
ff72
0036
fdff
fec2
fea8
0015
0128
ff34
ffb3
0262
fd1a
0063
0099
fe70
fe9f
ffee
fffe
ff39
00ba
feca
0157
ffb9
0172
0108
001b
017a
000b
ff59
fedb
ff8f
0048
0130
ffc4
ff6e
fe4a
00f8
01c5
017e
003d
015c
fdba
01e7
016a
0019
fe4b
0024
feed
0222
0144
ff18
ff9f
fed0
fe5c
00e1
fe28
0143
fdba
014e
fdd5
0013
0171
feeb
fe98
ff3f
0067
fe9e
005e
fff1
feac
ff2b
022b
fee0
ffe4
ff9b
ff91
ff0f
0163
fe7d
fe7b
006d
01bb
fec9
ff52
0033
fdef
002a
0202
feb6
ff91
ff56
0013
feee
0006
fe6f
009c
01cc
0118
0035
fef8
0086
fd08
fe61
00bb
0067
ff45
fe62
ffa0
ff7b
ff6b
ffa8
ff53
fff6
ff35
fd85
ff82
ffb4
009f
0085
0131
ff62
fe2a
ff31
037d
0000
fd48
fef6
fe21
fe3f
009a
005d
0023
fe9e
fda3
00d6
ff6b
fe76
fc86
0004
fe20
ffe1
ff98
0046
ff8c
0016
fefd
00bb
ff54
00b4
00f7
0025
00e7
fe5f
0058
00ba
fefc
01eb
ffa5
fedf
fedc
01e7
ffd6
ff45
ff81
ff00
fe29
0000
fec2
0090
0020
ffe2
fe0c
fe73
ff15
0038
ffba
ff6a
fc33
015c
fffd
ff2f
ffa5
ffac
0057
026a
0011
004f
010c
007f
fdf2
007d
ff65
02ae
feb1
ffbc
fcd9
ffeb
fd20
0055
fd29
ffb6
0510
ff5e
fc42
ff7e
fd8c
ff52
ff0b
0123
03a9
0125
fd58
ff56
fd23
0055
fe18
fe14
0004
fe68
ff39
0096
fe3e
006f
fe29
0053
01e9
0087
fcc4
fe81
0028
ffc9
0081
00d1
fffe
fea2
014b
ffcf
0001
0016
fe33
ff29
0498
fe91
ff61
fdfe
fef5
fff9
0046
0170
fff6
0114
fecf
0024
ff37
ffb5
fe28
04d6
00e3
fef3
f987
006c
00f3
ff2d
008b
0113
00d4
fe0b
0143
008b
fe60
ffde
fe92
0016
fefb
01fd
ff22
fff3
fff7
ff99
0151
fe1a
ffad
ff25
004a
fe62
ff9a
008d
0000
fec7
0081
ff2c
ff9c
007a
ff59
005e
0013
00a5
ff57
0103
00ab
006c
ff7a
00ce
fedf
fd2b
ff4e
0281
0076
ff38
ffd4
001d
ff95
fe9b
019a
ffea
feb3
0047
fec5
0093
01c9
ffb9
fe1b
003c
0068
008b
004b
00c3
0108
002a
ffb9
0043
fd5c
ff44
008e
0070
0101
fe55
03ec
feff
fdf1
fe96
0011
ffac
fde5
016e
02e6
fe58
fb7e
ff7b
003d
ffc9
02dd
0040
00e8
0071
ff8e
0256
014c
0099
fff1
0050
0242
ff1d
01cb
011e
0043
0041
ff71
012b
fdd2
fd87
0043
fffe
ff33
00ac
fec5
0396
ff3f
0065
fe24
feec
ffeb
01c2
ff1f
ff88
ff70
01a1
0010
0115
0038
fdf8
0091
ff91
008a
fe49
0096
fecc
ff3c
00c5
005b
002d
0030
01fd
fed4
018e
fe63
0131
ff84
ff2f
ffe9
0190
0030
00ef
01ac
ffc7
ff8d
00a0
0000
fffa
ff39
fead
0026
ff50
007b
0047
003d
ff86
ff97
fec1
fedf
ff6f
ffa1
ff0f
ff78
0178
001d
fe4f
0043
0058
0117
fef3
feee
019d
ff5e
fe51
fe89
001e
009a
0040
fd4b
00ee
ffe0
003f
0032
00cd
00cc
fe43
ffcc
0269
006a
00c2
ffdd
ffcd
ffbd
0140
fd5f
feac
00ce
ff40
ff4e
ff14
fec5
00fa
ff84
012a
00f3
fc52
0122
ff88
0140
ff72
0069
ffb6
ff3e
ff3d
0008
00c6
0128
fe6c
0174
0150
020d
020a
feff
ffca
fe92
ff70
0125
0129
0089
01b3
fefb
0005
ff28
fddb
fdf6
00c6
fed5
0000
fe49
0095
fef1
0009
00ff
0207
0212
0046
ff73
0091
011d
fc8e
fa4e
ff30
0254
0010
0033
001a
0084
001d
0068
0106
0000
03ee
ff70
005f
ffa6
0183
ff63
ffc5
ffcb
ff59
00d2
ff77
ffa4
ffb2
ffa8
fef5
0138
006a
00e1
ff13
006a
00d7
001b
feb6
ff43
ff86
ff92
00cd
004b
0321
ffc8
021b
005e
00e4
ff8f
0019
fff1
01ff
ffdf
0013
0106
fdab
01d9
fff8
0041
0064
ff66
00d8
006b
fea6
fee3
0073
ff9f
0177
ff4b
ffea
fe66
ffc2
004a
00a0
009e
fed5
00c6
00f5
007c
03bd
fe72
0023
00d6
fdf0
ff1d
020f
00d2
fed9
ffc9
0009
feee
005a
ffb1
008b
ff0f
017f
feb8
ff96
feb8
ff2a
ff42
00d3
000e
ffa2
ff27
0017
00c1
002a
007e
fee1
ffc5
fe41
fffc
0188
fd82
fe76
ffa1
0035
fcb7
00ac
00ac
008d
00a8
0076
0011
fee2
0140
fee4
0020
fec0
014d
fd1a
032f
0012
ffd7
0094
fea4
ffff
fafd
001f
ff28
ff49
00ca
ff6f
fe07
feb4
0282
fdd6
00d5
025e
00a6
00dd
ff64
ffc8
0044
ff04
ff9e
ff69
fdb9
ffa0
01cf
0049
0000
fe5d
ff69
00c9
fd53
02a2
00c6
ff29
ffb5
ff36
0046
fe40
ff7f
fffc
009d
0043
ffeb
00e8
ff77
ff95
fd96
0047
ffef
0042
005a
00ab
0064
fee3
ff6b
ffbc
fedc
004b
fd8a
ff56
ff0a
ffc0
0043
ff3e
0149
0094
febb
fd77
fec8
ff7f
fe8f
ffc9
0028
fe3c
ff2d
00b2
00b9
fde0
ff66
fd35
ffc5
ff2c
003c
fe80
fffa
0170
0094
ff00
feef
ffe0
0054
ff4a
00d5
016e
021c
006c
feb1
007a
fff4
0175
ffed
ff7d
0025
0159
0197
ffd3
000e
00be
008c
ffbc
010c
00c3
006a
ff64
ffb0
ffce
ff73
0127
01e8
005b
ff3e
ffd2
ff43
ffc4
ff70
0049
0011
017f
00a8
007a
fe61
fee4
0123
01d3
007c
ff18
0072
ffd3
ff3f
006a
0003
012f
ffd0
001e
fe87
ffdc
ff9d
fe15
001c
fe14
0156
0029
0069
ff74
0008
0057
01a6
0009
007e
0058
0043
0071
ffd4
0178
0087
ff54
002d
fec7
ffe2
ff8a
020e
03d0
030a
ff43
fd01
0120
fdb6
ff85
fe87
ff21
0145
000c
0079
006e
00b5
ff7f
00ee
ff5e
ff5b
ff76
0061
fe66
fe3f
fce2
ff61
000a
fead
ff4f
014e
fe4c
00c3
ff4d
fe08
0063
ff2e
0038
ff48
ffc4
fed5
0015
ff8f
00e7
00a2
0010
ffa5
fdb9
ff5a
000a
fee4
ff7a
002d
0105
0006
0066
00f6
fff3
ff48
0047
0043
fff7
0082
00d1
0120
057e
fc4f
0209
0018
002a
fd1a
001a
ffca
0063
ff87
00ea
0239
ff04
ffcf
003a
ff43
ff68
005c
fe1d
01ea
03f9
0205
016d
febf
ffac
ffb3
ffde
ffcb
fd51
0048
01ca
0031
ffc2
ff39
ffb9
ff6b
02c9
ff5f
009b
ff5e
00d9
feff
0042
005a
ff65
001b
0091
0156
ffae
01ba
febd
014c
012f
0185
00b2
fe6a
000a
ffd9
fec7
fff2
003b
008a
00b0
ffd7
0019
027e
fed6
0074
0023
00e7
002c
fe6a
ff54
00bc
fef3
fefd
00c4
00ea
009e
00f6
ffec
fe6e
fd3d
01e6
fe12
ff03
ff36
0012
008a
ff99
0067
ffe4
ff2c
fff7
fed0
ff8e
fe82
ffd5
0072
0074
0017
00ce
fcf1
fdf6
ffb7
fecb
010b
fe70
ffa7
ffa3
ff4f
0007
feec
fe9c
fe99
ffc1
ffcf
fed5
0184
fff1
0054
0031
ffd8
fff8
fdbe
00f5
fd25
ff86
ffdb
fe5b
00bf
0028
00c8
fece
0079
fefc
00e2
0726
006b
ff40
ff9c
ff1f
001f
0034
ffb0
fde5
0214
001d
02bc
feba
fec2
00af
ffa4
0049
ffc3
ffb7
fdf5
00ec
fdc8
000e
ffe0
00b3
0033
00b0
ffa7
01ad
01ae
feca
ff83
fff3
00ef
ff3a
ffc1
ffc5
00a9
00bc
ff68
ff3d
007e
ff00
00b4
008c
ffb2
021b
ffdc
0126
013b
ffb3
ff7d
00c2
ffc3
fe9f
01c8
fdb5
027d
fd1d
ff8c
fbb2
ff8b
000d
000e
017d
fe9f
00b6
0025
005c
ffe1
00bf
ff98
0063
0103
0025
0065
00a0
0172
fd80
008b
ff5b
ff87
fe86
feb6
00c1
011c
019b
ffa1
0053
0025
ffe5
fcfe
fee7
00ee
ffb8
ff8e
0041
ffdc
fe88
ffbe
fee9
ffbe
02a4
fdff
ffe3
000b
002c
ff71
004b
0028
0058
ff91
00e5
fbfd
fd61
0054
0180
ffd8
0047
fecf
ff45
fff8
ffcd
feaf
0203
ffd1
00e3
ff6d
0084
fffa
016c
01ad
0103
ff76
00e5
ffd2
ffd9
003a
0050
ffd0
fd8d
feb0
ff5b
0164
fde9
0004
00cc
fd67
fff6
ff3b
0067
0031
0070
0095
0035
fee7
fea2
0097
001c
ffad
feb2
ffc9
fdc3
ffc0
fe62
00a7
00e3
ff24
fe98
0150
ffa2
ff01
fee9
ff40
ffb3
ffc1
feff
ffe3
fd22
fe81
ffcc
fec7
ffc3
0129
018b
00b2
ff92
ffb8
ffdb
0366
fefd
fccc
ff31
00a1
fe6b
ff80
fcee
00a7
014c
ff96
fed1
031f
0389
00c9
fd29
0008
015c
0078
02b3
006d
fe34
fff5
fd29
ff0a
0014
0075
0168
fde3
0181
0122
018c
00ca
000b
0040
00c3
0059
0257
fe75
fe5e
ff1b
fea8
ff84
01b7
0097
fec3
ff67
00f3
fef9
0135
ffd1
ff13
ffc0
0168
0114
01c6
006e
ff47
008f
ff33
000b
ff8e
fe5a
feb0
fff3
ffdf
0017
fd42
045a
000c
ff7b
f9c0
fcec
00e0
fee1
0024
0163
00d5
fe9c
01b3
055f
feea
ff8e
0090
0068
0068
07db
fff8
0535
fed3
0039
ffd6
fd54
ff98
008a
fe6d
fe16
ff1d
ffda
fe52
feb0
00c4
ffdf
01e3
fee2
0005
0130
ff50
0310
00a5
03c0
015d
fede
ff36
015b
ffa4
fafa
ffd6
017d
0114
ff6b
ff70
fe3e
ffaa
fd73
004a
004f
fec0
012e
ffa0
0178
fe39
fe3e
0122
016d
0041
0030
ffa8
00e9
ffdb
ff7d
fffe
014c
fc4e
00c5
ffae
fe0f
009b
fe8d
026b
fde6
fe5d
fe09
fec4
ff68
fd24
01f3
01e3
ffb2
fb2a
ff4a
0084
fedb
0193
02cb
014a
0122
0152
025a
ffc2
ff46
fea5
fd11
fff0
00ff
018c
ffd2
fee2
fde5
0098
ffbf
fd8d
01b1
00f3
0042
00b9
ff4e
0013
041d
00ad
009e
fbed
017e
000e
007e
ffb6
0113
0141
0444
004a
fc59
fff3
fc9f
007f
febe
0054
000f
0158
ff07
fea7
011a
ff23
fe8f
ff9c
ff8f
fecc
fd6a
fd68
ffcf
020a
fff0
ff73
02c6
0097
009b
0016
fd90
ff9d
ffd9
003d
fe6a
011d
fb97
ff48
ffa1
fefa
ffdc
ff3f
fd4a
ffe2
fc17
ff32
fe73
0162
ff2e
ff97
00c1
0018
fd50
ffb2
fe4f
000b
fe1a
0028
ff7e
0025
ff1a
fd6d
ffb5
0054
fd80
fc05
fd7c
fdfe
fdf5
fdaf
feee
ff7f
fe8d
fffa
fe89
0155
fee3
ff40
0101
00b0
0015
fff8
fff5
0133
003e
fcf4
fe47
feef
018c
ffb3
02df
ffcb
fcc1
ff17
fecb
0088
fdd2
0036
ff21
002b
00fd
fe03
004e
ffee
fe79
004c
015b
0237
012f
ff71
ff81
0099
001d
ffa9
fe3a
ffad
00fa
fd69
0053
fefd
fe6a
fcc2
ff2d
fd2d
fe38
fe5a
ffeb
fecb
ff20
fe25
0052
00ed
fef9
fe8c
ff05
ff8d
fe2a
f908
fe8b
ff58
fd7c
ffd6
0002
ff89
ffe0
fe43
0041
01d5
048d
0047
fe57
ffa3
0126
0011
ff5c
ffab
0108
0008
0060
ffcc
ffe6
0040
fd36
003a
003d
00b1
fc73
00a5
0084
014d
fd38
fee2
004c
0098
fd8b
04bc
03cc
0191
0294
0047
0322
025c
fff2
0037
018c
001f
ff04
016c
fb51
fec4
feb8
015d
0084
ff9d
fff4
0051
ff02
fd67
fe9f
019f
0046
fe23
ffbb
fed6
ff6d
ff42
ff0e
feed
fed4
ff05
fe70
ff0a
fefb
fe96
fae6
ff91
fee7
fde2
0088
0043
fd90
fe6d
fdf0
000d
ff99
00d3
01d4
fefb
037e
ff2c
0045
fe9a
ffce
ff88
01e7
00a1
fdd5
ff51
006f
ffa4
0138
01b6
fca6
00b4
fb92
fe75
fef6
0441
fd6a
0096
ff56
fc11
0205
ff7f
ffb1
0149
00a0
ffc9
fb28
0198
fd66
0124
fd9e
014c
fdae
0337
fee7
ff94
ffd4
ff6d
0052
018e
ff54
0020
ff96
015c
0018
fd88
ff89
fe71
fcf5
0027
ff6b
00a3
ff7b
007b
ff14
febe
ff51
ff4d
0371
fd97
ff93
fff0
010e
fe23
fea0
ff10
00d6
fc47
030d
ff65
017d
fd56
ff2e
0185
0064
ff8a
0005
0056
ffa2
fe9d
005e
ff7c
fe7d
fd2a
ff13
0024
010a
ffbb
00f3
fec1
fcd3
0170
fde0
fe0a
ff9a
fcdf
feb8
fec6
ffe2
ff50
0034
0284
fefa
fc8c
fdd6
fe6b
fffc
fdcc
ff5c
00e7
ff2e
fd8a
0160
0012
fae8
ff2a
fad0
ff77
fe6b
fda0
fd33
ff66
021f
00c5
fc64
feaf
01b2
00c8
ffc5
ff69
019c
0081
0100
fe6d
fe32
ff46
02d1
ffcd
0034
0077
fe4c
0062
ff6f
fff8
00d4
008e
ff5e
fdfd
001f
000d
02f1
fe9a
ff56
ff2f
0168
012e
027b
ff6c
0063
005b
ff2f
001d
0249
fe78
00af
0156
fe1f
fe41
feeb
01e6
083d
0207
fe6d
fffc
ff75
fff3
005e
ff5b
0276
ffd7
fffa
ff03
01ba
007e
fe9a
0105
0072
0007
0404
01d8
005b
01a8
003c
008f
fcc4
01a9
ff61
0067
fef3
00b2
fff0
ffe7
ff4f
013e
fe4d
fed5
ffb6
00d6
02bc
0059
fea2
fc58
005f
fff0
0117
fef0
fedb
0156
ff99
ffb0
0135
00b4
feea
0135
ffc2
fe61
feb5
ff5c
fcf4
fe18
fba2
ff3d
0163
fe9b
fd00
0099
fbc5
00f9
fe1c
00fc
ff39
fe29
ffb6
0043
001c
fe35
0048
00e3
0070
ff70
010c
feed
fd12
0014
fe81
01f1
ff51
0073
0412
00e0
ff0b
fefa
ff45
02c6
005b
000f
fe8e
0098
029a
00f2
fc9e
06bc
00d5
0105
009e
fc6e
0223
0188
ffad
ff10
005b
0294
019d
ff77
006e
fea9
fe98
00f2
fceb
ff01
004a
008b
fef0
fee2
fe37
fdd8
00e2
00ba
fca0
000c
fe73
00c5
ff00
ffe9
ff50
003c
0011
ffb8
03bf
ffe0
000b
00a8
ffe2
013e
fec2
010c
ff23
02ab
ff4a
00d6
fdc2
00de
01b6
ffd5
00d5
019b
ffe8
fe1d
fe14
fef2
0088
0193
0045
0035
fff6
01d6
ff0a
0096
00d0
ffd9
fcde
fe89
013d
ffbe
fdbb
ff21
fff9
0083
0179
ffca
009e
fd42
fe37
02e9
ffd5
0059
0099
ffab
0038
0297
0007
ff77
00f3
0033
fca8
0090
fd23
005c
fea6
ff59
fec6
fec4
01f9
fdc3
0144
002d
00e4
fefc
fe8d
0118
008e
ff85
fd73
fdf9
ff93
014c
fecb
fe3f
ff00
ff28
ffec
fe0a
ff19
005a
f80c
0141
fb48
ffcd
009f
0087
ff2c
00d5
0043
fe96
009e
fe1a
007e
087e
008d
fe74
ff2e
fe19
ff98
0069
ffef
01c3
02b2
0050
057b
fe60
01bb
014c
00da
fec2
0040
0128
fcf0
fff8
fc28
ff7d
0062
02e2
0022
0112
01b2
0169
03ef
ff58
0028
0001
00a9
0171
04d4
ffa4
0191
001f
ffc0
feeb
00c3
fe04
0244
ff5f
0033
01d0
fd70
ffdc
00eb
ff48
ff40
ffd2
fd90
fdad
004b
fd06
023f
fdb5
01cb
fb5d
feda
020e
ff7e
fd8d
fde0
0029
fb25
fffb
fcb6
fd25
ff34
ff09
fea1
ffe7
ffcb
ffb8
0023
feba
ffa0
ff42
0087
fe9c
002e
fffa
0201
0234
0190
fa40
00a3
00cd
fee6
fc7e
0026
ff21
ffcc
00ac
ffe8
ffbd
fd2d
0002
fd61
0164
fcfc
ff90
00b8
ff7f
fe05
0048
ff7f
00db
009c
ffe2
fd3f
ffa0
ffbb
0291
ffd0
ff79
ffb2
fcf7
fddb
ffaa
00e5
01ac
016d
001f
ff38
ffa5
00b7
0114
fe89
0236
feb2
ff59
ffff
fcab
ff06
015e
0032
fbb0
0016
fe71
008c
fee7
ffb4
00fb
fa99
ffc8
fe59
009a
fedc
ffd7
0163
fec8
ff10
fec6
0087
0007
0096
fe5f
ff93
fd7b
febc
ff09
fec5
0058
feed
fded
01bd
ffe9
ff2a
fed1
fce3
fea7
ff5f
fdd0
fd5b
fc8a
ff63
0062
ff30
000d
ff7f
02b8
0027
ffe3
feb0
005d
04c0
ff6a
0363
ff25
0044
fff6
fde6
fd2c
00d4
0005
fe2f
fdbb
01cc
068d
024b
fbea
ff25
ffdb
fefd
0044
0038
fda4
ff72
fb41
feb4
febd
feb9
0055
ff8a
ffdc
ff59
feef
fff2
ffb6
002b
ff58
0096
ff15
0032
fe0f
ff0f
fe19
fefc
01e5
015f
01cc
ffb8
019a
ff1c
01c8
0093
fef1
001f
02ee
ffb6
0120
feb7
fee8
01b7
ff37
01be
0129
02ce
00ea
0063
012f
ffe8
fec2
0264
0118
feb7
fab3
009b
006d
ff16
fe6b
011d
01b2
fe14
0246
0121
0081
ffad
ff25
ffc8
00f2
0134
0093
000d
0013
004f
0119
ff6d
ff8f
0253
ff9c
020e
01a4
ffe1
ff5a
ff64
0017
fe7a
ff44
ffdc
ffe1
0081
fe5f
00bb
fedd
0060
00b5
001b
ffee
0184
fef1
fc91
feed
017f
006d
fff9
fb6e
ff89
fdb4
0035
016f
00c9
ffed
003c
0019
016a
fc48
fe82
016b
005b
0168
ff47
fd1f
ff34
00d1
0110
ff3f
0040
ff95
ff34
ffc9
0015
0171
00b6
0094
ffe0
0137
ff72
fe79
fed2
fe4d
02cb
ff02
feb0
f9e7
ff04
feb2
0059
015f
ff61
00cf
00bf
ff37
0158
fe84
fffb
0139
fe6b
ffe4
ff56
0097
00b7
0152
feb5
013b
008d
fdb0
011d
00a6
ff62
0066
fdcb
04f6
04a4
fe37
002d
fbae
0152
0050
0012
0013
ff14
00cc
01ba
0005
0125
ff5b
fe21
0259
ff71
ff27
ff7a
00d4
ff14
0079
0064
0088
ffb7
ff1f
ffc2
fef5
fe07
ffc2
ff24
024a
ff6e
fe9c
012e
009e
0075
fd9d
fe2e
ff19
ffa9
ffe5
017a
fe86
ff30
fe8b
ff9f
fff4
00c3
fe8a
ff0c
ffbf
ff44
ff42
ff84
00cc
ffab
feee
0007
000d
fe47
000b
ff98
0134
fe83
0122
ff3b
00b8
00cf
033b
0155
00fc
fc68
fe25
ff6a
fdee
ff19
fc86
0017
0121
fe6f
001a
0123
02b7
017c
020c
fec6
00c7
fe9b
ff2d
0258
0152
fff8
fdc2
006f
ff00
0060
0116
ff6e
0090
feb8
00cb
0031
fff3
fdda
fe93
0105
0142
0288
00d6
ffca
feac
fef6
ffb0
01d4
003b
ff96
ff28
01f0
00da
ffaa
0037
ffbc
ff8d
0178
ff32
ffd5
fff1
fdd2
fd7b
0050
ffe6
0071
ff13
0073
0198
feb7
ffc8
00a2
004c
ff41
ff3d
ff10
fe33
ff4d
fb28
0159
ff80
0217
ff04
0065
001f
ffd8
fd84
02a2
0043
020c
fe84
ffc6
0066
0101
002b
ffbf
0020
001b
ff9c
0168
003a
ff91
ff42
fead
00c7
0021
ffe5
fce8
ff9f
0084
ff16
fe0a
fe63
0006
ff5e
ff7d
02db
02df
002a
01dd
019b
0087
0127
ff38
ffef
01d7
0136
ff5c
01c7
fef7
ff0b
ffb2
0230
ff89
0034
ff76
0064
ff5c
00a1
0001
0029
ffe8
fefb
0050
fe99
008a
0301
fe87
ffd6
ff32
0029
023e
004e
fc6a
02c8
fdcf
fee4
ffc0
0023
fddc
ff8d
0013
ffc2
0096
ff71
ffa2
0130
00ed
0087
0146
0028
ff97
fd28
fe90
ff63
0110
0017
fe2d
fe01
001f
007e
0017
02ad
ff5c
00d2
fdb4
00c6
0117
02f4
fee0
0187
ff4d
fce5
0005
00ae
ffb8
0100
01a6
ff70
ff86
0063
febb
fdd4
fef8
000a
fee4
023b
ff96
feae
fdce
fbf2
00d7
0465
ffa8
ff3b
0023
0099
ffa3
01cf
00c3
0016
ff12
003f
005f
ffe1
ff6e
015c
ff86
fed0
0035
0028
fe03
ff06
008b
fe64
0011
ff53
ff02
ff51
005f
fe27
01d5
fee0
0046
ff2a
ff74
00c1
feda
0000
0015
0006
00a0
0048
0065
ffe2
ff71
fe8d
ff45
0074
0110
0035
0087
ff6e
fe24
0054
ffa5
00c1
ff6c
ffd4
fe0c
017d
00a0
00e5
0037
ffb4
fff2
fd6f
fe3a
fea6
ffaf
fdfa
00e5
ff23
ff36
fe6d
00d1
006a
fe4c
0026
fde4
ffd4
fe65
ff4e
fda6
00d4
ffac
007b
ff34
ffa1
01a2
002e
ffeb
003e
0036
0038
ff62
fe87
fe47
01c2
014d
ff91
001d
ffb1
ffb9
ffa9
0151
0040
00bb
0097
002d
000d
ff09
00b9
0352
fe8c
ff70
ffd4
01ba
017f
01a8
ff19
0040
0127
004e
fe41
00f8
006c
0146
003a
001c
fe60
ff68
0032
0106
0017
fe53
000b
00c4
0079
0009
00a2
00de
0055
0136
012f
0032
fe90
ffa7
ff34
01f4
ff51
ff8f
ffcd
0127
ff98
0119
012c
ff61
ffa9
0015
ffa7
ffed
ffc4
00cd
fe9b
ff7c
ff08
ff25
ff54
ff01
fe5a
040c
013c
ff63
ff02
0016
00a8
00da
ffe5
ffe7
0045
0004
0017
ff55
00cd
ff9f
fe38
015f
fe63
0031
01c0
0106
ff47
fe5c
ff1d
ffc2
fee8
fe35
00bc
fef5
fe6d
ffcc
ffff
ff94
fe3a
ffa7
ffdd
00e6
feb5
00c0
ffe3
00ca
00a6
01bf
ffdd
fe00
021a
ff86
ff6c
ff7f
0080
0057
ffb5
ff60
ff30
ff46
00a5
00c1
0008
ff3f
fedc
ffbb
fdc5
0233
049c
01a5
ffb2
ff19
fd71
0137
ff9c
00df
00a8
007d
0168
012c
0011
ff81
009a
ffa0
ff9e
fdb0
ffa7
0222
006b
ff9d
ff08
fe29
fe98
012d
ff26
fcbf
ffeb
ff3d
014e
0071
001f
feb6
ffb8
ff00
0124
ffb2
0148
ff36
fff7
0000
006c
ff53
0116
0098
fdfd
ff83
00ce
fef4
017e
0112
013c
ffee
0209
007c
ff8a
ff32
ff2b
fe3b
fe8d
0067
00ae
00cf
ff3b
fe56
00a5
ffe3
ff13
0019
01d5
00eb
00b0
fdfd
ffc4
0040
ff69
0101
00b7
fff9
0169
fe27
017d
0118
ffad
0052
0237
0077
ff99
015e
ff71
ff29
0083
fee9
ffeb
fdd9
011e
ff67
ffd4
0140
00f6
0365
031f
fc46
00ce
01b4
feb5
ffb4
010f
0198
fe31
012b
ff8b
0020
003a
01f8
fe45
00d8
0341
00c6
fd93
00cc
ff0d
fd91
0007
fdfe
005b
fffe
0221
ff87
01a3
0083
fef0
007a
00bc
ffab
fd98
01ce
000f
ff23
fcef
fee9
ff42
ff9d
006e
014b
007c
01b7
feee
ff87
00ad
002e
0001
0040
0098
fe39
00b0
fd90
00f9
ff72
0048
0030
ffa5
ff4a
01c0
0033
0048
011d
ff61
017f
0047
0013
ff3c
0052
009d
00dc
fe2f
011d
fd3d
ff70
fece
ff40
fec4
fef5
ffc1
0193
ff76
fee4
0068
fea6
ff50
01bf
ff58
02ba
fd8b
0110
fd8a
fed3
fec6
ff86
fd81
fd7f
005e
fe3c
ff8a
ff4d
fcd9
fe36
00d2
ffca
00e3
0029
fef2
ffc4
020f
ff82
ff67
0044
0155
ffd1
009c
016b
ff4a
ff92
fef7
fdc5
ff75
fd02
fedf
ffd4
ff1b
ff2c
008c
ffb9
0112
ffc2
ff32
fff0
fcd7
fd25
0159
0098
fef1
fea1
0041
ffc7
ff4c
0152
fef3
007f
ffdc
ffbe
011a
008b
0229
ff5b
fe9f
0005
fe2d
fea7
01d9
ffa8
faec
ff86
ff7c
ff64
ff7b
ff37
0170
ffab
fee1
0034
fe7d
0012
ff53
ff93
fe95
ff8d
fea0
0141
ff33
004e
ff0b
fee9
ffa5
0018
ffc2
0002
fff2
0012
00cb
ffc6
fe07
01c1
ffca
ff38
0056
003b
fcb2
ff86
fe14
0099
ff3f
ff0a
fded
00ca
007f
ff3b
fe9d
ffde
ffc0
ff26
00d8
fdad
fd66
0007
019f
0011
0093
0159
020f
00fc
ffa6
feb7
ff33
01f0
fee5
01f5
fe73
00b3
0107
ff48
fe36
0101
fc57
feab
fc77
0152
048f
ffba
fcdc
0015
fee2
ff59
ff94
0097
fe4d
0116
fd48
ff70
fc79
feea
fda0
fe5a
ff31
ff4d
fe97
003c
fd06
0027
0078
00d1
febc
fff3
fdb4
0004
00a5
fe55
007d
ffac
00de
fd66
001c
fe7b
00a5
0079
ffc6
fea5
0435
0054
0193
febe
01df
001f
ff12
0134
0053
ff6d
0028
0022
fea4
ffcd
00ed
0154
fede
fe4f
fa79
020f
0179
ff83
0062
0188
ffe1
ff03
0192
003a
ff4f
0078
fdfd
00c2
0060
00fc
ffd4
0096
ff3e
0082
016f
ff50
fff8
0081
0024
ffa9
fdbb
0017
ff5e
ff21
ffb4
00ba
0075
0008
00a0
00cb
001b
007c
ff49
0101
001b
ffb7
ffaa
00af
ffac
fc61
00f5
016a
00ad
0026
02a9
0082
ff11
ffad
ffc4
000b
fde6
ffab
fe61
000c
0027
0034
ffe5
0104
0043
ff0c
fec7
0079
ff5f
ff81
ff1f
00df
ff63
ff8b
fffe
008f
ffc2
0048
0422
0110
ff13
fee7
ff5f
ff3f
0132
019c
009d
ffe4
fbe4
fec3
ff31
0032
0085
fde0
00a8
0118
ff42
0000
ff06
ff2e
ffb3
ff4f
00c0
fecd
fffa
00db
ff6d
ffd5
fe1e
ffc7
fd20
fe60
ffab
ff31
01fa
005d
fedb
0264
018b
012b
ff79
0031
fee2
0027
ffc5
fee1
0068
fedf
ff22
016d
ffb8
fe64
01e6
ff24
ff86
ff4b
0187
fe7d
fd97
00ca
febd
fee3
016b
008a
ff33
000d
ff11
0083
fd26
00e6
0167
0069
fef8
00d8
ff7c
013e
fe8c
fe88
ff89
003a
007e
01d2
ff4a
ffdd
ff9b
ff7d
ff64
0102
ffba
fec7
0120
ff37
ffb1
ffd7
fff2
0124
0193
fee5
01c6
00f9
00d4
fdfe
ff99
0032
0087
ff69
fd2f
0045
ff27
fd54
fc09
00da
0060
fee0
fde2
fffa
0113
fdf7
003e
0114
00ea
0089
fea6
ff48
01cd
fe83
fedb
ff35
0283
004e
009e
ff78
ff79
ffd4
ff87
009d
00b7
00c8
ff30
fffc
0187
ff59
002d
0085
00a2
ff88
fe32
010d
0062
ffcf
022c
ff6e
00ea
00ff
fef3
ffdb
ffb7
ffe2
00db
ff2d
00e7
0173
ff00
012c
ff29
fec7
fdcb
00d5
fe7f
ffaa
fe81
ff61
ff30
00af
ffda
00c2
008c
0048
fed2
ff79
ff8a
fd3a
fb77
00a1
ffc0
febf
fe49
008a
00a1
008f
febf
00d4
01bb
0162
00a8
0125
ff2f
0166
fffa
feff
fde5
ffae
00be
ff21
fff5
ff99
00a3
00c6
01ee
00e1
0189
fbc7
003f
fead
ffe8
ff02
fea5
006d
01d1
006e
0076
0284
fe7c
0152
ff26
0072
01ca
ff2b
00e6
ffe6
001d
ff24
018e
fd30
fe1f
fe8d
007a
ff13
ffa8
00d7
0007
fff4
ffd3
0079
001e
ff4e
00ae
0068
009b
00fc
ff4d
ff63
fee8
fff8
ff7a
ff73
fec5
01c5
fde4
fd43
012c
005a
ffb4
014c
ffc8
ff28
0092
ff28
001c
00df
fef7
ff98
ffe4
00da
fe87
00a8
ff6c
feb6
ffb4
00bb
ff48
ffde
ff01
ffce
0132
fed1
010e
fe72
00d7
ff20
01a2
0171
ffcb
fe58
fff0
ff48
fce7
0019
00c1
ff4e
0041
001a
ff7b
00dc
016b
ff0f
00b0
fdea
00b4
fe3a
03a8
001d
015b
fec7
fed8
0072
fcad
ff55
fecc
fdcb
003c
ff3b
ff29
fee1
031e
fdf7
007f
0111
00c8
0053
ff04
00d7
00d7
feef
ffc8
ff22
fea5
ffd4
0002
00a6
009b
00a4
ff6c
011f
fe4f
007e
ff48
019c
ffe7
0136
ff95
0025
ff07
ffe5
ff4d
016f
ff8d
01cb
feef
fe0c
fe2f
002e
ff53
ff2b
00d1
001a
01dc
0091
0172
00ae
fd2a
ff9a
fc85
ff93
ff10
008d
fe54
fee5
02a3
ff9a
ff00
fd42
fe4b
00c0
fe76
0006
ff99
ff94
004d
ff82
0183
ff2b
ff9a
ff64
ffa3
ff47
0039
fdd5
00a7
ffe9
ff89
00c0
fe22
000d
ffee
fe30
0193
0075
01ac
ff7e
ff29
0126
feb8
0138
0018
009d
fff0
ff7a
ff56
ffa9
ff9d
ff5d
010a
fe23
fee8
ffd0
0052
fec0
ffc8
0056
ff68
ff16
0161
002a
0036
00b2
ffb1
ff56
ffd5
011d
000b
00b6
feb7
0091
ffce
feaa
ffee
00d1
0189
0021
0130
0037
fec1
ffeb
0099
ff2f
001a
0037
ff31
fff9
ffc1
fe96
ff9f
0003
0140
0126
ffe2
00b1
fff2
ff20
ffed
0172
ff6f
fff9
0043
ffb5
fff5
ffbe
0046
feb1
fe74
ffaa
01b1
ff29
0132
02bf
01f0
fd93
fe64
001c
ffea
0002
ff53
fe06
0038
fefa
023e
00c5
fee0
ff68
0005
ff31
ff83
0154
0110
fd85
ff11
fe09
0042
ffb2
ff8e
fed8
014e
00c5
ff8c
fffa
0023
ff69
0041
00b6
fef3
ffca
fe47
0033
ff74
007f
002f
fefd
ffab
ffc2
ff90
feb5
0084
ff79
ff37
fff0
ffe6
0096
0196
009c
fec2
0091
ff09
ffaf
ff8b
ff66
00b1
04eb
fe88
fea1
feed
ff9a
fe3c
fed4
009a
0086
ffec
028f
ffad
fe41
ff05
0056
0027
ffad
fec4
ff4d
00df
00e8
01a5
fee4
ffdf
fe28
ff48
0165
012a
fed9
0001
00c1
ff2c
0043
fea4
ff45
ff56
0060
ff3b
003a
0166
ffbe
ff71
fee7
ff6a
ffba
0083
001d
0140
00a9
feab
ffe4
ffc2
01a0
01c4
002d
fe15
0030
fcd6
00da
00a9
ff96
0137
01b3
014d
0025
0206
ff2c
ffaf
0124
ffea
0176
ff5e
fff6
0074
ff0c
ff4d
0073
0084
008f
ffac
0026
fe00
fd93
0135
fedc
ff80
ff67
ff90
0047
fead
0041
ff86
ff52
ff41
feb3
01c5
fea7
ff5f
ff32
febd
fdba
00c8
00cb
fe9d
ff54
0003
0092
fff3
0149
fea6
ffd9
00cd
0106
fea2
fe05
ff3d
ffbc
fe0e
006f
ff2f
ffcc
ffbd
fee4
ffdd
ff4a
ffc8
fe3b
fdd9
011e
fe8f
00f6
fff0
ff81
ff27
00e0
fdf3
00ab
03cf
001e
ff91
ff7f
ff5a
ff3a
0080
014a
fcb7
0224
ff86
00d3
ff8c
fe98
0188
ffa7
ff49
ffff
ff64
ff4b
00df
fe89
fe74
00f1
0040
0111
015f
fef4
00e8
0241
01f1
0034
0102
0107
fe74
fde9
009c
007a
00e9
ffc9
ffa5
ffbf
fe0b
00ec
ffff
ffcc
ff8c
0045
ff1d
0033
ffdc
0023
00ad
0007
ff99
00b5
fe10
0130
fc13
fe59
fc62
fef6
0040
ff5e
00e8
fe63
ffbc
0032
00e4
0124
ffad
0002
ffda
ff16
ff32
fe67
fe93
00ed
fe3c
ff72
ffc9
0093
ff59
ff7a
fecd
0023
01c6
ffea
fd72
fff7
ff00
fd62
ff24
0124
ff7f
ff8e
0013
fefe
002a
0116
0035
002e
02a2
ff01
0138
0090
ff34
ff7d
01d9
001b
0047
ff4a
001b
ffc7
00b9
0073
013b
0070
fe38
ffaf
0051
01d4
0153
feb3
0294
fecb
ff1d
0015
0119
ffd5
00e2
ff4d
0244
01d7
00ba
00d6
feb5
fdc1
fee2
fff4
fdaf
0092
ffff
003b
ff46
018e
ff70
ff8a
005a
ffe7
ff49
ffb8
00ca
fdd0
01d9
ff73
fec0
0040
0056
0003
ff24
fecb
fe14
ffb8
ff38
fe92
01b0
ff7a
0016
fec0
001f
fe9a
feb4
00a0
006f
0082
fee7
fde8
fc28
ffe2
ff9a
003e
feae
0005
0048
0044
00a1
01c9
0076
0256
ffde
ff35
ffd4
ff17
fedf
0156
ff5e
0007
ff96
ff7a
0024
02b3
0326
0072
fbdc
fff9
0035
ff02
0111
01f9
ffd7
0031
fd7b
0002
0051
00e4
0008
fdcd
fedc
ffb8
fee8
01de
ffa4
0002
0054
0052
01c1
fec4
fdf9
ffd9
006d
007c
0053
ff8e
fe20
ff55
01b2
ffcf
0084
ff81
febd
ffd5
0168
0058
0180
ff48
feef
fff9
0057
0017
fece
006b
fece
fff5
007e
0085
0049
0274
ffd6
ff19
fabc
00c2
ff75
ff3d
fddb
01d1
0000
fe73
0331
00a1
ff06
01c4
ff17
015a
ff5a
ff89
ffe6
0169
fecf
0004
00ed
fdf0
feaa
002d
fff1
0095
fd1a
ff0f
ffe4
fe64
ff9c
ff4f
ffb0
000d
ffe1
0047
fe6f
01de
0052
0019
0155
ff85
0006
ff4b
fdc3
fc75
01d5
00f6
ffda
ff1b
0140
fe58
fe56
feb0
0197
00bf
feef
ff3f
ffc6
fffc
fe78
ffd9
0153
0015
ff23
fdc5
ff10
ffe0
ffda
fef9
ffa1
02af
ff07
ffd8
fffe
ffc3
0054
ff6d
0371
0009
fef9
fd05
feb2
fe2e
fd8b
00f4
016d
ff0d
fbe6
feb6
ff17
0000
ffbd
ffff
ffb1
01cc
00dc
0237
0093
fe12
ffdf
fe6f
ffc9
00b2
010e
ffb2
0104
ff87
ff8a
0098
fdcb
016f
0201
fef0
04eb
fe6a
ff33
0140
01a8
ff2f
fbdf
00bf
fd9a
fe94
005f
ff04
008b
ff88
ff97
00d6
ffee
fe2f
00c2
fd7a
ffae
ff8d
003b
004f
00db
ff80
ffc7
ff3f
ffd7
ffcd
ff85
fee9
0013
fe86
0020
0000
005e
0143
ffa2
0065
fe8a
0024
ff4b
fede
ff0b
ff93
fed6
0122
fd86
fe77
ffb1
0017
00a4
000a
ff69
fef0
0082
fe4d
0158
0111
0148
02bf
0117
ff75
00c1
ffd7
ffd4
fdeb
fed6
ff0a
01ca
00a4
00f8
fea7
ff82
fdfc
fccb
0057
fe18
feae
fe9c
ff04
000e
fdb8
0044
ffa2
023c
fed5
fe3e
0004
0185
fdde
fd6e
00de
0328
fee6
ff54
004c
00c4
00b4
003d
0150
0082
ff4b
ff00
ff44
0103
fe6a
ff46
0013
0088
007b
ff76
ffaa
012c
ff7c
00da
ffd3
01e9
017f
ff77
ffa6
01c1
ffdb
0091
007a
00aa
021e
fe63
fefb
003b
fdd2
ff5d
0176
ff36
01fd
ff07
fe31
ff51
ff30
fd78
01cb
00bf
feac
ffa8
fe99
0000
fcee
fa58
fed6
ff79
ff6d
fdcc
0029
ff2e
00ad
feee
0362
01e0
00d2
ff4f
002d
ff73
014b
ffdb
ffb6
ff9c
ff4c
005a
ff2f
0264
ffe2
001e
ffab
00e6
0035
ffd8
ff32
0058
ff37
0042
006e
ff96
ffdc
0180
fe2f
0397
0337
fff2
ff78
ff00
0293
02b7
fe69
ffdf
fff0
012e
fe33
02b6
fcc7
fe71
fe58
00b6
fed2
0022
01d2
007d
0004
0137
0004
006a
fe72
feb6
ff7e
ffe5
00f6
fe11
ff92
0024
fe2c
ffd2
0046
ffdf
ff37
00e9
fcee
00f3
ffe5
ff7b
0249
fff1
fe1d
fff0
ffb4
ffb5
0192
fe7b
0099
ff9a
feb1
fefe
ffde
00f4
fef0
0035
0131
ffb6
ffde
ff82
fef5
0022
00af
001f
fded
0097
fe0f
0069
fe42
ffec
fe18
00a1
fecd
fcc1
fe9d
0127
ffde
ff4f
0018
ff6f
fde5
02ee
fe29
003c
fc86
00a4
fe1b
02c4
00fd
00fb
ffd7
ff17
ff80
011d
0082
0047
fecf
00ef
000b
0212
ffaa
0185
fdf6
0003
ffe8
0161
ffaf
00ab
00a4
006a
ff81
ff2a
fedd
fd8d
ff38
fc93
fda6
fffe
0009
ffe3
00da
fd0b
ffee
ff64
014c
ff4d
0165
009c
ff9f
ff61
ff84
ff49
01e8
00a8
0135
fe5b
fef2
fd5b
fe9d
ffa9
007d
0213
013a
ffdd
00d9
014c
004d
0006
ff25
fc67
006e
ff34
001e
fe40
008d
0471
feed
feb4
fd36
fee1
ffe7
fdf7
ff0e
0003
ff05
0048
ff7f
00a0
fd82
ff30
fd31
fff6
feb2
0066
fc71
ff5c
0062
0113
0147
ff0d
0151
010f
fe7b
0107
014a
0223
00e8
fc92
00a0
00ed
0020
fe7c
ff67
0063
020c
001d
febb
ff3d
ffab
fefb
ff92
00cc
feee
ffba
0293
ffda
feea
fee4
ff22
0182
023b
01b3
0009
024e
fe3d
0093
01f5
0047
0121
ffbf
feef
ff4d
fed9
001d
019a
01bb
004a
ff41
0163
fef8
002b
ffeb
ffe6
0085
010c
0285
ffbf
006b
ff62
009e
ffa0
005b
00bc
0330
fed0
ffc8
ffad
ffef
011c
ffec
006c
fee7
ff34
01eb
ffcb
00b7
0090
fef0
0006
0326
fe1f
fed6
02f5
fe08
fe10
fdc0
ffef
031f
fec5
ff63
fd9d
ffdc
ff88
00ff
0216
ff4e
00a8
0156
ff82
0083
0297
ffe3
fc79
004b
005f
ff61
000e
fee7
fe6d
01ec
ff29
ff1e
ff2f
0001
fed3
ffa8
ff52
fe84
0000
ff11
fe25
ff4a
ff74
ff48
008f
ff95
ffe4
00a7
00ed
00b4
ffd6
ffb4
fec7
0110
016b
00e5
00b0
ffc5
00a3
ff77
ff54
ff7f
0019
0031
f21d
04e4
ff15
001d
fdfa
fe29
fd5a
01c3
fecc
ff92
00d0
fffe
0182
ff99
ff4a
009a
fcf1
ffd1
fe47
00ea
023a
00aa
01f1
0102
ff56
ff9d
0296
0076
fddb
005b
0060
010d
fff9
ff50
ff73
ff4b
0005
fee3
026a
0412
fef7
ff8f
ff5b
008e
ff1d
0033
fed3
00ac
ff3f
00b3
fe25
018c
02ea
01b8
01de
01f0
fe9a
fe94
00b6
ff9d
0044
ffa1
019e
ffbb
000b
0258
ff6d
ff5f
00d9
002f
0032
fe89
0053
fe5a
0079
ffe4
fffb
0218
000d
0068
ffd3
ff56
fda5
021d
00f9
0124
02c5
0264
ffeb
0012
0095
ff2b
ff74
ff0f
fe8f
ff80
0127
ff71
fd7b
ff56
0018
ff8b
029e
01e0
ffea
ff79
0168
013d
fe5e
ff50
ff31
fded
fee4
fe71
ffa0
fe39
ff56
fe43
ffb1
ff91
ffc2
ff51
feee
0103
fc54
0080
fcc2
000a
0165
0188
ffce
ffa4
000c
fe78
0001
013e
0084
0214
ff7d
fecd
fdfb
0074
fe53
0031
00de
ffe3
01b1
0044
0267
fe84
002b
014f
0048
ff17
0178
0077
fd97
00c0
fc61
ff42
005c
016e
004f
0272
01c1
018c
0281
02d8
014a
ff8b
0015
ffb4
fe90
0028
0075
0018
fdc3
fe53
00c2
feba
0083
fe1a
0048
fd2f
fee4
ffd0
0091
00fc
0058
009e
fdcf
0215
00e5
fe9a
0192
fcc3
fef8
fc1f
ff3b
00da
feb5
fe0e
ff4f
ff7e
fe6b
0120
ff02
fa6f
00e9
ffad
fdd1
0002
fee8
0041
ff6a
015f
ff2a
ff8d
00fa
0039
003e
ff64
0193
035e
ff4d
fa63
0020
ff4b
fd8e
fead
016a
fd42
ffcf
0128
ffbc
0099
ffdd
ff6d
fdb8
ff78
003a
00c0
0263
ffff
000d
000e
00fd
feee
1c65
ff73
fdde
fe2d
ffa8
0109
003b
ff38
0038
fec0
011f
0083
ff5e
01c0
0041
ff5a
0005
01f2
00b7
00c1
0035
0250
00f6
ff0e
ff62
fd79
fc8e
ff1f
ff72
fdcc
014b
ff23
0075
fdf6
0166
ffe0
fece
ffc1
fd94
0082
fe6f
ffd3
fe75
00a2
001a
fea8
00c8
fe6c
02ec
006d
fefa
fe53
fecf
feec
fd85
ff9b
ff1a
fef2
002b
000d
fddd
ff3a
00b5
0107
ff14
0096
fe49
fcf4
ffca
0009
004b
01e0
ff2f
0229
ff2b
0000
0214
fea6
0310
003d
fc8b
ff9b
ff1d
ff98
0051
ff09
fecf
001d
feb8
fff5
00aa
03ef
fff2
fc42
ff24
fd01
ff47
001e
01c6
ff3d
ffb8
fcd8
0085
0076
feed
01c9
fdc8
ff99
ffcc
feeb
0114
fd08
ff4a
014b
ff3e
019e
0173
fe97
ffed
016b
ff2a
0042
feec
0073
fe3e
ff64
fd82
ff20
ff35
ff0b
ff5f
00ce
ffc7
0244
008d
020c
00ed
ff61
01fb
fff8
00c1
00af
ff0b
0061
ffcb
0094
00ab
0019
fedb
faca
011c
fd4a
009e
fe2d
01d7
010c
ff39
015f
ff63
0075
0090
ff08
000d
ff14
0049
ffff
0057
0213
010d
012c
fefc
00d0
0079
00ad
00eb
fe87
0061
fe6f
fee5
ff9a
000e
ff9b
00ce
0000
0073
ff6d
0131
0045
ffa7
0039
0085
0084
00d0
fd2a
fbe7
fe8c
00aa
ffe0
008e
fd01
0028
feac
00fb
0086
00c3
ffe6
ffa3
00ef
003d
fd7e
0055
0044
0026
fe65
fed6
fc70
fec8
ff4b
ff73
ff6b
ffaf
fea0
ff45
013b
0034
fee4
ff28
01b3
ff31
0037
feda
0008
fe8e
fd49
02a1
fec2
ff2b
fc87
ffa5
ff7a
ff58
ff0c
fd8a
fff8
0046
fe6b
fffa
0085
fea3
015d
fe70
00b2
0120
001f
022a
029e
00ec
00e6
ff3f
fe0e
010f
0060
ff2c
00a1
00b1
018c
0291
ff6f
fe20
fd42
008e
ff0a
ff2a
0033
ff10
009b
febe
fe74
01a4
fe50
fe0d
01a1
fe45
feee
fff4
ffc4
feec
02ed
ffe5
0110
ff99
ff5c
0189
fff3
fff0
01d5
ffeb
0012
003a
ff85
0013
0094
0068
fb4c
fe8f
ff1e
ff06
ffcd
0124
0069
0095
fe6f
fff2
ff1d
008d
006e
00ee
ff90
fea9
fe7a
fef8
ffa8
ff5f
0090
00be
ff80
0030
ffd6
00ee
001d
fe53
0089
fd83
0057
ffe3
04f2
ff0e
0117
fe15
fcd6
019d
00be
ff9e
ff20
ffb9
feda
ff7e
ff72
0126
00d7
ff83
019b
ffac
0040
fd5a
fe44
0288
00c3
ffad
0358
007e
ff1d
00d2
ffd5
ffe3
0085
ffd5
0052
0044
0140
fe84
ff9d
fecb
ff51
0147
021e
feb6
0033
fea3
fedc
0097
0088
00e0
0225
0198
0179
ff27
0071
ff2f
0054
0091
00ff
0057
fff3
fe6f
fe3a
0139
ff52
000c
0261
fedb
016f
ff0b
ff9c
ffe5
fefe
0037
0023
0127
fe32
fdc9
fb97
ffd1
0043
ff99
fd78
0030
0012
0122
ff47
ff27
01fd
00a4
ffb1
0059
ff9d
00c4
0013
fedc
fe66
ff85
fe83
ffd4
ff87
ff46
ffc4
ffb3
00af
ffaa
ff16
fb97
004b
ff3c
fef7
fd68
fe2c
0059
fe93
001b
01f7
02bd
0305
00f1
001f
00d1
ff41
fea9
fefa
ff11
0035
ff3e
01c3
fe30
001c
ff5f
0275
000f
0000
0112
00fb
00c0
0383
0019
0098
feef
fe9f
0162
ff4b
003f
0250
ff74
00e6
ff60
0178
002f
ffa7
001c
034f
0664
ff2f
009d
ff3b
fef3
fff8
ff11
ffc6
fee2
ff95
0127
ff26
ffc6
ffba
0073
fef0
ff37
ffc5
ff0c
ffc6
007d
0035
ff75
fefe
ffd9
0056
feaf
01a3
ff28
00a8
ff09
02a5
0120
027d
fe6f
fff7
ffea
ff3f
ffc1
ff44
001c
ffec
00b5
0052
00b0
01f3
ffe0
fd5e
fd42
fea8
fdf4
00e0
00c6
ffcd
ff52
fdab
ffc1
0350
ffc8
fffa
ff29
015e
feae
036a
0115
0068
fffe
ffd3
ff57
0123
0065
0045
fed5
fe56
ff72
fe49
fe55
fe81
fedd
fdcc
ff36
00a7
0075
fe89
0137
fd76
ff22
002e
0093
fed1
005e
ff90
ffe9
0050
ff98
fe07
013e
ff0a
ffc1
0011
ff59
fdff
0177
ff43
00d1
0175
ff92
ff08
ff24
ff99
0140
0245
007b
fe78
005e
0051
00b9
ffa7
0084
0256
ff1a
fe91
fe26
fe9b
0042
fe30
0130
fe5b
005b
ff3a
fec5
01e6
ff00
ffab
ff65
fe29
fe90
0047
fd5c
010a
ff99
ff14
0032
ff65
0124
013d
ff7f
ff37
ffe7
01c9
004b
fd5d
00a1
00f8
0145
feed
014b
00b7
0026
0062
0005
ffe8
0056
000d
ff81
00ac
ff59
00aa
026b
ffa7
011d
0012
ff03
02f7
0083
028b
0013
0118
ff33
00bf
ffeb
00de
0117
ffd7
0010
ffd4
fe96
0036
0041
0126
ff70
fddf
00b1
0133
0069
ff0e
ff59
00c0
0018
0461
00e1
fdb4
004a
ff67
00e3
ff56
0117
ffe1
fed6
ff95
feb3
ff85
0110
fee1
ffd3
fe99
001c
00b8
fff4
fe18
ff7e
fed0
ff04
ff9c
fed8
fda6
0328
fe80
002c
ff95
00ad
013f
fffc
ff7f
fe86
0106
00c7
015a
fff0
fdd7
001e
ff02
ffbf
ff1f
0057
0035
fe5a
00d1
fc4a
fe85
ff06
feb6
fee7
0196
0043
fe67
001a
0007
ff86
ff05
010d
fe99
ff5e
009f
ff47
0022
005a
008e
ffd6
ff7a
003f
ffc2
ffd2
0131
ffe9
ffc1
fedd
ffb9
005a
febc
0016
ff6a
00c0
ff40
fef0
ffb2
ff18
fde3
0236
02a2
fed2
ffb0
fe60
fe09
fe36
fdd9
ff33
012d
ffd2
0369
00f0
ffe4
ff1a
ff22
ff19
fe46
ff5b
0185
0079
00cf
ffbd
01aa
fe68
fe48
01e0
ffd5
fdd0
ffb6
00fa
0210
0096
ffaa
ff18
ff0c
0063
01af
0136
038b
0075
ff56
ff61
0000
ffd7
0046
ffcd
fcad
ff46
0112
ff5e
0092
014f
00bf
005d
01bc
ffae
fe0b
ff8c
0017
ff7e
004a
0124
00de
0013
0100
fe09
ff08
ff3f
0066
ffb7
006d
fff7
ff26
ff62
00c8
ff7f
ff49
000a
01c5
ffdf
00ca
fdd3
ffff
ffa6
fe94
0054
04fb
011b
fdcb
0187
ff64
ff7b
fee6
fe9e
fd7d
fec8
00bd
ffbe
0097
0112
01a4
01fd
051a
fe49
0069
01df
ff01
fce3
00b7
00c0
faf6
006f
fff0
ff81
ffd8
00c1
ffbe
01b9
02ce
ff97
ff45
ff92
0070
ff1b
ffc2
fe1d
0017
006a
01f0
feeb
0124
ff2c
fed0
ff7c
00cb
ff3b
fc0b
0053
fed6
ff70
ff4c
0096
fd8d
fe97
fe4e
018f
0064
01ac
ff13
ff3c
fff6
ffb5
ff38
003c
ffbd
ffb5
ffa8
fe49
0079
ffa7
00c1
0142
011c
ff63
01c1
0084
0097
01ff
fff8
00c3
fef8
feb8
000b
0006
006f
ffba
fee0
029a
feb8
fde7
ffe0
005c
fb85
fe35
ff04
0198
ff58
0025
0158
fe91
0308
009d
0025
01e9
fcac
ffd9
fcb2
ff54
fd91
fe7d
ff30
fee3
002b
ffcb
ff49
016a
fcd5
ff30
0051
fed1
0102
0092
ff73
ffe0
044e
02d2
0043
0072
ff1a
0061
0188
ffbb
032e
ff5f
fd25
fe8c
ff35
fe3a
fe73
00c4
00a9
ff5e
00d2
fee2
00c1
00a9
0050
002a
fa74
fecd
00c8
00e5
0032
0018
0088
0049
ffb2
0023
ff34
ff5b
ff82
ffef
0128
00d2
0134
ff16
ff6e
014d
fef1
fe54
01e5
ff04
fda5
ff52
0030
ff53
0098
ff36
01f2
008e
fee8
00b4
fe05
fe33
00c3
ff85
ff9a
ffcd
fe35
00e1
fe95
01fd
fe05
0002
ff6d
fecd
fe29
ffe0
fed5
fdb6
021a
00ae
ff02
002e
feb2
011d
010a
fee8
fcba
ffff
ff2a
ff01
fd63
fecc
fefa
ff07
ff5f
fef9
ffa2
00b3
fff8
fff7
0000
ff96
fd89
ff6a
00fb
001c
03c9
008a
fff8
009f
ffb6
fda4
ff5f
0081
fedb
ff06
ff5f
ffc5
fe75
0185
fec3
0109
ff1d
fe35
fd11
003f
0371
fee5
fcc8
ff73
fe42
ff4d
00a3
014d
fc22
ffb0
fe55
000b
00f0
fff8
fd51
fcde
006f
0001
ff13
ffa8
fc7c
ff3e
00d7
0034
0053
ff82
fd32
fffc
015e
fef3
ffe7
fe93
0062
fef3
00ae
ffb5
0063
ff82
0204
fe8f
0283
0062
005a
ff26
06e5
ff92
01fa
0154
ffc6
01a3
ff9e
007c
fe54
fe95
feac
fdbb
ff48
00aa
02af
0054
fd0e
004f
00e7
001e
ff70
fe5d
0027
fe70
fd77
fe0f
ff20
0008
fe64
0058
002a
ff82
0035
fd92
00b0
006b
ffb5
00fa
0011
00aa
fed5
fc2f
fffa
ff61
feb6
0224
0045
02e7
ff62
00ae
01fe
0144
0008
ff46
fffe
ffca
fe8c
ff56
fd18
00f3
ff82
0024
ff7a
ff11
ff49
ff4e
0072
fe94
00f7
ff2e
ff90
0096
0000
006d
ffed
ff01
fd8b
003a
fed7
ff94
fc6e
fd82
0044
ffa7
0057
0196
0227
026a
fedf
fff5
ff22
ff7f
fff6
0053
fe8b
0096
01cc
ff87
00cf
000b
01ba
0129
ff63
0033
05b3
fdb8
ffee
ff4f
ffa7
0085
012d
018a
0350
01c1
009f
ff62
0047
0104
ff82
0006
0074
fe2d
fdec
00b2
0045
ff8b
ff0a
fecc
00ff
008a
ffb0
ffd8
ff25
009b
fcea
0167
030f
fefb
ffe0
00d5
ffc7
004d
ff0a
fe7d
ffb8
002f
ff93
0111
feed
ff76
fe74
00d1
fe0c
01be
00cb
ff72
ff4c
ff6a
002c
0140
fef5
ffdb
ff95
ff44
00d5
030e
fe63
0016
ff70
fe78
ff82
0001
feb1
fd97
ff09
fe67
ff98
0135
00ab
ff05
ffa6
0180
fe86
002c
fd87
00d1
ffd8
02e4
ff94
ff5b
ff55
0134
0013
fdfb
0116
01e3
fffc
0097
0029
ffd8
ff6a
fff9
0037
fe66
ff14
0156
00cb
ffd5
068d
00f5
ff57
00b4
ffa0
00cb
00ce
006c
fda4
fff2
003d
010f
0043
00f2
0084
0168
fce0
ff4d
fe1e
ff05
ff1e
01cb
000b
00b7
ff67
ffd0
fef3
ffa9
ffe0
ff55
ffa0
01b7
0157
fd99
0065
fefa
007f
0157
00b9
0051
0114
002f
ffb1
ffbb
0289
01a0
ff9b
ffad
fe6c
ff40
ffee
02f3
0032
ff39
ffc3
0164
02b5
ff4e
ffb3
0032
0010
00ec
ff55
0112
007b
fde8
007a
ffb3
ffc7
00a5
00a2
ff53
04e0
0063
00de
ff53
fe16
ffec
00f3
ff70
ffce
fe0d
fff2
fef7
ff6b
ff39
ff2d
013d
00a7
ffa3
fecc
0080
0015
01cd
ffa0
fe2d
0063
ff43
ff05
008d
ff6e
0100
0011
0052
0043
ff1b
000e
014a
fee3
fe2b
fe68
006f
fe5c
ff65
00a8
fff1
ffe8
ff23
ffe5
011d
fd46
ff6b
fe99
0087
ffbd
ff1f
00e9
ff56
ffd0
0105
00bc
febe
ffde
fd83
fecc
0000
019f
0012
021a
001d
ff35
ff53
fcc0
fe74
ff83
fecf
0000
00af
fe49
fe0b
fdfd
fee5
ff3d
ff53
fee2
ff2a
ff38
01a9
ff64
ff18
fe95
ff0f
ff05
fecd
ff01
ff3d
ff1e
00c6
00d5
008b
017b
009f
fe1a
0267
001a
0133
0181
fe89
0009
0020
0038
fffe
ffe5
001d
feb2
ffe4
ffdc
ff3f
fea7
ff92
ff7c
01c6
fe81
ff7b
ff3d
fe62
0115
fff2
ff1f
0037
03d6
fdc5
00c0
ff05
0064
ff39
ff9c
ff91
fe71
fea1
ff45
007d
ff7c
ff81
ff7b
0160
002e
0001
fe7d
001c
0106
fd66
ff03
fd7a
031d
ff79
fff4
0124
0001
fde9
0087
003f
ffdd
ff52
ff5c
0016
0085
ff0d
fe2c
ff37
ff9e
ffb7
01cc
0179
0090
fe07
fea8
00c2
0136
fff6
000e
0021
01fc
fd8c
0090
0028
0052
fe33
ffb1
01e3
003b
ffed
002e
fff6
fdac
026a
0028
fe4d
ff8e
0030
003d
00b7
0034
001b
0114
00b3
fee4
fe64
00a6
0030
fe2c
fe1d
00a1
ff80
fffa
fd7c
00f1
ff71
febd
0176
007f
00ac
ff5f
ffb6
fe42
01bc
fcea
ff5c
ffbe
0017
0012
0019
003d
ffc5
0054
0042
ffd8
ff13
0008
ff99
000a
fed1
0015
00ab
01aa
ff60
0031
ff81
fff1
fe92
fe77
ff53
fd51
0173
ff78
fff0
feb2
0045
ff74
fe03
ff76
00b3
012e
0021
fed7
fead
feb6
ff61
fff5
ff81
fe90
ffd9
ff46
0115
019b
ffc2
0082
ffce
ff7e
ffa1
0083
022f
fed8
ff65
003c
0016
fee0
fe3f
fedd
ff0c
ffdf
0070
0013
0130
ff92
ff7e
0051
00cf
00e1
fe5b
000e
ffd8
0054
ff6f
ff59
0099
0605
ff7e
ff79
ffa8
0106
ff28
fed0
00e5
001c
ff3b
00f7
ffaa
fecb
febb
fdf6
fb55
005b
fe06
ff84
0021
ff81
00f3
ffce
ffbb
fdb3
ff38
fea0
005f
00cf
fef8
fe84
ff5a
0074
fe58
ff79
fed5
fe4c
ff39
ff4f
0293
029e
ff80
ffdb
0014
fea6
0051
ff82
fe06
ff89
ff7d
0033
ff05
fdc5
0006
0041
0634
ff8c
0007
fd6e
ff14
ff9e
fff9
00d6
ff96
002e
0063
017e
ff8f
ffb3
fffb
ffb6
ff1b
fdf6
002f
ff5b
ff2d
ffe6
fbfa
feda
fd55
ff7e
ff01
ff1d
00f5
ff2b
00b9
ff31
fe3a
ff51
ffb4
00d4
01a2
ff5c
feb2
fee5
0047
ff18
014c
fcfe
fec6
fff5
ffdc
ff31
007c
ff1b
fecc
ff9e
fe13
0068
ff0f
fdc0
fe7d
fdf1
ff8a
008e
ff39
021b
fe45
ff54
0076
0022
ff58
00d5
0188
fff6
ffdf
0000
fef6
026a
007e
ffd0
fb76
feac
fe5f
00cb
004c
0099
0000
fed7
ffbf
01c3
00de
0052
00b2
fe93
0001
0114
ff3c
00b8
0011
fe7a
024c
fed4
00a4
019e
ff9f
0124
fea7
ffc4
0186
ff54
ff32
00e5
ffa2
fe24
0110
ff27
ffde
fcd6
00e6
00ab
ff9d
0017
ff54
013d
ffad
fe38
0258
00a2
0090
ff67
fd9b
00bc
0194
fede
ffbc
fe71
ff44
009c
0079
ffa4
ffd5
ff7d
ff0b
012c
ff54
ff7d
fe12
fd6f
ffb5
feeb
ffc2
fe57
007c
fdf8
0056
fe5d
ff14
ff7e
000f
0060
00a2
fef8
0258
fcd1
0041
00b9
008b
0096
00f0
001b
fe44
ff2b
0055
006a
fff0
0065
fee3
ff3b
ffff
ffc9
ff73
fedb
fecb
0211
ffdd
fe58
fdfc
fd89
ff90
006f
fff0
fffc
fefd
ff96
fff8
ff86
0079
000f
ff82
ffda
0012
ffbf
fff8
01ea
ff93
0558
feeb
0055
ffcf
fe72
0000
0018
ff51
ff3a
ffdc
01ab
0013
fe98
fece
0124
fee1
004d
ffc0
ffbd
ff66
ff73
fe5f
01d9
0271
fe0c
017c
027f
fe80
ff8b
ffd6
fe48
017e
fde9
ff8f
ff89
fffe
fe67
0101
fe86
ffdc
fe25
fecb
ffde
00c5
0058
00a8
ffb4
fb6b
003f
ffae
ff92
ff0d
fff6
005c
0142
0200
ff74
ff6c
0066
fdc3
ff72
001d
fe6f
fe45
02c3
fdfe
006e
ffb6
fef8
ff5e
00ba
ffc3
fdca
008d
00c0
ff92
005c
0014
0024
00b5
ff63
ff36
ff1b
ffcf
00ab
023a
0033
fdab
0049
fdf7
ff5a
ffab
ffce
feec
020b
0007
ff8b
020a
0031
00da
0111
0017
ff92
000c
fe2a
fedd
0094
00e3
ff2f
ff35
ffe7
ff21
fe84
00ae
00c8
0054
ffd0
fd7f
016d
0066
041c
feb8
ffe0
007f
00d6
0082
009b
fd6f
fdfa
fed5
ffa6
0141
febf
0067
0015
00e4
fe9a
fecc
ffb9
ff56
fed8
0092
fe79
0008
fada
ff26
01ef
ff9a
ff3f
fe90
ff68
fedc
0229
fe2e
0074
ff0e
0030
ff20
fe0b
0146
fedb
0003
ffdc
0082
01f3
002e
02d7
00fc
00a2
ffe0
006e
ff62
fe9f
ff13
ff2d
003c
fe90
ffd8
ffe7
0018
ffff
00db
014c
ff5c
ff02
00ae
017c
016c
00c8
007f
0020
0104
ffb4
fe6a
ff08
fcf0
00f9
00fe
017e
ffdc
021d
01f8
01bc
0182
ff97
fdf1
fe78
ff26
fff8
fbbf
ff53
ff8e
fd49
0038
0052
ff41
0097
fef3
010a
ffdc
fee6
ffd1
0141
0069
ff19
fe73
0008
0079
fea6
018e
0116
00dc
0076
0179
027e
01a4
fe69
ff35
fe58
0001
0106
feeb
fd67
ffa2
01a9
0064
ff77
fe64
002b
fef6
0034
fed4
0013
0105
ffdd
010f
fe94
0011
ff8d
feda
fdcf
006f
ff95
00eb
fd1b
feca
0245
003b
ff21
01a9
0379
02bd
ff86
ffbb
00fc
ff5c
ff3e
0001
01b9
fedf
fd8b
00b8
ffad
ffce
032e
021f
00c9
0098
fe2f
ff02
007d
0072
fe97
0074
0154
01e3
ffb1
04ef
ffcf
fe68
ff61
0168
003d
0079
fe5d
fec7
ff60
004e
fed9
00c6
0060
ff2a
037c
00a4
ff4d
00ad
006a
0017
fed9
0126
fb58
0273
008d
003a
004b
0054
017b
fde3
0072
0048
00cb
fff5
ff15
003a
0036
fed5
ff72
ff66
00b8
0076
feb7
0018
01bc
ff6a
0078
fe73
ff7c
0002
fe22
0272
ff50
fff8
00cf
ff49
ff66
0042
ffd1
fdbe
fe19
ff7b
002e
fff6
ffd8
fec5
ff92
0055
fff2
ff39
0014
fe90
009c
02ee
ff8c
0080
024c
00e0
ff0e
fea6
0136
00ad
00c8
ff5b
ffa0
ff01
ff6e
ff85
00d6
ff0a
fff7
fff7
0112
0022
0150
0078
0098
00bf
ff96
0075
ffc9
ff2b
003b
fe2c
ff7e
ffa1
009f
0091
ffb9
017b
fd89
fe80
fda6
ff58
fe54
028a
0028
ff84
0041
023e
ff69
ff97
0071
ff63
0102
004b
00b0
fe5b
00c7
ff66
00dc
ff58
0076
0013
0131
ffd8
0000
0011
0298
029f
ffd1
00a9
001f
ff05
fed0
031b
01c1
feda
00fc
0065
0245
01b4
fee8
fe89
005f
002b
ff91
00d7
0090
0033
0164
ff1b
0093
00e8
009d
ffbf
0294
0055
ffcf
ff66
fd93
ff75
019e
0139
ff1b
ff78
005e
ff8b
ff43
fe88
fe90
034d
00ab
ff31
ff36
007f
feb0
0150
ffd8
fcdc
0091
00c7
ff2e
ffda
ff44
01ba
0129
ffeb
ffc3
0179
fe7a
00fd
fdb5
fce8
fb2a
0075
00e3
fbff
010d
ffcb
0034
ff51
fefa
fe95
fef1
ffbc
ffc4
0071
00fb
fee2
007b
febe
ff45
0199
0045
ff4b
00f6
fe54
fd81
011b
043e
006a
017e
0018
0015
fdd7
fdb2
fbb2
005a
ff6b
0003
ffb8
ff89
fed4
fd38
fdc6
ff94
0188
fef6
febe
fede
017e
fe9e
001e
fe66
0204
fe93
fee9
fe96
feea
fff0
01c1
ff64
fffc
0113
0156
012f
03e4
ffa8
0112
00f6
01ad
ff8b
0032
0023
ff26
fea5
002b
ff30
fe01
ff7b
0000
fed4
ffc1
ff49
027a
ffa0
ffff
ff77
fe8e
000e
ffdc
0042
01bc
fbce
ff55
020e
fe85
003f
fd04
fd08
fe86
ffb3
fd8d
0006
006d
0054
0152
ffad
ffd1
ff3a
feab
fe06
00b5
0019
fe45
fe5b
fcaa
feb6
024e
ffa7
0049
ff9f
fd49
00b0
0024
ffa4
02d7
ffee
0033
0106
fe6f
fc4f
ff79
0106
028d
0161
0134
0019
ffd1
fd98
0139
ff1c
00c6
ff1e
01c5
01b6
fe59
012e
01ca
ff41
fe14
ff19
0053
ffba
fff1
0033
001c
ffcb
00ef
ff77
fe8a
fee0
ff6f
0024
013e
fff9
00ce
0110
014f
ff8a
fe9e
0072
ff38
0027
ffe3
007f
ff93
ff58
fdb1
010e
0003
ffa5
fffa
fff1
ffe2
00ec
0067
ff81
000a
fc37
fdad
00bd
00ff
0021
0019
ffb3
fdff
0141
0299
00a1
007e
ff81
ffcc
fee2
fd47
ffd8
ff08
0174
00f8
0113
fffa
0305
fea9
ffbf
fff0
fdab
01a5
ff02
0109
fe49
0069
fe01
000a
ffa3
0051
00ae
00e9
fe6a
fe68
fff8
feb9
