027a
fe4a
0a92
0b11
f15c
2495
07da
fef7
054e
01d3
0327
f8a8
ea99
f435
0617
078c
08b3
0b3d
f543
fed6
f7d6
e72e
0075
0429
0000
0000
0000
0000
0000
0000
0000
0000
0000
0000
0000
0000
0000
0000
0000
0000
0000
0000
0000
0000
0000
0000
0000
0000
0000
0000
0000
0000
0000
0000
0000
0000
0000
0000
0000
0000
0000
0000
0000
0000
0448
005c
07d3
0c96
e841
0d8d
2150
f237
0067
ff55
0358
f64c
e4b6
fb00
25bd
f175
0858
063f
f4c9
fe82
f00e
f56d
17bc
f7b0
0000
0000
0000
0000
0000
0000
0000
0000
0000
0000
0000
0000
0000
0000
0000
0000
0000
0000
0000
0000
0000
0000
0000
0000
0000
0000
0000
0000
0000
0000
0000
0000
0000
0000
0000
0000
0000
0000
0000
0000
057d
043b
02d6
04c4
f19c
f633
fcdf
ff2f
fd1a
04a7
05b0
fb23
ee70
fe05
faec
0528
0405
07fe
ff82
008f
fab9
0461
0082
07a8
0000
0000
0000
0000
0000
0000
0000
0000
0000
0000
0000
0000
0000
0000
0000
0000
0000
0000
0000
0000
0000
0000
0000
0000
0000
0000
0000
0000
0000
0000
0000
0000
0000
0000
0000
0000
0000
0000
0000
0000
fdba
fe7b
0a7c
0fb1
ff6b
16b7
f8a0
fe03
fd7d
ff19
029c
f1c7
004c
fe47
f96e
0088
0358
0476
f136
fe35
ff17
ecae
f709
fc4a
0000
0000
0000
0000
0000
0000
0000
0000
0000
0000
0000
0000
0000
0000
0000
0000
0000
0000
0000
0000
0000
0000
0000
0000
0000
0000
0000
0000
0000
0000
0000
0000
0000
0000
0000
0000
0000
0000
0000
0000
fb25
0f52
09d1
156a
016a
fce1
119f
f65b
f662
129f
0186
ed8b
06fc
0259
18ba
f61f
002a
0a28
ecbd
fbbe
0236
fe84
0cf0
f6be
0000
0000
0000
0000
0000
0000
0000
0000
0000
0000
0000
0000
0000
0000
0000
0000
0000
0000
0000
0000
0000
0000
0000
0000
0000
0000
0000
0000
0000
0000
0000
0000
0000
0000
0000
0000
0000
0000
0000
0000
fabd
00fb
056b
0ded
00e9
e892
ee8d
fd9c
f43e
0036
03db
f395
03c7
02d1
edd6
004b
fcf1
00a3
f6ed
fd59
0246
14af
f5ae
00c5
0000
0000
0000
0000
0000
0000
0000
0000
0000
0000
0000
0000
0000
0000
0000
0000
0000
0000
0000
0000
0000
0000
0000
0000
0000
0000
0000
0000
0000
0000
0000
0000
0000
0000
0000
0000
0000
0000
0000
0000
fe96
03d7
0316
07ba
0dd2
063a
f6f1
00f7
01bd
0295
0195
f553
10f4
014a
f3f2
ff5e
029f
0598
fa72
01e8
0898
f953
f9a9
fe49
0000
0000
0000
0000
0000
0000
0000
0000
0000
0000
0000
0000
0000
0000
0000
0000
0000
0000
0000
0000
0000
0000
0000
0000
0000
0000
0000
0000
0000
0000
0000
0000
0000
0000
0000
0000
0000
0000
0000
0000
f722
032c
0586
0f7e
1849
f1ec
f30e
04a7
f7cf
ffe7
01b5
f0e3
19d2
0300
f50e
076f
fa9c
fe86
f5c9
feb9
0b3c
06ed
f91e
026b
0000
0000
0000
0000
0000
0000
0000
0000
0000
0000
0000
0000
0000
0000
0000
0000
0000
0000
0000
0000
0000
0000
0000
0000
0000
0000
0000
0000
0000
0000
0000
0000
0000
0000
0000
0000
0000
0000
0000
0000
f778
03c7
034a
0bae
0b98
dcc7
f4e5
fe15
f7f1
01f3
0269
f5c8
0c38
0a79
f228
fd00
f951
03e6
f8f8
fdc6
05b2
2098
fb00
fdef
0000
0000
0000
0000
0000
0000
0000
0000
0000
0000
0000
0000
0000
0000
0000
0000
0000
0000
0000
0000
0000
0000
0000
0000
0000
0000
0000
0000
0000
0000
0000
0000
0000
0000
0000
0000
0000
0000
0000
0000
08c5
dbbb
1b5a
1f2a
fcf7
0438
dda6
fd61
07b5
da29
1fa1
27e9
09cd
07d4
e0aa
fc2c
fc50
ec24
1426
1a78
0b32
0339
ec2c
0dc5
0000
0000
0000
0000
0000
0000
0000
0000
0000
0000
0000
0000
0000
0000
0000
0000
0000
0000
0000
0000
0000
0000
0000
0000
0000
0000
0000
0000
0000
0000
0000
0000
0000
0000
0000
0000
0000
0000
0000
0000
0200
0652
2c9b
f4d8
f5c2
182a
d029
fb37
03ac
08e2
3205
f541
0797
201a
cdf8
f094
faf3
07d5
1f8a
fa6f
0526
0f94
e078
08e4
0000
0000
0000
0000
0000
0000
0000
0000
0000
0000
0000
0000
0000
0000
0000
0000
0000
0000
0000
0000
0000
0000
0000
0000
0000
0000
0000
0000
0000
0000
0000
0000
0000
0000
0000
0000
0000
0000
0000
0000
03b6
1f01
1813
eade
fd7a
1487
e39d
00dc
0456
1ef4
1917
e23a
0856
1b65
e3f5
ff44
fce2
0ccc
0f94
eacc
0680
0ca0
ec9c
0d7b
0000
0000
0000
0000
0000
0000
0000
0000
0000
0000
0000
0000
0000
0000
0000
0000
0000
0000
0000
0000
0000
0000
0000
0000
0000
0000
0000
0000
0000
0000
0000
0000
0000
0000
0000
0000
0000
0000
0000
0000
0041
cd30
016c
2eb9
eff4
f33f
fd21
00dd
00da
c6e4
026b
39c6
04f8
eeca
ffcb
f6cb
fec0
e18c
02e6
2448
0604
f87a
0188
1042
0000
0000
0000
0000
0000
0000
0000
0000
0000
0000
0000
0000
0000
0000
0000
0000
0000
0000
0000
0000
0000
0000
0000
0000
0000
0000
0000
0000
0000
0000
0000
0000
0000
0000
0000
0000
0000
0000
0000
0000
f221
005e
0174
e96e
e70d
d042
ff57
f9c0
f513
022e
00b8
e653
03e0
c095
00f4
e364
f52a
03e4
00e3
f170
0287
de49
012a
06ed
0000
0000
0000
0000
0000
0000
0000
0000
0000
0000
0000
0000
0000
0000
0000
0000
0000
0000
0000
0000
0000
0000
0000
0000
0000
0000
0000
0000
0000
0000
0000
0000
0000
0000
0000
0000
0000
0000
0000
0000
057c
2f43
fe8c
e2c1
f2b0
d94c
04e9
0584
04ca
323e
fd36
d701
0765
cd33
0549
fc76
ff23
17e8
fd4f
e635
0697
e51f
0403
11ba
0000
0000
0000
0000
0000
0000
0000
0000
0000
0000
0000
0000
0000
0000
0000
0000
0000
0000
0000
0000
0000
0000
0000
0000
0000
0000
0000
0000
0000
0000
0000
0000
0000
0000
0000
0000
0000
0000
0000
0000
0049
dd0c
e31a
235f
f8d6
070b
21b1
fe42
023e
ddb5
dff7
24d1
0619
090a
1dc6
f95e
0373
eccf
eba7
1aca
065d
0471
14c9
0e78
0000
0000
0000
0000
0000
0000
0000
0000
0000
0000
0000
0000
0000
0000
0000
0000
0000
0000
0000
0000
0000
0000
0000
0000
0000
0000
0000
0000
0000
0000
0000
0000
0000
0000
0000
0000
0000
0000
0000
0000
ead5
0654
d4f7
f90d
eabb
17cc
31d3
f781
f07d
08a2
cd74
f94d
0098
1ff7
31c4
e9c0
f4d2
08b7
e072
fd7b
0255
1180
1f15
0800
0000
0000
0000
0000
0000
0000
0000
0000
0000
0000
0000
0000
0000
0000
0000
0000
0000
0000
0000
0000
0000
0000
0000
0000
0000
0000
0000
0000
0000
0000
0000
0000
0000
0000
0000
0000
0000
0000
0000
0000
02f9
1f9d
e79b
ebb1
f55a
12a4
19d3
ff80
0441
1afc
e4c7
e9e7
04d9
1890
157c
fadb
0176
0dcd
ef33
ed82
07eb
0ce9
0d3e
0cea
0000
0000
0000
0000
0000
0000
0000
0000
0000
0000
0000
0000
0000
0000
0000
0000
0000
0000
0000
0000
0000
0000
0000
0000
0000
0000
0000
0000
0000
0000
0000
0000
0000
0000
0000
0000
0000
0000
0000
0000
