06a0
f499
fcee
026a
060f
fc5e
009d
faf7
00b2
fac8
f4d8
fcbb
09f4
fec3
012a
0035
0251
0370
0021
003b
fcf8
06f9
fe92
fc3b
0637
fb73
0115
006f
fd7d
0630
ff84
f4d3
01e9
fd9c
fe2c
fad1
ec6a
fc72
03e1
fe95
fa7b
fc0c
0070
ff9e
06ff
f695
01bf
0109
fcf0
00b1
05f2
fea6
0185
fe2d
f81d
ff32
023a
fe99
0257
0655
1167
02a5
0287
0245
052a
0311
fed3
04ab
09ca
02d8
ffb8
02bc
fc2c
008b
0109
056b
0f4d
00b8
f48e
0111
fda3
0069
f9d9
fe16
fc59
00e6
078e
0024
fe45
007f
fd2b
0172
0532
ff9c
f698
0199
fd15
fd40
02bd
fdf6
fe7e
f595
018c
06ce
ff8a
ff31
feb1
fb5d
07f2
01d4
0137
0316
fb8b
004d
0070
0122
1620
00c6
fd09
02b9
0838
f909
0294
0202
0313
03d7
0109
fe8c
0623
f226
f8e9
001e
fcb6
fcc0
02dc
f54a
ff2a
fd8f
f4df
ffe7
0395
0056
fe94
0114
03e1
0aab
ff68
ffdc
ff72
0947
01b1
fcdd
0919
f67a
fff7
00a1
fecb
12a4
02eb
eb99
0155
fd5e
f3d0
0a87
f5f1
feb9
0262
fddd
fbb0
ff50
fbb8
ff98
018a
fdca
02cf
ff7b
018e
012c
fea1
f807
fa3a
fdc8
ff06
feda
fd2b
fc33
fe17
fcc1
0d39
fe53
ff39
025e
0094
0660
fbf2
ff48
ff05
00c0
fe89
0224
01ee
0189
fc62
0461
08c3
0068
f63b
ffc9
fc0b
fe07
f088
0459
019c
00f4
0334
00dd
001a
0234
f035
f4a2
fef3
ffc8
f717
ff3e
ff50
ff53
0238
ff74
fcd0
e807
020b
0bd3
0021
0034
fff7
f8b3
02b0
0112
ff0c
031a
fa0c
0156
048a
ee66
1078
02a8
0024
0135
086c
ee01
fef4
0299
fd84
0b56
01b3
f697
0366
fa83
fff3
fcbf
fe71
00db
fded
fbe9
fe91
fe69
face
0090
00b6
fd7f
0173
00ce
0348
0391
0149
ff04
019c
04cb
0174
fcab
0636
f730
032a
ff0c
0078
067d
0204
f5ff
0119
ff7e
fd60
072f
f784
fd09
050e
febe
fce3
0066
fe71
003e
0046
008e
01cb
0074
ffe4
fff0
04b2
fe3c
ff9d
fec3
f4a8
fe33
00ac
010c
f87e
facb
0528
017f
ff95
0239
0148
06d5
fca2
f9dc
0035
ffcd
fef7
01e1
ff61
0026
fe34
01c3
fddf
ff3d
f2e6
fea3
fe2e
0031
ff82
02ca
ff79
fff6
00c1
014a
fed0
fe9e
fd33
fc07
fcea
fff9
f315
fff0
fd96
fd4d
ffd3
01b8
ff2f
f7a6
ff1c
05f4
fdc0
0071
01d4
0212
ff20
007e
0181
00cc
fb26
fff7
fb69
fd3a
0c93
00d1
fe65
014a
070f
f58e
fb46
0062
0039
06aa
ff49
fcd2
060a
f3f2
f843
0094
fa1b
fd8b
020f
f8ee
0347
fdb2
f7dd
0011
004b
0125
fe10
0139
fe72
0a6f
ffc4
ffe0
fed0
057d
fe7c
fd9e
00d9
f9a1
feed
fee7
019b
0831
ff19
ee7a
03b3
00e3
f59b
f477
f9bd
ff3e
fdca
fcae
0281
fa48
fc7e
0052
ff3d
fd7d
03a8
0193
fe0f
ff3a
04fd
fe7c
fea8
0077
f86e
fe17
0116
faf5
fc04
0368
ff89
fd70
03c3
0140
0281
02fc
fbf6
fcf7
fa80
02c7
0259
03b2
f596
fe12
ff83
ef34
fcc7
00b4
f4f0
00ad
fbd9
0178
f327
f40d
ffe2
00c4
fd45
fff0
fc26
ffe8
f6e8
0557
fbc7
0016
f24a
fff5
0283
fd1a
0194
fd76
fff3
f265
016f
0a22
fde6
008a
fc93
05a1
fc1c
01a2
fb56
0107
fc6d
fd98
02a0
1b66
0a8a
ff4d
fc8d
ff33
0981
f136
ff94
f9c6
fe1c
0724
007b
f89e
0618
f154
ffba
0392
f960
fec6
0514
f29d
00ff
fe9a
019d
f94f
fa03
00c1
fb21
00aa
0099
1599
fef2
0209
ffb8
0e1f
0159
fd3a
0525
f6dc
ff3a
027b
0081
1a6a
027f
e323
015b
0253
fac8
fbfe
033e
0000
fceb
ffa7
07fd
017c
fee0
fe60
fd1d
0730
fd94
0260
02e5
fed3
fc28
f5e8
faab
fea2
ffac
ff13
fc53
f6c0
f582
0360
f53b
f574
0146
fd8e
fcef
079a
f71e
085e
f80b
013f
0219
ff46
0346
011e
0461
08bf
ebed
ffb7
f789
004a
0147
017b
f6a6
0a82
00dc
010f
fed6
0021
fff5
0065
ef87
f736
f34c
ffa8
f848
0026
05cb
fcfb
fe02
ff0b
feea
df1f
020c
0f2c
0013
0036
f55e
fc87
fa19
00a7
fbf1
0043
ff4f
fe86
0cd7
f34c
f9c0
0018
fe0a
00a9
094f
e35a
f8de
05c9
fc70
0c45
01d2
f0a7
02bc
fb3b
0760
ffcf
fcd6
0006
0027
fb88
0098
ffaf
0599
0022
fb05
fe80
fec2
fe19
00f0
0fa3
fe90
002a
010b
0eb2
0112
fb7c
03d8
fb37
00c0
018e
011e
106d
0185
ef25
0229
0158
089e
0de6
01da
00eb
ff5e
fe0e
0742
0324
05ac
fec8
0071
0660
f9ce
019d
0281
ff51
fb2d
f938
01ed
ff1e
f5df
fe19
ff76
fe95
00b0
fa53
f90d
fecd
0294
00ed
fe7f
0661
0889
0020
fbd6
00dc
01ef
fe44
0128
00b9
f378
fd86
fa8b
0085
f44c
001b
03a6
0188
19e5
0623
fd5f
0061
fe50
0163
ff0d
01a2
06e1
ebd4
fc99
005e
f48e
0012
0332
f7fa
fe46
fddc
0136
eda4
fed7
0931
ff01
fffa
02a9
faa5
fc8a
0080
fbaf
0052
feef
fed2
f0fa
ee2e
f7dd
ff24
f7ec
ffd9
09e2
ee0a
00a2
fcbc
0229
04df
ff4d
fa80
029d
fb4d
00f6
fc72
0146
0194
fdd8
fd91
01be
ff59
fdc8
0267
f81e
0113
fed4
ff77
fc97
0395
ffd9
fc6a
003a
fb70
fdf4
fe40
f952
f9c9
0149
fb68
01c7
f379
fdf9
f7f8
03c8
fff2
f8e5
f3a3
0449
010b
00fe
fe9c
01a0
ffc3
00cd
023c
fd16
ffaa
f9d0
0205
fe20
fec6
ff58
ff16
fe65
fe6a
f5b8
fd67
ff83
fe7b
fc14
fae5
fb8d
020f
004e
027f
0131
ffbf
febb
f5ed
fe77
fef4
ff93
033f
f862
feb8
fa8a
fac3
fcb3
ffc7
f505
ff92
ff2e
00fe
023f
fce2
ff49
fea0
feed
fef8
fb93
00d7
ff64
fba9
fd72
005c
f418
ffdc
0449
fd36
00b9
03cf
0156
0402
fece
033b
fd18
ff0d
fef8
f4b6
fe99
017e
fed3
00a2
fe36
ff91
0033
0a35
f8ef
fe9e
fe85
0167
0000
f80e
ff93
fbe4
ff30
00bb
fe86
feeb
009c
fbd6
064c
004d
004a
018d
005e
fad6
ffaa
feed
04b4
fefd
f6c1
0129
fcdc
fea2
feb9
0d5c
fdfb
ff8f
0079
04de
005a
fc52
fbd6
f9da
0080
fe60
ffe3
025e
004a
ee50
ff90
0059
03fa
f96a
0860
fe01
febd
0020
057b
0244
05bc
0174
fdb5
00db
0063
0203
0275
ffb4
fcba
f8e1
fb00
ff0d
ffe8
0034
f989
fbc0
038f
04b1
fa69
fc11
fda8
007e
fb5c
0393
0223
ff41
ffc5
ff5f
ff0d
029c
047c
0143
fb3f
f3f0
f10d
0053
f9d5
0083
00e6
0105
082e
f338
fdbe
00c8
fe2d
0223
02e3
ff57
1026
0fbe
f812
ffc3
f889
00fb
07f9
fbd8
fe2c
024c
0128
f82f
ff99
0836
0347
00ef
0098
faa7
fe85
015d
fd16
01f9
022f
fe57
fb7d
0f44
f40d
ffb9
0164
ff2e
fea3
f168
fd87
00c1
ffa0
006f
ff0b
fc94
fdbe
0108
0317
0387
031e
002d
fc90
0180
fe5b
fe7f
00fe
fd52
f7b3
fec8
0031
fdcf
feaf
0acd
fd6e
0125
00d6
0cb2
0021
f9c4
fb5e
fed9
fdad
01ce
ffec
030d
ff3a
f755
01a1
012e
01f7
0623
083a
0146
00cb
ff4b
05f8
0025
fe9e
00f5
0102
0271
02ef
fed6
ffcb
fef5
f1ff
fe61
0141
ff09
f4e5
ff7e
fbf3
0159
10d8
01d6
fce2
000e
fec0
0237
fc82
0385
075b
0605
0128
0222
0059
00ec
ff57
001e
0303
feca
009d
ff0e
f69d
ff55
ffdd
0099
04c5
06fc
fdbe
fe24
fd14
ff2f
ff17
0048
05e0
fb58
0258
fe98
f57a
fecf
0550
f4eb
ffaa
0082
034d
fa6f
fd4f
03de
fd9c
0043
03f8
0397
fdf3
fff1
02d5
fee1
fff7
ff09
fb8c
fa78
f30c
fed6
00a3
001b
0082
f7d9
067b
ff2f
0382
fd26
fcfe
0341
060f
0552
fef8
fbe6
0016
fee7
0603
fc63
0763
fe8f
0673
06d2
fbf0
03c5
f92a
009d
002f
eb5e
fe62
ff28
fea7
009c
01d2
00db
ff90
f717
fe65
02a5
fe3b
0058
fe6a
ffbf
018d
fd78
0362
0198
0086
0762
ff58
003f
03ef
0c0f
ff28
fc75
fc99
0085
00a4
0098
eed6
ffb2
f984
fcf7
ff84
fdc0
fb28
f72d
fee5
030d
fbe5
f4f9
fe09
fec4
0912
ff6f
0548
f439
fca3
fb85
ff2f
0288
023c
ff18
ff73
017f
ff87
0078
035a
08b7
0289
fbab
1a5a
0052
00af
fe66
0230
0a41
05df
0088
fe71
ff2f
fd35
fb30
04f2
f5c7
f210
fcd2
ff04
0c1a
0029
0276
ffe3
0231
fc7c
fffd
01c4
01a3
f78d
fd29
fd9a
fd28
0263
f8b9
fe5c
011f
0116
0274
0447
f25c
ffff
fcb2
0032
0701
fdf0
0270
fd7f
003f
ff0b
008a
037d
ffcb
028e
fdcd
0731
038f
fe53
01ef
0915
fb7e
02a3
0623
fcf7
fcf0
021f
0694
008f
f119
ffaf
fd59
ff8e
ff8f
ff7b
fe0c
ffc1
fcfd
0041
0391
00b0
00bf
002f
fd40
fb10
fbe5
0748
0334
0427
f142
fbaf
f80e
02dc
021d
fd6e
fc06
ff75
0012
ffd7
039a
f87d
fd1c
f93b
0209
fdd4
0130
fc88
fe98
fd04
ff3f
fdfc
f5f1
fddb
0527
0096
0e54
05d4
f053
045f
f7fd
030f
fab1
ffe8
ff27
0232
ff8d
f17e
fe5e
0222
e9a7
00d7
0036
1b08
fef1
0d36
fc34
1093
ebcc
00d6
fe9d
fe35
008a
0966
0281
0c30
0509
eca9
0a41
ff42
0918
ffa7
030a
00c1
ff97
ff8e
ff68
01a9
ff82
f9e1
fd74
08f7
001f
01ce
03a1
fca6
00e3
ebe3
06b4
01d4
11fc
02ad
0c2e
0082
08a1
024e
0485
0078
fbe9
fe8f
0070
ffde
007e
01e2
fe3d
04b8
ffdd
fa5a
0e27
03da
fc1a
fb19
0695
fc9e
fd3b
025e
0d77
ffac
fc80
0161
fcf6
ff05
fe2f
011e
ff0a
fe0c
0394
012e
0213
ffb1
fe3f
0379
fe00
0285
fff1
fd34
fdfe
02dc
0574
fb70
f994
017b
fad3
ffaf
fcc5
0068
00b3
002f
0241
f15f
ffb2
fde5
fe1c
0083
03b8
01a6
fd8f
fd5f
ffd3
05b0
f860
ff2f
fd2a
f577
0dbe
0352
fa11
0269
fce8
057a
01a1
fa5b
0ebe
fc6a
01b1
fbe3
fe33
0d1d
fd55
027f
0817
0ca6
00d3
fdf5
ff66
0b71
0263
fd47
063d
025b
02ff
03d5
0081
037f
fda7
fcfa
0aec
fe70
02f8
ff6c
03b9
00b6
0025
0483
febe
fbfc
00d8
096d
fdcb
02e4
fc6d
036c
093f
fe87
002a
01a9
051a
0300
f736
04c3
066d
fe4e
014b
017a
03c5
0064
027a
01b9
0223
0080
0168
05be
fb60
007e
01d9
0563
fc53
fcc0
fd9b
fc11
0883
fc60
ffb2
f7dc
f97b
0026
ec17
0032
004f
ff4e
0130
017b
0237
00e8
f946
01f3
0393
ff22
ffd9
fd88
01c9
fbcf
fefa
018d
0486
fe95
06da
f901
fe90
fccb
087b
feb4
fc49
fccf
ffb6
00dd
fc87
fe69
00b2
f3a5
fdb7
f9fb
f34c
fc4b
fdcf
0410
02d5
0149
f434
fff6
0561
0641
f8f4
fece
f349
072c
fda8
0142
082d
0128
ff24
f9cd
00bc
f01f
062f
0600
024b
fa04
fd33
fc1d
00e8
1944
05fb
0009
0979
022c
0018
ff01
ff49
05e9
fce1
058b
00a6
e5db
fb09
fec4
0727
fed5
01e7
ffd9
0166
fb63
feb0
ff42
008f
0b48
ff13
fec2
ff5e
02b7
fe43
fe09
0108
eb66
0040
fe3d
f4cf
027d
f9b6
ff60
082c
0221
0222
fe6b
0844
fd98
017c
0087
ffa3
ff1a
fc91
0439
faf6
fe2b
fb6f
fc20
fa30
fa3e
0601
fcaf
08c6
01d0
fde1
0026
ede5
0072
0001
ffe6
ff3d
fd73
feea
0168
fc35
ff63
0581
0100
0047
ff68
ffd3
f780
fec2
f6fc
ff41
fd93
f7e6
fc21
fd20
feac
fe83
031b
06a0
0419
0144
fed7
fdb0
0315
ff98
faec
ff61
ffe1
0039
f8ea
f95d
026b
fcd3
0670
f15a
01a1
f739
0128
f9bb
fed4
f093
02ab
f8ac
fffc
f251
fe57
faba
0037
0018
0f73
ff21
0329
fbfe
fac2
fce8
fc27
010e
e39f
0635
ff64
f2bb
fc2e
01da
fd09
00ce
e6bc
0271
0da8
0fe8
ddc2
f368
ffc3
05e6
fe3f
0104
ff9c
fcb2
fe41
fe6b
023c
0029
058a
fb29
0984
f4fc
02c2
fdee
01d6
ff3e
17ac
fe9b
0c77
07bf
fe4d
fadf
0122
09c7
0020
025d
fed7
f13f
fe2b
fd5a
fdc7
01fc
fb05
fd56
030d
fe2d
fcef
04fa
fd9c
fc06
0190
082e
fbca
f802
0335
06f7
ffea
f837
ffc0
fee1
ffc6
ffa9
ff1b
005c
fff3
016c
fe79
03a8
0009
fe02
0451
01f7
fdc0
fe49
f9d2
001d
fc57
f29f
fe6d
f613
ff2f
f35d
01d4
05d4
056a
ff2a
fe98
0204
0215
ff2c
02c0
ffae
038d
0082
00a0
fb92
03d0
019d
fd4f
fa3e
037e
fe9b
f49e
07ed
ff3b
fbff
f7f9
fd5a
00e6
05a2
f8a8
00ad
03a6
016e
054f
fe91
0b2e
06c5
009e
02e5
fbf2
ff58
f589
05c5
faff
fd7d
003d
0327
fde3
013d
ef0c
014c
0126
f832
fd8a
0215
ff68
01c5
ff29
02d8
ffb5
0208
0250
fe47
fd5f
0061
f4ee
005c
031f
044c
03e7
0821
fb78
01c2
07ff
00df
0a95
0000
0309
12ed
0000
03d8
fbe1
040a
fdc7
06df
03af
0157
fd76
0174
fc30
fb54
00c7
0356
04b5
fb77
fc4f
fe2f
0071
069c
fe99
fd57
fa2a
f7f2
ffdd
f565
0101
ff90
ff2d
ff9a
0273
00c1
ff9b
fb94
013b
012a
ffe6
fede
fde7
ffeb
fd2c
fec7
f5c8
0346
fe67
f9bc
f968
0174
ff5e
ff69
0412
0021
ff61
009a
0109
fdc6
0591
fea4
febe
0066
fcc6
fd04
fb5b
fc02
fe5e
03f8
038a
f6bf
ff9a
09af
0617
f624
fce6
fcf5
fcd6
fe0b
0141
ff44
0635
fb9f
fee6
001f
0811
febf
0070
f4d9
033f
f88b
f038
00a9
f31e
0148
0106
f249
02dd
fa11
fe40
006f
f194
ff4b
01c2
05d9
f213
f99b
00de
0027
ffab
00dc
01a7
fd31
fc6a
0070
f5e1
00da
f861
fc07
fd2c
ff54
02f9
fc2d
0143
0013
108a
fd0c
fdcf
0443
0733
f8ee
ff28
fc43
019e
fefa
01d7
010b
fde3
ff81
fd13
02ff
fe80
fd34
feee
011f
ff1a
fc83
fcdb
fd31
027c
0521
fbb9
0528
035e
f9c7
ffdf
f4c5
ffc0
ff7b
ff38
ffea
fe4f
fd49
0059
fc19
ffcd
02e7
0108
0318
feff
fe8f
fd48
0066
f4a6
01cb
faf4
033b
fc04
03f6
fee3
f716
ff4b
03de
0207
ff11
007c
fca1
067f
fe7e
009d
01f6
fd95
0166
fa89
f920
fd2b
0231
f933
f532
fc8e
f987
ffde
f448
fd6c
fd1b
fc32
fe2f
fc97
0463
ff86
f92d
fc9f
ff75
f208
02d6
0037
155c
00d8
f574
e9c8
014a
0af1
032d
fd0c
1124
05f9
fe72
ff98
0003
ff2f
00ea
027d
e7e7
ebe0
f330
00e0
00f9
028c
00e0
0177
fdad
ff3f
0123
f745
0137
fce4
fc76
0196
f8f7
ffaf
ffb8
007f
ff7b
faec
fcac
0678
e59a
0216
f95f
00b9
fe4b
fe33
0001
ff81
fda9
ff05
fdaa
fc45
04e0
00de
fcab
0193
fc59
ffad
02b1
fc9b
fff2
fc6a
0646
fb5f
fe01
051b
ffe8
ffe5
f975
ffd7
ff67
ff2d
0104
fe8e
fe3a
ffd4
fe8a
00a4
024a
0072
0094
0255
0164
fc20
ff56
0833
0107
fb93
f0b2
0029
f9f2
ff6e
f33f
fe17
fff4
024d
ffd3
0287
ff0c
046f
fe06
fa1f
0087
fff2
fa76
fd61
ff4d
00b2
0505
fe36
fb64
fd97
0100
f68d
fc0c
fe64
0549
02d5
ff34
fd95
ff15
fb58
fc84
01e3
0101
fa6d
fbeb
fe1b
f1ee
0394
f928
f365
fdd8
002a
fe62
feb8
f56d
0282
fb0c
019d
0072
0631
0146
03d5
0911
fe4f
ff80
0074
008f
03e6
00cc
011f
011d
022d
0055
f8a6
ff7d
07df
fc77
fed0
fcdf
0374
02a3
fc10
0058
faaf
00a4
03b9
127e
0205
0241
00bc
fc19
054f
ffcf
fe48
01a4
0500
0046
0678
fbc9
05ed
04bb
08a6
fd55
fd39
03f2
fc6b
0135
f6e3
f868
ffa5
00b2
febd
ff44
ff76
ff89
ff6d
01c2
fcb1
0305
03f7
0014
0073
014e
0029
fe23
fdbb
03a6
f9be
fed0
0909
00ca
fd84
fc5a
0229
07ec
ffff
fd2f
0096
0363
fb86
0002
0a46
ff15
0016
00db
f995
01f0
fc6e
0372
fc43
fbdf
00ad
fddd
01e6
0067
fb8f
0af6
0087
f30f
02eb
06a5
04ef
fcd1
00ad
06cf
04e5
fa75
00e5
0564
0299
0833
fa3d
fe2a
f93f
fefa
0312
00a7
04e5
f9aa
fce6
faca
0178
056e
ff6f
0166
fc15
04d5
f657
03d8
01a2
f9ea
0066
0ea3
01d5
014b
fe45
fabd
01b5
0299
0641
ffe8
fc77
ed1c
04af
0114
ff51
0047
007b
0249
ef53
f5ea
00aa
0622
f7c7
f609
0026
ff30
02cb
02cb
f972
fd0c
00b5
ffce
f9d8
00c8
082c
fc77
00c1
040d
0d49
f76b
fbbb
fea8
fdfe
01a2
f9c2
f78a
fcd7
0108
ffb1
fc80
ff7c
fe68
0197
0230
fc76
032a
04f8
012d
00b0
0110
01c8
ff3d
fbea
03ec
f74b
ff95
0c80
ff73
fd79
f84b
0436
0635
fffb
fc65
0097
0024
0030
fe83
07dd
ff1a
0109
fcc4
f0d8
fe83
fad6
fda1
fe76
fd51
0052
ffdb
0247
fd20
fbc4
08ad
0460
eefb
0198
051a
0a15
fc6c
0015
05d3
096f
f6f8
019d
0254
006f
04fa
f672
ff50
ff9b
fb00
fff2
04ea
0db6
f7cf
fd76
e951
0415
0222
01a9
f907
fe64
0584
f619
0120
00fd
f9e1
0080
fc4b
0153
0032
fc58
fab0
0127
0372
05fb
ffde
fee9
ee9f
0183
f92c
0104
ff2e
ffb6
012a
f132
ef10
ff07
01a4
fe35
f2d1
ff6e
0038
03d6
02fa
fae8
fd75
fece
fec1
f663
ff17
07d5
fead
fd74
04e9
0157
f74a
ffe4
fa2c
fd6c
0418
fb8a
f8f7
fec3
ffb8
feef
fea5
009d
0066
01d5
02d9
fe7a
03c1
02ab
01e5
015e
ff22
0025
fff7
fdb5
0487
fb61
0116
0894
00f0
fef8
fd00
fd89
0421
ffa7
0196
0145
00ae
ff02
0294
ff36
00dc
00de
0007
f9dd
0081
fe33
fe2c
fffb
0226
ff58
ffc9
0173
01c1
fd14
0906
0260
f0a9
0403
f683
06f1
ff2a
026e
076a
0516
fa65
01b1
f90a
fede
0328
fe31
04a3
0085
00fe
035f
fa1a
0748
0463
fa82
f10d
fec8
0181
ffcf
0037
0267
0211
fbd6
fe9d
ff51
03ae
016f
efb8
fff0
0321
fe27
fb39
fed7
069d
01af
0188
ff08
0782
fb38
0069
fbbe
0195
001a
07fe
f0f3
ff7d
fa78
04cd
fe70
fd4f
fe76
0240
0148
fdb8
fdb5
fea6
fec6
0364
fc91
fd3c
fdda
fcec
0c44
fe13
0bf1
0a40
fb20
0546
fea3
fd99
094c
fe48
fd12
fec8
fff0
0024
fdd2
ff42
fb0e
0048
fb77
fe91
04b1
ffbf
fdca
012e
fddf
fedc
fc0e
ff42
f5f1
feff
e9ca
fe51
e7d9
fe84
031f
ff4c
0282
fcb8
ffc2
00b1
0f79
fe8b
084e
011f
0209
0095
08ad
fe35
0235
fe26
ff73
fa6c
0068
fd20
02cf
fd6c
0296
0184
0936
04f8
018e
07e7
f9cf
fea2
030c
fe90
061f
096b
fefe
075d
fe3c
01a2
0956
fea1
fe71
023f
fbab
051f
e6d6
f54d
0342
ed8f
02d6
0557
fe37
f8e5
0135
0072
fe35
00ff
fea9
01c4
0041
0fce
fc64
fe76
00da
ff20
00ea
fee8
0a01
0027
faf3
e67a
0882
fd32
fd12
033f
016f
f992
0f6a
f41b
1d0d
0179
fce8
f1e9
fdf3
f678
fcae
0070
063b
fea7
ff52
00b6
f5a1
039e
fd1e
fe48
fd0e
fe89
0fc2
0488
f9ce
fe4e
fe77
fc1a
08fb
ffba
f9cb
00b0
0098
fd83
fd1d
fe3a
fe3a
ff6c
faff
fdac
05d9
0042
fcd8
0040
fec6
ff07
fa79
ff3c
f1e6
ff28
ef25
fab3
eff0
fd6b
fd52
fc0f
0345
fbb2
00bc
00b2
00a6
0010
01d1
fd41
01f2
fec0
0472
00ab
ffd5
f894
fd58
f66b
fe6c
f9f5
068b
fac8
fd72
ff20
0e5f
00db
ffcb
04d6
f8ba
fea4
fff4
fdf7
0d1c
0354
00a9
0330
fd5e
00a5
014c
fcc8
0140
fc4e
fdb8
055d
e40d
f344
079d
d885
04ee
026a
fd53
ec79
ffe4
0135
0c35
fbca
010a
ec79
fcf8
f69e
fc35
fdc8
fe90
fefa
ffe6
ff17
0b3e
ff4c
fdde
e84c
0245
f520
01a6
f821
fff6
f553
1b13
f019
15cc
fdf4
0554
d79b
fbea
f4fd
fddd
00f8
032c
fead
fe4e
fe55
f19d
ffec
ff5b
00b9
fe8b
ff2c
fe61
007d
ff32
fa54
ff30
00ad
fc56
011a
feb7
ff40
ff0f
0011
fe4f
006a
0076
ffff
fed9
ff4b
0378
0085
fe32
ff59
fec4
008a
feec
0100
f784
0057
e8bd
01bd
0644
fb61
faf7
0467
027b
003a
ffd5
ffff
fdc7
0158
f5ca
fea6
01bd
0025
057c
0025
fde3
028a
ff2b
03d0
0035
fced
029c
0339
fccd
ff09
07f4
fd85
01d8
f6af
fa10
0135
ff86
fd95
0522
019e
002b
f9e5
009f
ff1e
fde1
016e
0880
0210
fe65
ff8b
eb67
002e
fca7
ed48
fbdd
fe2b
feb4
f763
fe9f
019f
0164
ffaf
fadd
fa34
00e8
f3aa
fb9d
0185
fe38
ffc7
fc23
01b5
0522
0148
ff8a
0992
f7eb
ff34
fb5f
fdf7
006d
fb7f
1213
fccf
fb31
0396
099b
f2de
fdb1
f9b2
fbba
fe31
fd98
00b8
fd96
00ea
f7db
000f
faf8
01b9
03c2
fad5
0000
045e
00de
05fd
045e
fac1
0755
052d
00a2
0289
ff5d
ff92
01a5
005b
feba
ff35
0179
fc92
0194
ffee
0120
02a6
0000
00f7
00cc
fc10
fc15
0087
06f7
0043
fe5b
fc4b
fffa
fb19
ff3f
fecc
ff38
fe54
fe1f
001f
fd6d
00a7
ffdb
01c8
ff73
fdd3
fd0d
fe30
ff02
05e2
00b9
fddc
face
ff5f
0917
f7f9
03d6
0d6c
ffa7
06e1
fe68
0251
fd14
fc4a
fcd0
03bf
0088
0613
ff07
025b
04c6
03c2
fe27
03fa
fe08
0499
012f
f90c
05bc
0003
01cf
01f3
ff42
01c8
0069
047f
ff3a
ff96
fdcf
083e
ff42
0c8d
020e
fd97
fedb
0372
ff8c
fa3a
0518
ffa0
fb7c
eb73
077d
fd07
ff22
0020
0236
0022
f40e
f5cc
fe2d
0a4a
046c
04de
007c
fc7e
00e6
00e3
0177
0373
fc55
fe86
fe14
0484
fb8a
0400
02ac
faad
fe76
0443
fee3
fef5
03f9
fa03
07d1
0837
00c1
ff08
0025
fe2a
01d9
000f
fd5e
ff53
0140
fd02
01dd
0064
00ad
016a
fd99
0255
01c1
fda6
f86b
005c
09ee
fedb
02dc
f429
0057
ffbc
0014
01c6
fec1
0155
fd17
00c5
f711
028d
f8c5
ffab
f5e0
ff1c
fbc5
01db
fc3c
f3c4
fc00
00dc
f963
fe80
02b7
f4b5
0543
0df0
0194
0336
ffea
02e1
0247
f65e
fd15
0648
0232
0279
027c
018f
fbee
039b
047d
0679
ffbb
ff65
066a
f179
08be
fb83
fdbc
0441
fb0f
fb2e
fe4b
03bd
0a58
02cb
fb0b
0731
fc83
f5cf
02e3
fcd4
03d7
02d1
fd1c
fb05
0683
feb8
0349
ec67
0162
f9d4
0162
0309
ff9a
00e3
f3a4
f025
fb14
09f7
0a7a
fc35
012c
fd4c
0085
004f
0047
0321
fc3a
ff9c
fb58
00ce
fcdf
0430
0081
fe54
f459
0456
0493
fb69
04d9
ff71
fd15
0610
05cb
fa3b
ffdf
0072
022d
017e
ff09
fff0
03cb
fda4
0085
0068
01ad
009d
fd19
03a3
064a
ff13
fb92
0165
05fb
04af
034f
f8e3
fe11
04b7
0054
feb3
003c
0217
fc70
019c
fb4f
0225
fd9c
0076
ff3b
fd62
ffa3
01ca
fedb
fe8f
00c1
0243
fa70
0437
fce1
f5fc
fbc3
0b75
01ee
f501
feb9
0383
03f4
f965
f766
0339
0236
f858
0025
0474
fb81
ff1a
0089
ff6c
03ad
f9c6
03de
0630
f72c
ff0e
fcb5
0232
fffe
023b
ffc8
023d
fdc7
042e
fb37
0080
fffd
f1c6
013f
ff91
fea1
0386
f93c
fd98
0244
0033
fd83
07f7
f97b
01a4
fb56
ff7e
001a
0575
f6cf
00b1
f75f
086c
04ff
fbcd
0147
0408
fff1
fd5c
fbdf
05c0
fb29
fed3
fdb3
ffa8
fdd1
fb62
fb26
fe22
fcad
fcc8
041b
0116
ff1d
01c5
089f
03cd
0190
01ff
fc89
ff29
00bc
02e3
0153
0028
ffd1
02a7
00bf
fb33
ffc5
02bf
0365
015f
012c
ffb0
ff91
f9cd
fef9
fd65
0469
021a
ff53
024b
003c
0156
fed4
01ba
00a2
004e
fc2d
01e3
fdcc
04ad
fded
fead
00ba
0058
fc22
0201
fd50
0100
01bf
fd0f
f56f
fe56
f871
ff9c
030a
ffa4
fe24
f999
f78b
fd96
fb25
fb5f
0051
fc39
0349
fab8
ff29
f522
fa64
fdc6
f920
015a
fa5e
fd2b
0357
f92d
045e
040c
0472
fe5d
00fe
023f
ff45
059a
f9d6
0057
f8bc
015b
0336
0209
0178
fe43
01b1
01c9
ffbc
0501
01f4
0390
0402
00ca
0490
01b1
039e
0001
0578
03e2
0637
0429
00de
0297
042c
0073
0079
fee1
0239
fd82
fd99
0141
fe06
fe67
0125
040b
fe2f
00da
0497
fc93
fe70
fffd
0132
fb43
03ae
fb3d
fd64
0173
0066
000b
002f
ff80
00d3
008d
ff22
0186
fee5
fde4
ff89
fe5d
00be
ffd7
007f
fe8a
ff68
fd64
09e7
f6e8
0544
f27a
00a7
fcaf
ff3a
fe9c
001c
ff3e
ff9a
ff3b
0592
0152
0105
06eb
f689
fd5e
f9e0
feb0
fb18
fd6c
fb6f
039d
fb35
0882
f9b9
03f5
00e3
fe10
fcc3
ffe0
0228
02c7
fdc1
fe13
ffa9
fc34
fce3
ffd4
e902
ed66
ebdb
f1b5
e776
fbf7
fc13
ff13
118c
fad5
05e8
f281
fd94
fed4
03a8
ff48
065b
ff62
fed6
0718
fe34
fc8c
eaa1
00f8
ff87
ffb7
008a
0112
fed8
0261
fe98
0317
f8ff
0127
feec
0b3e
036e
ffcc
fc88
ff9e
e720
06ee
f5c6
0a75
055d
02fc
fd4a
ffc1
03e5
ff9c
ff13
fe32
ff81
0115
fd78
001f
015f
058a
01d5
0378
00da
fe6e
0471
0029
fe5d
f580
fc16
fa11
fee1
012c
0403
037f
011b
fc11
029c
ff7a
ff48
017e
feb8
ffc6
028c
fb66
005e
ff3c
004b
ffc5
fefd
ff42
f5c3
fe61
fd4f
fdf3
fb02
fecf
fc96
fe91
00ae
0267
ffbb
00db
0052
021f
01e0
047f
0524
fec9
f9ef
0277
00c7
03a6
f685
015d
0629
0913
010a
0275
0241
ffb2
01f3
ff51
003e
04bd
01fa
04f7
02d9
fcab
01ed
033d
0b24
fbb4
fa08
fe7a
0d95
00c5
f83f
0243
f341
079d
01fa
ffb1
fbcd
02ef
05c3
fe4e
f536
ffa8
0416
f8d9
f8da
ff78
084b
ff8b
fd9c
fde8
ffaf
01ee
fd80
0256
0066
ff9c
fed7
03a2
020f
0065
003e
030c
003d
0063
0dbc
0674
fd4e
f93c
feb9
03cf
fd5b
ff8d
ff90
0118
0150
0137
0056
00f2
ff73
ff4e
fe82
f849
ffa3
0362
fbc9
0353
0330
02bd
043f
043b
05ff
0007
03d3
fb23
fc0c
ff76
ff2e
046c
fe13
ff52
ffca
0072
01f6
fb5b
0010
0450
0107
01f2
ffe6
016a
00e7
fc16
0482
febe
02e0
0959
0075
fc71
004d
fe2c
fd93
fd90
fe14
ff91
fbfe
f903
fdb1
0a33
f91c
fbcc
fcd9
f4d2
fd34
fa66
035e
00f0
f912
f5f5
f7cd
027f
f935
fc3b
0149
0459
f874
f9cb
fa54
0488
fb45
ffb1
0226
fd48
01a8
ffae
e7ed
0b4e
021d
ec07
002b
ff12
fdb9
ffd2
0287
0d0e
033a
07c9
01a4
fe83
f236
02e0
006c
f172
001f
eea4
ffab
ff74
fdeb
0280
ffbd
ff57
0258
fe4b
00b4
05a2
f89c
00d8
fd30
0970
fd74
03ba
039d
01a3
f983
ff25
f62a
ee5d
0003
07d4
0261
ff95
f88b
0278
fef8
0652
fed5
fdff
fff8
01d0
027e
0027
01a3
fc85
0444
03ac
fb0f
000f
f906
fe81
ff22
0954
0051
fca8
fff6
02d7
009e
01a9
fe77
00e4
fecd
ff65
0041
00fe
ff84
00d2
fdef
014e
ff25
0080
002e
015b
f799
f649
fe5c
02e9
00a7
fa34
fc7f
fc71
01dd
fdf5
fe6c
fe29
0352
f745
0199
c50e
f401
fb7d
f634
f900
fb8e
f72e
f80d
ffed
0637
02e1
005d
f200
013b
fcb8
f922
01dc
09b5
fc8c
0282
0209
fdc6
0085
ff57
0422
0337
e11c
ddb7
0809
d83f
ea7c
0629
ff7f
05ee
ebc3
0226
1626
fdda
0619
fe9e
fe33
0a09
fdd8
fd9a
ea38
fea2
eab1
e5e9
005e
00e6
fed0
ffcd
ff2a
fe85
fec0
0052
ff39
02c0
fe11
fd59
ec3e
f8b9
00c1
f9ee
00ab
f511
024b
e939
f8d8
0363
06d7
ffb0
00f1
0dec
fd4a
fe0f
ff4f
fe94
fe58
001a
02d2
ff97
04c7
06ac
f849
ffbd
0498
035d
003b
0511
f406
f7a5
02d2
021d
fb15
01a5
0537
fec4
fd22
010a
00d9
ff72
fea2
006e
0647
fedc
fc86
fe9a
ffb3
ffb6
0062
00a1
04ff
f266
f757
fc97
f2d3
f976
fbb0
f8f4
fdf2
019e
fead
00b7
003a
0139
f9e2
00e5
10c1
02e8
fa2d
fef9
fb45
0522
f953
f34a
ff87
fd65
0623
0347
fd4b
0466
fc0e
0426
0030
f6d5
017c
03d4
f493
04ce
fe8b
048e
0592
ffa6
e8af
fbd2
ea12
1407
ec78
fc48
fed0
f585
f7e7
025f
ec4e
fb9d
0774
fe46
fe59
0071
fec8
ff3a
08ce
fa1d
ea6c
1a48
fedf
ff16
ff4f
fe36
ffae
fd60
ff23
020d
fb0e
f867
032e
04c7
f9ee
f508
0354
01dd
008f
0b3f
04be
0560
162a
fa2c
07e6
fb4b
0072
f5fa
fe69
ff88
fcae
02a5
fc38
04c9
ff5f
0378
fd2d
0144
00da
fe8e
0061
0184
01f0
ff50
0709
0150
01b7
00d3
fff3
fbe3
01f6
00b9
01db
fdd2
fd5a
ff55
ffa4
00fd
fdf7
03ad
02ac
0020
fcd1
0021
0095
0082
fe9a
08f1
0122
0018
fb1e
fab6
fb6a
00c9
fecc
0140
0236
ffe8
016e
fb86
04a6
fd82
fc14
0356
fd3d
fa81
082e
fd8d
f9ff
029e
02ee
fea0
f8e1
ffce
044d
fae9
fe8f
00f1
022b
0414
0031
fee7
fb88
fbc8
fef5
009c
ff04
f239
0663
ea6f
fada
030f
fa40
ff82
fcd5
080d
096a
032c
fcb4
0047
07f6
0222
ff30
0b1a
0327
00aa
05be
fdec
fa61
fd8d
fd91
fe03
051b
ff33
fdbc
02f6
0050
004e
01d4
00ea
03df
01d7
f8c2
038c
03c0
03fd
0059
f056
0288
f905
010b
0353
0c42
010d
008a
ffb7
079e
fe87
fd6d
ffbf
0178
0001
fe8a
fce3
fd18
030a
0314
047c
ffac
fac7
0215
fd0b
028a
fd66
fbd5
fd99
ff78
fff1
03ee
00fe
02bb
ff32
ffca
ff71
ffa6
ff5e
02bb
fe7a
0298
fd9c
fffe
002f
005f
ffed
02f7
f2c2
f853
0170
0383
fda1
f591
fc4e
ffd5
0014
002b
010c
00a8
01bd
031c
01e8
076b
ff30
febd
f9fc
f4fe
fc22
f606
f06e
ffa2
0734
fa38
0501
071e
01ca
00b6
f956
ff1b
ff06
fca7
0533
041a
fd8d
003f
fb5c
037d
1127
f681
fd7e
faae
e0f4
f627
036f
ff13
eb4f
007c
0573
fc03
fe9b
0731
f856
ff26
eccc
0335
ffc7
0323
fad2
f661
efd9
fddd
ff75
005c
fef3
ffe4
fee2
ffc5
fef2
feeb
f7de
fe0e
fe13
0b9d
00a9
0098
f9bf
fff7
1853
0890
ffac
03e2
0102
08be
024f
0097
0413
ff7b
00fd
03c5
fe96
0204
fe84
00c9
0087
02e2
04f6
024b
0119
026c
fec4
01b3
01f8
faa7
fedc
fda0
fe28
ff96
0196
061b
ff45
0042
ffc8
01fa
001b
ffdb
ff40
06ba
ff1f
ffdb
fdfb
01c2
016f
0167
002a
05f8
fb34
f8e9
fa64
0162
f7b4
f97b
fce6
ff5d
fddc
00d5
021f
fef4
01b6
02ca
0095
0b6e
fe36
ffb5
00e6
f97d
0373
fb26
e61f
023e
fc09
022b
050c
feba
0656
feea
0322
ff59
00a5
01ca
036e
04af
0359
ff7d
0040
030d
f364
f059
083f
0a88
0dc5
faa1
00f4
fda4
04f1
fc98
fdcd
099a
fdf2
08dc
f941
00a2
02db
0109
0029
f375
fbb4
fac8
11c6
fe7e
0387
ff5f
fcf0
033d
fdad
fefe
0071
fd6b
fe83
ff6d
0317
01ba
0213
0437
00a6
ff9f
f692
0451
0b38
ee57
f889
0d58
fe69
ffc5
fda1
fdfa
febf
0155
03cf
0105
01b9
fe2b
