5bbd
ff1e
719a
ff81
a738
ff5a
581b
ff74
8eb5
ff78
3f97
ff6b
bdc2
ff75
33b0
ff4c
5ddf
ff65
e249
ff67
2a86
ff73
a572
ff74
72fd
ff68
db08
ff5e
2f42
ff76
96a0
ff4d
1592
ff86
24d8
ff81
1c2d
ff7f
4907
ff70
0e6b
ff38
1641
ff74
5578
ff8c
03f0
ff6b
7338
ff5c
9a4f
ff5e
974e
ff4b
6c24
ff5f
a7d2
ff65
2ad1
ff78
5d39
ff7e
86de
ff7c
d1ed
ff2c
2e09
ff57
33f6
ff32
48b4
ff4b
2899
ff42
06f7
ff72
e6fa
ff5d
7e91
ff5f
4a3c
ff49
95aa
ff2e
4968
ff5d
31e2
ff7b
a8e8
ff2e
3065
ff3c
b981
ff89
ad63
ff6b
1c53
ff4d
d4b1
ff7f
fd83
ff49
e322
ff44
bc5f
ff50
9209
ff56
4648
ff62
3b80
ff65
3255
ff49
c6c4
ff74
367a
ff6b
e7b7
ff3b
79b3
ff4a
56b0
ff7f
3652
ff41
b1e5
ff53
516e
ff58
a10c
ff2d
f5db
ff7e
7d4e
ff7e
0be6
ff7f
ba3f
ff58
f7ca
ff63
1287
ff76
8dfd
ff77
9ddc
ff47
af4e
ff5a
ca65
ff3c
3dbf
ff58
6b9c
ff47
99df
ff64
3f71
ff5b
6509
ff6f
7f5f
ff2a
4c09
ff5c
5779
ff84
220c
ff6d
6505
ff31
1c4a
ff7e
8277
ff41
5748
ff82
9f31
ff48
364e
ff74
b51e
ff83
b9b7
ff34
d948
ff3d
a61b
ff4b
a77d
ff81
338e
ff39
585d
ff89
c6bc
ff51
c1f9
ff4b
0a0f
ff73
1799
ff72
c55c
ff81
ce23
ff2a
3943
ff90
9502
ff6a
999d
ff5e
366c
ff82
96ec
ff7b
6160
ff8d
7091
ff6e
8dbe
ff55
81bc
ff4b
46cf
ff83
332c
ff49
aba4
ff57
0431
ff63
95ea
ff71
7953
ff37
5b9d
ff68
9c38
ff81
586c
ff8d
4fb6
ff6a
ee59
ff6e
7fae
ff6e
3ee2
ff3b
13ac
ff1f
e9fe
ff46
8a93
ff47
7f4d
ff63
4c03
ff68
ff8c
ff4e
4604
ff15
8a00
ff60
a292
ff5c
8d97
ff78
f653
ff6e
8a18
ff8e
3d82
ff7e
1e5c
ff34
3546
ff50
be21
ff81
6c99
ff3a
f236
ff52
6026
ff2d
faa5
ff85
2d32
ff82
630b
ff69
e78b
ff3e
e4cf
ff56
d2ad
ff2c
49b8
ff7b
ad34
ff3c
6173
ff63
38a3
ff4c
5320
ff61
479a
ff71
1cc5
ff31
0f08
ff50
07fd
ff3c
8509
ff3c
6195
ff85
a7d3
ff46
f386
ff61
10f1
ff75
51c5
ff41
7e74
ff4f
f4ee
ff69
10c4
ff80
2b6c
ff72
ac58
ff59
081d
ff86
2e16
ff69
c966
ff5c
8f93
ff8d
021a
ff87
d6b2
ff76
402a
ff3e
1c32
ff82
27d1
ff6a
0c64
ff8b
6922
ff4b
36a3
ff91
f9e2
ff62
1775
ff81
db7d
ff5b
0caf
ff6e
c0b8
ff26
50fd
ff42
6e18
ff60
b9c4
ff5f
ce95
ff70
dd47
ff57
337a
ff80
053f
ff51
0183
ff3f
b334
ff50
c710
ff3d
418d
ff52
d775
ff53
65cf
ff83
6687
ff51
e194
ff1f
f189
ff68
cfa9
ff89
09aa
ff66
fbfc
ff68
1038
ff56
a60d
ff64
0c78
ff70
5454
ff5d
ac2f
ff77
ca9a
ff5f
fb54
ff7c
df0a
ff62
8d96
ff6e
f37c
ff50
5227
ff76
5d50
ff61
5868
ff66
df38
ff6a
e822
ff62
02f3
ff2b
f3f7
ff53
8873
ff49
2217
ff3d
37ad
ff65
b4d9
ff44
bc68
ff73
69a7
ff32
253e
ff0c
7cc5
ff34
1daa
ff1b
2917
ff4e
ad7f
ff5a
2f09
ff45
89a2
ff6f
42a3
ff92
7d2a
ff53
d346
ff2e
7294
ff64
0502
ff47
4366
ff47
90b6
ff70
88de
ff7c
99fc
ff4a
c08b
ff7c
5d4b
ff4f
ec7a
ff62
4a6d
ff79
9a65
ff7c
e58a
ff60
3797
ff80
da61
ff5f
88b7
ff2e
9986
ff59
65fb
ff5f
ba28
ff8f
5e45
ff3d
638f
ff3a
287b
ff74
7b85
ff57
9cd2
ff22
712c
ff84
5b8d
ff5c
836f
ff62
4e55
ff5f
bb3a
ff64
0aa4
ff75
7d59
ff84
dc67
ff74
88dd
ff40
884a
ff6f
16e6
ff63
d61d
ff44
a6c7
ff2a
fda7
ff7c
32fc
ff78
8430
ff47
ee1a
ff53
5da9
ff53
aed6
ff4e
91f2
ff88
f44b
ff32
6f1c
ff76
7b18
ff58
2c35
ff8b
0f9c
ff3c
d104
ff52
21b6
ff8d
ccfb
ff62
d5f6
ff74
a9eb
ff86
a47c
ff67
53fa
ff6e
978e
ff51
1200
ff79
2c77
ff41
04c4
ff56
17a6
ff5c
5514
ff5c
5b68
ff2d
42e3
ff2f
b963
ff6d
4a04
ff7d
dd7b
ff6e
db32
ff29
502b
ff48
3394
ff70
2ccb
ff62
5ced
ff79
80ce
ff45
4670
ff2c
49db
ff61
9528
ff5d
4259
ff5a
0998
ff39
60dc
ff53
8754
ff42
73f1
ff67
2796
ff80
65c5
ff61
c2b8
ff6c
eb31
ff70
117c
ff6e
79c3
ff80
373b
ff75
a2c9
ff65
898a
ff50
2771
ff7b
41e2
ff79
023d
ff33
93f5
ff73
fd91
ff5c
79b8
ff76
66ea
ff7a
bbbe
ff65
4255
ff48
2c1f
ff45
3758
ff40
fa67
ff58
1088
ff74
dccd
ff6c
eb21
ff6c
55d5
ff71
829f
ff5b
d47d
ff93
94fd
ff71
9f25
ff7a
71bf
ff40
6a5f
ff86
bf46
ff75
821a
ff72
b12c
ff4c
f645
ff31
30cc
ff32
9c06
ff3b
9c57
ff73
53e9
ff5e
f7fe
ff55
c403
ff77
dc0c
ff4f
ee50
ff6d
3851
ff32
aa9c
ff62
593f
ff0d
c220
ff66
3b12
ff87
4d81
ff62
7215
ff71
51e1
ff6a
29c4
ff90
a577
ff45
680a
ff53
d087
ff68
2e42
ff6d
81a5
ff3f
7f66
ff89
314a
ff5e
797c
ff76
1a23
ff4a
27d6
ff45
b2bf
ff4e
be15
ff31
ab70
ff51
85e8
ff60
9cd8
ff7f
f3f3
ff59
8a2d
ff51
f8c6
ff69
5f74
ff4a
f0c8
ff73
6922
ff35
9a82
ff77
7406
ff4d
1a67
ff32
008c
ff46
1084
ff4a
56df
ff69
b4c4
ff49
1e2a
ff78
6193
ff2e
7a65
ff81
a8d4
ff50
da97
ff81
303d
ff42
13ca
ff51
775e
ff57
8091
ff64
6223
ff41
c8a5
ff70
0692
ff6d
4c02
ff56
12fd
ff5f
e7f8
ff60
6324
ff20
5a46
ff49
aeb7
ff46
4f84
ff6c
2630
ff13
84c3
ff47
f064
ff59
3eea
ff49
065d
ff4e
43c0
ff6c
fb9f
ff61
c3ae
ff30
9aac
ff4e
4096
ff19
4423
ff5b
fa40
ff59
1291
ff76
cf75
ff6c
65c4
ff32
1d83
ff39
58a2
ff22
2998
ff86
e9be
ff76
c02e
ff57
28bd
ff61
87ae
ff5c
4067
ff51
84f8
ff3d
92a3
ff4d
c01c
ff46
5f95
ff75
661d
ff5a
ee19
ff5e
ca1d
ff5b
a75f
ff66
1253
ff70
b514
ff40
81fb
ff3c
3aff
ff7b
bb6b
ff5d
a7a6
ff1f
eae3
ff68
f244
ff71
1ab6
ff3f
8fc5
ff8f
55f0
ff55
37d5
ff63
e6e9
ff42
ed12
ff75
829b
ff81
3622
fedc
85a5
ff88
a22f
ff60
f166
ff71
0053
ff74
b99f
ff73
7798
ff82
e146
ff7a
2fc5
ff46
4d79
ff86
d472
ff5d
8363
ff70
fa21
ff67
021c
ff7c
2e9e
ff4a
2a4c
ff4c
8052
ff7a
d5a2
ff21
de0d
ff47
28ba
ff94
1a6c
ff72
7bd3
ff65
f199
ff3a
0f98
ff58
f95f
ff38
4ebb
ff36
9a1b
ff4e
80d6
ff35
d2bc
ff3a
7529
ff4e
df78
ff32
7d53
ff88
3a59
ff37
8c7c
ff7d
88a8
ff56
d758
ff7a
e667
ff5f
f5bd
ff75
2cd2
ff5e
f48e
ff53
386a
ff73
e410
ff55
91ce
ff4f
223c
ff3e
2b5f
ff66
1626
ff3e
c882
ff37
5dda
ff45
8cd9
ff84
e6fd
ff67
c671
ff3d
03a3
ff3d
3df6
ff50
b1a6
ff65
9ee0
ff72
a6f6
ff5d
83f2
ff74
fd31
ff4f
a5d3
ff59
b9ef
ff49
c83c
ff77
dedb
ff46
2a12
ff7f
e7a4
ff8a
f194
ff62
31f4
ff6e
5047
ff5d
6909
ff6c
7586
ff80
fb18
ff39
4642
ff76
37a7
ff57
3918
ff63
3bf0
ff59
2b30
ff6b
7e15
ff69
6a89
ff79
99b5
ff5a
35db
ff80
bcb8
ff64
15cb
ff86
6692
ff25
8b8a
ff24
ade4
ff4d
5d9e
ff85
80a8
ff8d
ef33
ff57
d2cf
ff6f
89d3
ff80
5f77
ff4d
e2ad
ff96
dc3b
ff3e
4fac
ff70
01c4
ff54
94eb
ff6f
22c1
ff63
a6b6
ff5a
c442
ff5c
4897
ff5b
07f7
ff87
0f41
ff39
a843
ff8b
e7d8
ff5e
e2f8
ff89
d6f4
ff73
5715
ff4b
7d86
ff71
42df
ff59
f3a6
ff48
ec13
ff6a
ccc6
ff5e
171e
ff5e
b52b
ff5b
3c91
ff4a
1097
ff37
d5a9
ff6e
4e81
ff45
4900
ff5d
46ff
ff6b
8136
ff57
c7dd
ff4a
05e5
ff58
7ecb
ff72
5b46
ff30
bde7
ff69
24ad
ff38
8ad8
ff46
ca04
ff4f
8511
ff71
2df1
ff8e
5410
ff71
6c9a
ff82
d65a
ff3e
4a56
ff4c
a937
ff5e
0586
ff59
93fb
ff59
f811
ff58
d7ed
ff37
4529
ff4f
0bdf
ff54
b167
ff37
85ad
ff43
97f3
ff79
7ac4
ff70
8785
ff8a
9834
ff78
c4f5
ff78
0a11
ff5c
e271
ff5a
7e1f
ff59
6435
ff52
cbe2
ff3e
6f94
ff50
b38d
ff7a
238d
ff53
865f
ff5c
fd7a
ff55
933c
ff40
27a7
ff90
db09
ff38
fd3e
ff71
79e0
ff8c
ac82
ff65
2368
ff6f
f7ee
ff5f
e55f
ff51
1a16
ff6a
8f66
ff71
bedd
ff49
1edb
ff73
65ff
ff4f
c76f
ff73
2551
ff63
b8fd
ff72
789a
ff77
c07b
ff5c
66ad
ff19
f9dd
ff39
4a27
ff5e
3e20
ff4d
4fc6
ff89
9c9b
ff00
a45d
ff77
0b2c
ff36
1547
ff55
e9e5
ff62
36ca
ff48
61c1
ff72
c772
ff80
881b
ff88
b457
ff47
7200
ff58
8e2e
ff7e
e3a7
ff58
b8e8
ff4c
b7db
ff97
4e14
ff38
669b
ff63
c292
ff66
3b0f
ff53
1087
ff65
d7c5
ff7a
66d7
ff4d
5b58
ff52
7c98
ff4b
4a30
ff73
adf1
ff75
55e9
ff68
4bf0
ff5f
40ca
ff70
61ab
ff80
ba2d
ff2e
1672
ff51
3da6
ff22
4eb3
ff5c
314d
ff73
05bb
ff78
b517
ff70
4a1f
ff5e
3351
ff7c
6acb
ff76
61c8
ff37
9177
ff66
ebc5
ff50
013e
ff85
3efa
ff76
db5f
ff69
0105
ff86
14db
ff7a
04cf
ff89
1120
ff6b
3d04
ff83
3861
ff6e
b6e9
ff7d
a504
ff59
3453
ff4c
2b04
ff2e
fa9f
ff7f
20dd
ff62
f239
ff6f
b0f3
ff36
1c75
ff6b
a5a4
ff6b
2b99
ff64
0e6a
ff72
4232
ff6c
62f0
ff5b
3f47
ff74
2727
ff62
ef13
ff5f
3498
ff67
f3b7
ff4f
1bda
ff5e
4554
ff68
b729
ff45
e1e3
ff7d
6c95
ff68
2a42
ff6a
f881
ff5b
ee47
ff68
c9a1
ff9e
f3d4
ff6a
0c66
ff3c
04b4
ff58
3cc4
ff6a
d79e
ff5b
15d9
ff41
0080
ff36
31a6
ff50
1ddd
ff79
c990
ff3e
0d1c
ff83
0e7b
ff5c
92d3
ff49
8a38
ff44
6a67
ff3d
8f97
ff69
5351
ff66
e857
ff67
0046
ff81
0d2b
ff5e
7512
ff62
7847
ff36
3e99
ff66
4b2a
ff7d
13c4
ff3d
1931
ff7b
a670
ff78
2f8b
ff5d
e2ad
ff58
514e
ff52
830f
ff68
7eed
ff34
ce76
ff84
bd90
ff65
679c
ff6c
81ae
ff54
6c69
ffa1
40c6
ff69
da2c
ff79
d59c
ff8f
6603
ff51
f9d7
ff67
e296
ff69
fec0
ff4d
79e2
ff41
4252
ff73
c3f1
ff71
8769
ff56
d217
ff5d
1272
ff86
e33c
ff76
75a1
ff67
9060
ff2e
76df
ff68
8462
ff13
3d3d
ff8a
e634
ff6d
79b1
ff65
f518
ff67
6612
ff78
a7b6
ff90
96dc
ff8f
a075
ff7c
df57
ff6a
f31f
ff73
16ca
fee9
dbad
ff6b
0ea3
ff36
4189
ff55
3180
ff67
1ddc
ff9c
f9b6
ff28
0c40
ff66
e35f
ff61
9958
ff4b
2e33
ff40
0ae8
ff35
a2dd
ff60
e6c6
ff21
08cf
ff47
eefc
ff4c
aa20
ff6e
c782
ff3a
ef38
ff5e
97ed
ff7b
fe56
ff4b
0e88
ff33
7685
ff39
e865
ff46
a663
ff5c
d6f8
ff64
9315
ff60
994a
ff77
dab4
ff3c
3e17
ff85
193a
ff2f
1f84
ff2b
b134
ff6e
6a3c
ff54
d994
ff39
fd7e
ff64
4be3
ff3d
4bdc
ff2b
38e5
ff68
605a
ff3f
c030
ff7f
0f5f
ff2f
22b3
ff63
0946
ff71
fb02
ff73
8568
ff7b
e262
ff71
7d41
ff6c
2d49
ff77
34ad
ff55
5b30
ff50
b115
ff7c
f885
ff86
4247
ff85
c823
ff4c
2e12
ff7a
ffbe
ff09
a004
ff45
4afd
ff25
7348
ff65
ab5e
ff5c
a6c6
ff6d
c3ca
ff74
6785
ff5a
3ebe
ff64
af32
ff52
4abf
ff83
297c
ff28
3a21
ff3f
f0ee
ff4c
d6e5
ff63
c4b6
ff1c
6faf
ff75
cfce
ff5e
70c5
ff38
89a6
ff77
b5e6
ff7f
8088
ff63
822a
ff32
27a9
ff59
15c9
ff2d
8d78
ff83
30c2
ff60
fc8c
ff66
cc4e
ff33
6fc8
ff52
8865
ff43
a5ed
ff78
a249
ff55
25f9
ff82
4b12
ff51
77a3
ff69
c550
ff58
a6fe
ff56
6379
ff65
3aed
ff58
af90
ff76
44ac
ff5f
303b
ff88
940d
ff3b
f55c
fdde
02dc
ff6c
4eaa
ff4c
14e0
ff88
6728
ff70
708f
ff6b
4979
ff2d
c2ed
ff6c
0435
ff7d
1ca6
ff4f
d505
ff2f
10ac
ff79
82b3
ff80
00f0
fefb
4f68
ff34
6a46
ff5c
22b1
ff79
c7a7
ff43
03a6
ff35
9a2e
ff45
caa6
ff5f
e1e5
ff73
c800
fede
28f4
ff72
ac4e
ff8e
2385
ff73
391c
ff83
fa69
ff75
2cc0
ff36
dd81
ff14
9a94
ff2a
9749
ff8d
7ab4
ff55
0cd6
ff5b
63f6
ff67
3bcb
ff6b
ff5b
ff66
8e76
ff5a
e3d0
ff62
5ea5
ff35
77b2
ff31
f9b6
ff2c
5983
ff44
a243
ff62
eaf0
ff5a
6f3f
ff27
5410
ff63
ac7a
ff5f
1d53
ff81
1a1f
ff68
9b92
ff7e
d006
ff55
f807
ff48
2e97
ff44
3df2
ff86
5ec4
ff54
c077
ff4b
0475
ff6a
2e3b
ff4c
1ff8
ff89
9b10
ff70
e5c4
ff6c
97c7
ff68
ec4c
ff78
acdf
ff4e
6b6d
ff5a
9275
ff49
3eae
ff47
7faf
ff3c
68e7
ff80
2c87
ff5b
9d49
ff5d
9322
ff3f
0cf1
ff52
47bb
ff71
5c37
ff9a
db69
ff39
3f1d
ff74
5b40
ff7d
a44c
ff74
0abb
ff7d
ba90
ff35
2a24
ff53
c237
ff64
b115
ff5f
efe6
ff7d
34c2
ff48
58f6
ff66
e116
ff2f
fdf5
ff4c
b4b7
ff7a
4e69
ff08
5f91
ff4b
e7aa
ff62
e054
ff50
8a63
ff7d
9b42
ff72
6211
ff68
e02c
ff63
2732
ff58
6416
ff52
b4db
ff72
7e8a
ff7e
a06f
ff96
8a8c
febc
cf47
ff2d
de90
ff63
5f38
ff7d
3cc8
ff4a
4e0b
ff60
41be
ff8d
3142
ff63
0eff
ff62
8c8f
ff6a
b4c7
ff6c
796e
ff78
fc53
ff5e
b070
ff5b
419e
ff27
a017
ff6a
92ff
ff92
52b3
ff35
1997
ff75
639b
ff56
321e
ff5b
fb95
ff85
4934
ff87
d7b5
ff57
6277
ff53
bcc9
ff87
4ebf
ff4f
277e
ff92
