0173
009f
ffb0
fb7d
00a4
ffc3
ff4b
0091
ff3f
fe31
fecf
fb96
005d
fe4d
0194
0194
fdad
018c
004e
ffaa
fe31
fb0f
fefb
ff69
0189
fd0e
0103
fece
fcde
03f1
044a
f79c
fefe
ff82
0006
fe75
011e
fae1
ff1e
013c
ff20
fd9e
ff10
fbbb
ff3a
0086
fdc3
0212
0584
0072
02a6
0003
0140
f921
035e
0134
feba
fef3
0031
018d
ff4c
fee7
00cd
0094
0014
0131
ff6b
ff00
fd0d
ff96
fecd
014b
ff3a
ff3b
0039
ff1c
fdde
01f4
0164
ff5c
fdc8
fd1b
0229
ff6b
ff78
fb96
fc4e
0333
fd48
003f
ffbc
fec2
00b8
ff59
fcc1
01d3
fdc4
fed8
fdd6
ffaa
00d9
ffb4
fd23
0122
fe60
0130
fdef
01d8
002e
0601
0216
fa56
fe21
ff2c
07f9
ff09
fa1a
fe5d
fe6f
033e
fed9
ffbe
ffcd
ff3a
ff5f
024c
ffcc
fccb
018c
018b
0125
ffc7
ff5d
fca1
ffcc
03ce
0180
fb65
ff74
ffb0
ff67
02b9
067e
fc11
0017
ff85
0170
fe4d
fe78
f9f9
fea1
048a
ff90
0f28
f9ff
008e
0056
013b
feb5
fcb7
fb97
004b
ff14
ffe5
fe9e
fca6
f873
0218
00f4
f5fc
051b
fe60
fc2f
0075
ff95
fe3a
01fd
016f
00e1
fd4a
01c4
0191
ff42
014d
ff56
0185
fc44
fe78
feaf
feb8
ff88
0388
fdfa
004e
fec0
0066
0193
fe42
fa61
02ce
0141
06eb
fb17
ff42
022f
0159
0567
fe73
fcec
fd1c
fb88
0007
01ff
fba3
fd94
03cf
0166
fef9
fe16
ffff
ffd5
00c3
fe35
fd7f
fcee
ff9c
fdee
ff94
ffae
03bb
0447
fe9a
0255
ffc8
ffba
fc9a
fe60
fa41
faba
0392
fc80
0119
fc67
02c9
ff31
00e9
fd90
ff70
fbde
0069
00bd
fc1d
0142
023b
ffba
009b
fff5
fc96
020d
fb99
fc74
fde0
00cf
ffe6
ff76
fcb2
ff08
ffcb
fe13
fe9c
ffdd
febe
0054
0408
fd72
ffe1
fe93
ff62
03c9
01a4
feae
fbc3
fbbf
00cf
fc26
0262
fc9b
f3f0
0211
fc4f
02f1
0064
00b3
ffde
fe06
00ff
fe0d
fdb2
0123
f8fb
ffea
0181
fed2
ffcf
0a90
fe71
000f
fb51
02ca
f84d
013b
03a0
0093
fd32
fe60
fed0
fc14
ff4b
009c
0046
017a
01ca
014c
020d
ff36
004c
fdb3
fa2e
0006
fe77
fdf8
fe60
ff9f
01c6
ff51
02e4
0019
006d
ffe6
0014
ff88
fd67
fe7e
01c0
fdf4
fd52
fdac
fdb0
fcac
00c1
fd46
faa1
fddc
fc9a
fb16
ffa5
ff35
0280
fdc5
f93a
fec4
fe05
01b9
ff61
ffdb
03c2
fec8
f406
fe87
014a
fae3
fd57
f6a6
fcaa
f7bd
0568
023e
fd69
fdd8
012d
003a
01f9
0125
fc2b
0317
01a3
016c
01f5
ffaa
0017
ffa4
fe15
f8f0
f979
021c
fef4
fca1
023c
08c6
06fb
fe4f
fe16
00cb
0039
015c
ff03
fd02
00f9
ff49
15c1
0009
0403
011b
0011
f7ef
fea4
fd43
fcd5
ff54
fee4
0002
0201
fcdf
038b
01f8
f084
fad7
fe90
fa4d
fd39
03dd
f9a0
02b2
ffc8
fff2
f91b
fecc
00df
feb4
fd84
fd14
00aa
fc8c
fff9
fd6f
009d
fe69
02b9
fbb3
febe
fe8b
00c0
013e
0143
ff34
03bd
ffc3
0acc
0997
fe8e
04a3
0016
01a4
fdaf
fdf0
f834
01af
feea
05c8
fe0c
04e6
0656
ff31
fef3
fe30
0005
00e9
0113
fc8d
fa66
00cb
ffd0
049b
007e
ffee
0378
0217
0020
0b9f
025b
0037
fa9a
ffea
fcef
0012
f808
fe07
0247
fa5f
01bb
febf
0174
facd
ffb2
0066
ff81
006d
f932
0038
0459
02f4
03c8
fe65
fff5
026a
f703
ff2d
feaa
0034
00b8
fd33
ff0d
00d1
fdf7
fedc
fe5e
ff89
019a
059a
0347
fd8f
00ff
ff3e
011e
0391
01a9
fce8
fdfb
fef1
ff43
fe6a
001f
fdc6
f689
fb80
fd59
010a
feba
0011
004d
faa4
ff2c
0191
fe89
00cb
fb1f
ffe5
ffa8
fffb
ff81
fa6b
0010
0255
fd7e
ff75
f7ad
0127
0295
0065
feaf
ff9d
fe80
fcf7
fed4
00ea
01e9
feb4
0137
01b0
ff41
00d9
ff75
fcc5
ff23
0156
feb1
ff03
fa2e
ff81
01c8
ff03
fe13
fc53
ff5e
0117
febd
0082
ffbd
ffb5
0325
004a
00f3
ffe3
fc58
fa75
02f0
fef0
febf
fff2
ff1e
ff04
0042
004c
02af
fcab
006d
fdfd
ffa5
010e
fee4
fe83
00fd
ff07
f872
013c
035f
fdfa
ffce
fd21
fd5f
f921
02f7
ffd7
00ef
0138
0059
0113
fee8
0116
fef2
ffcc
ff54
008d
ff35
018c
0061
001d
00c1
039c
fdb0
fd58
fb3b
fdb7
0218
ff17
0082
ff59
00f7
fe96
fe30
ffc9
ffc1
fe07
feb0
011d
0c56
03a0
ffb8
01da
ff79
fa7a
fc87
0223
fb06
0122
fc86
ffd9
0108
02eb
ff49
fdbf
f63f
0057
ff9d
fd3a
fe5d
01e6
fb13
fd9a
00f9
0047
fa6e
fe5a
01e1
fed5
ffcb
0200
ffd5
fb76
0020
fef7
0371
ffca
00d4
0661
feaf
0023
ff3e
0031
02e0
026e
029c
ff96
0180
fb01
fea7
0000
ff13
ffde
fea2
02f5
fbcd
0345
0199
027c
ff8d
0836
0273
fd18
fedd
ff78
0105
ff44
fe93
fe73
fc31
011c
001a
ff64
00e4
fe83
0066
009e
ff83
f0f3
fc26
0126
fd73
01cc
fe3d
0124
049b
03ac
003e
fe26
00e7
0068
0236
fe9f
fee4
033e
0205
ffbf
fa42
002d
054a
029d
ff4a
01d2
0284
fe2f
f9cf
0240
01bc
01c1
fe7c
0160
0074
ff10
fe0e
00c0
ffad
0088
007f
fd0e
fda3
00af
0077
fd6e
f536
0291
0063
0194
ffcc
02a7
fffb
fbaf
042e
016c
f51a
001e
0249
ff4d
00ef
021c
fcaa
fb56
ffb9
ffa3
0033
fe11
f791
fda6
fde8
00f4
0232
05ad
0240
0189
00e8
0431
0948
0346
fd65
ff87
00a9
005e
007f
0187
009c
00d6
003a
ffe6
febb
fa52
0176
fe17
024c
0034
fb59
fdc2
ff3b
0134
0190
0164
fe3f
fe0c
019d
fe33
fcc1
00d9
0144
ff5f
f85d
02c1
0266
fde1
fdba
fe5e
032e
0624
fb28
00a4
fd98
fdd0
fb3c
f9bf
ff2a
fead
f76c
fd0a
f9f9
028f
fde8
fc11
0009
ff0d
03b0
fdb3
f5e9
ff05
fa00
0cd0
033a
f780
0150
fcbf
0248
0049
ffb7
0087
fde3
0299
0658
ff82
fc5e
02f7
fed0
00d8
0029
0056
fea0
01a4
fe6e
003f
025c
fe71
ff2a
0292
0317
ff7e
fe5e
ff1f
019f
ffee
01fb
ffdd
fc48
fe16
03d1
013f
ff6e
fbc9
00e4
001e
01f9
f92c
fcc6
fbb5
fed3
fe13
00f7
fbf9
f86c
050a
0140
0280
0431
08c3
0065
fa87
05fd
04cc
fbd3
0276
013b
00cb
f975
0131
0130
fec4
fee3
00e5
ff85
01fe
0075
fdca
fc88
fbd1
0168
fd0c
ffd6
ffca
ff6b
026a
fc01
0021
048d
0154
0032
f1df
fed2
079e
076b
fdfd
0063
fcf1
03cf
f768
000c
058b
f84d
05b3
039e
005c
ffaf
fdc9
feb1
0117
0730
fa15
fdb2
fca4
0094
fde5
fe9c
fef0
fa41
fc78
00b6
0722
fecb
ff16
ffaa
004a
041e
054c
f99d
fcf9
fe52
01fa
ff88
fef8
fa3a
fde8
00d6
fc2d
ffde
0054
f99d
006a
fa23
00d0
01e4
007a
fdd0
ff79
fb68
fd86
005a
fe22
fd6f
01a6
fff0
0076
007d
fec5
ffa0
fff2
feab
019b
fe93
fba5
ff9b
fde7
f812
fd50
ffcd
fdcf
fba6
f8e4
ff19
fcb2
0348
fcea
f375
0269
042d
ffa5
01bc
ff9d
fdca
ff6e
fc7e
fef2
0094
0055
f887
fe4b
00f4
0332
ff97
0701
00cf
fc35
fedd
03f4
0502
0344
fece
0144
ff2c
ffd9
fb04
fd5f
0022
0050
ff45
0148
ff32
fef6
fff6
fab6
046a
05d2
f752
ffca
fdc4
fe2d
0043
fdd6
fd23
0000
021d
00f7
fc51
0078
0064
ffac
f74c
0d5b
004b
fe91
fe16
fd3d
01f0
ff29
feb5
008e
fa47
0036
fa08
f8eb
fe14
ff4a
fb2b
ff18
f440
f97f
fd18
ffc4
ff5b
ffdb
01f2
fd3d
f54c
fef4
feaf
0365
033d
ed78
00b9
ff87
0226
03ca
0132
fafb
016a
0062
017f
ff05
fed7
040b
004b
0212
fdf7
ffd9
0222
023c
fddd
f993
00b9
ffef
0114
fdec
faa2
ee7c
067b
fc29
ff5a
fe76
0165
fea8
fbf0
028d
fd7e
011b
fef6
0194
01b8
0194
013c
01c2
ffa0
ffac
fd0b
fb3e
fb52
ff0f
fe02
0a98
fdd0
026b
0818
f697
02cd
f61b
03ff
fd0e
f907
025b
00a5
001e
f3c5
0000
0115
fdc8
fc97
ff0d
fc07
f98e
fef3
f817
f672
fd8a
0063
ff61
ff18
ff2a
ff8f
0099
fbc1
01aa
04b2
fde7
fb4a
10b2
fff1
0796
04a6
f8b2
0051
fe7d
0521
0488
0123
0764
f5b8
02b6
01e9
fd92
00b0
ffe5
00bc
0049
06af
f834
fcde
fec8
fe16
06e1
00af
ffa3
003e
fd32
ffe5
0cc0
fffb
fc90
fe9a
0053
0800
048a
f73e
fd4c
0064
fc28
ffff
fe08
faa7
00ea
0082
01fc
ffaa
ff5f
f420
000e
fd50
ffc7
0286
fca2
fffd
027c
f6d7
0048
0310
fcb6
0000
fe27
ff6c
0168
fef8
007d
ff72
0021
00d7
0025
ff0b
fce2
0128
ff92
00b2
f9a0
ff50
fdbf
fd07
00a7
ffdb
ff8e
ff64
03ef
f9ff
0034
02ca
026b
0069
0022
022f
03e9
ffac
015a
0136
00fd
f8e4
00ac
01da
020e
fe8e
f45e
023d
01b0
fece
00ad
0670
0065
fe2c
ff16
ff07
ff4a
fb5a
fe9b
ffe8
0110
00e7
fe7f
ffa2
03c3
0061
fd78
0180
017f
fe73
01f1
ff4a
ff0b
fb33
fde7
00dd
005f
fea4
0119
fd24
0007
ff1d
ffe9
fe76
04ea
02e2
0173
fe38
fe48
00ec
f7f1
00e0
ff96
fea3
fb72
0037
ff36
0134
000d
ff4c
012e
fedc
fd5d
00a4
ffa2
01d9
fec4
ffc4
00c8
fc54
0058
0337
f2ed
0083
f46c
fdce
06c1
0024
fcf5
01f2
01b9
0067
0082
014c
0256
002d
fc1e
ff35
0183
01e5
0307
02cf
02c8
02d0
0685
00d9
00b6
fd66
fe3f
fcdf
f864
fec6
02c2
030e
facb
fe76
feca
ffda
01c8
01e8
0083
f9ff
01d4
0011
0244
002a
069d
fe1d
01fa
feb9
01f2
fd4b
0214
0483
fddb
0056
fbe4
0406
fc7b
fe9c
fab0
fed4
fa45
fdea
fb0f
0064
00ab
f619
0087
0231
ffa2
00e9
0569
016a
f884
fcb1
fb61
fc50
ff59
ffe9
0179
0024
015b
fede
ff7a
ff9b
fc50
026a
ff21
fad3
fe31
0188
0408
fe2a
fe68
ff2a
03e3
01cb
0a85
01f7
03d6
ffd5
fb96
ffb0
fdf0
fe74
fead
01d1
00c3
ff5c
ff61
fe00
ff16
ffd0
02d4
0063
ff55
0116
fef7
ff6a
eb1d
feed
0123
ff07
02e7
0610
fda7
00d0
ffad
fec2
feb1
fe30
0104
feb1
00b3
0131
0498
011c
00f9
f6b4
ff54
012a
fdda
ffd2
0160
02b8
ff65
f9d8
01d6
030e
fb71
fed5
003b
01c2
ff0a
fc8f
002a
0231
fe75
0059
fb0c
fb93
00dd
00de
fe7d
fc6d
fcde
fec5
005c
018c
0222
ff85
fd1f
0419
ffc2
fa35
0227
ffac
fd9e
00c9
ffa8
fba9
03ef
0068
fe39
001f
fe90
f7cb
fe58
fc96
0047
0233
0c50
01f1
0594
0038
01a2
0781
ff3c
fef2
febc
0169
0004
ffcb
0348
0254
0109
ff1f
01d4
f9c1
fc2c
fe8b
ffb2
fe66
0558
f95c
fd9d
ff83
0053
ff43
0370
ffa8
02b1
0271
fff8
019b
00e2
fe6f
ffae
faa9
027d
02d2
fec9
ffee
012f
fe02
033a
fe6c
002e
fdd7
fdad
fbf8
fa93
fde5
0050
f840
fb9c
f704
01c4
ffbb
ff11
ff89
0075
0333
0188
f8c8
fe6c
0300
062b
ffa4
f9e8
fed2
05d5
0211
00be
0062
fd84
011f
01fe
012b
ff59
feb1
021d
fee3
ff3f
01b8
0092
ff34
022d
fde4
fa4a
04fc
fd1e
ffe7
013b
0210
fbf2
04b9
fc83
0080
0249
fde2
feab
0112
0271
ffe9
ffc6
f264
fe4f
ffaf
03f7
ff46
075d
ffbc
facc
0022
fe6a
fd26
fd47
fd62
fdc2
00ea
0286
06a4
04a7
ff0f
fc61
0451
fa24
f991
01fe
0016
0021
fb69
00c4
0127
ff86
fe2b
fd1f
fecc
0141
ff2c
0018
fedd
058e
0599
fa6e
0080
ffb1
fed6
ffe1
001b
022c
04e1
0097
fd84
f26c
0260
06aa
01cc
fd23
00a0
fc4f
02a5
f8f7
004f
0123
fc89
f871
05f8
ffcf
fd55
fcad
fff2
006c
028e
fdd5
fa4d
f937
fed9
fe17
0124
ff8e
fd09
013d
0250
0c31
fd95
0086
0037
0147
feab
f9cc
f78c
f828
03e2
0467
00d8
01a2
fc61
0408
056a
fb4c
ffa2
ffe1
fa43
ffa6
faf3
00c1
0211
0078
0045
ff56
f85e
0026
015d
fe37
fd8c
01c3
ff9a
0073
ff5e
fe9c
015c
ff3a
feeb
0209
fbdb
feb5
00fa
ffb7
fa47
fd01
01d8
fad6
02c1
fd70
001b
fd98
0383
00d6
f7bf
0046
002c
fc65
01e7
fcca
fddc
01e6
fb72
00be
fe3b
feb9
f68f
ff50
fea4
004a
0098
0482
0224
0164
fb9b
0299
09cb
ff6f
febf
0045
001f
016c
fcb8
0033
002a
fff6
ff04
0466
f90e
ff93
fca2
fe0d
01f6
fd65
f694
0182
ffaf
fe1f
fd11
ffb5
fc15
009c
0089
0413
02cc
0165
008d
0039
f982
fc04
0065
02d9
fd66
fe14
fde8
00d7
fbc6
fe99
fdcc
fc0a
fcbf
fb45
fdfd
00ab
f889
fcc2
fa00
faf9
ffd5
fcfe
005c
ff40
fe53
01a5
f842
fe93
0209
05bd
0358
f3aa
009b
049a
001a
00e5
ff0b
0196
ff94
01da
036e
ff9f
01a1
00ee
ff94
ffdf
0037
fffa
ff0b
fdbd
01cb
f72b
0364
0019
0161
ff22
feb1
053f
083b
014d
fdd8
ffa8
fff2
fdf1
ff7d
0089
fd28
034f
f050
02f0
fe3e
034a
0138
05a0
ff2b
ff9f
00c2
fd9c
ff01
fee3
fbdb
fa66
fff8
00cf
083e
fc09
0480
fbb5
096a
fb25
fa64
ff96
ff57
00a1
f7d8
00af
0098
008f
fdc1
fa41
ffab
fcc2
fe95
fa0e
f8a6
04b8
02af
01f8
0224
0098
ff92
fed2
fe9f
fa98
030f
fcd6
fc60
0756
ffc2
04fc
0311
00bb
ffc8
02a2
0419
fda1
0046
03c4
f9f8
f9bd
ff76
fb4a
fbc7
fe8d
ffc0
001f
0468
fff5
fecc
0011
003d
001b
00c7
ffed
fc47
012d
0306
01c1
0004
fd90
fcf6
012f
0326
fb38
fbf7
01fe
031f
0036
00d1
00f5
fa87
01ec
0422
022c
ffbd
ffdc
f496
ffc0
fa7b
001d
0039
fc42
0191
0043
f78d
0225
0460
0056
0152
fbe5
0100
0072
fe7b
ff2e
01db
fe9d
ffd7
0051
fed2
ff79
0118
0020
fec9
fdb4
00cd
fdd6
00ab
0150
ffba
fdd8
00ef
0313
fbb1
0035
01a9
02c3
006a
fea1
0057
fa73
00c0
fdd9
ffe4
feed
f6fe
00e4
00b5
ff30
ffe9
f844
0255
034f
fec5
025d
0bec
ff6e
fc9a
feb9
ffd5
00d2
fca2
004e
fff6
fe64
0020
fc47
fc96
0166
fe84
ff69
026f
f7e0
fddf
fe75
00f3
ff9a
f948
fed1
fd9d
0082
fef6
0171
01c2
0241
016f
00b0
fa44
fb3f
03af
ff0c
fd76
ff5c
fb49
fc35
ffa6
fbcb
0153
fb23
ffcd
fd9e
fff2
00b6
fce3
ff32
020c
01cf
ff65
fd44
0016
ffac
fe7f
027c
fd84
0000
017e
f3c5
039e
f768
ffa2
0078
009c
fc4b
0110
0067
ff43
fef9
00fc
fff0
0058
fd48
fd8c
00d2
fe84
0092
0320
fbd5
02e3
084c
01ed
fe73
ff28
ffb6
fbaa
0845
fe03
00a5
ff00
fc37
fe79
fe8a
fda6
ff13
ffbe
ff6f
f68c
01b1
ff91
0176
048c
fe23
ff1c
035f
00be
0081
fe7c
ffc2
0284
fd06
0074
fdd7
03ca
fc71
0099
fd61
07db
fe04
002a
fb17
ff33
0076
f8bf
01d1
00d1
0071
0164
0179
fed7
f87f
fdad
fb6a
f82d
0291
ffff
0139
0197
0009
ffe2
ff91
fd27
fd27
0065
025a
ff9f
00ef
00c7
00c5
0420
00bc
ffe2
042f
00d7
06a0
020f
0230
fcce
fca9
fdad
fcbc
fac8
fe9e
fff3
0134
022b
0069
014c
01c9
ff98
0062
ff93
ffb1
ff29
02ed
015c
f173
fed1
02ac
fe3e
005f
0812
fa99
056c
023c
0014
ff12
00ac
0041
fab4
ffd6
01b4
0316
01e1
003e
f91b
ff5b
fd4a
fefa
fe2f
0032
ff76
01d0
feb3
fbe0
014a
0145
0239
feff
00f9
0035
01b2
fc25
ffcb
f41b
02b7
0110
ff28
fa4e
fe8a
00ef
0439
ff72
020d
fa03
fe4b
0031
012a
ff5a
f70b
00af
0385
fcbc
ff1c
0236
ffc8
0144
016f
fe67
ff1d
0024
ffb3
007e
fdbb
fab3
fe02
f52a
01f5
053d
0035
fd09
0380
ffc9
0990
02f8
00a8
fdf9
013c
ff7a
ff86
fbef
ff97
03ea
0093
03ab
0107
00ca
0046
0049
fd4d
0010
fb81
fe6f
fda8
00ec
fa57
fbac
fe9c
0c55
0275
0352
fd8b
00a1
ffc3
ff91
0446
008b
0527
fc5a
fc27
fc4e
fed2
fa6a
02b6
fecd
0405
fd8d
0075
030d
fde0
fd5d
fd01
ff60
01e9
ff7e
ff1b
ff8d
ffaf
ff80
fbf5
ff67
03c1
ff5c
fc05
fff1
012a
fd88
03aa
0172
03dc
006a
fef4
ff8c
019c
fdd6
f9e6
02b4
fe7c
ffd6
ff89
fe53
fffc
fdeb
fe6a
ff57
fa5b
ff9f
0086
fe32
ffa1
fe9a
03fd
ff16
001c
fe7b
ffdf
00ff
009b
fd73
ff91
0093
0174
05f9
026d
02f5
0016
0111
024e
0020
0065
fe0d
fe57
0229
0028
fc4b
fffe
ff85
0106
f7c9
fffb
fedc
0088
fb18
00d5
0042
013b
0044
ff48
ff03
fde6
ff30
0099
ffb1
ff60
011f
ffd0
fdc5
fe08
ff50
fe9e
ff95
fec3
01b6
007f
01a1
002f
ff9f
02f1
ffdf
0595
0349
fdb4
fe9d
003c
fe4a
fcee
008b
fc48
fdd2
ffb2
01e4
ff13
02ba
06aa
ffd8
002e
fd8a
00b7
0168
ff93
feb4
fc2c
0100
ff0f
02a8
fda3
fccc
0190
00a4
fb7c
ffb1
fa6c
feb2
01a7
0047
ffd0
fd60
0426
0109
fd4a
fd80
fe95
00c7
ff89
000b
fdab
fef2
fe48
0012
01db
00e8
fada
fecb
ffa6
fbed
0029
02b0
fe6d
fcff
00df
ff1f
0211
fd60
fd1a
fe0f
fcbe
fdb0
f208
fe3e
0001
06e7
ffaa
fcf8
ff9f
0014
fded
ff1a
ff57
008a
0510
024e
fd5d
002f
003a
ffbb
fe83
014c
029d
fbbe
fe18
00c8
ffd2
0014
0072
ff2c
ff84
ffc7
fd9e
ff01
f162
ff72
ffe2
0886
ffaa
ffad
fcb9
05a9
0069
ffea
090b
00d3
0171
fff8
feab
fdfd
0355
feba
006e
fcba
ffee
04bc
00f5
0168
ff10
011c
0361
008e
fafe
0202
fe3e
0090
0b58
0148
ff63
fcc5
00f7
00f2
fc6b
ff8d
014f
fdcf
011b
002d
04c1
ff62
f724
fc72
022e
fdd2
00c2
ffcb
fed0
0529
fd37
ffab
fef3
00f4
ff29
ffe1
0083
004e
0068
00e1
0177
0089
0210
009a
0507
0515
fb84
0059
ffce
fe28
029c
ff41
07a6
030e
fa25
0194
ffdb
0129
fc4a
01aa
02ca
fd72
0146
ff64
ff51
feeb
03e8
005c
fc77
ff3f
fb87
fa6f
009a
0068
f6eb
0117
fb48
fcef
fd96
0200
00f6
ff48
03d9
00d6
015b
fc1e
0191
03da
fde9
0098
ffd2
00b0
fd9d
ff90
feaf
ffae
fe5d
fedd
fdcf
012b
ff4c
0431
0185
fae8
008e
fd26
048e
0038
ff4a
001c
fc81
fe4b
fea6
00ed
ff13
0003
ffc9
020f
fd64
00fc
0105
ff49
f96d
ffca
fe1e
fdf6
ff8d
ff03
00ba
ffe3
fd75
016f
075c
f75f
fd81
fa29
004c
fea7
032d
fc2b
fbfd
fadc
fc32
fc22
fe49
ff18
01f3
fd36
fc62
fe09
ffe6
004a
002c
fea0
0415
0028
00a8
fe2b
000e
fce4
ffeb
fd9a
fb82
0155
f6ac
fb9c
fb32
ffe5
fdff
fc3f
1098
fe57
fbeb
ff6c
fe65
001d
0093
0124
fdd0
ffc9
fecb
019c
01cd
0225
f9e7
ffec
fb81
0818
00ea
0258
ff25
fd4d
0876
fac5
01b2
fa38
ff53
fdb0
ff20
fe59
ef80
fd7e
ff12
1dfb
021f
fe87
008a
0178
ff2f
fe83
fcf6
fedc
01bd
0068
fd3c
feda
ff74
011b
049a
ff5a
041b
fd88
0004
fde4
0164
000a
0008
0097
fd4d
febe
fff5
ff20
f54a
fb02
0033
1e35
0078
fdb0
fde4
0429
ffde
016a
085f
fefb
002c
0142
025b
00ea
078e
fc87
fd2e
f4f1
01f6
ff9a
010e
0123
fef0
fec4
01ef
00ad
fafa
0070
0054
fe9d
09c9
fb13
fce8
e7d4
00f9
0185
fd16
fefe
ff97
fe3d
f933
000f
0325
03b8
fce6
fc75
01ab
fa5e
fe14
02c9
018e
0469
0299
ffce
00fa
fe14
fe05
ff83
fedf
004c
007d
0132
ffa8
ffc0
0581
ff3b
0571
052f
fe57
0525
0046
01be
0090
002a
fcab
0162
fd0a
004f
0042
fe4d
fe16
007a
034d
fea5
0091
ff29
feae
fd9f
fd1e
ffaf
fa74
fd2c
00fd
fdd6
006f
feb0
03d2
ff1c
fd7c
0148
ff25
0099
ff81
fd2c
01ac
0020
0113
f99f
023c
016d
ff44
01cf
00e5
0060
faa8
0025
ff40
fe43
fdbc
fad9
fe06
013b
ff86
0519
00c2
fb61
0143
fbe8
054c
0077
fea2
012a
feb0
0114
00f3
ff66
0073
0009
0079
0121
fe1e
023f
00b4
ff3d
fc08
00d8
f7ef
fe3f
ff4e
fd6a
0100
fe4b
fbe4
003c
0501
fdec
fee2
fbc1
00a3
00b5
04ad
0095
05a5
fad6
fe02
f9e4
ffb8
fdeb
fd2c
fe9c
05b5
fdd1
01b0
ff59
008a
ff8e
03b6
004e
0188
ff6b
ff91
fefc
ff5f
fff4
ffe8
00c7
020d
02f2
007c
fe9b
00a9
fe51
ffaa
ff45
fdb7
feb5
fe25
ff47
ff81
004c
ffb3
fff4
fbeb
02a9
0067
01d9
0021
fd5e
fc3e
ff7b
ff9d
fd7a
0039
fecb
f741
ff9a
fbfe
0225
005b
00c2
0133
fea7
10f5
ffd5
fe69
f1b3
00b6
033e
fe95
fe33
ff77
003a
ff7b
0041
00d1
fb57
fdeb
0123
00e7
ff95
ff5b
fe72
0084
fcd4
02ce
ffcc
ff86
007f
fc72
fe91
fd16
004f
0050
0108
0e63
fe3f
fd23
effa
00ad
0431
f576
0107
000f
ff0b
f631
ff0b
fd51
ff6a
013c
fe78
f7e5
ff15
fdc0
0464
00d1
005d
02a3
00ca
008e
fea2
fc58
004c
facd
fe6f
0097
0146
ef53
006b
001e
0dfe
02d2
021e
fd52
0112
fff7
ff0d
fdc2
00eb
0302
f7ac
ff0f
f9d3
f9d6
012b
ff01
0102
ffac
f6ef
fb80
00db
fe0e
feec
fc9e
006e
fda1
0166
ff8b
01a8
ffbd
ffd9
0233
ffd5
03e8
fb39
fe63
0191
0176
fee7
fde1
00cc
0182
f789
00ec
ff43
010d
0081
ffeb
ffc4
0453
ff2d
ffae
004a
0179
ff89
ff38
ff55
fe52
fb9b
fe9d
fcc8
ff44
fcc4
0b03
fe86
fb75
00eb
022a
0209
ff98
ffcc
fd74
fe3f
ffff
0b44
022b
02b5
ff8c
ff7e
fead
002f
06f2
fe80
ff2f
fffb
001e
ff47
fd80
00a1
ff1f
f3df
03de
fc49
ff3e
ff98
fc88
ff98
fdc1
0061
fd8a
fef3
fd54
ffa0
ff44
fef3
0061
0098
fdbe
01dc
fef8
00a3
01f8
0071
ff57
0248
003c
fe9f
00df
ffc1
0254
004e
030d
08b5
fbae
fa67
ff60
032d
fe00
00d5
057c
0156
00e7
f950
0023
01b6
0053
0005
fd13
00b9
fe2d
01ff
0004
fd52
fc4a
ffbc
033e
027c
fbcb
fc0e
009b
ff49
03ef
ff72
fb1f
fee0
0152
fdf3
00f3
022e
f434
0062
fcce
ff6d
fde5
0055
febf
ff26
0476
ff19
fb63
fdd6
0202
ff54
02e1
0180
0430
fc46
0030
fe01
fff9
fd82
fde1
08c5
006c
ff6d
ffea
ff88
fcac
fefa
fb04
07f0
fb97
f948
ff0d
014d
fc2a
011c
ff3b
ffff
ff58
000b
01ee
ffa6
f67c
025c
0034
0143
fe9d
0029
062e
f881
ff6d
fcb2
fed9
02c2
fdc7
feac
ffc2
ffca
fdeb
feb7
f8f8
0454
ffaa
f8e5
0156
06c9
eda3
0917
0098
0226
f080
febb
ff23
fdd5
fe15
fe6c
00e7
068c
006f
0195
0019
0386
0021
0071
0018
fff3
022f
00d2
f5be
ff7c
fdae
fea8
0253
0865
08f9
076d
ffca
02a6
f992
0072
00a0
00e6
0162
020c
02df
f6a8
f6d3
fca7
00bc
0683
fd2b
fd98
ff53
fc18
f717
fbfe
fe65
01b7
fe88
fdc3
fa06
0025
feb8
017e
ff50
0190
fee7
feea
0184
f63d
f134
09fa
ff2f
0188
fbf1
ffcd
fe3d
ff3e
fabd
fec5
fff7
0342
feec
fe0e
fa4e
ff64
0042
013e
0068
01b8
040d
ff8e
f5c9
0005
fccc
fc3a
ff51
0415
f2c9
006d
ff6f
fd90
fd08
ffd6
00fb
0562
038f
00a2
ffc2
072b
fec2
0998
fe9f
02c9
f9b1
0099
f871
fc63
fbe4
fd90
fd20
067a
05f5
003a
fcf7
f539
01d0
f42f
006c
033f
fec4
007e
055e
ff28
fb26
fe39
fddd
0229
facd
fda6
ff1c
fbb3
fc2a
0300
00b4
03dd
00ac
0072
f854
019d
fdc0
fdf0
ff36
00f4
0207
014f
03a8
0472
f8ff
f354
fe46
0202
feae
fe6c
ff8c
0329
f3ef
f176
fef7
0031
fc15
fdbc
02d0
fc8d
fd21
02f6
0185
ffa6
ff03
00b0
fd53
044e
fb3f
fa25
00a5
0071
0342
00a9
f93e
fd52
f45f
fcfe
fe64
fd8e
fb16
fe58
f9e6
ff0e
fbc3
00c7
01b2
01cd
032f
fff3
f9a5
fea1
0243
fece
f91f
04cb
06ed
00cb
01d9
002d
01af
0062
0702
fff5
fec5
f930
ff72
0015
00ce
007e
ed5b
00e6
0188
0eb4
01d3
ff43
ff9d
ff24
ff37
ff8a
ff18
00e2
0100
ffef
fd7d
0177
ff3d
017a
00f1
0093
0348
fc99
0469
fec4
ffc9
00ec
fbfa
fefa
f897
ffe1
0221
0035
ef81
ffdb
fe8c
10c4
01dc
0292
f515
0330
fea7
0141
f729
00a8
ff55
00bd
0382
01f1
0981
0066
0169
f82f
023c
01e7
0064
003e
ff52
ff92
fe95
012f
f6f1
005e
0134
ff3a
099f
0085
0028
f826
009f
00e3
fbb9
feb5
00d4
ffee
fe2c
001a
0302
002e
ffc5
0199
01fa
ff82
0082
fe1c
02c2
ff93
0024
ffaa
0133
fecf
fd25
fe06
fc83
0085
0185
0170
ff21
ff6b
01fa
ff97
02ba
020b
fa47
0aa5
0148
0205
fe1f
ff25
0584
0276
fdcc
0096
ff7c
fdfc
fa78
00e2
02db
fc2c
ffe2
016d
fff3
00ac
fb78
0044
f984
0003
ffb2
01aa
ff4c
fdc7
0851
ff74
fd45
fe5d
010f
ff36
002a
00c0
0005
00c7
fff8
faae
0164
02fa
fe72
0004
fec0
fdd1
01af
fe20
0011
feaa
fc35
0099
fdf4
0058
0333
03ee
01e8
fa0a
00e7
006a
ffa1
003a
0037
0069
fdba
01ae
ff7f
ffb9
fef8
fec2
008f
ffdb
fead
ffc5
ff67
ff4e
03d7
ff2f
fae4
ff75
ff6c
0063
00ab
ffde
019a
0050
048a
fefc
fff0
fb8c
0022
003e
01e7
015b
fc99
ff54
f9e0
f7e5
0113
ff3b
fc63
fefb
0206
fe62
ff8d
012f
0121
feb5
fe07
010b
02d2
ff83
009b
ff7e
ffcf
0192
023a
009d
fcac
fbb6
fef6
fce2
fff6
01ed
f15f
0088
f9db
ffc5
fe39
0160
00b1
ffd1
01b4
ff42
fe52
00a1
0240
ff2e
01ef
0146
04d0
fcb1
003e
ff63
ff50
ff2b
f6b6
fc47
ff55
0458
037b
011e
008b
fecd
1ba3
fb3b
fe44
f672
ff15
00d6
ff3f
ffd5
feee
fef5
fc24
ff7d
005d
0051
fd94
012f
005a
014a
02fe
ffca
040c
fe21
014c
febc
008d
ff41
ffff
ffed
ff9d
0071
ffe9
027f
1a7b
fbad
fcf7
f522
0024
fc72
03f8
04e1
fec2
0002
0244
01b8
014e
0123
0028
ffe7
f2ec
fb42
fd77
0775
fe63
ff6a
0188
ffdd
0045
ff41
fd52
fee3
f9cd
0026
0076
0069
ec8d
fb9a
fa59
02bd
ffce
0062
004a
00e2
0091
ff03
f7d6
008a
0545
fb60
fef9
fb43
fa01
f833
fe16
0055
fd19
fa49
fd21
fc0f
013e
fbf9
fc3c
00b6
fbe5
00f8
ff2b
0217
fdbb
fee2
0275
fec8
051b
0428
fdcd
0398
009a
feff
0036
0000
fd86
fe7f
013b
ffb1
0031
ff52
050e
013c
031e
fdf3
007f
ff9d
00b2
ff5c
0048
001a
f927
fe22
00bc
fd97
01f0
fbf2
05f7
ff5e
02f1
01f5
0042
fecb
ffc8
fc39
fa6c
fe09
fccf
05eb
00f4
04b7
006d
fea7
ff4b
ff55
fdbd
fde7
0055
fd60
0045
fa26
f9fe
ffb7
febb
0390
014d
fb97
ffa8
fe68
fff8
fe62
01f7
001c
fe85
ff8d
ffed
feb5
0457
010c
0067
0042
ff2f
0290
fead
fe22
fc62
ffdf
fd25
01b4
ff1d
fd9d
0068
fee5
fae5
0109
0232
fde5
0087
f977
011d
fe6d
056b
0182
02fc
fdc0
01a9
f9de
0036
fde4
f99e
00f9
fffa
006c
ff4c
039d
feb8
ffc7
02b3
ffd3
02b0
0093
0234
fcfb
00f9
fe45
fd86
0034
fcab
fdc5
0230
000f
0000
fe92
0364
0029
fd62
02b2
ff86
00ba
ffb0
0091
fc15
0081
fbc2
ffcf
041a
ff13
0037
fd61
ff1d
fbeb
ff3d
fe87
fe6e
00a6
fa7f
00c7
0014
0110
021d
01f3
fdeb
0125
098a
ff57
02b3
f446
fed9
0227
fe7f
ffa0
ff40
ff2d
017e
feb7
ffeb
fbdd
fc2d
025a
01f0
0002
ff44
0001
03c7
fc48
02a8
fb8d
ff91
0170
039d
ffa0
fa57
0057
ff2a
0110
0789
00b1
0326
f1e3
0225
0186
0263
0628
ff25
ff5d
03cb
ffa6
fc51
0028
fdc5
0123
fab0
fdf1
ffe8
05a7
ff9d
021b
fde8
fd09
fee9
fe38
fffb
fe3b
faa9
fe6c
fdaf
0101
f83f
ffbb
fd32
0402
ff99
015a
fd6b
0003
00ca
ff2d
018e
00e8
046b
f959
fa55
fee2
fcd1
fa8b
ff10
ff85
fd9f
f867
f8c2
f8d8
fdf1
fddc
fc1e
fed7
f8c5
fea3
0035
014d
00a6
003b
fc62
0037
0595
faeb
fd43
0736
0075
fdbf
004f
00fc
fd31
fb62
000d
009a
fecf
012c
01c4
fe7a
01d7
fe78
00da
0133
0022
ffab
05b3
0089
feec
fe0c
0048
fde6
0050
0100
f1ed
021e
fc82
0051
fedf
0007
ff88
fe83
febd
fecc
fe6b
0b68
ff70
0a58
ff8a
02da
0161
fe8a
04d5
fd9c
ff7b
fd1f
00aa
fdf3
0086
000d
0024
f908
0041
faea
ff83
fd17
fd97
003d
fdd3
fffd
fcdd
ffc5
fe6f
0164
ff3a
fe33
ffac
fd11
0068
00b6
0196
fea6
fa73
ffb6
f96a
0323
0100
ff34
0087
0157
00e1
00f2
0593
03be
fe3c
f87f
00fb
fef8
fd49
0070
02d4
0166
fcb4
f992
fed8
fe80
fd77
ffd1
029f
000f
0149
019f
ffeb
00dd
fca0
002f
0198
0224
0173
fce7
0112
ff25
fcf7
fff4
fd2e
00d2
fedd
ff48
fd62
fe56
0a89
fe28
f939
0159
01d5
0419
01eb
0022
fc32
00e8
fc51
0007
03c9
0073
fb01
00d6
0052
fafb
fef5
fe62
00b1
0105
0321
fdc2
fd2f
fdd2
ff39
006a
ffec
00df
f888
fbca
00ca
024b
ff4e
0123
fe19
0016
febb
feb5
fffd
0060
0392
fe8d
fe2a
0110
ffd8
feed
fc71
00ad
033c
fc3e
03c1
ffff
ff8e
022a
0504
fed7
0332
005c
01f6
0177
f67d
fcff
00b6
ff67
005c
0531
0425
00cf
01c0
021b
05ad
02ea
ffac
0038
02ad
0289
05a5
fb72
00cc
fdc8
00cf
02fa
015e
fc23
fef2
ff6b
fd13
ffe4
f9f2
fff7
00a4
01d9
0429
fb72
00eb
fe4a
0111
00c0
ff9a
feb9
fffb
ff57
044a
0124
0310
fc15
fdf8
01ba
007e
f790
fbf4
fc7e
faf1
fcf1
fe4e
ffbb
0166
fcc8
f8fb
fe9e
fddd
01e4
0104
ffb2
ffaa
ff00
fc12
fff4
0100
fc37
fea5
05b7
019e
ff71
0371
0057
067b
0021
0144
00b7
010a
fce7
fccb
01c9
fe7b
fd03
0025
0106
0057
ff54
fc30
ff2d
fc2b
00c2
00db
0137
ff0d
fcff
03bf
fea4
ffd4
fef7
00cc
ff64
ffbf
fcf9
ff4e
0100
ff8d
01b0
00d7
0395
fe36
ffd4
0245
ff3f
03a8
fcf2
0160
ffd3
fe1a
fc0c
ff27
fe84
0184
fd6e
0138
fe04
ffed
fba0
fba3
ffb4
007a
0089
feae
01fc
007b
fefe
006e
fe73
0079
fef1
0255
fe78
fed6
fd5b
fea5
ff74
fe46
0049
febe
fe5f
002f
014d
02be
ff93
0690
0130
fea1
ff24
016c
fc80
fcaa
005a
fa40
0131
fc9d
0087
fed3
00f3
0353
fe2d
fd5a
fedc
ffcd
ffca
0068
fe6f
fab3
0066
fe7d
0322
ff96
ff1d
ffb7
00b4
fe66
00fb
f72b
fdfe
003e
ffe1
0101
0102
003a
ff59
fb91
00f1
fdec
0192
ff31
0082
0018
ffa3
fee9
fe57
041d
ff82
fd74
fd58
0277
faeb
011c
0293
fd0b
01b6
ff69
ff2a
fcb3
fffc
fa89
ffd0
fe6f
ff28
ff70
fea0
ffac
01c4
1837
ffd3
0098
01f2
fdb1
fe16
fcff
fc58
0052
0053
ffdd
f9c5
010b
fdc5
0153
fdbb
01d4
0189
00f9
03b3
fe38
00a3
06fa
0364
0001
029c
fe8a
fe64
fbc8
002d
fed2
0103
1719
0ae7
0306
0862
064a
032f
fec4
059a
01f4
0062
fe9f
ff49
ff9c
ffd3
ff4a
0096
f222
0147
043b
009d
fd8e
00b1
fcea
0045
006d
ff02
fe89
fd85
fe48
ffff
feca
015a
eb3b
0063
016d
01e2
0267
0154
032b
fe3e
fed8
010c
fcc4
fd96
fbeb
fc98
0302
0180
f735
fc26
fc54
fd46
fe0d
fad3
03aa
01ef
ffaa
fa3b
ffe0
fb3a
044f
0288
fcbe
fdea
010f
0105
fcad
fe4e
0205
004d
015a
ffee
fef7
011c
fe9a
020d
ff25
f7d7
0424
feb6
ff20
028d
ffb2
039f
ff21
0062
fffa
fe21
004d
f7b9
f79a
fc85
0604
015a
0184
0174
017f
0223
02ab
feeb
fe63
01e9
003d
0420
ff29
ffb2
0260
fc54
04a5
fc34
01d3
fe7b
0162
0038
fd50
fdbc
00d3
007f
ff22
feb9
fe1e
03cc
007d
fee3
ff59
ffef
01db
00ec
0001
ffdf
fe7d
0157
00ea
ff73
fc89
ff57
fe99
fbcd
f39b
ff0e
0231
0268
fff3
ffee
0086
016f
fea2
0029
fe73
ffb9
017b
fed0
ff7c
0127
ff19
001c
0208
014d
ff79
041c
ffc5
0023
00ce
0137
fee4
fbe9
04a3
02a5
005e
0247
01ca
00b7
fd9d
ff43
ffbd
ffd5
00d9
fa14
f5d6
fd01
fe00
fd1a
fd9d
fac1
fecd
08e5
035f
0bdd
fe5f
fd14
ff12
fb1e
00d8
f9df
f8bf
fe7d
fdcf
ff5c
0245
fbd0
ff16
fe3b
ff4c
fe73
ffe8
ff82
01cf
01f4
02e9
fe5c
0170
fe49
ffb0
0216
ff83
0030
f7c7
fe97
00eb
002b
ff28
0179
00cb
feaf
128c
00b4
fe0e
fa83
058b
fe25
fca0
fc77
0257
01be
fd0a
03ac
faa0
fc62
04da
f992
01e7
ffa4
03a6
fb93
fb98
0348
01c8
fe7a
006d
02a9
009c
0205
fec7
fe63
0205
ffdd
1346
0cd4
04fa
f28f
fe89
0b60
fc64
0b1c
0138
0024
012c
ff94
ff4f
fc50
fe3f
fef2
f4de
ffae
0206
01d4
fbc9
fe86
f997
0065
ffed
0039
fdd2
001e
ff08
fe33
0034
fec1
ec77
01eb
0024
fb14
06d1
004e
0124
fedc
0031
ff18
fcf2
009e
0045
fbbe
0629
fd4c
f9e4
fbe6
ff39
fec8
fdb4
fe0c
078f
fdfe
00ac
fc07
015c
03ef
fcad
f83f
fd99
fc8d
ffa7
03f9
ff51
fd19
082f
fac3
fd6f
fcdf
015f
01bf
0099
06c3
00dc
01be
fecc
fe9c
ff7a
026e
0133
fe45
ff3a
fffa
ff01
ffdb
fffc
eeba
fe29
012c
f6ce
02a9
f952
0219
008d
01f4
03cf
001b
0238
fe75
0b5f
fd4c
ff46
016e
02e1
058f
0794
fd08
03aa
fe00
02a8
00d4
fd8c
fc98
045b
fd52
01dc
fe24
fece
03d7
0447
ff25
fe1b
fb9f
0013
feec
ffac
fe7d
003c
fd9d
0087
0123
fab7
ff75
ff56
f808
f2f9
0290
fadf
fd79
fff8
fade
fe8a
ff2f
fc5f
f9de
fedb
fefa
ff52
f9f6
0031
0073
ff59
0628
f69a
fd69
0391
fdea
fef4
02c5
fe6d
fdda
00ed
002c
0160
fd79
00f7
0297
0244
027b
fdc3
fe2a
fe53
ffe2
ff6a
fc44
f9f2
0377
fd08
ff6c
fd20
faa8
ffe7
0e5d
fc7e
f77b
019e
0733
ffbc
01b4
feda
f87d
f737
0356
fffa
ff4e
0140
f7a5
ffa0
fe59
017e
014d
04d7
fc7d
01f4
0071
fef4
ffa0
ffa8
fdac
feae
012a
fc34
00a6
fa1b
fda1
fe84
fde0
0062
014a
0096
0119
082b
00e0
fe76
0131
01b1
fd70
fe0a
0047
fef5
ff2f
01a4
041e
ff23
fe72
0535
fd38
0029
fdfb
0001
fe81
05fe
ff65
001f
00a8
0110
01c3
00b1
feb2
025f
ffa3
008b
0061
04c8
0a8b
060d
0219
fb08
0482
0166
07a2
02a5
ffe1
fed3
fe2b
ff7a
fc79
fde3
ffb7
fa80
0079
0369
fc13
02d5
004c
fd72
0050
0069
ff5d
fbcf
ff98
0258
007f
fe58
0112
f5ab
002c
00a1
ff9d
0246
fe63
fed9
0024
ffee
fdc0
fd38
fd3d
0438
fadf
018c
ff65
fcad
fdff
fd56
0001
0177
fa3b
0227
feb2
fe45
0050
0302
03ca
0080
fd09
fcc6
fd8c
00a7
027a
fee2
02e4
0220
fcd0
ff2c
013f
00bc
032c
01ad
fb4e
ff5b
fef8
fbea
05f2
fede
010d
0107
fd8d
ffc8
002b
fdb9
01bc
ffc7
f1df
00f6
05f8
fa3d
017f
fe9f
03fc
001b
febd
fb27
004d
028c
ff23
0359
ffce
00d7
fef1
0210
fc88
fde6
0102
02e4
ff7a
0177
00ce
fdd7
ff45
003b
fafc
00e6
0131
00db
056a
0476
0391
0122
fa1b
01ba
00e9
ffa1
ff07
feea
fc36
fe74
00f5
fc68
0076
0062
f9bc
f39f
0138
0000
fdaa
ff1e
ff38
fecd
fd7c
0026
ff22
fe6b
ff89
0124
fb5b
ff52
003d
fe03
fefe
fa98
0011
ff29
fe65
fe3b
011c
fdcb
fa09
fee7
fe07
0372
ffd9
00aa
01ac
040c
fd5d
fe04
fd28
fea2
fd3b
ff6a
fe6f
fc06
000c
fee6
ff80
fee9
0009
0020
0960
04cc
fecb
fffb
fffb
0328
fc4c
fef5
fca2
f54a
fd67
fedf
ff06
ffb7
0013
ffb5
fe1c
ff4c
026d
0351
faf1
fed1
ffcd
fdf2
ffde
fea8
0259
03bc
ffab
fe0f
00d0
fdca
0044
ff90
ff94
0433
fcc1
ffcb
0028
00e7
008d
ffa7
02f0
0714
ff8d
fd54
fd39
fed1
fca4
fca0
fb84
f97c
0220
0217
fcb4
014d
0170
fe47
0338
026e
ff4f
03c6
0205
00f5
fef3
ff1f
fd1b
03ff
0272
0008
0047
fe2c
feff
032a
080d
f6c2
f6b1
fe50
0943
0126
00ed
ff19
ff7d
023b
0373
02cd
000a
ffe3
041d
ff7f
fe28
fbcc
04a7
fce2
ffb2
0037
fe05
ff98
ff4c
0211
0173
02d4
003a
fca9
0203
0499
0379
02ee
00b3
023d
ffbc
0113
feaa
fc56
fde6
07a4
fc3d
05ea
0047
fdd6
fd1a
fc09
0064
fe5e
ff46
0522
fe79
ffa5
fd22
fff8
fdea
feca
03b1
fd1f
fcc4
ffde
0111
fc20
fe57
fc4d
04a8
03e1
fe8b
00c0
fe8d
fcc9
f80f
faf4
edec
00af
fda3
ff35
ff39
fd68
01f7
0177
0044
fd7a
ff9b
ffee
01bb
fa81
ff01
f563
fb9f
ff7c
fe05
fef1
01b2
0238
ff6c
0600
01f2
00fb
00b8
ffa7
fef2
01c6
faf1
0249
fcf5
027b
ff48
0119
ffb7
fd9d
fd67
038f
0530
ff0a
ff83
fe93
fe86
023c
fd8b
fe56
06b2
0421
0150
fec7
0231
fd9b
014e
ff72
fe21
fe24
fefd
ff2e
0295
f180
0367
f5c3
ff61
00e9
ff10
feb5
0245
0060
002e
0039
ffa3
01c0
fc8d
0133
ffb7
fde2
fd33
faa8
010f
fc4a
fe85
ff6b
00c1
ff9b
00fa
0465
fb97
01b4
ffc9
0004
fcad
0209
fd09
fcac
05e1
fd10
0054
0098
0364
f70f
faa9
fc2d
0271
024a
f9c7
ff7c
f9b8
0261
066f
031f
f772
fee0
fed1
ff9c
02b5
fab4
fb3c
fe31
fef8
ff7a
facc
ff8c
fda3
0171
fd9f
02f0
002a
0185
0081
fbd3
feff
0212
fe92
fe57
0229
0297
000f
fb1c
fece
ff1f
009f
fdff
fff2
0014
fcad
fa50
fe1d
0101
fa38
fe19
0215
fca8
fc38
fe40
fe43
fe43
fd0f
f87e
f700
014c
fb33
ffdd
000d
01ba
016e
08b9
060b
06d9
fe41
01ca
0090
ffc1
fdeb
0066
fc27
fd8c
feb0
fb42
fc15
03b7
0150
054a
0936
fd10
0cd7
ff8a
004a
0115
00ae
0034
fe69
0504
ff46
fe82
02dd
fe27
01db
0606
fe5d
ffb8
ff40
febb
fe92
00b2
ff3b
00bf
ff13
0910
fde8
0406
0284
020e
01f1
04d3
00a2
ff26
006b
0019
ff44
fce3
0000
ffbe
fabe
121d
feec
ff7b
fe6a
f8bf
fc2e
fb02
fd30
0612
fae7
ff82
fd37
012e
0348
fe64
0011
ff0a
fabc
00d9
ff10
fca0
fb40
fb3c
fc49
02dd
f9e2
0053
fc35
fee1
0d3e
001c
027d
07e7
fff5
fe31
ffaa
00e2
0123
fda3
fef3
fe3c
00e4
fff4
0564
fcaa
fc88
fb18
08c6
021f
00b0
fd95
0284
02a9
feba
00b6
031b
03d4
fc85
00b9
ffc7
0025
0505
fb4d
00a2
0349
ffee
ff85
fd3f
ff81
ff60
f9d6
f9a3
ff17
fe76
fdf5
fb00
0113
f9c9
00c7
018b
0281
00ec
fea3
00ad
fd96
ffcb
fdf3
0088
fde2
fe86
fe55
0545
ef94
fba2
fb84
01f2
0112
f934
fe57
03e7
001d
fb1c
fe75
0072
0030
fa1f
00b9
ffa7
00e4
07c1
fe68
00e1
0160
fac2
001f
011e
ff17
023d
092f
ff15
01db
fc31
0095
fdc1
02a3
ff1a
fd2a
ff8a
ff94
00bb
0011
02d8
f810
fdb6
00e7
0103
fe49
f966
fe7b
f41f
fd2d
0492
047f
0bb9
009f
0004
feee
0349
f8ef
fff5
fe6b
0041
000b
f789
002a
ffca
ff8d
018b
fd29
fd3c
01e1
fee2
fd8a
004b
ff92
ffd0
ffa6
00ca
fdd1
00ab
ff1a
002f
fcfe
016c
fea2
0210
00c6
fe8e
fa60
fca1
ff4b
f98e
f839
048f
ffd1
fd52
feac
0152
fff8
09ee
0231
fcab
02e4
fffd
00e5
0244
fb7d
fa05
fd96
0065
fe70
ffba
01fb
01c4
ff0b
01cc
feab
feb7
022f
febd
f9f8
fdf6
02d9
f995
04c9
0635
fbff
0c1a
fe86
ff8e
fe55
014b
fdfd
fcd1
0105
0039
fddf
00d1
ff4e
fa90
06bc
0096
fcef
fe1a
003c
fd04
ff63
ffab
fefd
fef4
02ce
00b0
ff07
ff8b
02a3
fa3b
fece
000f
ffd3
ffe5
ff4a
fed9
ff2e
ff51
fa89
fc25
0835
ff15
00a2
01f9
f8f1
f8e9
f9bb
fd4f
04cc
fea5
0009
ff03
00b0
04dd
04d9
fca4
fe2c
fccb
00cc
fd8a
fbee
0065
fdc5
fe44
fcc1
fcae
0063
00aa
0025
fbeb
ff67
014d
0363
0743
ff47
00d5
00c8
fd6d
fdab
01a5
fe06
00ce
ffe5
ffec
fbf6
06f2
070a
07e1
fc03
02f1
fda4
00b2
febe
01b6
fd66
0044
0333
ffc2
feba
fd21
00a5
fafa
fb1b
fed3
059a
ff89
0025
fe82
fd13
0125
fb10
fae8
02a9
fff4
fd33
fdf7
03d7
08de
01aa
fc0f
01b4
030d
ff65
013b
fc6f
fc8c
febd
00ff
fe60
ff8c
ff4b
01d2
ee34
0520
ff26
03f2
030b
fce8
ff73
ff20
00d4
fb07
fb10
0163
ffb3
faea
0060
01e3
fdbe
04a0
04c1
fedc
0058
fdaa
001b
009e
fd98
f796
feaa
fe6c
0366
fc66
ffc8
00c6
0575
006e
0457
fcde
ff09
ff94
ffd8
00db
f916
ffe2
027f
00b2
fecb
0056
ff28
fe67
0489
f647
f769
fe87
00dc
fc78
01b3
01b8
f67a
ff06
0112
00ea
0187
fd32
006c
fd81
037d
01aa
fe80
fc3d
0211
fe16
fe23
0140
ff00
0138
001e
fd1c
fcdb
000b
067f
02d2
fec6
fef7
ffc1
fd20
0126
00a3
f302
013e
fe58
0476
fbb3
fee8
ffc7
feff
ff94
febe
01eb
fc17
0031
00e7
0212
fed4
fe74
fee3
00a4
006b
000f
fefd
02f8
ff99
fee4
fef8
fe9c
ff00
016f
0226
00ac
00ac
f061
fad8
ffae
0240
fe17
f448
fe8c
026b
fffd
0180
feb5
fdac
ffad
04de
00d7
ff6b
0b78
fec3
fd26
ff0c
0265
0362
fe87
0100
ff2b
00cc
ffa1
ff70
ff9c
fffe
fe16
fff8
0f13
fe42
0548
035d
ff13
fff4
ffe7
ff68
ff41
fef3
ffad
fc30
fc8d
fedc
ff3b
fee9
02d5
fef1
fac6
ff55
fd66
ff48
0649
feb2
ff78
ff07
007b
fea5
00c4
ff17
fedf
ff58
005e
002e
faa8
01a6
fa49
0968
0125
ffd0
001b
ff3e
ffb5
fc39
00d7
fcc9
ffdb
fc74
00da
fb71
ffb5
01d2
fcbb
fea7
feff
0127
0021
0801
020e
004f
049b
fdc7
0074
fe36
ff37
ffb8
fecf
ff24
fec6
0040
004a
0022
001b
ffd7
0025
fdc5
fcdb
fcb1
ff71
0347
0245
ffca
fece
fd61
fd3d
04de
febb
ffb9
00ff
fbdb
02b9
ff4e
01f0
0573
0277
fd21
ff9a
0309
0130
0019
ffb2
fd7b
0097
ffda
fe78
02ea
f6c4
01c0
0400
fedf
01c5
0077
fdc8
03cb
043e
01bd
0052
ff21
002e
fd9f
0149
006d
fc1b
fc73
0442
ff8b
0045
0276
feb9
ff5e
0296
0038
02c2
fd60
ffd9
fe2f
ffe0
fc72
009a
fd0c
0038
0131
fd9e
0099
006f
02c1
faa5
fef5
00d2
03d3
ff42
fab0
fef5
fb10
ff79
fef4
f4ef
f6bc
0047
0224
fe99
00fe
fd5d
fcd0
039d
fd3f
012b
f9c4
007f
01b9
0185
fdfa
fe63
0242
ffdb
00bd
ff6c
016b
0060
ff36
fddb
0103
01a6
ffd3
0964
ffff
00c4
fff6
fe88
0088
0103
fe19
ef73
ff60
00b0
02ec
fe64
01c7
0218
ffc6
fff9
ff2d
ffc3
f6bd
01ad
ff37
001f
fc75
ff44
fba2
fe94
03e1
f81e
0177
02dc
ff3a
0049
fe82
0113
fe01
fc4f
0198
fe8b
feac
ee88
f7a7
fc15
094e
0699
fd23
feff
05dc
fea6
ffcd
0179
ffc5
fedf
035b
01d0
fed8
0aaa
faf2
fdea
ffbc
ff80
01b8
0065
0036
ff3a
02c5
0066
ff17
feff
058e
01c6
fe5e
12b0
fe92
0109
04cf
ff34
ffcf
0057
0097
0098
feb9
005f
fe26
f991
0107
02a0
fdbf
03bf
faa3
fee9
feee
fd4a
fede
04e5
fc9e
00ad
feab
01a4
f9e0
02d1
0230
00c7
fda5
006c
0063
0090
ff81
ff85
0232
0390
fcbe
ff59
fe10
fe20
fe91
fffc
f921
0239
fff1
0059
fa20
fd07
022a
fe1c
0003
feb9
0161
ff24
0e3e
fd1b
f647
07a4
f8dd
020e
01ee
ffc8
fd29
0260
fd07
fd0a
01c3
fdba
fb74
ff4e
011d
0267
024e
00a6
0013
ffcf
0606
0079
014e
020a
0070
fd2f
ff89
ffc0
ff4c
0013
fb80
003f
fb6f
03a0
0551
0523
fd24
fff7
01c8
01c2
00b6
ffb8
00fa
fe69
ffb8
ff9f
04f8
f792
fffd
04a0
feb4
0372
fb93
ffc7
01a5
0392
03d6
ff05
ff22
00ed
fc93
006c
ff5d
fcca
fc90
04b8
01b4
ff91
fee9
ffb4
0001
ff9e
05c0
fc5b
fcf4
ffbf
fb6a
008e
fb19
00ba
fa73
fe9b
0209
fda8
01e7
ffd8
02b7
fb4b
fb93
00fe
0068
ffcc
fa08
feda
f59f
fa21
0961
016e
01a9
fef4
02e2
ff71
0433
fd7f
fbf3
ff00
fc57
012b
f795
fffd
035d
01fc
00d2
fc5b
02da
00ad
ffe9
014a
029e
ffae
ff9d
0092
ff18
fcea
01a7
08a2
009d
ffa4
0058
012c
01ea
01a7
00d6
f1b6
fd4d
00be
ff1b
fd6e
0106
006b
02fa
002e
fef1
00ff
07fd
0286
fcf2
0293
ff4a
001d
ff4c
ffbd
ffc0
fa79
ff53
028a
fccd
0022
fe78
fec3
0048
fec5
0125
0074
fed1
f3a6
fd25
fb6d
fdce
ffac
046f
fc3b
0474
fea2
002c
0017
0152
0108
ffd7
01b6
00ee
0a8f
fe26
feaf
fe4d
fe7b
fff2
fc71
ffa0
001e
01a6
feae
0057
ff0f
000f
019d
0055
0a71
fd6c
02bd
011a
fe34
0109
0017
ff05
ff22
ffeb
004f
ff8d
fd7b
0040
01ea
ff43
048e
fdbf
0008
fa17
ff1f
fb9e
01e6
ff8e
0064
0058
01d4
ffb6
039f
fe0c
ff46
fd32
0096
ff7b
00cc
fa94
01f9
fcb1
0091
ffa8
00ed
0193
fca1
03cd
0273
fccf
0340
04e2
0023
fbce
03c2
ff4a
fe1c
fff7
ff96
02b2
ff0d
0c52
fbcc
fe48
0667
fcf3
ff56
01a9
000d
fe40
0156
00d3
fe5e
00f4
002d
007f
ff52
ffa7
05e9
ff14
0068
0053
0475
050d
01dd
fec0
00cd
02a7
fe2a
ff6f
01fc
0276
ff94
fa6a
fe87
0025
fdcd
fd95
013a
fffc
00b8
01f5
0094
fddf
0117
0210
ffdb
00e3
0055
0342
f701
fdf5
fff9
ff49
00ff
ff1e
ff3f
00d6
01a1
0101
fd9c
01bc
fff6
fd24
0058
01c9
fd54
03f9
0223
fb9b
0026
fdd1
ffeb
fe27
ff1f
0440
fb76
ff41
00e0
ff75
fff1
fe13
0337
fba8
fc95
ff8a
fcf0
012f
003a
0291
fc15
03b8
ffcd
004f
004d
fe5a
00d9
fa7a
ffef
fb2a
fcd7
02b5
fd92
01f4
0057
01fc
fcff
00e5
0022
fdb2
0255
fc85
0051
ff9e
0228
021d
0091
fec7
01c3
ff5a
0128
ffc2
fef5
ffe2
f936
fbc3
0249
ff09
feed
03a5
fd75
fe5b
edc9
f7a8
019a
fef8
fdd0
fd24
0302
0009
ff76
ff4d
fd7e
feca
016b
0002
ffcf
ff17
002f
ffc7
fd7c
ff65
fee0
0274
fcc2
fed3
fffe
fe87
fea2
fe5c
fe6f
0034
fc3f
fd03
0a07
f9b1
02fe
fe20
fe06
06df
04a8
f8be
ffc0
fcb7
00ff
ffa8
fcb5
0156
fb9d
fe27
eacf
ff8f
0110
ff56
fea2
022e
fe12
ffa3
017d
0292
0174
fb1d
0047
ff6c
fb43
ff9a
06d4
fca4
01aa
ffa6
0040
fa95
feb6
ffa4
fee4
0069
019b
ffba
002e
022f
fba1
0029
00ed
fe76
fe3b
fd46
fc61
fe4a
fdac
02b7
ff6f
ffc2
fc19
fd23
00e2
fa47
00d6
01c1
ff0e
0024
010c
00b8
ff92
017a
00dd
fda6
ffa5
007c
fbb5
0495
fe76
ff79
0062
fe69
ffb8
fe72
fe6e
fb13
0093
0262
00aa
0044
005f
ff43
017e
fc2c
ff50
0075
05aa
02f4
0135
ffac
fd43
028c
ff30
0000
fc15
ff88
fe71
0061
01f8
00dd
fe5d
007c
0206
0021
ffa9
fe8f
fc5a
f8a3
ff33
ffd3
ff6a
ff31
fc1e
ff18
f997
fede
05de
003a
ff14
fd56
fe78
ff30
fe19
0551
0169
ffce
0315
0473
f570
ff70
0202
ff5e
00f6
0396
0079
0207
ffbd
01be
0172
02df
015c
fbda
fd66
fe85
014f
016b
003c
00ac
0127
02d4
fff7
fd0e
005e
fde8
00ce
fa06
03da
fee7
008f
fd61
0073
02f8
0082
fef0
033a
fc53
ff2c
fc92
fffb
00cc
00e9
ff88
ffa1
03cb
0147
0294
011c
ffb4
ff58
01b9
ff10
036c
ff9f
f9f0
005e
ff6a
feed
ff61
ffd9
024f
0108
021f
ff80
ff55
0144
fe33
0032
00cc
fed7
008b
feb6
0039
ff9e
0132
008b
fd99
0350
0084
fd61
0050
ffb7
0159
0102
fe57
02dc
01eb
ed8f
fbd0
fe38
ffbe
fc99
fd68
0068
0120
00c1
ff72
fcc5
008b
01ca
fd94
feed
fd87
feec
00d1
fd48
fc34
fe48
fed7
fe34
0018
ff42
fd64
f951
0116
ff7d
023c
00b0
ff1e
0b4e
fe24
0136
fe5b
0069
fc5f
fb08
fa09
0032
fdd3
ff44
ff52
fdb1
fee6
ff4d
00fc
f093
010f
feba
fec3
fd20
031d
ff48
0164
ff67
039c
02a9
0063
01b9
ff40
ff7f
001f
0271
043a
fd53
0091
ff0b
fa83
fef9
0095
ffca
ffeb
02c0
ff67
00e6
fed6
fe36
00ff
0132
fe67
fd8e
fd97
f96a
fa98
0168
02bc
fe47
016f
fc88
feab
0194
f765
fe95
ff9b
ffc6
0006
01c1
ffc6
0154
0240
0306
fe85
ff10
0116
ff1a
0375
036c
ffcc
0124
00ad
ff7f
fefc
fefb
fd12
fbe4
0242
00b2
ff4a
0057
00da
ff8e
fe13
0120
076b
0312
042e
0356
ff47
fa97
051c
fe18
fdf3
fdf3
008b
ff07
02d6
0086
00e8
0317
0014
ffd0
0002
fea1
ff22
fdea
ff4a
fde7
010b
01e0
0000
fd44
0142
f69a
fcbe
0b22
fda4
000c
feb0
ff8e
0000
ff40
ffcb
093f
fddd
011b
03b1
fa0e
ff8c
02a5
ff99
fa79
0723
01a4
03b3
0179
feba
fe4a
05c7
017a
f6d2
fd99
050a
0068
01af
03c8
0191
015a
02db
009a
fed9
fe51
fe7c
ff97
fd4a
ffb6
01a3
00df
fec7
ffb7
00af
face
fdd4
0198
fb8a
0187
fcde
0043
fe5d
fe49
fd80
0285
028f
0061
02f2
0012
0044
0000
fe21
fc76
f560
fcba
fc48
fe32
0140
0090
fb25
01a7
02a3
01ad
02d8
00e5
ff32
0223
ffe4
fed4
0039
002e
007e
011a
020b
ff2f
0020
034d
0210
fecb
0048
038c
fbe4
02a3
fff0
015f
02bf
ff8a
0086
f6c9
fe55
020d
ffa0
fbdc
fdce
0069
00ce
00e8
ff86
fcf5
00f1
feb1
fbf2
fd29
f8ab
ff9b
038a
00e5
fc8e
0129
0131
fe9b
00ea
fdcd
fdb0
fbfa
007f
ffaa
007e
fdd8
fdf3
050c
ff58
02a0
feee
01b3
0426
fd12
fdd5
00a1
facd
fed4
ff99
fb3a
0037
ff98
0067
fd15
ff85
0194
fdae
ff56
01ae
fe5a
009d
00ac
021b
0071
0175
027f
fe72
ff58
ffaf
015c
fc7b
02a4
006f
fe23
fa86
00e2
01ff
00fc
feb2
0313
fe06
001b
015c
fecc
00ff
0133
fcca
01a8
fe5f
f7bd
fedc
ff8c
ffce
0136
004e
0299
feb5
0039
f937
02a2
fbc8
0042
000f
fe91
fb0f
01c3
0158
027c
fece
fed0
fe3f
0255
00bb
0000
ff95
fe8f
fe3e
ff40
fccc
0118
ffb6
fb93
03eb
ffa8
fe51
0090
ffba
ff3b
fed4
ff84
0571
01f2
0288
00ff
ff01
0128
016c
fb5d
0024
0091
fed2
ffd3
024e
04b1
00a0
00e0
01e2
fef0
02b4
fef6
fca9
ff2a
0429
fd56
0153
ffe8
ff1c
ff2f
02e3
fa41
fb25
01fe
ff9b
0141
fc82
ff1d
ffec
0322
f976
04cb
0025
025e
035a
0086
02df
03a0
0007
fd9a
04c2
019b
047d
002d
ff38
ff90
005e
00a4
fa02
ffb6
046f
fe6b
00a1
ff7c
02cf
ff2e
021e
00d6
fa46
ff9e
ffbe
033e
0156
023c
0002
02db
00ee
fd35
0093
fadf
011e
fe4a
fd54
fe58
f8a0
fe1f
0060
0093
fdad
01bb
018c
00d2
00d5
0077
fee2
0237
ff0a
026f
02be
fd96
fc8f
fe53
ff31
fce6
fa07
0055
fffa
0138
fcba
fef6
ffe1
00ea
fed9
0012
00ae
0091
0232
02ef
007b
0123
ff58
0116
01c2
ffd0
0243
fb5a
fc15
0016
febe
fecc
0066
fdbb
0060
f71e
f689
fe4d
fef2
0071
fd33
028b
02a6
ffed
fddf
fb43
006a
01c3
fcbe
fd1b
fa9c
024e
0214
0054
0416
004c
0176
ff03
01f3
0197
fec0
fb1b
00af
fe4a
ff09
ff32
ffc7
02e8
f76a
feee
00b6
ff18
07fb
0542
042f
00b6
fed3
fe6c
02b7
fcd7
0009
fede
fea9
f57c
fee2
fed9
000c
fde9
023e
ff0c
ff72
0096
fce1
fd5e
058f
fef7
fef2
fe1f
fcc5
0103
0013
fed8
fe3f
fcfd
f9c7
ff71
04d8
00c1
ff11
017f
fe30
ff6f
0071
fd12
ffe1
ffde
fc13
f820
ffe2
fcdb
fb5e
fdbb
fc98
00ac
0123
f96c
fc33
0469
f8ff
0047
ff90
0091
0008
ffba
fbdd
00e7
003b
016f
fdf3
00eb
0041
fe3e
0056
fd36
010b
00e9
01f8
ffa6
013c
fd48
0045
0224
0318
004c
0108
00b5
000c
0325
03de
ff49
f749
007e
ff9b
00bc
ffeb
f995
f9ce
fff6
fe5a
fb60
fe98
00ee
0241
00aa
0101
ffc6
fedc
006c
0082
fee3
ff7f
fd70
ff2e
ff56
0032
ff38
01d4
fce6
018b
f6ff
ffff
0906
025e
ffea
fdea
ff5f
00ed
fd72
0084
01a4
fe07
0064
02e6
f913
fe29
02c8
ff7e
005a
fd66
0045
0039
00c9
035a
0125
f948
0170
f8a1
fe20
ffc5
0012
ff99
00bc
ff76
ff72
fe33
011e
fdf4
00af
00ba
00eb
ffb4
041b
ffe5
01ad
fe89
0152
ff9d
fd9e
fced
01d9
fe2b
fffc
f940
00c9
ff73
0233
0174
0055
ff98
ffc4
fdbd
00f4
fe65
fdf9
fd5d
ffd5
09ef
0012
0296
0205
fe62
fe6d
0241
fe62
0037
00b1
fd55
0151
0075
014b
fe93
02f9
ffdc
00d0
ffc6
fe63
fe44
fc10
ffe4
013b
fe4b
0301
0182
fe85
fc44
fe7b
ff81
fef8
fa6f
022d
00f4
fc14
f322
fb52
fd89
fa11
fedf
0069
036f
006c
fe19
fc55
fc94
012b
fec1
f974
f4e0
006e
0196
fe79
062d
ffea
005d
fdd5
02ca
016f
fd94
fbb2
fccf
fd0d
0013
0607
01c3
ffc3
f619
fe4f
0123
fe92
fda7
f59c
06d6
007f
0491
fd3d
03dc
ff07
fe64
0207
0049
0077
fde3
fb53
ff4f
fad6
0367
fd61
0323
fda8
fe50
fe7a
0071
01ed
ffa4
049d
fef5
ff87
0fc9
f8d6
fefd
fa72
fa19
fea1
05bb
026e
0006
0220
fce1
fecf
f9db
fb2b
ff33
0156
f5fe
f77f
fcfc
f83c
f6bf
fff2
f8ba
00c8
007a
f956
fac0
10e8
f6c2
fd21
f832
005e
00c0
0061
fe13
00f4
ffe5
0693
0033
ff1d
0056
fe6a
045c
fb4c
0056
0456
ff51
fea3
0072
fa34
f9a2
025f
0352
fd94
ffe9
0058
ff95
0046
0349
0139
f9cc
f0f1
fb1b
ff4b
014e
f745
f7d0
fe7d
fc50
ffbb
fe9d
01e0
0219
fd65
ffc1
ff9a
fe65
f7e4
03ca
fe06
fbc5
fac4
f4a9
0136
00f8
fd8e
00ec
fffd
062d
f32b
013b
161b
0156
fc3e
fd4f
ff10
0235
fcc0
0c45
054f
fc5a
fd76
0030
0141
faf8
0397
ff05
f85a
fcdf
fcc9
fe87
fe23
0000
fd7e
fc95
00a3
f564
fce4
00ba
0131
0058
0122
fd3e
fd26
ff09
0359
f9a9
fec2
fc1d
fd10
f6fe
0237
016e
0092
0522
ffbf
00d0
ff6f
fb6b
fc86
fc81
fcdf
f615
ff60
ffc6
ffeb
02b6
ffb3
fee0
0028
f801
0053
00d3
fff5
fd16
0029
fdee
ffd0
04d4
feeb
01ea
004a
061c
fc1d
0043
fe7b
f76a
0081
fe28
0229
fd3a
010b
fd7e
0061
fee6
ff0f
010f
fb65
ffd3
0167
02af
ff75
ff87
03c0
ffdd
ffde
ffe7
028b
fe33
fed8
fe67
0da4
f9be
fed2
ff00
fcb2
fdf5
fdaa
037f
00b8
00cb
fa43
fd1a
feb1
fca9
fb33
f342
0154
0110
0003
0020
fe0b
0286
0096
0343
009e
ffcf
f899
ffe4
fde2
fe7f
0348
ff55
f9ac
fb92
00f8
ffc6
00cd
064c
faef
0bbb
ff61
ff69
ff52
03fd
fe26
ff57
027c
feb0
0f00
fe96
ff8c
ffbb
02dd
02c8
feb8
05b3
feab
ff6f
fe92
fa9a
015c
fed9
0216
fefb
fcb5
035e
fe3d
ff37
fbda
f8e7
fdef
04b1
010e
0015
02a7
001c
00d1
fb5d
fcd5
fab5
fdb6
fb13
fa05
fd9d
f6bd
fbd5
ffb5
f694
00eb
0038
feed
fcec
0046
f721
ff86
f989
0018
fe9a
ff70
fe16
0032
febb
0508
0111
ffc3
ffbc
008e
059b
03a1
fee0
00b2
fddb
ff17
ff4d
ffe3
fced
fd4f
05ca
fea1
0158
ff64
ff9a
025a
ff10
ff77
f9de
efb1
fc78
fe7e
018e
fbfc
01d9
0059
fe15
014e
fcce
01e4
0249
00b4
01a7
00ed
02a5
facb
038e
ff86
fe25
f924
f9d5
0090
00d1
fdc7
fed9
0227
055d
f6bc
001f
08cc
0267
0069
0040
fefd
ff70
ffc0
0a56
0145
fe21
fe46
ff77
09e3
ff29
03e1
fed2
fca8
fc76
fe99
fa53
fefb
fecc
fd93
0002
0223
f7ba
fd2f
0149
0015
00de
fefc
0139
ff5b
01fc
0105
fb5e
0099
fd05
001e
f7c7
ffd3
0007
fff3
065b
ff90
03e7
fdd0
fdfb
fe86
fd59
008d
f78a
0078
fda6
0073
003b
0008
ff31
00b3
fee9
fef0
0301
00f3
ff2c
001e
0aa8
01d7
0964
00db
016a
fbc1
0012
fd87
008f
ff90
fcd3
fef8
000f
006e
00a8
ff98
ff4e
0232
fda1
03ce
0211
fcb3
0096
0058
00d7
fd11
ffc7
ffd8
fbf4
0354
00b2
01f0
0403
fe1d
ff8c
ffad
fdaa
021c
01aa
fe3d
fac7
fff0
04fd
00bc
ff93
fd9e
011b
fecd
00e2
fbf7
f38a
feeb
027f
014a
fc91
0163
01a9
fc5f
03d2
ff66
00f4
fe63
ff91
ff5b
00a6
ffc5
ffd3
fc11
fdd4
ff11
ff40
00ad
0293
063a
095b
0178
fe64
0147
01f2
fe2e
0312
0006
fe6f
fc6e
fdc1
008b
01c9
007a
0216
fee3
021d
0077
ff62
fd92
fe90
019d
ff7b
0046
fff7
003f
f5fd
01cf
001c
fec4
f9cd
ff3c
0562
005d
fd8d
029d
feba
feab
043a
ff3c
ff41
ffb8
fe45
fc61
013e
fa40
fca9
ff10
f697
ff32
00da
fbdc
fbcc
fdd0
fc5d
ffce
faf9
0086
ff79
ff40
fc78
00fe
017c
01af
0025
001f
fe67
fd9d
fc2b
fdf6
ff1f
04d5
fc7b
00fe
ffcf
fd73
ffa4
00da
012f
0000
0162
ff88
ffc9
01e6
feef
ff72
fe07
ff1c
fbfb
003b
fe3e
027a
0555
00a3
02a1
fd64
fd4d
0078
0167
01a1
fd24
ff06
006d
ff31
0663
0016
00e6
ffa4
0457
ff55
0089
00c8
03a0
0029
0217
fcb1
fff6
00d2
024b
fbd0
ffcd
febd
0129
feab
f516
ff7e
004a
ff19
ff40
fa8f
009f
010c
01ec
0349
04b3
fd5c
fd80
fed3
ffdc
026f
02a3
ff5c
f6f5
fd8a
01ed
0021
ff82
025f
0221
ffdc
02c1
0352
fa79
ff3b
0389
0234
04e0
01f4
ff53
0220
093e
0182
024b
fc82
0244
012e
fcce
00a0
f842
00a5
ffcc
ffdc
ff6c
ffe9
02e7
fefb
f79b
ffb9
ffe6
fefe
0191
0153
00aa
fe85
0633
00b4
00e6
fd5b
fb73
fdab
02d5
022c
fa66
0077
018a
0307
ff42
ff85
0236
023e
ffd9
fca0
ff72
fd2a
0202
ffb2
fd30
00d3
023d
ffb3
fec4
ff92
ffc9
0215
fcde
0194
ff83
0c32
fb19
ff7e
0026
004f
fac2
fe01
04bf
ff8a
fe28
fbe2
fdec
ff07
fc3e
fb4b
f3e2
00f4
020c
fe22
fb7a
00b3
ff87
fb5c
04e6
fe3f
fe08
fa0d
002b
ff14
0027
052c
ff59
f462
fc39
ff50
0009
0105
f83f
f997
085c
fffd
04ea
02bc
00ab
01f7
0175
02ec
ff57
0900
fc93
fcff
0131
021c
01ae
fbda
0220
fe88
fecb
fade
0394
0101
0203
04a1
00a3
fb68
ff46
fcdf
0034
f9f6
fab6
fc52
0673
ffe3
fff0
0428
fd93
fe0c
0048
fb6e
fd1f
fded
fc10
fa14
02ab
f7a2
f891
013e
f7b1
fe36
fff2
f70a
ff93
00f7
f769
fe77
fde8
ff70
0081
0324
fe46
0159
0205
06b1
0068
ff7f
0216
fcaa
f629
fe3e
fe14
0401
fbe5
fe89
ff17
fde2
04ea
0131
01ed
fdc3
fff8
fef3
ff7e
00fe
03e1
01fa
085a
f2dd
fc0d
ff59
01cd
fb86
ff6b
006a
ffef
018f
fe1f
01ce
01b9
ffeb
fee0
00ab
fe0a
f5fe
02c8
00d5
023b
fb9f
07e7
059d
ffe5
fd87
ffd1
0075
02fb
f814
fe86
0568
fe5a
fc40
0055
ffb9
02ef
fc21
f3a6
fd50
fe10
fd28
fdea
0415
fc8a
019a
0054
014e
0677
fe84
f945
0115
02fb
ff79
ff9b
fddd
f5d8
fd6a
0227
0000
00c8
0174
ff10
ff78
029e
049b
fdab
fdd1
0066
fffa
0cfd
01cb
016e
feb5
0576
feba
02af
fdc2
003b
0064
fac1
fee8
f911
0005
fe25
018f
0001
0168
02a3
00eb
fd4d
fee9
ff91
fe2d
016e
ff97
f56e
fd6b
0580
fecd
0173
009c
fe7a
008e
050f
014c
fe47
ffde
ff22
0150
fe9f
0000
0080
0221
fef4
001f
fe34
fd17
00c9
007c
0282
fcc9
00dc
020e
fe60
0159
00f8
00d3
fffb
001c
fe7a
2099
fc5b
00f5
ffc8
fc50
ff57
00a1
0358
01ca
00cb
fe74
fea0
00af
fb06
fda8
f9c4
ff6d
001d
fe65
0303
fecd
01a1
fd89
ff98
ffd6
0033
fa67
fc0a
fee0
fe6e
03b9
0033
f13f
fda0
0167
0180
ffd4
019c
0076
03ba
fe7d
feac
0535
ffac
0019
020e
041b
fec3
1924
fe86
fff9
0162
03a4
0126
fc73
01f1
0006
ffc3
fb7d
028d
0267
0187
0311
0285
f2b6
fb1e
ff83
001c
fcf0
f99c
0057
03c1
ff01
006b
026e
fc28
01d1
0189
0004
016c
fa17
fb47
fc92
01ae
f56d
fe4c
fffe
fe31
ff6e
00a1
fade
02c2
fe64
f6ed
ff56
ffa1
fe90
0084
00ec
fc2b
ff80
011e
0429
008d
ffd2
035e
fede
f895
0218
fe33
00cc
febf
0193
fe46
0094
02f7
fea5
01f4
feb1
010c
ff4d
00c2
02f9
0277
ff75
06e5
f45a
fda6
fdd8
ffbc
0032
f759
feef
ffcc
0122
0339
ff65
0093
00a9
fed1
0063
fee1
fb0a
014c
008f
00ba
fcc8
0388
ffd4
0273
ff62
01e2
013c
0394
fa3d
0275
0586
00b8
0061
0139
004c
fffe
fbf7
fdf3
ff88
0061
fe81
fe6c
0e7c
0104
013f
004d
0183
0530
0101
fddb
fef2
00af
fd30
faa9
0019
faac
fd67
03f6
fed7
ffca
ff31
fead
00f5
02be
03fc
fe66
00c8
fd6f
0051
05d6
fee9
00c6
0084
025c
0155
ff92
fc77
0195
0274
fd03
ffa8
fc54
ff1e
ff63
01f8
006d
000c
0241
00cc
028a
fec4
ffd7
0075
0282
ff48
ffd3
ffd9
0046
fe5f
02a0
fda6
00c0
0026
02e4
ff8f
01c1
feb1
ff58
0304
001a
00bf
01a6
01ac
fe92
018a
fe70
006c
00c6
0051
01c5
fd65
fe83
fe3d
ffd2
ff73
0159
007e
004a
fefb
01dd
0062
fdcd
fffa
01f9
ff18
0011
fead
0054
febb
fdf2
f688
01e6
0351
ff3a
fe9c
0285
0543
fe7e
02a6
ff8d
fe5b
0191
014f
fa1f
fa8b
03be
fbe7
01bf
0009
ff92
ffd0
ff15
01e4
fe30
030c
026d
ffee
fd7c
05bd
024f
02d5
0909
ff26
f8f6
063b
0311
ff9e
ff3c
020f
fdfb
00e2
0235
fe24
0255
0025
fbb0
fe9f
03b1
f939
006c
0159
0052
010b
00b1
01a2
fe77
0067
0375
ff9d
049b
0268
fd1c
fcfd
fcf9
fdf8
00b7
012e
0612
fc80
fab5
fae7
fb85
f9ec
05bc
fe6c
0104
fd69
f937
fdc7
0073
fa7d
ff46
fe96
0119
feaa
00c9
0410
fc7e
0370
0227
f75c
ff64
00e4
0132
021c
ffb3
0442
0080
02e6
ff5e
fed8
fceb
0427
0503
00ba
ff99
033d
f85b
0073
fc9c
fe3a
fe98
fd80
0198
02a2
fbe9
02ea
0818
06de
04dc
0214
fe2c
fe8a
013f
fe06
0027
ff41
fc3c
015b
00e0
0155
0402
f7b7
fd1a
029f
fffd
ff2e
fdc8
fd37
03c5
fc2a
fc1d
012c
fbab
fe31
fb03
0209
012a
03d7
fec4
ffac
fd58
fdc4
ffb5
00bf
02c8
ff09
0018
017d
ff7b
ff6e
02f1
ff72
01ae
feea
0595
ff5f
0137
0364
ffe0
fdcd
01e0
0036
0092
fd84
fdf4
f925
ffa3
023d
fb3d
f7ad
fdfe
02e2
0176
039d
fee8
fb80
00e7
fc9a
00ca
013e
fd90
fd37
02e3
ff45
fae2
ff1e
fcc1
0166
ffa4
fd84
01b1
fe35
0073
fd7d
005a
01c0
ff51
03d9
0295
fee1
01b1
fee6
fb22
00ff
0286
f5cb
020c
06ba
ff9a
fefe
0343
0043
fd92
0279
00a7
fc99
0169
ff34
ff96
fd3b
0032
0361
02cc
fcee
00ad
0330
0125
fecd
013c
fcad
0162
019c
ff64
0154
0185
ff48
fe72
fc7c
0237
ffff
feab
0100
fee2
00a3
07ca
fad0
fc34
f851
00f0
fdb2
fb47
ffbd
ff3f
00bd
ff26
0217
0354
0386
ff37
fd4e
f820
fb3b
04bb
fc84
fee6
026c
0035
ff97
0299
0169
0462
0450
00fb
017e
0968
049a
f998
0174
feda
f8a6
00ec
0111
fec2
0138
ff98
fd00
0181
0017
03e9
0067
0241
feeb
02b3
fb9e
009b
ffb4
01aa
0155
011d
0072
ff0d
ff55
02f6
00bc
0288
01cd
fd8b
fc96
fc20
fa67
ff7a
fe7e
0108
0394
fadb
fc2b
0096
fc3d
0362
ff95
fb55
fe3a
f87e
014a
fc39
fd1c
0013
fd75
01a2
feb8
fb86
0286
fce8
02a8
00ec
0921
fd0c
0222
03b4
ffd4
0074
04de
f72e
043d
01c4
0013
ffdb
0113
08fa
017b
ff54
015f
f55b
008b
003e
ff58
01b6
0099
00c7
fbf9
052e
0233
102d
0391
fe70
07c2
0211
02f9
fd88
fd54
fa9d
004d
fef6
fce6
01c8
fc79
014a
f94b
fc38
fff6
fea1
fcc6
f541
f458
fec8
febd
fb98
0097
00f8
fc78
f8d9
fd1b
fe6c
04b0
fcca
0215
00bb
fd22
041f
04b4
0108
00cb
0015
0218
ff1b
fc99
0100
fef7
005e
fe0d
0512
ffb4
fddc
022e
fc82
f9b4
032c
02b7
01b5
0154
0382
f710
febb
fcb5
00fc
f6aa
fe29
03f2
fff1
0274
0019
0584
0359
fbd5
0152
fd59
fe22
fd62
fe48
f6bc
fa2c
0204
000a
00fc
03a6
0105
0183
041e
0141
fdb4
0145
fc83
0430
022f
02a1
fd8b
fb73
00b9
0193
01af
f84e
f9e2
ff95
f4fd
fd69
00df
033d
ff0e
02e1
01ad
fccb
055d
0051
0186
ff60
fc12
0809
0128
0056
ffc6
0319
00ed
0273
fee3
fcf7
ff4e
ff2f
fd33
013b
010c
006b
0126
00a5
0233
feb9
011a
ff8d
003b
006a
027a
fc4d
fe62
fdc4
fec9
0280
ffd4
fb3c
fe6b
00a2
ff4d
fe74
fea6
00b0
ffb6
fdcf
fde6
033f
019c
0291
fff9
0081
007d
0246
fe10
02c8
ff06
0092
fdb9
0369
f8db
04fa
0ba9
f9cd
fe6c
04ba
ff30
000a
026f
fd6e
ffda
00f3
fff7
0033
ffd1
0221
01b0
0092
0056
0213
ffe2
ff18
0087
ff19
0212
ff75
fe96
01d2
ff20
01bc
ffcd
fa79
0003
fe41
01b4
030d
fe26
fdc3
fe65
fd36
05ca
fdfe
fbf7
004b
0156
fdae
ff10
fb91
0383
fc66
fea8
faeb
0281
ff8d
fe7e
037d
008b
ffbe
001d
0576
0110
01f0
02ca
ff24
044d
0160
fe20
ffee
ff74
f6ef
f6c5
0590
0007
fcf8
ffdd
fe35
02ea
0032
00fc
f67f
ffc3
fd26
fe0f
0034
0289
00af
009f
09a9
fef2
0ba1
03b1
f827
f9e6
01c4
fe5e
f912
022e
0063
ff45
03b7
0224
ff21
ffa8
0206
0014
fc26
ff7e
fb86
fb85
f536
07f6
fdf7
ff90
f937
fcec
0224
003b
fcac
fe89
ff65
ff6a
fd01
fd82
042d
ff01
04b2
fbaf
00e1
037a
feaf
0214
fe3a
02fc
ffc3
fe00
005f
0217
00c0
ff32
030a
fddf
fae4
fd65
ff48
0095
03dd
00dd
ffd7
fb95
014d
fc02
01c5
ffc0
fee1
fea7
027f
ff9e
feb1
0727
fe3d
fd13
0097
fb2b
fcd5
fea8
02bf
01e6
0176
03b6
fce9
ffa3
02a3
054b
00b4
fef2
0063
000c
00da
fd48
0099
ffdd
00d9
0016
fc97
03b4
fb7f
0294
fbec
0747
fe5b
009c
0063
ff53
00e6
fe96
ff1e
ff80
feb3
fef1
fe7c
0178
000c
fbc7
06e7
004d
00c0
fd21
00a0
fd56
fe49
01a5
ff98
ff4e
0060
ff6b
0086
0045
0046
ffdc
ff24
ff98
ff4e
ffff
ff91
ff93
f9c6
022d
04ac
f986
fbaf
054e
00df
fff5
044c
01c6
ffa5
0000
017a
fb47
030a
ffcb
028c
fc60
fa21
fdcd
ffe1
030c
01d6
ff9d
ff63
0247
fd47
0137
006a
fde4
01bc
02c5
fb24
ff04
ffa4
013e
0154
083d
005f
004c
0081
ffa6
0003
0127
fec2
ff37
03af
fee9
f76c
0366
ff00
f919
fcc6
024d
0008
00a9
ffea
002b
ff49
009e
ff72
ff7e
01f7
015e
fe8e
fc5c
00db
ffe2
fcf2
024b
0413
f98e
006d
026f
fd5d
fde6
01ca
feef
fe89
fa10
00f4
0336
fbbe
f7c3
f962
fea4
0132
0057
ffd9
ff2a
02e4
032e
01b2
fb8f
ff44
036e
f981
03b3
fd68
ff8c
f8cb
fc03
0013
fb0e
040a
07ad
fe4d
0226
fd05
fb75
f50f
ff50
02a3
ffe8
fddd
0072
ff80
034c
ff9d
02d9
f530
03c8
ff3c
fc03
032d
fe13
ffd2
01ac
01c4
ff4e
0137
060a
0107
0046
032e
f77d
0519
0133
0043
fe18
f4e8
01bd
00d1
fd61
0192
03fc
fd85
ff95
fba1
02b4
01d3
04a0
ffbb
064f
015f
fd22
00b6
fc76
01df
fdb9
fe4a
01eb
ff9d
ff73
0002
0090
ff71
01fe
fce3
006e
027c
0030
fd9a
035d
0190
012d
fc9a
ff93
ff37
fc01
ff58
02e0
fedc
f84f
0222
03bd
0020
0199
02bd
ff2a
0044
fd63
ff16
010e
fefa
0047
00da
0430
fb3b
fe6a
0448
ffee
fe98
fd71
017e
f852
ffac
fe1a
fc67
01d3
ff4c
feb2
020b
fc42
01a0
fe8f
00f5
02fb
00a2
fc52
fc2f
0631
00e9
ff13
0134
ffdd
ff53
021c
fd7d
fcd7
0007
fe6d
000c
0137
0526
027e
ffb8
fd2b
ffb8
fdc8
ffe5
021d
ff15
fe0a
ff1b
02c4
ff03
fe87
fd7b
ffa8
fe80
fd68
feff
fe1c
0171
0055
fb7d
029d
fbb3
f58f
faaf
fb70
0157
fd6d
0574
044a
f487
012a
ff45
019c
fea2
005e
005b
0059
03b7
f694
0278
014c
0002
0010
fe29
03b7
fea5
00a2
fe77
00da
02af
080e
02ae
fc2d
01f7
ff78
084d
021d
fe38
fedc
0137
00de
ff14
fdf8
ff33
00f7
fb9e
fcd3
eeea
0161
06c7
f3c7
fb86
017e
0143
00bf
004f
0296
ff78
fecb
ff20
00b9
f8d6
02a5
0104
ff36
0516
fb52
fd41
00d1
fc5e
fc41
faf9
023e
fe73
fc6a
fcca
fdae
f494
f80d
fe9e
0712
f82e
f790
f8ac
fb27
0267
fd74
fb5a
029a
f957
0611
00e3
fcc5
011a
0785
ff13
02f4
fa83
0430
f301
0760
fea7
fdc4
fe6c
fefa
0659
00f2
ff82
01ee
eee2
fea1
00b4
005f
fda7
fc1e
fdeb
ff8e
09d7
0566
f4b2
fc0d
0422
090b
0862
02df
f9a9
fa81
03f3
089e
fe50
fd54
fd3c
fd5a
022a
f1f4
04bf
0176
fc7e
fde8
ecfd
f4e3
000c
fe15
0bcb
0548
f9ef
fbbc
fe2f
06e1
ff57
088f
02e7
0876
f9e2
fee5
0727
074b
001e
fd3e
0005
018e
feb8
fca7
fe49
ffe7
0225
fee3
021d
0279
03b9
0068
fa52
fc0d
0316
0191
0185
fdaa
0447
f788
fed5
fdf3
01ca
eff3
ffa1
04bd
00f5
0302
0151
f822
00a1
fbcc
009d
fff4
fe46
fd54
0932
fd06
f648
fb51
fd95
0194
f87c
ffd3
0130
fe22
020c
fe61
0356
0040
fbff
ff83
0312
01e7
fdd1
fe13
05fc
0223
fe8b
f279
fea3
00e1
025f
ffcf
ff1c
005a
fca7
0172
fe5e
0204
ff21
0040
000e
0313
024f
0069
fe01
fee0
01e8
0080
015f
0053
fe03
ffca
fff1
ff07
010c
ffd8
fb7b
ffc7
00d0
0389
ff53
0245
00dc
0203
001e
017f
fc0f
fc23
0180
fc07
0286
fe73
020c
ff6b
ff7f
02fc
fe8d
fef9
fd05
006b
ffd8
02a6
0870
ff82
0037
fc2e
01ad
0107
ff32
fcb2
fff5
ff95
fe7f
02a2
01d6
0110
01f1
08e0
0609
fdb9
0301
fc45
fe00
0082
ff62
ffaa
ff3e
ff89
0083
0239
fa0e
002b
f9e6
035c
08e3
ffe2
fae7
fde5
008b
00ad
fed6
fe78
fff3
ffbd
feec
00d9
f91a
0162
0312
0436
fd74
fe24
fefc
fe46
fbf0
049b
f7d0
fc6d
fd5f
fe33
fa0e
04e2
f905
ffb1
fad1
0251
f7fe
00b5
fc4d
fe22
01cb
fee2
fa9b
00e2
ff9d
034a
0144
06d7
029e
07be
fc35
ff67
01ac
003b
f7be
01fb
03c4
00e3
fbdc
ffc1
0a48
02af
ffdf
042e
f379
ffb0
006e
fdfc
feec
027a
fdbe
ff05
076f
01e9
0013
ff0c
043d
ffac
047c
ffaa
fbd0
ff1a
0181
01b2
f586
00c2
ff6f
004a
0476
fd03
01b4
01d8
feff
fd82
f748
03b4
02e8
ff70
0249
011c
f7e5
fd2d
0177
fac0
fee8
00d0
fcb9
04ad
fb29
fe7a
041f
fd18
ffe6
ff7f
0098
02f0
ff9d
0213
fe9c
fe0e
ff42
ffae
00c7
01de
fd65
ff49
fd66
fbc1
0187
02d4
0238
ff31
fc2d
f9a2
00f8
fc0a
00b8
f856
fe70
0162
fd91
0061
02b4
084e
02e2
f9ed
03c1
fc2d
0060
fd9f
0545
f72f
fa6d
ffa0
f792
fff9
01fb
05bb
ff1b
0399
00f7
feeb
ffe1
fef4
ff75
012e
0257
fe55
01de
fd23
fcd0
0550
0154
00e6
fd6f
faae
ff4c
ffab
0111
ff04
fc22
0132
009a
feeb
ffc0
027d
feb2
fe9f
ffb3
002b
006e
fede
0093
0093
feea
026f
0048
0126
01d9
ff61
fe88
000c
023a
fdea
01b6
fda1
fdd8
00bc
00ca
fe51
fe45
005d
0283
fb7c
fc6f
031d
008b
016d
fcc6
feb0
0086
ff28
0123
fe3a
fe16
00ab
039a
ff6e
03a3
ff65
00d4
ff96
0091
ff9a
00bb
00eb
026a
ffde
ffdf
ffc3
03b8
fb04
00f4
0409
f868
00f2
02c5
02fb
ff1b
fffb
0072
fcde
01d6
00b5
fdea
ff10
ffa9
ffab
0200
04da
02ea
fdd4
fc21
01a8
feac
fe7a
00ac
ffb6
00d0
027f
fcd8
ff5f
fe10
ffe6
ff46
01fd
ff4b
fe85
fe11
013e
0061
f933
0259
0275
ffe0
fefb
facf
fdb9
ff39
fd51
f9bb
03f1
fbb1
fce3
fdd5
00b4
fff3
01df
011a
fc96
00be
01c1
0168
fb30
0133
019b
fd64
fee1
fe3f
ff80
fccd
fc6b
01e1
fc7c
01f2
02ce
0592
fe84
fd4f
fd17
f86b
0072
012d
fcfd
0029
02bd
00a0
0290
fedb
01a7
fe88
0626
f963
fc5c
ff48
fe6f
ff9f
01a4
fe30
003b
02a2
01d5
ffe3
0042
0007
f9bc
ffb2
fe87
fbf0
fd91
f840
05e1
0262
fece
fb16
fd90
018d
0210
ff50
feae
019f
026e
024e
fe32
0156
fa8e
ff75
fad4
0231
00e1
ff09
00e5
ff0b
002c
001c
0235
00d1
01bd
fcf9
0009
fe97
0385
00ea
00a4
fee3
006c
0145
005e
0020
ff20
ff5c
00ff
ffdb
ff11
fec4
0384
fd88
022b
0297
0288
0008
0107
fe94
0000
fee7
0025
000e
049e
018f
00cc
01e3
fc49
0269
029f
0046
fccc
ff42
fdfc
fd79
ffa8
001d
02c4
ff9c
fc76
0589
0164
fdf8
fdc3
f8a0
0255
ff5f
0154
fe32
fec1
fff3
00dc
029d
0242
fd97
fd46
fefa
ff2b
ff3e
ff9d
0747
00e7
fea0
fe72
ff8e
fdd1
0003
026d
ffc2
002d
ffbe
0023
fe35
ff54
0214
feda
fecb
fd0c
fffe
fe29
01c5
ff2d
fe57
f8b6
fa8b
f739
0003
04dc
031f
ff4a
fd5b
ffca
02c5
03be
020e
fb36
fa69
00e5
04bf
0280
0131
f92b
0342
0324
ffe4
ff91
01ef
0583
fbb0
ffcd
fef5
feb0
fece
00a4
feea
00d4
0685
ffa8
0208
072c
ff73
ff36
015d
fe27
ff1d
ff4d
011c
0038
f79b
fb6d
00ba
0673
fd7f
f4dc
faac
0099
fee5
fc73
0039
0280
fd40
0082
fe64
0000
fda2
01e8
fd3c
ff75
fd9d
fc7c
00b3
03fb
ff5c
f71e
076f
03bc
fb4f
fd66
f72b
fe2c
fcc1
fb96
fcec
0380
f8cc
f726
fd61
fbbc
000a
0055
0334
01fd
026e
03f2
00c8
f488
005c
022e
ff8c
012b
0043
0084
fdea
ff1b
fca1
fdac
059e
053c
f191
0189
fdf1
fd0c
f589
0023
0287
00cf
fbe7
fc3d
018f
0215
021d
001e
f784
019a
ff2b
07f0
ff62
fe87
0120
014a
021e
0107
03fd
0008
0082
0034
0482
f7a3
ff97
0097
02a0
fcfc
f805
fbb4
047e
fe5d
fdb3
feb7
fbcb
ff09
0114
0300
0245
0500
01e4
0261
00c0
ff11
05b7
fe4d
00e7
fee9
fea6
012a
009a
fccb
ff22
007a
ffaf
0153
f7aa
0467
043b
0206
fe5c
fdac
01a5
01d7
fffd
fd8b
ff9c
f804
004a
0360
fcd5
fae9
ff08
034c
0115
03fa
013d
f84d
027f
fdd6
fcaf
fdaa
fad0
fece
02df
0564
facf
ff6d
052a
ffd9
03b1
007f
ff13
f8e2
feca
005c
fc52
00cb
f9e0
02bd
02f6
01d2
fde8
0244
fdd5
fe62
08f6
f655
02e4
06c3
0206
01eb
0105
0162
fb15
0251
fe65
fdcf
fe07
ff5a
00b1
0023
fee6
0155
fe95
ff67
ff7a
0156
fed6
01bc
ff4c
02cc
012d
01a6
ff42
fe03
ff97
005a
0024
01fd
fde9
0098
0386
0055
ff1c
f9b4
0968
fdc4
01ba
ffb8
fec4
ff8f
ff81
0196
fbe5
0195
fe76
fd41
ffd8
01cf
0166
ffa7
f53d
fd7b
ff94
0089
00e1
fd8c
0076
fdc3
f91c
feb1
011d
022f
fd6c
0100
fe99
0719
078e
0048
fc48
feaa
ff6b
ffa7
0189
ff7b
fdd7
ffee
ffc1
0250
fa5d
fc94
fcc0
0416
fb27
f9a7
fd78
fe71
ff9f
fd54
fff5
feaf
fe73
003f
fdf3
01d5
01ca
010f
fe4a
ffb3
fc69
fdbc
0157
0074
01c7
f995
028b
ff2f
f8bb
ffca
f8f7
01b9
fb5d
fe87
ff07
02b6
ff9c
0023
00af
fc2a
fd6c
fed3
fe14
03bd
fb0d
02e7
ff82
056e
00c9
0100
fcc7
fe47
02f5
0480
026b
085d
005f
fe75
02e2
02dd
06f0
0128
fe96
03c2
f7f0
ff1b
010f
fe04
fe49
00d4
ff35
ff98
0158
feb1
f6aa
01f3
08d3
026e
fecf
033d
026a
fecb
035d
002d
fede
fe1b
ff65
011c
02e5
fbce
04c8
00cb
0495
fc3a
ffd9
fe37
0123
0007
0047
fd7c
fcda
fdc6
0135
0075
0081
0017
ff11
0251
fc15
fef8
ffbd
0248
00c2
0023
ff34
00e8
01f6
00e9
ff7a
ff74
fe7d
001c
fe7f
00ac
fba7
01cd
00fb
fe47
ff40
01fd
fec6
fbbe
0293
fa5d
ffde
01fe
fef9
fa5e
00e0
0251
fdda
023f
010b
fd92
04fd
fba3
ffbe
fb7b
0271
fcf2
0044
fc03
f92b
fdce
04de
02b8
fd12
029f
fefd
fdb6
ffcc
ff58
fe15
fe6a
028a
0126
02b5
fe1a
00c1
ffb8
0238
01e1
04a2
021c
0286
fb26
ffeb
fde7
fe40
00af
ffb5
fd8f
0054
0220
fe10
fffc
fed8
fdc4
01e9
0109
0014
0296
01ac
00db
0058
fea0
fe86
04b9
ff91
0277
ff38
00b9
06aa
fefe
ff79
f94c
fda5
ff5b
ffbd
0039
ffec
fe5b
fe9e
0236
fe5e
0470
fc4d
0270
0124
0130
02be
0016
fdd4
fd37
004c
fe62
fd47
0625
fd73
ff79
ff0c
fed6
0050
ff7d
fb68
0050
007b
f202
ff2a
0164
056a
fe0f
025d
00b4
fc78
ff60
fcac
08df
003f
ff3a
08f4
014b
fee4
07f3
fdac
016d
00a8
fea8
00fc
ff7d
02f1
ff24
f975
ff3d
018a
ffee
00da
fe51
01b9
0347
fd4b
0183
fea3
02d6
0086
039b
ff16
ff37
fdf2
fe94
fff7
fe36
fe4f
fed9
046f
0282
ff67
f992
fc47
06c4
fec2
0362
fbac
006f
fa7c
f7fa
0036
04b7
ff9a
0216
0601
004b
0080
ff56
f94b
fd44
ff76
0117
02d8
02d6
02b4
0008
0063
fc77
ff7d
0357
027e
00b2
ff33
fe8a
ffb1
0445
ff49
0451
fbc4
002d
f7ca
ffe6
ff03
03fc
007f
f6c5
0924
01a9
fff8
0267
0022
0021
0046
fea1
fe5a
ffa5
fded
fcef
ff08
0154
fffc
026e
044a
00d2
fea1
ff0c
ff2f
0173
fef1
09ce
fed4
fc4f
fc86
ff11
ffea
fc54
ff8d
02f3
fff9
ff17
fd13
faf1
011a
00d3
029d
ff4d
fc72
fec1
00e4
04cb
fce9
fe1e
005d
039c
ffb9
01b1
0220
01b0
fd35
0040
0048
0140
ff36
fcbe
00fa
fe9d
0847
ffbe
ff5f
fbf8
01d8
014b
fecc
fe5d
01d5
001f
ff43
fe35
012f
ff8a
00f4
00d4
012d
05e5
0115
ff9e
fcc6
0100
fadd
fce3
00f9
037a
0003
ffe5
0133
0056
fedf
0176
020d
ff88
fe91
00a9
ec45
febe
01d5
0056
ffc7
032e
ff11
fed3
010d
014c
fdec
fc63
feae
009c
ff9f
011a
0308
f884
032b
fd41
ffe0
fdb5
fd3d
01e4
0120
ffbb
0027
0388
008b
feab
0f63
fef8
0057
f733
fea0
ffd5
0012
fff4
005e
fae2
0250
01c3
fd3d
01c9
03a6
0425
0025
03e0
fce0
008b
fdf7
f9f6
fd35
fc0d
feaa
06c0
033a
fd81
f7f0
01a1
ffd6
fe3a
f166
feea
ff84
f054
00ea
ff8c
01bd
fbfe
fdb6
01d6
0645
f91b
0024
08a3
0125
fe88
1020
00d1
fff5
0575
ffa6
00f5
0117
024d
001b
fec8
fe5d
ffe3
f841
ffed
fe51
fefe
fb15
fc2b
fdd7
102f
fe1d
0184
fe0b
04ef
00ce
014b
0391
fcfb
fc42
02a6
022b
fd01
fc58
faca
fdee
02a7
fd67
fd8e
002a
0598
fea0
03b4
ff6e
012f
f89c
f92b
fced
0197
ffb1
fde1
ffe9
00c8
01b0
fa0d
f7fa
fd7c
ffae
fbd2
fe5b
fea9
02fb
fde0
fe43
f988
ff74
027b
fcae
009c
fe75
fc0e
ff13
01f8
ffde
011b
037d
ffb4
f8b7
ffda
ff2a
0207
ff4d
f6be
fecc
0056
fc1d
fdf3
ff44
fcec
ffad
fa80
ff05
0434
fcc1
fec0
03ba
0377
ff9c
0317
fe67
fbf0
fa53
02d5
01bd
0166
ff79
0750
fdec
fdda
004d
fd98
ff90
fdd5
008d
0224
fee6
00d4
fd8f
fc78
ff72
ffcf
074c
01af
01a2
fe7a
0104
035f
fd2d
012e
0067
006b
fe7e
fff1
fe69
fddb
01b5
00eb
ff76
ff59
fdc1
fdb5
0238
00bb
fcc9
fc21
0106
fa7b
fda1
0455
ff29
fbe7
05a7
fcfd
feb0
fd0c
0025
0265
ffca
01a5
004d
ff94
00db
ff17
fcc1
011f
fb10
fe7a
fca7
0363
ff9f
ff93
fdbd
001e
00a4
fb63
fcd8
fc44
fdd9
0416
0a2e
fd70
febb
0636
0015
03fb
011a
fec0
fd51
0061
fe7f
f90e
ff10
0177
000b
ff4d
0006
fbfb
031c
fd28
ff93
fd65
fd53
00c3
024c
ff5e
fefa
002e
fe41
fd0d
18f3
002f
ffde
0430
ff36
00a7
0440
01e6
002f
fad5
0033
fdf1
fefe
fbd4
fee7
0196
ffe7
019b
faab
0078
fdba
00eb
ff46
0155
fcc6
042c
00f0
fff6
f8b4
fe03
fe38
fdce
ef3b
01c1
fe1d
00fc
fe86
fe43
050b
ffb4
fdf7
011f
041c
ff86
fbf2
0a39
ffdc
fee4
13d0
001b
00b0
fee2
fee8
0309
01be
0040
ffac
002a
ffdb
023a
fa03
01f5
ffc5
ff8b
f566
fc27
ffd9
02bc
0072
0005
01f0
03ba
fe7d
0127
0330
fed3
fa90
0094
ff04
fea4
f8f9
fd3e
fd1d
fbf1
feec
fc57
ff59
0320
fead
006d
ff36
004e
fc6b
fc98
fe63
ff69
fed5
0187
fd0e
00a4
0102
013b
0670
ff86
017b
fc7e
ffb2
fd77
ff99
0000
003d
fba4
00a5
01d6
006a
fd61
02d0
034e
00a5
036b
0069
028e
02bc
ffd0
f985
ffcf
fd93
02fc
0092
f973
f8fa
009f
fd13
fc91
0472
fe41
fea0
fd01
fe70
016b
fbb7
fe9e
005f
fe2f
ff2d
007b
0307
fee9
fe9b
0421
fc23
ff0f
fe57
022e
ff82
ff4d
0067
fcbd
fdc2
fafc
ff6e
0216
00c1
ffb9
001e
0007
010d
001a
08e9
00ed
0439
ffda
00ab
0430
0017
0110
ff06
fe9e
fdc9
02a1
fb65
f60a
fb72
0038
ff85
0025
fe69
ffb3
0226
fcbb
f8be
fdbc
00ae
fd3e
fc58
ffaf
018f
ff4e
f345
fec5
ff12
fbdd
012e
0335
00ef
fd3f
ffcf
00d2
ffc3
00cc
fecb
0106
fcdb
0077
fd41
01e4
ff5a
ffde
0163
0028
01db
fb08
02cd
ff30
fe4d
008f
07a9
fedc
0087
0759
feea
0344
0150
ff61
ff5d
fe5e
fe97
ff7a
0067
fe8b
fe38
ffe4
ffea
0319
017f
fbd4
0026
fe0c
02c8
004d
fd4d
0232
00cd
0145
fed2
029e
f19b
feba
fecf
f62d
fe5a
01a2
fe98
017f
fec4
fbf8
ffda
00b5
0050
002b
fa05
0592
ff69
fd48
0362
01c7
00ac
fdf8
029d
0235
ff27
05e6
fa98
febe
0218
ff04
ff55
ff6e
091d
ff1d
ff06
f206
fd36
015c
03ad
ff08
0227
0534
fb0e
fd32
039d
0692
ff68
00f4
f302
ff07
0001
0319
ff64
0186
fdcb
0247
0121
0017
fc3a
00c2
f3cf
fa8a
0155
009b
046b
ffdc
013c
08e1
fef4
04a0
fcf6
0325
00cd
00de
fc28
fefd
fd9d
ff87
fe52
ffe2
0123
fd58
ff86
0065
fe2b
fbbc
f87d
0641
00e5
fca9
f860
fd20
f971
fb4e
fffd
0130
ff2f
045c
01a3
0026
01e0
fe3f
f385
00ba
feb5
000c
0281
ffd8
0313
03d6
ff9c
fe5b
ff97
fe15
04a4
ff08
fe9d
fcfa
ff25
050b
009b
02ab
f9fb
0066
f888
fc41
01ab
0007
006b
fd1e
0ac2
0038
0234
048e
ff98
03fd
005f
0176
fd3a
ffd0
01f3
fd49
fcd1
fc6b
001b
02db
0430
fe9f
ff3a
ff5c
fd54
03d0
fef5
fdc2
fecd
fda3
fec1
fc8d
ff4f
fec4
ff63
fa15
ffa0
0172
00c1
f8d0
0053
00d9
fc7b
0178
fc37
fe33
017d
0319
fb59
ff35
0096
00af
00ce
0145
0149
008b
ff83
0036
ff1d
01e4
011b
fd97
01d2
ff69
0c56
f9b8
0026
01ea
ffcd
011b
025f
ff14
075c
fbcf
ffb1
fc14
fef0
ff04
02bb
0093
0149
04ee
016c
00b3
fec4
00da
fda6
fc6e
04a5
fe99
0049
fcf8
0131
fdd6
00c9
0000
00d0
0350
ff39
0378
e751
0192
ffa8
fcc4
00a3
ffc7
ffbf
fd71
0105
ff78
ff09
01e4
fe15
0140
0041
fe75
0175
fad2
0367
febf
ff49
fa6d
ffed
01b9
01a3
fa8f
013c
fcb1
0143
013f
fa26
fe85
014e
fc32
0004
ffe5
fc1f
00c2
ffc9
fd4e
ffba
034c
fde8
0d62
01c0
0164
00c4
f943
fedb
feaf
fe7f
fb81
fe6e
feea
013c
019f
0464
fe3c
fc08
fda0
0124
feca
f748
fcb9
0082
f8c2
ffb3
00fc
fdf2
fca4
ffff
0648
028b
f9c2
07be
fd1a
00ae
fff8
ffb8
fe2b
00c8
fd8e
01ad
fb08
00b7
fdf4
fe75
fe64
0070
0125
f268
fcbc
fb9e
fd22
feef
fe25
fffd
0b51
fec6
02cc
fcf5
0094
004c
ff2b
ffeb
ffdd
fc36
0249
0114
ff53
fe8e
fc28
00c3
ffdc
fd0e
ff3e
fdb2
04a8
ffbb
fc5c
ffca
0000
f841
fde7
fd8c
02e3
0165
0000
fdcb
0105
0082
fce0
fbc7
fd0f
fdc3
fc65
fe72
f9de
05da
f916
fa15
f9d0
fea2
ff86
fc2a
fd8f
ff2e
0040
ffbb
0160
00be
00d2
03af
feb8
f87d
01b0
ffb0
fcc2
fe20
fe32
fe4e
fe46
fdc8
05a5
fd30
0497
00d8
fe7e
0135
0237
00d9
fcc4
ffe6
fa76
ff75
030e
feef
f846
fb1a
fab8
0314
fd93
fd24
fb3d
fda2
fd38
01f3
036b
00a2
fb73
ffae
f9f1
0168
01a5
0025
ff26
ff62
fe84
0219
0232
0082
fe0f
01eb
fd61
028d
fb85
ff74
f87b
fe35
0041
ffbf
ff02
007d
0092
ff18
ff97
fec0
fedc
0130
feca
f974
fd14
ffd8
fe6a
fe36
0178
00cb
008d
06ce
fd85
ff1d
f87d
fe5a
0206
021a
0398
fe8e
05a4
019a
0086
ff98
0153
fb5a
00eb
fc82
0287
002b
fc6b
fcaa
fea9
01b4
ff47
f9e8
0269
fe62
0365
0b38
fe65
0026
faaf
ffd6
01a2
ffd5
00be
fba6
006d
ff3c
0315
fd9f
0225
001e
fc5c
ff22
0adb
0181
02be
ff75
fc6b
0291
015c
00dd
fe80
00d6
ff21
fefa
fe68
0ccf
fef6
014d
08b3
007b
ff3f
0371
01f5
ffb4
fd89
fe88
ff9c
feb8
ffdb
fdf9
0034
ff90
fdc1
fced
fd73
fe50
0015
fe68
01cd
ff97
026c
01d0
ff7f
fd73
fd27
fe62
fc2f
f44a
002b
ff53
0cdd
fe26
009e
04ee
0099
ffeb
0481
04d0
03d2
042e
f7d9
ff20
006b
0866
fd4e
00b4
f9ce
00cd
ff55
0058
00a5
fe5f
fe06
0378
0194
f526
0477
ff26
0011
f7fc
fe5f
0045
f2c3
01d8
fd92
ffbf
037d
ffe3
ff34
0154
01fa
fd45
0356
fd45
014c
fcf1
fee0
ff3a
f7fe
fdb2
fed9
fd88
03e9
ff44
fc8e
ffc0
fcda
fa86
fded
ff91
00df
ff02
0055
f8c7
0129
01ca
0466
0f5f
fc40
fee6
fe64
ff39
fe56
0178
0044
03b7
fb10
ff3f
02ef
00ae
fcf8
0118
f6f4
01e1
05eb
0052
0193
03c0
fff0
fa81
02ce
ff31
00bf
ffe8
fe84
f460
fece
0058
f9dc
011c
032a
ffca
fe47
00a9
fe7b
0101
ffd9
045e
feeb
004c
01ee
01d0
ff7b
fecd
fa21
fade
01bf
ffe1
f99d
010c
fe10
022d
02f8
fe21
ff8b
fe98
fc20
036e
ff08
0112
116f
007f
ffa8
0328
00ec
0233
0135
0129
fa05
02f8
fec1
0006
fd20
f81d
0305
ffb5
fcf9
fb0c
01cd
012c
01b8
0043
0232
00cc
0166
f72e
0093
fe4e
007a
fdd9
fef6
00bd
057b
ed8e
004e
ff93
f9ce
02f7
00ca
0495
fc7a
ffef
00d2
001c
025d
fee0
010b
fe7f
059b
ff19
0146
fe8f
0074
ffe4
fff1
025b
04d9
0111
031d
fdea
006d
0cd2
0418
fedc
0012
00df
021d
00bd
0022
ff2b
fecf
ff68
01e1
ffde
013a
ff75
fc87
fe13
00e9
01c5
ff56
0169
ffb9
01a4
020f
fda7
ff44
ff1d
ff6c
ff81
00a6
e92e
014d
fe4c
0010
ff87
003f
030b
0100
0079
fe57
fe41
005f
fcd6
fba2
fe0a
031e
0058
01a0
0268
fedc
0194
017d
0324
022a
00a4
ff37
fc1d
0032
ff29
fc97
0002
fe46
21c7
019c
001f
fdc5
005f
0188
051c
01b1
0097
0184
0002
017a
ffb0
02be
ff5c
ff3f
e208
0002
ff99
fd88
fdde
0207
ffb1
01d9
ff1b
fd52
f9c9
0181
f7fd
fc25
0127
fe58
0750
01fb
ffd9
0302
ffe7
0232
0063
03b7
00a8
ffcc
fd2a
000e
fc05
fbf5
001a
00d9
0620
0028
feed
fdb7
00a2
fa95
fa41
040f
0099
fe23
f6c6
fea1
fd89
fc8a
fe61
01e9
ff85
020d
01d4
0006
006f
ff96
f3bb
fc1d
0074
f8df
01a1
007a
fff2
02d3
fe8f
0027
0128
0174
02d2
0085
fde7
0254
fe2e
03ab
015c
ffab
fd55
ff75
f858
fc7a
0035
01d4
0115
fe60
044a
fe86
026a
0282
0214
0163
0100
fde5
ff7f
0055
011d
fd99
fba9
fcdc
fee0
ffdb
0357
ff01
0309
0001
002c
00d6
fe6b
ff6f
0293
00c4
fe88
f9eb
ffca
fd3d
00e8
f9ca
fff9
ffbd
001e
fdb6
fecf
feed
f49f
016c
fc5b
ffa8
ff2d
01ce
fa93
ff93
00b0
028b
ff7d
0015
005c
00cd
fdf8
02bd
fff3
0171
02d4
ff49
00bf
003a
08c4
fe8e
00bc
ffe6
02b6
ff32
03de
00be
0502
018c
fff1
fb69
0090
00d4
0009
ff63
0135
034b
fff9
ffd6
ff75
0074
fce6
ff9b
01d0
0365
0146
0038
00da
fbf5
fef4
013d
0117
fede
028f
fff3
f428
0082
fab9
0132
fdbf
02bc
ffc4
fe98
0234
ffb5
019a
027d
ff22
0128
0176
fe81
016d
fe84
001b
ff30
0041
fca1
fe33
02e7
ffda
fa72
febb
fb75
007a
fe24
ed5d
00db
ffa4
080c
0060
fdc9
fe2b
fca3
01b7
febe
fe4a
fff8
fde6
0060
01ff
0401
000d
fe8f
00bf
fef2
fefa
0361
00db
fea1
0049
fc17
ffc1
fff0
fab9
fad8
003b
ff91
0ba3
ff29
0079
0d35
0141
0133
0040
012d
0106
024a
fff9
05c6
06a8
f6d8
00d4
fd59
f059
0087
ff13
f87e
0054
fc32
fbf3
00ce
0060
fd77
002d
0169
f402
fc2d
fdce
fc62
0637
0113
0194
f5b4
ff9a
fd35
ffcd
0499
007c
0184
fe2b
0110
fa59
fc15
028f
fd84
0283
ff7c
ffcd
fa18
ffa3
fe52
fbb3
03e5
feb1
fc0d
0142
feb9
f9d8
0653
fde3
ffb2
00fc
02b8
ff7f
ffd1
0180
00bf
fe60
fbfa
0032
f96b
004d
fd10
02ea
f8b4
fcbd
fd78
000e
fedc
fbdf
fef7
fef5
0a4b
ffc7
00af
ffea
008f
02f0
fecd
f898
029f
0262
ff1e
0008
fefa
032a
fe8d
00bf
0127
ffde
fdd6
fe4d
fd00
ff8b
ff0b
00ef
fb53
fe10
f801
fff8
01fa
ff43
fcbe
fedf
007f
01ca
0074
feb6
fadb
ff8f
fe0b
00e6
0234
024d
fc0c
0028
fbbb
002b
ff32
0016
006f
feb9
fdf1
f8ed
034d
ff69
01f7
000c
fdfa
03c3
fd8d
fee2
fb36
0211
01f4
010f
04d2
ff88
01cc
0093
01ea
fec1
0183
ffef
ff37
fb7b
fb54
ff9b
fc28
0160
ff93
0185
0654
022c
003b
0049
fc1e
fc18
02e7
fefd
fece
ff73
0204
ff7c
00b4
02a9
ff68
fd0a
0216
fd39
028c
ff8b
ff89
fdeb
fe79
ffa3
0145
fdd6
ff18
0179
fea7
ffd3
0022
fb66
fc77
00b5
0147
0015
03a7
fe7d
ff86
0152
0440
fee5
00a9
ff09
fc13
002b
0380
0209
0138
0125
fcc5
feb7
029e
ff86
fe6a
ff12
fcb1
003c
fcd7
0146
0033
0182
0750
0116
ff38
037d
00d4
fef4
0103
ffe2
fe9d
ffe1
ffbb
00f2
0212
00df
ff12
fdd6
017a
ffa7
018b
fba8
0136
ff37
fe49
0036
006f
fad1
08aa
ffac
fd8a
fcc1
00d1
fee7
107a
009c
0105
064d
03bd
03b8
ff7d
04f1
084a
0475
f072
ffd5
fe43
020b
ff02
ff23
f83a
ff1a
014b
fedc
ffbf
ffe5
fd37
0239
0113
f574
027f
001b
fd8c
0131
0164
fd84
edb1
015c
fc70
fe0a
00f6
0017
01d0
ffea
ff83
fc2f
ff6f
ffb9
feb9
028b
fff5
febe
f8ef
ff13
013b
ffbc
028c
ff1e
fbb5
0239
fa84
fc54
01ef
01ad
00bb
0014
0186
fa39
008d
01d4
01c1
0a9a
012e
ffae
fc08
fcc0
0104
0424
fd7e
03a8
fc80
01a8
0281
01be
007d
01b7
037d
011b
0331
00f8
fedc
0264
002d
f916
01e2
fd9a
fec3
0061
00cd
f62a
01fe
0442
fc1f
0038
fdee
01e0
fc2d
008c
ff04
0070
0075
0415
fd0a
0075
01e2
0173
02a7
0210
03fb
fe57
fe40
ff21
fd4c
ff3f
ffcc
00c9
060c
fefc
fd10
fff5
fc5b
00fe
fe3e
ffc4
026b
0011
fe05
fc56
0209
02ac
0388
ff1f
fc62
ff69
fdf5
fde5
ffb8
fc59
fecd
025d
0183
fc23
ffaf
01be
023c
febe
0095
016c
fe4b
f9c7
fd1f
ffee
fd2d
ff93
fe1f
00a1
fbf7
f415
fbb2
ffa4
fc9c
ff66
fe72
0245
0477
0184
0262
ff7b
009a
001e
ffc4
fdd9
fdfc
fcf1
0190
0092
007d
fe8e
fff8
0015
0020
02c9
0381
023f
febe
0a5f
01bf
fc0b
fed5
ff1a
01dd
ff02
0180
fc2e
fff1
0304
0297
0041
ffb1
fdc8
fd12
feda
f885
02ba
feeb
f8a3
ffc0
0474
03b9
fc5a
fe07
022b
fd40
0027
0010
0031
003e
fa88
ffe3
012f
ffc3
00ab
003c
fd20
0270
0045
fe74
fc37
0323
0007
fd81
fdce
004f
fe6c
ff69
00bc
01da
fcc8
feff
020d
ffc2
ff48
fd01
fe63
0003
f8e1
fffb
fe95
ffbd
f63a
fe3e
026a
feba
fd25
055e
0c67
033a
001f
0845
f6b3
fb9e
0024
ffd3
fdd5
013d
fa6f
fd00
026d
00db
006c
feca
0231
003f
01a2
017e
0020
01dd
fdd3
004b
fed9
013f
fe7c
ffa6
0105
01e2
0095
0153
fa22
0064
00dd
fd53
ff54
fe71
fcd0
fc6c
ffe2
fea1
fef4
fb1e
027a
01a4
ff6a
faab
fb62
fd08
ff14
fcc5
03f4
ff3d
fd38
01a9
fc69
000b
ffdd
0089
0277
fa7b
fdb9
fd42
ffb2
fedc
0175
fd53
ffef
0378
fd82
fca1
0211
fea2
fe61
020d
fe74
fdf0
fd6a
007d
0314
0047
0139
ffb0
011f
ff2d
fae9
0218
f993
0053
fed6
005b
fa73
02e6
0327
ffa9
ff8b
000c
0038
ffa9
029f
fc94
ff2c
023c
ffe0
000b
ff5a
ff0d
fe3a
0253
fea4
0013
ff30
fef7
fe1d
fc53
fdf3
0347
0041
fbb6
02bc
ff18
ff2b
0049
ffd0
021a
007a
0034
ff39
02a5
008b
016b
026f
fffe
051a
fff3
fa7f
ff5e
01bf
ffff
028a
ff1a
ff5d
00d4
f9e2
00c1
004c
ff1b
fcb3
fb3e
00f9
0183
0356
fea6
009f
02a5
015f
0217
0105
fd6f
0011
024a
00c8
fee3
fda4
044a
fee3
feb4
0442
fea7
fea4
0188
022f
fca9
fbd1
fe31
f630
fdc2
fdbf
01cd
fea0
0109
ff83
0073
0cfb
0031
ffea
0626
012d
f931
feee
0128
f7d1
ff53
fe3e
fca2
fcbf
0034
ffc1
fd2d
fc5f
ff62
fa42
fe3a
ff72
0120
f730
ff88
020a
0158
fdc1
fd2f
fc49
fc88
0239
fdb6
ff9a
ff7f
fe06
ff70
fbf8
ff60
ff42
01d9
f9fe
012b
ff32
fae9
fcb3
feda
ffab
fd6d
05e6
fe60
027d
01a2
03c7
0181
ff74
fd5c
fc67
009a
00b0
fa31
fef7
fe6f
fa85
ffd5
0080
ff12
fef3
0143
fe05
01b7
0061
079b
066b
0524
ff85
fdf5
036b
fcdf
036d
fefa
fd5b
00ce
f765
016f
fdf5
ff8f
01a5
fe79
038c
ff06
040f
028a
00a9
ff98
faca
027d
fea6
feea
fc19
fea5
fdd3
00fc
0134
0241
f650
00d6
ffe7
fe7e
fd0a
fc25
f61e
fcda
fcea
fec1
fe73
fc72
feff
036a
fd7b
fb1c
fc26
fd15
00ec
fc32
fadd
fe4a
0022
ffed
0250
fda6
fe8c
ffc3
003a
fd86
0246
ff5c
022c
ffb1
00fe
04d2
008f
04e4
ff8b
004b
039c
fc98
fecf
ffdc
fddf
fab4
0072
0125
fe59
019c
028d
003a
fe31
ff33
f84f
ffa9
fa18
ffa8
0126
0267
0128
0050
fed5
fdca
0102
fdab
0219
fd31
00c3
fe3f
fdeb
0286
0159
036e
01db
0455
fd10
013b
01eb
ff24
fbb3
fe11
02a8
0536
fc53
ffb3
00dc
fc53
0743
fe9e
00c0
ff59
017e
034b
020a
001c
0043
0000
fc15
fe24
0021
0157
ff7d
ff66
f6e1
00de
fdb6
fcb9
0262
fe0d
0052
ff9d
f837
ffdb
0084
01a0
fdc4
fd07
ffda
00db
0555
fc8c
00fe
ffb4
01dc
04be
0110
fe93
f8b9
0236
0137
0115
fd89
06f8
01bb
0150
06fd
fec6
ffaa
0255
0345
00e0
fe80
ff39
fd72
f961
0188
056b
fff2
0049
025b
05f6
0510
0387
ff5f
f7c6
0002
fe42
fec5
ff05
f9d7
ff36
fe17
ff7e
ffa2
005b
ff66
fb11
fe3f
fd87
fc76
fe9b
fbda
00b7
fdad
feae
0003
0124
fcfb
029d
0140
fedd
fc6f
fe74
feed
ffc7
fc98
0427
00bf
013c
fe3c
00d3
fcdf
fdfd
ff1b
fc79
fcca
fda7
01dc
01be
0555
015c
01f6
fd9c
008d
0276
fd6e
fb69
fc47
fcb8
ff3f
09d3
ffc7
ff88
fc52
ffe2
00c9
007a
f9f8
0136
fec9
feee
fca3
053a
0502
02d7
feda
fbc3
0936
01b3
fe81
fe30
fde5
001a
fe33
041f
fe5d
000e
02bb
fd3f
0021
0118
02a4
fb12
ff80
0148
fc6c
0096
fff3
fdeb
fb96
036b
ff85
ffc4
ff6f
006c
faf3
fff5
fe5a
0211
fc16
fe6a
fb06
fa5c
fd42
00ee
ff85
03a2
fe50
fee9
ffe9
fc12
fbd1
00df
ffcb
fc44
f954
fec3
013f
0221
0497
002d
014d
fe05
000d
fe32
0006
fe64
ffd2
00ba
ffb9
03fc
019f
0191
fcfc
ff8e
0182
fd0a
fed7
ff2a
fffa
fe03
fe8d
ff03
ff5a
0000
feb0
0042
fdb1
fd63
fd48
01fc
00d6
fd32
ff62
01cb
08ab
ffa4
fff9
ff64
019a
fc92
ff9d
00cb
ff02
fd5f
0100
0305
fe1c
051a
005c
fcc3
028e
03a5
ff78
ff57
fe4a
ff3c
fddd
fec8
ff1e
01c5
ff26
fd3c
ff1d
00c0
ff60
fd24
00c7
02eb
00f1
0096
0178
0226
ff37
0084
00f1
01c7
fc5d
fca4
fbde
fceb
ff88
fef5
0071
fef8
fe53
0159
fca2
fe16
ffcb
ff3d
0106
fd68
0092
00df
018c
fe57
ffb4
fd22
0364
04ca
ff7b
fd74
fcfd
fe41
0264
06ea
0093
00cd
0028
00bc
028e
ff53
0039
ff18
0030
ff5b
00bf
fefd
003c
ffc1
01aa
000d
feb2
ff1a
008d
0156
fc59
05e5
fece
fd1b
fe55
ffb5
fed6
01e9
ffa3
fedb
ff89
fc32
ff37
ffed
00a5
fd69
0075
fee7
fd33
ff94
fc39
00ed
f7eb
0172
ffca
fec7
fa36
fd83
01b5
fff1
00ab
ffcf
ffe7
00d6
feae
ffb0
ff99
ffb8
fef9
0096
fecf
02a6
fe92
fd5b
00aa
ffb2
ff77
ff91
00ca
0090
ffb1
004e
ff37
0312
fe52
fa44
fdcc
008c
ff50
ff43
00cb
fd4f
f7c0
005d
fdcc
024b
002e
fe79
03e0
ff91
0130
ff3f
033e
03d3
ff91
0934
eeb2
fe7a
ffd0
00ac
0078
feda
f6c7
fdd7
01b4
00ae
fe68
0119
0018
ffaa
fef9
ff01
0189
0074
fa4f
0319
ffd1
fe98
faef
fcff
013e
041d
0053
fd38
fae5
ff75
ff0f
fee9
0162
fe14
fac0
018c
02ca
f78a
fd5b
f784
0021
00dd
fd90
fb60
fc35
fcaa
feec
ff5e
0648
fb33
ff69
0354
01ba
014e
00a9
fe13
fe6a
faa6
fd43
0085
01c6
0082
011a
fd39
fc27
02cd
fec8
f97a
feff
fe3a
fee2
026e
026a
0005
fc96
ff75
01c2
ff46
00a4
ffaa
0528
fd77
fe90
0114
ff7d
01e0
ff54
0185
eb5c
048c
03a9
fd75
0013
fb14
00e7
0147
0568
f999
00a7
03a4
008a
ff95
fece
ffb4
fb8f
02e3
008f
0010
ffcf
fe7f
fff8
ff18
064c
001f
fe18
fd0f
0106
ff2a
0146
0258
0441
00ef
fea5
0043
ffa5
00f0
ff91
00b6
feaa
005e
03d9
0086
002f
feb1
0034
ffc6
fe3e
00a3
fff5
ff39
fcec
016e
ff51
ff4f
0132
fb20
0114
01a5
008d
ffdb
0029
fedf
feb1
01d0
00b9
f987
01ad
020c
004c
ffac
ff4d
04ff
ff3a
ff84
0462
0063
fd44
ff7c
0570
f8e0
fcd4
0105
fb86
0017
fcb4
036b
00be
fe5f
fe43
ffc2
04b4
fd6f
00c9
06a5
0767
fa64
01bc
fff3
febe
fe8a
ff7b
fcc4
00e6
00c1
fdb9
02ff
fd2f
fec8
fdfc
ff04
02e9
00c7
f58d
017d
fe30
fa05
f9bd
ffa9
fb72
0270
03fc
ff48
fdce
fd14
0648
ff0f
fe48
002d
001f
04f9
f636
ff3f
ff4a
fd18
fd48
fa2c
000e
fc4d
0571
0067
00dc
0116
029c
0411
fdcf
f7f7
f8f5
fd4b
ffcb
fd46
ffb3
fcbf
f9de
fffb
ff3f
fbc3
0e35
0298
fe86
0562
0758
fe2b
004c
0149
fe55
f68f
0139
fc55
0367
003d
ff7f
fea4
f229
0296
fefe
fe36
fc8e
fffa
022e
feb2
00a5
fed0
0114
0373
f735
0219
fd2f
00a2
f235
ff32
ff2d
0283
010b
ff74
f79d
0077
ff78
03ae
031b
ffd4
f212
06bc
fc85
fcc0
fde4
0092
fff5
ffb5
fc02
fc95
fa40
f3ab
01ab
002e
f8cb
fa75
0031
00a5
0879
015c
fdef
fbf8
fe85
fa8e
0290
00f6
015c
04fa
0070
05f0
ffcb
044f
00a7
fa04
04a9
0047
ff55
005f
f7c6
fca9
fe86
01e5
fb53
02a8
0016
016e
fdcd
ff15
fb04
0036
ffc2
0572
0131
037a
01ae
0048
0274
016e
fe33
fa08
ff0c
005f
030e
fac4
0164
07f3
009b
02fe
ffb9
0454
ff15
05a0
0426
015c
fc04
fb1b
fd41
0b1e
ff54
00d9
00a8
fc4a
05d8
fc93
0383
fca4
0084
02d2
ffdf
ff66
ff32
fd79
f969
fc53
fe35
01c3
fee9
01ad
fa84
02c1
fb6f
fc60
ff54
ff82
019a
0038
f771
00ad
0133
0667
01a8
fddc
ff29
04f2
04bf
f7f0
0124
f822
0092
03b6
0063
fba5
faa7
0432
07ab
043a
fd00
0407
ffec
fde2
05fc
ff76
fc4d
ff04
0157
fae7
fe82
00a2
fdd6
04a6
01b7
037e
ffba
021f
fe7e
ffc5
0170
fbab
fede
eefe
f9ee
feb0
01a8
01b5
fe1f
fc38
fe03
fd7a
0080
ffd9
ff8b
004c
feb2
ff82
016b
fef6
fd23
0143
fdb3
fec7
fdb5
016a
fd66
03c7
019f
0172
006c
fc81
fed7
fc53
fe81
01b1
04cd
ffe4
ff24
01de
fc18
fd69
fef6
fcf4
fd44
fdfc
0234
fe1e
0330
024f
ff13
fedf
0056
0222
fd5a
fb46
f889
fb54
009f
08f4
00d1
0117
fe70
fe9d
01dd
fd07
0153
0024
fe2a
00f1
00f6
ffca
ff31
ed83
fe2c
0158
0ae7
0390
003b
ff57
0011
fe0c
fbbb
025f
feed
feb7
fe3c
003e
fe05
0193
fe58
008c
fbf5
004d
f989
000f
0036
0159
f8fb
0381
005a
00bb
0056
002f
fa13
0011
000c
fe97
ff46
fd49
f920
0137
fe7d
ffae
00ce
065f
fe50
ff60
ffd9
0048
fb8c
fc1c
ff99
f9ec
f88f
fac5
ffe1
0116
04ea
008a
fe9b
feca
ff50
fea5
00c7
fdba
034a
f934
009f
0301
02b3
01b1
0153
fd46
00c6
fa54
fec8
fcfc
fe6f
fc85
fe4e
fe6a
fbde
00bc
0006
001e
f9e6
fd0c
fd41
ffef
0682
f82c
fe33
fd55
0d92
0174
02c8
ff1f
fe87
2db2
ff33
0092
fcc1
fd19
0135
01e7
fff5
017c
038d
fec9
017d
07a1
012b
000d
fd76
00be
fbcb
f95c
fb43
003b
003a
fe9a
01f9
ff50
fe18
fe51
fd57
0328
febb
ff91
ffd0
ff2f
fe83
fe31
0125
0052
fc29
fdd2
fdf1
0233
ff58
fd07
0244
fe7f
fff0
ff4c
fca6
01a8
01b0
ffdc
01b2
fd26
0072
ff83
05a0
07ae
ffbd
003a
0350
01ee
fdaa
0093
fbd6
ff15
010f
ff0e
01b3
ff8e
ff68
fe35
ffbf
fced
fdd5
0236
fd82
fdd2
00b0
ff37
ffb2
00ed
0123
0019
0077
0026
00c3
00b2
f800
fad3
00c1
0599
f9aa
fe48
0068
fec8
fe49
ffc7
0153
fef6
fee9
0011
0204
ff41
0053
02e7
fcbd
feb6
fcc4
ffdb
fde5
fe0d
ffdd
0101
ff0a
0074
0225
ffab
fa19
03ea
01a7
0105
fd36
016a
007e
0176
fe21
0525
fe24
fee0
ffbb
fec0
ff1c
ff0c
015f
fec5
ff89
0151
01f8
0070
fc34
021f
fca1
f9ea
016d
0037
fe8c
00e2
03d7
fe72
fc94
00f6
fe87
03c5
f96d
0275
049c
fcb6
fb38
fa72
fc79
0299
ff16
026c
f8f4
017a
f866
0291
02d7
febf
feac
ffc1
00f7
01a2
fe87
fec8
02c9
fc4d
fe82
fb0e
024d
0166
fdb7
00e1
0189
fdde
fb51
fda2
025f
02ec
ff24
fd0a
fae6
ff91
0069
007b
0229
fc9f
ff99
07be
0482
f9a8
fe70
fe22
0287
ff02
ff69
ffcb
005f
fce7
00b2
fee9
030f
fe09
00ee
fff4
0126
ffbb
0131
fe6a
fc4c
fdce
ff32
02c4
0206
00e8
002a
ff71
fe7f
0433
fe38
fffd
014b
01ab
fe88
0219
ff01
011e
fea7
004a
016c
0041
000e
0088
03d7
feb0
fe98
fc20
00d7
01cd
fc57
014a
f5cb
ff73
fe17
0033
ffda
feb0
0167
ff6d
0361
f991
03b9
0136
01aa
fe96
0000
008b
fdbb
01f6
00e0
0102
017c
ffd0
fe6c
0453
0334
00d8
fbea
0487
0226
fdca
0185
ffa5
fe50
004d
fd25
fe35
00ce
01d2
033b
0175
0083
ff83
018e
fec0
0356
00bd
ff5d
fc71
01a6
fee5
ff29
fccb
fdba
fed9
ffd2
fecf
009d
fc3e
009d
0003
01f0
0273
fe05
fd23
ff4e
0231
001f
fb0f
01ff
ffb3
0079
0172
0111
01f6
ffb2
028f
02a5
0095
fd91
fe3f
ffcc
fde8
fd19
006e
01f0
fe54
fef7
03b5
fc9d
fe4e
ffc8
00fb
0250
fe66
ff78
ff58
030a
fd00
0152
fd84
0154
009d
009d
fe4c
02fa
febf
009e
02e1
007e
fe99
fd6f
0188
ffa3
ff38
ff81
0024
fe35
0082
fdf9
fde0
fac5
ffe3
fdcb
0627
0032
026d
0106
fd10
fd8f
ffff
00dc
02b4
f93e
fdcc
00d6
fb7c
0038
0044
02ed
fc8b
0447
0349
033e
0206
fbf0
02f1
fdc8
fb3d
fe89
fd6d
005a
02ae
0450
0177
fea1
02be
ff7b
01b8
054a
01c7
feb1
005a
fef8
f5f7
fd50
028b
ff3f
fab2
053f
02af
fb0a
03c7
003b
ff51
fb83
01e9
ff48
ff78
faa3
009b
ff93
fee1
fe4a
fec4
ff1b
0280
fc2a
fccc
004c
fe38
f73d
0209
019c
0160
0050
fcc3
fb49
fecc
0164
fe80
0379
fce4
fe47
129c
febc
0004
feca
00fd
fcc9
ff9d
024a
0036
fbeb
f1e5
033e
fea3
f517
fab5
ffb2
0344
0428
ff81
ff63
fde3
fc9b
fb4b
ff4a
0125
fdee
01d8
0160
04a1
02d7
06b1
fd8a
f7cc
fe20
0406
fc4b
ff3b
f91f
0300
ff45
0089
ffbc
00fe
0075
ff42
ff31
ffbf
fd80
fa80
0318
04d4
ff3a
00c8
029c
fe88
0488
0709
fec7
fa36
0242
ffca
00c8
fbff
03ce
0376
001d
fa89
0359
0168
0194
04b0
02c0
00c0
fff7
fde0
fb0d
03c4
0182
ff35
fcc4
0163
0286
0245
0028
fcdc
fd52
01ac
fc57
fcbf
0035
ff2b
fe96
fe03
ff22
0000
00ee
fef0
01c1
0025
0011
0056
01e0
fcc5
013e
ff27
fb94
fd75
0219
0312
02b0
fd33
00fb
02e7
0187
0173
fe53
fe85
fedc
03ae
fff1
ffb1
ffbe
fae2
037b
0249
031e
00f1
ff29
0072
010e
007f
ff74
ff5a
fc96
fb5a
ff7a
019c
03b8
fe02
fe60
006d
fe19
ff9b
ff10
fc39
ff06
007e
fdb9
f913
ffc1
0112
0159
fd7b
022c
fb67
ff5f
0024
0031
fcbc
019e
ff32
03a9
fe41
fc45
ffb9
ffe1
ffae
0043
fd41
fdf8
0193
0022
00cb
0272
ffaa
f9b3
fe93
ffba
0194
f8ad
fecd
033a
0217
ff1e
00f0
fd97
ff5f
02ac
fde4
fe8c
00a8
0146
fc5b
012e
ffb2
024b
00ac
fea5
006c
0021
ff9f
fd8c
ffec
020f
ffae
ff34
00b6
fe25
fe18
00a8
ff21
f443
fe12
fe56
fe2d
fcb0
ff0f
fd61
0167
fee0
049d
0cc9
05d5
fbfe
0191
0253
0190
01ec
ff08
ffd7
005c
fe85
ff1b
f8c3
0200
fcf2
01aa
f896
0104
feaa
fdcd
0177
03df
fec4
021f
00b0
0044
00fc
ff93
fd4f
010c
ffca
fdcf
ff6e
fe5b
0080
0757
fc85
0403
0015
ff08
f9b7
fd82
0354
fdba
fabe
f571
03ff
fb71
f673
f8a6
003b
fe5a
0133
fe5a
ffe4
021b
ff12
fd6d
ffcd
fe9f
ffcc
fe70
0066
0096
016b
02e4
fdca
f912
fed0
013e
ffed
fe24
fef7
fed7
ff25
021c
fe6c
ffdf
ff8b
0084
fbfe
fe14
ff72
f9cc
0a2e
ff58
fdb9
fa89
0aaf
ff94
0026
0447
fdb0
fc97
feb3
011a
fcd9
fb0d
0192
fe6f
0100
f86c
00a0
ff8b
017d
050e
0271
0169
0137
033c
fced
fac4
fc5c
ffe6
ff48
0258
fcfe
fdd1
ff9a
fff8
fc9c
00f3
fd88
fc78
004d
fce3
0392
fe89
0086
ffcc
ffa4
fd20
04fa
008f
ff90
fdbc
0015
fbac
ff45
00ed
00dd
0086
01e5
fdeb
ff1a
ff12
fe12
0137
008a
fce1
fe67
0142
ff87
0131
feea
057f
ff96
015a
011e
fd74
01b1
01bf
ff6a
000d
fb21
fbd9
feb9
034c
fafb
fb77
0062
ffbf
0211
fe3f
fe40
0138
0068
fe4d
ff2f
032f
f747
037f
008e
02ae
fd68
ff49
01cb
fcbb
01ad
fd0f
fe70
fe18
fee5
fd2b
01d3
fdcd
0309
0260
fe1f
fdf2
fe19
0115
0298
f8cf
005b
fbb6
0142
ffb8
fd37
003d
f633
0891
02bb
0b94
00f8
fe8f
ffb1
fee4
ffbd
007f
098e
0233
03e6
0086
f92b
faf1
0108
008a
ed8d
ff0a
ff6e
fcc2
02d7
ff8e
fd96
ffc6
ffb9
02fb
ff6f
00d4
0076
02ce
f1cf
f519
fec8
09c3
ffc8
ff50
fcb2
ff07
01d4
01fe
fc5d
0486
01fc
069e
0408
02e5
08d8
0564
012c
f829
001d
ff0a
fd66
0049
ffe1
017f
fa93
ff48
fde8
fe01
02de
00e8
04e7
fed1
00dd
f1bd
013f
fc0a
fd06
ff55
ffa0
febf
06f8
fcfa
0443
0087
fa90
00a1
00b7
fded
00c5
fdb8
02b6
fce1
fef4
03b4
ffab
ff2c
f946
fec4
fe81
fec2
fd32
fede
fffc
ff7e
f486
0135
fa43
fd9b
0126
fea6
fe10
ffef
0001
01ce
021b
008d
f9fa
03cc
ff5a
ffcd
fa94
00a9
0121
ffac
016d
020d
ffc2
0099
fc94
00bd
ffb3
ff95
0015
0062
0076
fff2
0662
fee1
ffab
fff7
fe62
fecc
fe28
003b
fee0
fe14
0102
fde5
fec2
0139
ffe6
fe91
0162
fdaa
fd94
00b9
02e7
fe35
fe69
006d
03f6
fc52
ff65
fd44
fe4d
fd80
009c
fe6a
f8dd
ff50
01aa
fe25
0344
0299
00ae
fe6f
fd1e
01c1
0016
0012
ff3e
0241
fed6
fe3d
0034
003f
ffa4
fff9
ff7d
feb2
0002
fefd
0c5f
fcd0
01da
0086
fdf0
ff5f
0059
fe43
f62d
016b
00c6
fc58
038f
fd3b
00ef
ff34
0d87
f96c
02d4
02ef
01fc
ff60
ffa5
ff7c
f556
01be
feb4
ff59
02a2
00c6
ff01
01d9
024a
0083
f5c0
001f
ff19
007e
0004
ff83
f8fc
0346
01ff
031b
0390
01a9
ffd3
0037
fdc0
ff61
f63b
feec
0085
011b
fca7
fd51
0249
00bb
00d4
fea0
fe0e
0038
0456
fe0f
0003
ffe4
0030
0358
fe6f
0323
f180
0126
0062
0571
fe2b
ffda
ff1c
068c
ff0a
0105
fdd1
03c1
019f
06fa
0610
fd6c
ffd1
ffcc
fc2d
001b
00cc
f931
fe1b
fd3f
fef8
ffb1
0577
fdb6
01e3
00c0
fca3
03ef
ef19
fa32
01f7
0650
ffd9
0272
00a9
fdb6
01ff
017f
fb83
fc10
01a4
fcc1
fe9e
05ec
09fc
faf1
ffc6
0055
febc
00e4
0022
048a
ffad
fede
038d
fd17
0366
fe8a
02b2
fcb0
0c55
fbb9
033d
f029
002b
00fe
fd23
fe3d
ff43
01cd
0326
fe7d
04d0
0135
fd4d
fed9
0252
0099
00a7
0757
ff0c
00b0
fe4a
0806
fecb
ffa8
0064
00e3
fb1a
ff6b
0082
fe5b
ff2f
005c
fc8b
ffd9
fa32
f8d1
fb40
feaa
0028
fee8
0268
f8ea
0487
0232
0b4e
00b1
ff5e
0087
fe84
0009
0207
fc6d
fe76
02a3
ff4c
0125
fcdf
0115
01bd
0027
01d0
fead
ffcf
0134
04f2
0315
01e6
0159
fe5b
0490
ff6d
fe71
ff5c
ff4e
fede
fed2
fed9
0019
00ea
fef1
0474
fcac
01dc
01a9
08b8
ff5a
feb1
fe4c
0271
faae
fe6e
0407
fda1
fab8
ff73
fee3
f716
0143
fdb8
fc00
fc08
0000
0055
fba9
feea
ffcf
fff8
00b0
feda
0282
fdb2
0180
04bb
0085
ffd1
0180
010a
fc36
002d
004f
0410
fffd
fdcc
05b2
0231
fe0e
00b4
0016
faad
02e7
0274
fbf7
f4f0
0042
00f9
fef9
08aa
0233
0307
07a3
efa2
0214
ffb8
febb
004a
00e8
022d
fbd3
00f2
ffe1
fdfe
0155
fc3d
031b
f445
0055
fd57
fe21
ffac
ff39
fc32
fa13
0100
0072
f96c
032f
ff9f
ff1b
ff15
017a
f477
00f3
02cf
fec8
f884
fe5c
01b7
f88d
0093
ff29
013e
ffac
02fe
fc7f
00a5
00a9
ff69
0000
00b7
0221
f0d5
fde2
ff40
fb19
0036
ffd1
ffc9
03d5
feb9
ffee
fb18
ffdc
01b7
04b9
fdf3
0180
0131
00ad
05a3
fe6e
01a9
fa0b
fef8
fdcd
ffe3
feca
fdbf
fe8c
ff53
04a7
0287
00cd
eca6
f959
ffe7
fb3f
fef4
016f
fea5
ffc8
041d
0337
03a9
0064
ff77
fea3
0199
fe54
088a
f932
0027
0425
00eb
007c
0109
0108
00b8
ff09
0484
041f
ffff
00b4
fb3c
fe2f
15b7
ffaa
fde8
07e6
fde3
0400
01ed
01b6
00aa
00af
fb48
013f
00d9
0428
fe3a
fedf
fde4
01d0
fc25
fd6f
004e
fef8
fe6e
0b1e
fe3f
0142
fe50
fd6c
fbf3
004a
ffb9
014a
0076
ff09
05ab
00f7
fb40
fc23
ff30
fe96
0098
00b9
00f3
fff9
059e
00b6
fd9e
00eb
fffd
00ad
020d
fcfe
0201
fd1e
ff78
0787
febf
012c
0190
ff4d
ff01
ffcd
fef2
002b
fde9
ffd8
fb02
fd50
02a0
fdd0
02f4
01ea
00b7
0132
ffa0
0080
ffe0
ff83
fef0
001b
0160
fecd
fc7c
01cd
0418
0048
f0c2
01aa
046f
ffd3
fb56
01b8
01fd
01f8
fddc
fb53
ff88
febc
04d3
ff25
0040
ffc8
01cf
0254
ffe4
f9ba
0246
ffb4
011e
0143
0118
0187
fede
fff9
fe22
00f8
fdbd
0287
ff9e
fe35
005a
0116
f76b
ff37
fec2
0339
0125
fe90
fece
ff7a
0525
fdb1
01bd
fe61
010c
0043
0048
007e
f927
03a8
0332
053a
041c
0535
ffe7
0082
063c
01f4
00c4
fec7
01cd
000a
ff91
ff7c
fe8d
ff20
f65c
fcfb
fd72
fda4
0046
0199
0a61
0091
fe04
0614
fdb6
0048
fec6
0030
fdbe
ff3d
f80f
fca4
fd42
035b
fdd3
fbb2
fdd4
fec2
005e
ff12
00ba
0133
00d1
00b9
fe66
fdbf
ff42
0113
fe94
fe07
fcbc
0f3d
02c5
087f
00ee
0146
0114
0166
feff
fffa
0569
03d8
ff75
0369
fc87
ffe6
fec9
00ec
f914
feaa
073e
fb25
0193
fe65
00ba
fe45
03b1
0137
ff88
01b9
fecb
021d
fd03
f45e
02d6
0a3a
ff7d
0072
fe14
fec3
ffad
ff3f
f9b6
016e
03a2
0111
04ee
01f6
0016
11e7
018a
fc48
ff8d
006b
0044
00c3
007c
ffc9
f9d1
00c9
ff95
0127
05af
003b
fd31
fbc1
0354
ee0f
ff97
ff59
fe62
fdd4
ffbe
0015
03bd
fed5
0216
0371
fe22
ff5f
ff84
fc75
01c6
0296
0163
0051
ffdc
035a
ff5c
fe04
fa2c
fbfa
fbf6
fe7b
ff05
fe75
002d
0079
fae0
009a
0036
fce6
fd68
ff28
fffd
001d
0062
feeb
02f9
012d
0355
025e
0005
025a
f72a
ff6e
ff15
fe84
0188
fd70
00d9
0195
fae7
004a
0168
00c0
0393
ffe1
fe02
0056
03fc
001a
fce5
012d
fa88
00c5
ffc0
ff0f
0202
fdae
ff36
fcc6
0128
00d7
003d
ffe7
026a
fc30
02ab
0341
0b99
ff31
fba5
fe52
062e
f924
ff18
019e
017d
fbe2
ff50
fe46
fa72
0027
0258
fef1
fc90
00e5
000f
07be
fd69
00f8
00f5
008e
ffd9
00ba
ff13
fee6
020f
ffe2
03d0
0171
00b5
feac
ffa2
fe5a
0b27
fd11
faf5
01e9
0123
0024
004c
ff3a
f589
01cd
04e9
fcff
fad7
fdb5
ff81
ff66
096f
fe34
fd27
0513
fb21
007f
0055
008a
fb8f
026b
ffae
fe7d
ffb8
00e3
ff81
00dc
fec4
fd60
f3df
01dc
00ce
026c
00f2
ff59
f89a
0217
02c2
ff19
0470
010e
0210
feab
0256
feb9
f586
0017
fe1c
ffe9
fc96
ffd1
006d
ff1f
009e
011c
ff23
fe92
0025
037f
fe6c
fc12
00bc
01ec
0017
ff11
fe82
fc92
fc30
fba7
fe6e
009e
006f
07b4
ff3a
01c9
fd18
0408
038d
048a
076e
00f3
009a
006b
0080
fdf6
ffd6
f786
f73f
fc1e
0128
ffa4
04df
fda8
0104
0274
02b7
002b
ff25
ff48
fd7c
fd99
fe8d
03bb
02e6
fe5e
00fa
0054
0724
fb32
0311
fb57
fbc1
043c
fe2a
fe2f
fe90
006e
fe57
00f8
0131
0425
fcff
fea6
00ad
ffd4
fee7
012c
fa4d
fe35
0517
ff95
00a3
017d
fe9a
046c
022d
fcb3
ffdc
0123
ffa2
0028
0274
056a
fddd
fed1
fe08
ffb5
fab1
0172
ffe4
0058
0141
07b7
fdd8
feb8
fe00
fdfd
fad5
fc85
fd19
fdb4
00bd
003d
ff80
ff7d
fbcc
fabd
fbd2
feae
010b
fd20
03a1
f84c
0545
011b
0620
fe8a
00b8
0076
ffaf
0067
02e8
f963
f76f
fec7
00cc
ffbb
ffec
feb8
045d
01bf
fcaa
fe68
ff83
ff9c
ff29
ffa2
0715
00ca
ff29
0361
ff45
fefd
fd3e
01cc
fc0e
ff4b
04f8
ffde
00cb
fed6
0056
fc8c
027d
024c
0195
ffa1
03b4
fe69
ff12
028f
007c
0424
fa90
f757
fe22
fe95
fc6a
ffb1
fef1
fc1f
f60f
012a
ff41
01de
01db
fd7e
00b4
000b
fe46
001d
00c9
ff8b
0149
03db
fec2
0218
fd4a
fd53
00ea
004f
ff21
ff5a
faf3
05bd
04be
febc
01e1
fe2a
019e
025d
02a5
fa3a
fe81
ff3c
fff2
fe37
ff49
02ae
00cf
0868
fdb0
ffed
00b6
0063
03c7
00a0
ff78
f923
fd3f
ff52
ffed
fff9
fe0a
fdfe
f167
0142
fd2e
fe86
00b4
feb8
0420
f88a
00fc
fdac
f710
0117
007a
0023
fef9
0303
f390
0180
02fc
0011
00f8
00b5
ff18
f7a5
00a4
0068
015f
fe4d
fe69
fad6
02e0
031e
0027
ffa1
032e
fec2
ffb1
ef95
ff48
f457
ffbb
ffaa
0066
03e5
ffcf
0015
fdcc
fd98
00b7
fe95
faba
01f1
01fb
feae
0351
009b
fdbd
fae8
fde6
fdc8
0143
003c
f944
fbac
0098
0518
0198
fe69
fe2a
08be
ffd4
f2d2
fe8e
ff7e
fe4f
ff80
00f9
0008
0070
03c1
010a
0184
0734
fe35
fda0
ed5c
002d
0239
013e
fe3c
0092
0090
fc06
008b
02cb
0381
00db
0463
fd16
002a
01fe
029b
ff10
0ee9
0177
010f
006f
fecf
00a4
01c0
fb04
006f
01b4
0431
fe26
fcbf
fe52
0282
ff1e
f889
01a7
0136
ff89
07eb
ffe5
0121
fea8
fc06
fd91
fd9d
fb6b
0263
00d2
fed7
03ae
00e6
f882
fd84
0002
00ec
02da
ffb2
ffde
ffae
0530
01d0
f543
ffa7
fef0
0066
054f
0015
0153
fe66
019e
025c
0084
00a0
00cc
ffb7
0051
00c4
007d
fe64
fe99
ffe6
0172
ff0a
0321
0191
0212
fe92
feed
ff43
fe9d
fe64
0078
fef8
fdc0
0083
009c
0115
fe67
0006
01ba
ff12
f320
016b
fdf3
ff19
fd32
032b
03c1
010a
0317
fa9c
fd9a
fef3
02df
ff9c
fe55
ffc2
07da
0335
fe18
f985
0272
fdf4
0178
0136
0186
ff02
ff2e
fe0d
fe24
00bd
fbb7
0178
fdba
00b3
014c
ff02
fb50
0054
ffa4
00ce
ff70
fe0c
fffb
009b
0292
ffc9
00e0
fcf2
03c6
ffec
ff68
ff0a
fc06
0045
06bc
0538
0bfc
0205
ff60
003c
046e
0123
ffa8
ff38
013c
00a5
ff30
0004
005e
fe7c
f42e
fd3e
01bc
fdeb
00aa
ff60
01ae
02aa
fd30
02a7
0414
feb3
010d
0131
ff68
ff6e
f8b2
fe55
ff7d
0077
05a0
0150
fe16
02df
fee5
ff4e
ff71
fec5
fb0b
00e0
fcb3
ffd4
023e
ff1d
0067
fe54
0688
1350
fefe
0292
01d1
01c8
00cd
fdea
0071
ff6e
fc60
032b
ffe0
022e
0116
023c
fedf
0158
00b3
fee2
02e7
fd51
feac
fcaf
012c
fc7c
024c
fed5
fcbd
01d5
fc6e
ff30
05e5
f035
0085
02e7
017c
0179
0102
ffa4
ff79
003c
0224
02d9
010b
ff0c
0080
fe0f
fadd
1880
fdb7
ff7e
ffbc
0212
ffca
fd3c
ff5a
ff19
ff4a
00e3
0102
0173
0328
ffa6
fa80
feac
ffe7
f9f8
008a
01fc
0030
ff87
feb8
ffeb
fb9e
009c
fac2
01a4
ff96
ffa9
fde5
fc2d
fd64
ffc8
0493
0033
fe94
02d7
0064
fe8b
fd1f
fcc4
fee4
fe6a
fd57
ff77
011d
ff15
0225
00e5
00a6
fed3
fece
ff8d
ff3b
ff56
006e
0147
02f0
0129
0468
0157
011f
ff47
028c
00d9
0214
ff7b
fef3
fe15
00e7
0035
ffc9
ffdc
ff88
fed4
0046
0153
0022
febe
0019
fe65
013a
0223
fa36
0154
006c
0014
0133
ffed
fe18
0002
fd7f
000f
0126
ffc5
012f
ff1d
01c5
0278
0d20
fd94
0285
01a7
fd81
fca3
004c
01d3
0047
fc87
00fe
fc93
ffe6
fe7e
0189
fbaa
f9dc
018c
feed
0c47
fe72
febb
01ee
ff21
0004
ff43
003c
fe98
0431
ff67
fc5a
021a
ffcc
fe2e
0106
ffd6
02bb
ffa2
f637
036a
024c
00ff
fea5
ffd7
012e
00d9
04e8
fe3d
fb9d
fdf1
008b
ffb1
fded
00a0
fd9c
030f
f961
010a
fe59
fe90
0415
0025
0279
ff07
ff75
fef9
00c7
fd6d
007d
feab
f77f
012d
fe28
0171
000d
fee7
ffd5
ff12
0196
ff06
fcd5
febb
ffcd
000f
00ab
0182
f8bf
018b
041d
0474
fe2a
01e9
fe28
fd22
fe53
ff16
006b
ff26
fa8f
0400
000d
fdb1
0005
feb4
ff18
fdc9
10fe
fbac
fd7c
f8d3
00af
ff0e
fcc9
00d8
0052
0121
fd3c
0097
00cc
020f
fed2
01a8
fef8
011b
0402
ff9e
049a
fcae
fe25
fdef
00b1
00ef
fa96
fd3e
ff5e
00e1
049b
fd87
12b9
02e0
fd78
f77a
0043
ffa2
0144
ff9b
fd0a
ffeb
0530
0093
fded
ff21
0123
fec2
f678
0370
fcd2
0080
feb6
008f
ff37
fde1
fea4
ffad
ffe3
ff0b
fc9d
00e8
fa25
fff0
f293
00a4
fcf9
0687
ff69
0150
012c
fdd0
ffd9
00d3
f7ea
ff36
ffa8
ff6c
fd58
fefb
ff53
ffd5
fb9f
fe78
0354
fe7b
fd84
045e
ffea
fd13
feae
fe91
fdaa
fd6f
fc6e
ff1d
ff79
0092
0485
00af
fd7f
ff40
ffc4
ffcc
00b2
fde0
0078
fd39
0433
0226
f572
fe71
0049
ff4a
033f
0157
fd75
fcf5
fef5
fda6
ffd7
feed
0167
fef3
ff93
fe27
fc00
0103
004d
0083
fa0b
00df
0254
03aa
041c
0128
ffa6
00e9
fced
0078
0089
fe49
014b
fe4b
0295
007c
febf
fcd0
ff70
0091
f5f7
fd65
0265
fe0b
fc19
ff44
00aa
00a3
fc1f
f9ea
0038
ff02
048f
fe11
02d5
f96d
0067
03b0
fe94
05a7
019a
fcb8
0135
ff93
0051
fdf9
ffa9
fef0
fda1
021a
fe7e
037e
fd01
ffdf
ff99
00cc
f5f1
ff36
fb62
028d
fe0d
ff41
fe59
ff21
0433
01d5
0260
fe90
0660
febe
fdef
fe5b
f96b
0250
03b5
046d
085b
0111
ffbe
000e
05a0
026d
009b
fd21
026a
feef
0111
ff95
01e9
fe7c
f227
0136
00da
00c8
fe79
fe86
0617
fcbd
ff64
fbce
ffb3
fe32
ffdf
0082
fd9f
ff9e
f5ef
02cf
fdc0
04ca
0135
030f
fc10
fb90
ffe6
ff56
fe36
007a
f7bc
0192
021a
04eb
000f
ff2e
016e
fdd8
1596
ebe9
ff1e
f91a
fe82
004e
ffbd
fd9b
001c
ff35
fdb5
fe24
0118
ff37
fd77
00fc
008a
01e6
017e
02ac
00fc
fea3
0286
fee5
0102
ff4c
ffd5
fe14
024a
ff37
fc6d
fe7e
1b8f
1f93
ff36
f6ac
fed0
fe6d
fe09
001c
fce8
ffe3
fc0c
0537
0428
062b
04dc
fb87
f58c
e743
ff4c
04d4
ff26
ff36
fed6
fbcd
fecb
ffb1
fdd0
ff34
01fe
fe2c
ffa1
0159
ea19
0186
009b
0965
fe85
fcfa
fe80
fece
ffd4
0089
fea2
ff95
037c
0041
fb2e
fe03
0258
0414
ffc2
feb2
fda6
fc73
ff0b
053d
ffa5
0078
ffce
fe5a
fae5
fe5a
fc7a
0230
00cd
ffd2
012d
fffe
fb03
0045
02c0
0104
006e
00f9
fdda
0022
01a3
00d9
02f9
fe87
0088
0154
ff35
00a8
0123
0135
029c
006f
00e5
ffc6
002c
0055
0192
fea1
01d9
ffa3
00c8
ff83
007a
0055
0687
0445
fd9e
fc09
ff3a
feaf
ffbd
ff9c
fd77
fde4
fe29
008d
025f
0026
fede
0027
feed
ff0c
fffe
fd07
0079
fc1e
ff9a
fff0
01e7
fcc1
0192
f912
008f
ffc1
0029
0016
00e6
fba7
055e
0478
fd56
fa39
01ba
0009
01f6
012f
009f
fd04
fd9f
0056
00c8
009d
fe6c
01b1
fcf9
01e8
ff0a
007a
fe06
ff5a
0079
ffed
fcf2
fee8
006e
fed1
ff44
ffc4
ffa9
0078
fffd
0095
0099
0022
fef1
feb2
06da
01dc
ff15
0086
ff5c
ffc1
0181
00cf
ff82
ff46
017d
ff4d
ffbe
ffbd
0151
ff31
f5b7
fe91
ff79
fed1
feb2
fed7
0058
0279
ffcc
ff11
02af
fe61
ffaf
fe94
ff6d
ffc6
fa4a
fee4
ff30
01e3
0084
01a2
fe26
038c
0095
fd5c
fffb
ff71
